{
    "<pad>": 0,
    "<s>": 1,
    "</s>": 2,
    "<unk>": 3,
    "!": 4,
    "\"": 5,
    "#": 6,
    "$": 7,
    "%": 8,
    "&": 9,
    "'": 10,
    "(": 11,
    ")": 12,
    "*": 13,
    "+": 14,
    ",": 15,
    "-": 16,
    ".": 17,
    "/": 18,
    "0": 19,
    "1": 20,
    "2": 21,
    "3": 22,
    "4": 23,
    "5": 24,
    "6": 25,
    "7": 26,
    "8": 27,
    "9": 28,
    ":": 29,
    ";": 30,
    "<": 31,
    "=": 32,
    ">": 33,
    "?": 34,
    "@": 35,
    "A": 36,
    "B": 37,
    "C": 38,
    "D": 39,
    "E": 40,
    "F": 41,
    "G": 42,
    "H": 43,
    "I": 44,
    "J": 45,
    "K": 46,
    "L": 47,
    "M": 48,
    "N": 49,
    "O": 50,
    "P": 51,
    "Q": 52,
    "R": 53,
    "S": 54,
    "T": 55,
    "U": 56,
    "V": 57,
    "W": 58,
    "X": 59,
    "Y": 60,
    "Z": 61,
    "[": 62,
    "\\": 63,
    "]": 64,
    "^": 65,
    "_": 66,
    "`": 67,
    "a": 68,
    "b": 69,
    "c": 70,
    "d": 71,
    "e": 72,
    "f": 73,
    "g": 74,
    "h": 75,
    "i": 76,
    "j": 77,
    "k": 78,
    "l": 79,
    "m": 80,
    "n": 81,
    "o": 82,
    "p": 83,
    "q": 84,
    "r": 85,
    "s": 86,
    "t": 87,
    "u": 88,
    "v": 89,
    "w": 90,
    "x": 91,
    "y": 92,
    "z": 93,
    "{": 94,
    "|": 95,
    "}": 96,
    "~": 97,
    "¡": 98,
    "¢": 99,
    "£": 100,
    "¤": 101,
    "¥": 102,
    "¦": 103,
    "§": 104,
    "¨": 105,
    "©": 106,
    "ª": 107,
    "«": 108,
    "¬": 109,
    "®": 110,
    "¯": 111,
    "°": 112,
    "±": 113,
    "²": 114,
    "³": 115,
    "´": 116,
    "µ": 117,
    "¶": 118,
    "·": 119,
    "¸": 120,
    "¹": 121,
    "º": 122,
    "»": 123,
    "¼": 124,
    "½": 125,
    "¾": 126,
    "¿": 127,
    "Â": 128,
    "Ã": 129,
    "Ä": 130,
    "Å": 131,
    "Æ": 132,
    "Ç": 133,
    "È": 134,
    "É": 135,
    "Ê": 136,
    "Ë": 137,
    "Ì": 138,
    "Í": 139,
    "Î": 140,
    "Ï": 141,
    "Ð": 142,
    "Ñ": 143,
    "Ò": 144,
    "Ó": 145,
    "Ô": 146,
    "Õ": 147,
    "Ö": 148,
    "×": 149,
    "Ø": 150,
    "Ù": 151,
    "Ú": 152,
    "Û": 153,
    "Ü": 154,
    "Ý": 155,
    "Þ": 156,
    "à": 157,
    "á": 158,
    "â": 159,
    "ã": 160,
    "ä": 161,
    "å": 162,
    "æ": 163,
    "ç": 164,
    "è": 165,
    "é": 166,
    "ê": 167,
    "ë": 168,
    "ì": 169,
    "í": 170,
    "î": 171,
    "ï": 172,
    "ð": 173,
    "ĉ": 174,
    "Č": 175,
    "Ġ": 176,
    "ġ": 177,
    "Ģ": 178,
    "ģ": 179,
    "Ĥ": 180,
    "ĥ": 181,
    "Ħ": 182,
    "ħ": 183,
    "Ĩ": 184,
    "ĩ": 185,
    "Ī": 186,
    "ī": 187,
    "Ĭ": 188,
    "ĭ": 189,
    "Į": 190,
    "į": 191,
    "İ": 192,
    "ı": 193,
    "Ĳ": 194,
    "ĳ": 195,
    "Ĵ": 196,
    "ĵ": 197,
    "Ķ": 198,
    "ķ": 199,
    "ĸ": 200,
    "Ĺ": 201,
    "ĺ": 202,
    "Ļ": 203,
    "ļ": 204,
    "Ľ": 205,
    "ľ": 206,
    "Ŀ": 207,
    "ŀ": 208,
    "Ł": 209,
    "ł": 210,
    "Ń": 211,
    "##u": 212,
    "##n": 213,
    "##i": 214,
    "##h": 215,
    "##a": 216,
    "##b": 217,
    "##t": 218,
    "##e": 219,
    "##d": 220,
    "##f": 221,
    "##s": 222,
    "##l": 223,
    "##Į": 224,
    "##w": 225,
    "##y": 226,
    "##o": 227,
    "##r": 228,
    "##T": 229,
    "##c": 230,
    "##m": 231,
    "##E": 232,
    "##p": 233,
    "##D": 234,
    "##U": 235,
    "##S": 236,
    "##Y": 237,
    "##K": 238,
    "##Ã": 239,
    "##¶": 240,
    "##g": 241,
    "##¤": 242,
    "##z": 243,
    "##v": 244,
    "##Q": 245,
    "##j": 246,
    "##B": 247,
    "##q": 248,
    "##N": 249,
    "##G": 250,
    "##O": 251,
    "##V": 252,
    "##W": 253,
    "##k": 254,
    "##x": 255,
    "##M": 256,
    "##A": 257,
    "##H": 258,
    "##I": 259,
    "##L": 260,
    "##Z": 261,
    "##P": 262,
    "##R": 263,
    "##C": 264,
    "##X": 265,
    "##á": 266,
    "##¹": 267,
    "##ĩ": 268,
    "##¸": 269,
    "##į": 270,
    "##Å": 271,
    "##¡": 272,
    "##F": 273,
    "##¥": 274,
    "##³": 275,
    "##ĳ": 276,
    "##ì": 277,
    "##°": 278,
    "##í": 279,
    "##Ĳ": 280,
    "##«": 281,
    "##Ä": 282,
    "##1": 283,
    "##8": 284,
    "##7": 285,
    "##3": 286,
    "##4": 287,
    "##9": 288,
    "##0": 289,
    "##ĥ": 290,
    "##Ń": 291,
    "##º": 292,
    "##ı": 293,
    "##ï": 294,
    "##©": 295,
    "##¨": 296,
    "##-": 297,
    "##&": 298,
    "##£": 299,
    "##5": 300,
    "##¼": 301,
    "##J": 302,
    "##´": 303,
    "##é": 304,
    "##ħ": 305,
    "##±": 306,
    "##è": 307,
    "##ī": 308,
    "##6": 309,
    "##2": 310,
    "##\"": 311,
    "##}": 312,
    "##.": 313,
    "##Ľ": 314,
    "##ŀ": 315,
    "##»": 316,
    "##¢": 317,
    "##å": 318,
    "##¯": 319,
    "##¿": 320,
    "##à": 321,
    "##µ": 322,
    "##+": 323,
    "##æ": 324,
    "##ĸ": 325,
    "##Ĭ": 326,
    "##®": 327,
    "##Ģ": 328,
    "##Ħ": 329,
    "##ķ": 330,
    "##Ķ": 331,
    "##ë": 332,
    "##Î": 333,
    "##§": 334,
    "##½": 335,
    "##Ï": 336,
    "##ģ": 337,
    "##Ĥ": 338,
    "##Ŀ": 339,
    "##ê": 340,
    "##ĭ": 341,
    "##Ð": 342,
    "##Ñ": 343,
    "##²": 344,
    "##'": 345,
    "##ľ": 346,
    "##ª": 347,
    "##Ļ": 348,
    "###": 349,
    "##)": 350,
    "##ç": 351,
    "##¾": 352,
    "##İ": 353,
    "##ä": 354,
    "##ļ": 355,
    "##>": 356,
    "##<": 357,
    "##/": 358,
    "##Ł": 359,
    "##Â": 360,
    "##Ī": 361,
    "##·": 362,
    "##ĵ": 363,
    "##¦": 364,
    "##É": 365,
    "##Ë": 366,
    "##Ê": 367,
    "##_": 368,
    "##ã": 369,
    "##*": 370,
    "##\\": 371,
    "##ł": 372,
    "##Ĩ": 373,
    "##È": 374,
    "##(": 375,
    "##Ĵ": 376,
    "##%": 377,
    "##?": 378,
    "##[": 379,
    "##Ç": 380,
    "##:": 381,
    "##;": 382,
    "##Ĺ": 383,
    "##¬": 384,
    "##]": 385,
    "##,": 386,
    "##|": 387,
    "##×": 388,
    "##â": 389,
    "##ĺ": 390,
    "##^": 391,
    "##=": 392,
    "##Ø": 393,
    "##Ù": 394,
    "##!": 395,
    "##Ú": 396,
    "##Õ": 397,
    "##Ö": 398,
    "##@": 399,
    "##$": 400,
    "##Ġ": 401,
    "##Û": 402,
    "##Æ": 403,
    "##~": 404,
    "##Ó": 405,
    "##Ò": 406,
    "##`": 407,
    "##Ü": 408,
    "##{": 409,
    "##Ô": 410,
    "##ġ": 411,
    "##Þ": 412,
    "##Í": 413,
    "##Ì": 414,
    "##ð": 415,
    "##Ý": 416,
    "Ġt": 417,
    "##he": 418,
    "Ġa": 419,
    "##in": 420,
    "Ġthe": 421,
    "##re": 422,
    "Ġw": 423,
    "##ou": 424,
    "Ġs": 425,
    "##on": 426,
    "##er": 427,
    "##at": 428,
    "##nd": 429,
    "##is": 430,
    "##it": 431,
    "Ġb": 432,
    "Ġo": 433,
    "Ġc": 434,
    "Ġm": 435,
    "##an": 436,
    "Ġf": 437,
    "##ing": 438,
    "##or": 439,
    "Ġh": 440,
    "##ed": 441,
    "##ll": 442,
    "Ġd": 443,
    "##en": 444,
    "Ġto": 445,
    "##es": 446,
    "Ġth": 447,
    "##ar": 448,
    "Ġp": 449,
    "Ġy": 450,
    "Ġof": 451,
    "##as": 452,
    "Ġin": 453,
    "Ġyou": 454,
    "Ġand": 455,
    "Ġl": 456,
    "Ġg": 457,
    "##om": 458,
    "Ġn": 459,
    "ĠI": 460,
    "##ic": 461,
    "##ow": 462,
    "##ve": 463,
    "##al": 464,
    "##ot": 465,
    "##et": 466,
    "Ġhe": 467,
    "##le": 468,
    "##us": 469,
    "'s": 470,
    "##ay": 471,
    "Ġit": 472,
    "Ġbe": 473,
    "Ġis": 474,
    "Ġthat": 475,
    "Ġon": 476,
    "##ion": 477,
    "##id": 478,
    "Ġe": 479,
    "##ad": 480,
    "##gh": 481,
    "##ld": 482,
    "##ut": 483,
    "Ġre": 484,
    "##ent": 485,
    "Ġwas": 486,
    "##im": 487,
    "##ac": 488,
    "Ġwe": 489,
    "##ver": 490,
    "##am": 491,
    "Ġwh": 492,
    "Ġfor": 493,
    "ĠS": 494,
    "##ly": 495,
    "##ri": 496,
    "##ro": 497,
    "ĠT": 498,
    "##st": 499,
    "##ir": 500,
    "Ġ.": 501,
    "##ke": 502,
    "Ġst": 503,
    "Ġha": 504,
    "##se": 505,
    "'t": 506,
    "##oo": 507,
    "##ght": 508,
    "ĠA": 509,
    "##out": 510,
    "ĠC": 511,
    "##ith": 512,
    "Ġme": 513,
    "##all": 514,
    "ĠM": 515,
    "Ġk": 516,
    "Ġu": 517,
    "Ġan": 518,
    "Ġwith": 519,
    "##ur": 520,
    "##ec": 521,
    "Ġdo": 522,
    "Ġas": 523,
    "##her": 524,
    "##ill": 525,
    "##ch": 526,
    "##ter": 527,
    "##if": 528,
    "ĠH": 529,
    "##ome": 530,
    "Ġ1": 531,
    "##ce": 532,
    "ĠB": 533,
    "The": 534,
    "##hat": 535,
    "Ġare": 536,
    "##il": 537,
    "Ġhave": 538,
    "Ġnot": 539,
    "Ġat": 540,
    "Ġthis": 541,
    "##ould": 542,
    "##ust": 543,
    "Ġse": 544,
    "##ant": 545,
    "##ra": 546,
    "Ġgo": 547,
    "Ġli": 548,
    "##ation": 549,
    "Ġkn": 550,
    "##op": 551,
    "ĠP": 552,
    "##ea": 553,
    "##ĠĠ": 554,
    "##un": 555,
    "ĠW": 556,
    "##..": 557,
    "##ol": 558,
    "##ge": 559,
    "##ell": 560,
    "##our": 561,
    "##ul": 562,
    "Ġhis": 563,
    "##rom": 564,
    "Ġ,": 565,
    "Ġsh": 566,
    "Ġknow": 567,
    "##ore": 568,
    "Ġ\"": 569,
    "Ġj": 570,
    "ĠD": 571,
    "Ġne": 572,
    "##ain": 573,
    "##pp": 574,
    "##el": 575,
    "ĠG": 576,
    "##ct": 577,
    "##and": 578,
    "##art": 579,
    "Ġcan": 580,
    "...": 581,
    "##um": 582,
    "You": 583,
    "Ġ?": 584,
    "##ist": 585,
    "Ġso": 586,
    "Ġyour": 587,
    "Ġ2": 588,
    "Ġall": 589,
    "Ġthey": 590,
    "Ġmy": 591,
    "##est": 592,
    "Ġal": 593,
    "ĠThe": 594,
    "##em": 595,
    "ĠL": 596,
    "ĠR": 597,
    "Ġab": 598,
    "##ers": 599,
    "ĠF": 600,
    "Ġby": 601,
    "Ġfrom": 602,
    "##ess": 603,
    "Ġwhat": 604,
    "Ġr": 605,
    "ĠN": 606,
    "##os": 607,
    "##th": 608,
    "Ġher": 609,
    "##ight": 610,
    "Ġor": 611,
    "Ġone": 612,
    "##nt": 613,
    "Ġwhe": 614,
    "Ġcon": 615,
    "##ie": 616,
    "ĠJ": 617,
    "Ġup": 618,
    "Ġch": 619,
    "##ig": 620,
    "##ard": 621,
    "Ġthere": 622,
    "##ab": 623,
    "##red": 624,
    "'re": 625,
    "Ġhad": 626,
    "##ally": 627,
    "Ġsu": 628,
    "Ġcom": 629,
    "##ry": 630,
    "Ġdon": 631,
    "##qu": 632,
    "##ate": 633,
    "##ack": 634,
    "Ġout": 635,
    "Ġbut": 636,
    "Ġhim": 637,
    "Ġwor": 638,
    "##ood": 639,
    "##ook": 640,
    "Ġpl": 641,
    "##very": 642,
    "##ake": 643,
    "##res": 644,
    "##ive": 645,
    "Ġde": 646,
    "Ġlike": 647,
    "Ġ(": 648,
    "Ġus": 649,
    "##ame": 650,
    "Ġshe": 651,
    "'m": 652,
    "##od": 653,
    "##ong": 654,
    "ĠE": 655,
    "##ink": 656,
    "Ġpro": 657,
    "##ast": 658,
    "It": 659,
    "Ġ19": 660,
    "Ġabout": 661,
    "Ġget": 662,
    "ĠO": 663,
    "Ġv": 664,
    "Ġsa": 665,
    "Ġex": 666,
    "Ġwere": 667,
    "##ound": 668,
    "##ort": 669,
    "##ind": 670,
    "##ich": 671,
    "##one": 672,
    "##ap": 673,
    "##ck": 674,
    "##ity": 675,
    "Ġjust": 676,
    "And": 677,
    "##ber": 678,
    "Ġsp": 679,
    "##ear": 680,
    "##right": 681,
    "He": 682,
    "Ġ20": 683,
    "##ak": 684,
    "##ies": 685,
    "##ect": 686,
    "Ġdid": 687,
    "##ep": 688,
    "Ġwho": 689,
    "Ġhere": 690,
    "Ġno": 691,
    "##eah": 692,
    "##ime": 693,
    "##ine": 694,
    "Ġthem": 695,
    "Ġwant": 696,
    "'ll": 697,
    "Ġman": 698,
    "Ġif": 699,
    "Ġwould": 700,
    "##ud": 701,
    "Ġthink": 702,
    "Ġ'": 703,
    "##ous": 704,
    "##ven": 705,
    "Ġwill": 706,
    "What": 707,
    "Ġsome": 708,
    "##hing": 709,
    "Ġint": 710,
    "ĠK": 711,
    "##own": 712,
    "##ost": 713,
    "##itt": 714,
    "##ice": 715,
    "Ġany": 716,
    "##ment": 717,
    "##ag": 718,
    "Ġright": 719,
    "##ide": 720,
    "Ġhas": 721,
    "ĠY": 722,
    "##ough": 723,
    "Ġgot": 724,
    "##ther": 725,
    "##use": 726,
    "ĠHe": 727,
    "Ġsee": 728,
    "Ġwhich": 729,
    "Ġwhen": 730,
    "##ure": 731,
    "Ġar": 732,
    "Ġsay": 733,
    "##iv": 734,
    "Ġag": 735,
    "##end": 736,
    "##ip": 737,
    "Ġtw": 738,
    "We": 739,
    "##ian": 740,
    "##ia": 741,
    "Ġbeen": 742,
    "Ġtime": 743,
    "##are": 744,
    "##way": 745,
    "ĠIt": 746,
    "##ace": 747,
    "Ġsaid": 748,
    "##ove": 749,
    "'ve": 750,
    "Ġpe": 751,
    "Ġbec": 752,
    "##ff": 753,
    "ĠU": 754,
    "##ick": 755,
    "Ġnow": 756,
    "Ġcl": 757,
    "Th": 758,
    "Ġtr": 759,
    "##ose": 760,
    "##ish": 761,
    "##ĠĠĠĠ": 762,
    "##ause": 763,
    "Ġlook": 764,
    "##ople": 765,
    "##na": 766,
    "Ġle": 767,
    "##reat": 768,
    "##âĢ": 769,
    "Ġmore": 770,
    "##ary": 771,
    "Ġtheir": 772,
    "Ġgoing": 773,
    "Ġthen": 774,
    "##ree": 775,
    "Ġcould": 776,
    "So": 777,
    "âĢ": 778,
    "##other": 779,
    "No": 780,
    "##ue": 781,
    "Ġother": 782,
    "Ġ=": 783,
    "Ġback": 784,
    "Ġover": 785,
    "##ond": 786,
    "Ġoff": 787,
    "##so": 788,
    "##ite": 789,
    "##irst": 790,
    "ĠSt": 791,
    "##age": 792,
    "##ank": 793,
    "##ere": 794,
    "But": 795,
    "##ew": 796,
    "Ġpeople": 797,
    "Ġqu": 798,
    "##orn": 799,
    "##ang": 800,
    "##ble": 801,
    "Ġro": 802,
    "ĠCh": 803,
    "##act": 804,
    "Ġthing": 805,
    "##ass": 806,
    "Ġwork": 807,
    "Oh": 808,
    "Ġvery": 809,
    "Ġtwo": 810,
    "##ount": 811,
    "##pl": 812,
    "That": 813,
    "##fter": 814,
    "##ase": 815,
    "##ire": 816,
    "Ġgood": 817,
    "##pt": 818,
    "##ord": 819,
    "##per": 820,
    "Yeah": 821,
    "Ġtoo": 822,
    "##og": 823,
    "##sel": 824,
    "##ub": 825,
    "##omet": 826,
    "Ġen": 827,
    "##ans": 828,
    "##ated": 829,
    "Ġfirst": 830,
    "##ance": 831,
    "##ittle": 832,
    "##erm": 833,
    "##kay": 834,
    "Ġinto": 835,
    "##mer": 836,
    "##ov": 837,
    "##ions": 838,
    "##ade": 839,
    "##alk": 840,
    "##oll": 841,
    "##hed": 842,
    "##oy": 843,
    "Ġdown": 844,
    "Ġhow": 845,
    "##hy": 846,
    "Ġyear": 847,
    "Ġun": 848,
    "Ġpart": 849,
    "Ġway": 850,
    "##ial": 851,
    "Ġgr": 852,
    "Ġbr": 853,
    "##oc": 854,
    "Ġpr": 855,
    "##iz": 856,
    "Ġour": 857,
    "##ild": 858,
    "Ġam": 859,
    "Ġcall": 860,
    "##ought": 861,
    "Ġlittle": 862,
    "##ach": 863,
    "##ne": 864,
    "Ġcome": 865,
    "Ġbl": 866,
    "ĠIn": 867,
    "Ġsc": 868,
    "Ġplay": 869,
    "Ġalso": 870,
    "Ġim": 871,
    "Ġonly": 872,
    "ĠV": 873,
    "##ater": 874,
    "##nder": 875,
    "Ġwhere": 876,
    "Ġevery": 877,
    "##cc": 878,
    "Ġagain": 879,
    "##here": 880,
    "##ife": 881,
    "Well": 882,
    "##av": 883,
    "##urn": 884,
    "##wn": 885,
    "Ġad": 886,
    "Ġsomet": 887,
    "Ġday": 888,
    "Ġneed": 889,
    "Ġbet": 890,
    "##ru": 891,
    "Ġ201": 892,
    "##uch": 893,
    "##ty": 894,
    "##iss": 895,
    "Ġfe": 896,
    "##ress": 897,
    "Ġact": 898,
    ".\"": 899,
    "Ġmake": 900,
    "##ark": 901,
    "Ġwell": 902,
    "Ġtake": 903,
    "##ence": 904,
    "Ġafter": 905,
    "##ile": 906,
    "##fore": 907,
    "Ġgu": 908,
    "In": 909,
    "##00": 910,
    "##self": 911,
    "##ng": 912,
    "##ory": 913,
    "Ġbecause": 914,
    "Ġcont": 915,
    "##we": 916,
    "##au": 917,
    "Ġthan": 918,
    "##able": 919,
    "##ical": 920,
    "Ġcomp": 921,
    "Ġdis": 922,
    "Ġte": 923,
    "##ign": 924,
    "Ġlet": 925,
    "##thing": 926,
    "Ġreally": 927,
    "##orm": 928,
    "Ġshould": 929,
    "##uck": 930,
    "Ġpre": 931,
    "##ict": 932,
    "Ġtell": 933,
    "##ool": 934,
    "Ġhapp": 935,
    "##hen": 936,
    "##ob": 937,
    "##ather": 938,
    "Ġwr": 939,
    "##int": 940,
    "##les": 941,
    "##ens": 942,
    "Ġthr": 943,
    "##ied": 944,
    "##onna": 945,
    "##ull": 946,
    "##ft": 947,
    "Ġapp": 948,
    "Ġunder": 949,
    "Ġthese": 950,
    "Ġmuch": 951,
    "Ġdoes": 952,
    "Ġfl": 953,
    "##ult": 954,
    "Ġsomething": 955,
    "This": 956,
    "Ġnew": 957,
    "ĠTh": 958,
    "Ġres": 959,
    "Ġput": 960,
    "##old": 961,
    "##ody": 962,
    "Ġgonna": 963,
    "Ġpo": 964,
    "Ġper": 965,
    "Ġmean": 966,
    "Ġmade": 967,
    "They": 968,
    "##ons": 969,
    "and": 970,
    "##--": 971,
    "##iff": 972,
    "Ġlong": 973,
    "'d": 974,
    "the": 975,
    "##ious": 976,
    "##ath": 977,
    "Ġser": 978,
    "ĠUn": 979,
    "##ving": 980,
    "##amp": 981,
    "##ved": 982,
    "--": 983,
    "Ġtalk": 984,
    "Ġnever": 985,
    "Ġinc": 986,
    "##land": 987,
    "Yes": 988,
    "##ations": 989,
    "She": 990,
    "Ġbefore": 991,
    "##ock": 992,
    "Ġer": 993,
    "##ates": 994,
    "Ġeven": 995,
    "Ġmay": 996,
    "##ting": 997,
    "##du": 998,
    "##ily": 999,
    "Ġits": 1000,
    "Ġcar": 1001,
    "##ouse": 1002,
    "Ġbu": 1003,
    "Ġdidn": 1004,
    "Ġrem": 1005,
    "##ady": 1006,
    "ĠâĢ": 1007,
    "Ġcomm": 1008,
    "##ee": 1009,
    "Ġ3": 1010,
    "Ġke": 1011,
    "There": 1012,
    "Ġsm": 1013,
    "##ave": 1014,
    "Ġrec": 1015,
    "##vers": 1016,
    "Ġyears": 1017,
    "##ho": 1018,
    "##port": 1019,
    "##ition": 1020,
    "##ember": 1021,
    "##anc": 1022,
    "##ors": 1023,
    "##ren": 1024,
    "##ise": 1025,
    "##ix": 1026,
    "Ġhand": 1027,
    "##ually": 1028,
    "##ward": 1029,
    "##lp": 1030,
    "##aw": 1031,
    "##ited": 1032,
    "Ġmany": 1033,
    "Ġthrough": 1034,
    "##ried": 1035,
    "Ġ200": 1036,
    "##mp": 1037,
    "If": 1038,
    "Ġold": 1039,
    "Ġsec": 1040,
    "##air": 1041,
    "##ful": 1042,
    "##ail": 1043,
    "you": 1044,
    "##vel": 1045,
    "##be": 1046,
    "##igh": 1047,
    "Ġmost": 1048,
    "Ġstart": 1049,
    "Ġthree": 1050,
    "Ġgreat": 1051,
    "Ġdiff": 1052,
    "##ince": 1053,
    "th": 1054,
    "Ġlife": 1055,
    "Ġthings": 1056,
    "##get": 1057,
    "Ġthought": 1058,
    "Ġfound": 1059,
    "How": 1060,
    "Ġhelp": 1061,
    "Ġthose": 1062,
    "Ġbel": 1063,
    "Ġstill": 1064,
    "##âĢĿ": 1065,
    "##oss": 1066,
    "Ġaway": 1067,
    "##ever": 1068,
    "##ves": 1069,
    "Ġdes": 1070,
    "Ġused": 1071,
    "Ġfind": 1072,
    "##ings": 1073,
    "##oot": 1074,
    "##tain": 1075,
    "Ġask": 1076,
    "Ġ''": 1077,
    "Ġlove": 1078,
    "##irl": 1079,
    "Ġmust": 1080,
    "Ġhome": 1081,
    "##hes": 1082,
    "Ġlast": 1083,
    "##riend": 1084,
    "Ġdoing": 1085,
    "Ġi": 1086,
    "Ġco": 1087,
    "##imes": 1088,
    "##day": 1089,
    "Ġcr": 1090,
    "##oh": 1091,
    "Ġra": 1092,
    "##ents": 1093,
    "Ġown": 1094,
    "Ġshow": 1095,
    "what": 1096,
    "Ġlea": 1097,
    "##meric": 1098,
    "##ational": 1099,
    "##ny": 1100,
    "##lease": 1101,
    "Ġwent": 1102,
    "Ġgive": 1103,
    "Ġ!": 1104,
    "Ġcame": 1105,
    "##xt": 1106,
    "Ġmin": 1107,
    "##oney": 1108,
    "Ġend": 1109,
    "##Ļª": 1110,
    "##ened": 1111,
    "Ġbeing": 1112,
    "Ġatt": 1113,
    "##gin": 1114,
    "##tern": 1115,
    "Ġwon": 1116,
    "Ġname": 1117,
    "ĠMr": 1118,
    "##ction": 1119,
    "ĠShe": 1120,
    "Ġcount": 1121,
    "##ange": 1122,
    "Ġcalled": 1123,
    "##ont": 1124,
    "##chool": 1125,
    "##atch": 1126,
    "##pe": 1127,
    "Ġmov": 1128,
    "##ait": 1129,
    "##ah": 1130,
    "##gan": 1131,
    "Ġfam": 1132,
    "\".": 1133,
    "##oth": 1134,
    "Do": 1135,
    "Ġ18": 1136,
    "Ġsame": 1137,
    "Now": 1138,
    "##als": 1139,
    "Ġchild": 1140,
    "##ways": 1141,
    "Ġdec": 1142,
    "##ars": 1143,
    "Ġcare": 1144,
    "##ph": 1145,
    "Ġsuch": 1146,
    "##body": 1147,
    "ĠYou": 1148,
    "Ġcour": 1149,
    "##ning": 1150,
    "##te": 1151,
    "Ġkind": 1152,
    "Why": 1153,
    "##aking": 1154,
    "Ġfeel": 1155,
    "##ib": 1156,
    "Ġtry": 1157,
    "Ġbig": 1158,
    "##ident": 1159,
    "##ug": 1160,
    "ĠAmeric": 1161,
    "Ġtra": 1162,
    "Ġhead": 1163,
    "Ġlot": 1164,
    "Ġnight": 1165,
    "âĢĻ": 1166,
    "##oup": 1167,
    "##IN": 1168,
    "Ġworld": 1169,
    "Ġsupp": 1170,
    "Ġwhy": 1171,
    "Ġplace": 1172,
    "Ġsl": 1173,
    "Ġpol": 1174,
    "##ased": 1175,
    "##my": 1176,
    "##ĠĠĠĠĠĠĠĠ": 1177,
    "##erson": 1178,
    "##ci": 1179,
    "##up": 1180,
    "Ġdiffere": 1181,
    "##any": 1182,
    "##ss": 1183,
    "Ġwom": 1184,
    "Ġaround": 1185,
    "##ER": 1186,
    "Ġfin": 1187,
    "Ġfriend": 1188,
    "ĠMar": 1189,
    "Ġnum": 1190,
    "##ute": 1191,
    "Ġkill": 1192,
    "##ced": 1193,
    "##ating": 1194,
    "Ġgirl": 1195,
    "##outh": 1196,
    "Let": 1197,
    "##side": 1198,
    "ĠĠĠ": 1199,
    "##form": 1200,
    "##uring": 1201,
    "Ġuse": 1202,
    "##ower": 1203,
    "Ġind": 1204,
    "Ġacc": 1205,
    "##ubl": 1206,
    "ĠBr": 1207,
    "Ġmight": 1208,
    "Ġreg": 1209,
    "Ġop": 1210,
    "``": 1211,
    "##man": 1212,
    "Ġanother": 1213,
    "Ġmar": 1214,
    "##und": 1215,
    "Ġrel": 1216,
    "Ġ4": 1217,
    "##hip": 1218,
    "Don": 1219,
    "Ġset": 1220,
    "Ġturn": 1221,
    "Ġche": 1222,
    "##arly": 1223,
    "##ork": 1224,
    "##orry": 1225,
    "Ġele": 1226,
    "##pect": 1227,
    "##ween": 1228,
    "Ġhouse": 1229,
    "Ġalways": 1230,
    "##lud": 1231,
    "Come": 1232,
    "##ener": 1233,
    "##ics": 1234,
    "##arl": 1235,
    "##ys": 1236,
    "Ġfour": 1237,
    "\",": 1238,
    "Ġac": 1239,
    "##ible": 1240,
    "Ġanything": 1241,
    "Ġleft": 1242,
    "##ier": 1243,
    "Ġbetter": 1244,
    "Ġdone": 1245,
    "All": 1246,
    "##az": 1247,
    "Ġbit": 1248,
    "Ġsure": 1249,
    "##mb": 1250,
    "Ġpres": 1251,
    "##led": 1252,
    "##vent": 1253,
    "Ġ199": 1254,
    "Ġsur": 1255,
    "##ason": 1256,
    "Ġstr": 1257,
    "##ness": 1258,
    "that": 1259,
    "##io": 1260,
    "St": 1261,
    "Ġkeep": 1262,
    "ĠAr": 1263,
    "Ġboy": 1264,
    "##ual": 1265,
    "Ġ5": 1266,
    "##ek": 1267,
    "Ġel": 1268,
    "ĠFr": 1269,
    "##gg": 1270,
    "Ġsy": 1271,
    "Ġrun": 1272,
    "ĠAnd": 1273,
    "##aught": 1274,
    ",\"": 1275,
    "Okay": 1276,
    "##ott": 1277,
    "Ġform": 1278,
    "Ġmon": 1279,
    "Ġreal": 1280,
    "Ġbetween": 1281,
    "My": 1282,
    "##ike": 1283,
    "Ġbelie": 1284,
    "##ollow": 1285,
    "ĠAl": 1286,
    "Ġtold": 1287,
    "Ġknown": 1288,
    "##ret": 1289,
    "Ġsecond": 1290,
    "ĠThey": 1291,
    "##ird": 1292,
    ").": 1293,
    "##ered": 1294,
    "##ntil": 1295,
    "##ished": 1296,
    "##ters": 1297,
    "##gr": 1298,
    "##uh": 1299,
    "##akes": 1300,
    "##arm": 1301,
    "Ġschool": 1302,
    "##ins": 1303,
    "Ġword": 1304,
    "Ġstud": 1305,
    "##der": 1306,
    "Ġmoney": 1307,
    "Ġdist": 1308,
    "##row": 1309,
    "Ġever": 1310,
    "Ġgl": 1311,
    "ĠNew": 1312,
    "##ject": 1313,
    "Ġent": 1314,
    "##ale": 1315,
    "##ner": 1316,
    "Ġob": 1317,
    "Hey": 1318,
    "Ġdifferent": 1319,
    "Ġret": 1320,
    "Ġwhile": 1321,
    "Ġmat": 1322,
    "oh": 1323,
    "Ġmom": 1324,
    "Ġperson": 1325,
    "Ġey": 1326,
    "##orth": 1327,
    "Ġbo": 1328,
    "Is": 1329,
    "##oun": 1330,
    "Ġbus": 1331,
    "ĠThis": 1332,
    "Ġph": 1333,
    "Ġinclud": 1334,
    "Ġpoint": 1335,
    "##ric": 1336,
    "),": 1337,
    "ĠTH": 1338,
    "ĠSh": 1339,
    "Ġsub": 1340,
    "Thank": 1341,
    "Ġcons": 1342,
    "Ġokay": 1343,
    "##ts": 1344,
    "Ġmus": 1345,
    "Ġcourse": 1346,
    "Not": 1347,
    "ĠWhat": 1348,
    "Ġspec": 1349,
    "Ġuntil": 1350,
    "ĠUnited": 1351,
    "Ġerm": 1352,
    "Ġdr": 1353,
    "##OU": 1354,
    "Ġass": 1355,
    "Ġinv": 1356,
    "##ative": 1357,
    "##olog": 1358,
    "##eak": 1359,
    "Ġbook": 1360,
    "##enc": 1361,
    "Ġuh": 1362,
    "Ġtook": 1363,
    "ĠAn": 1364,
    "Ġmet": 1365,
    "Ġnext": 1366,
    "amp": 1367,
    "When": 1368,
    "##ok": 1369,
    "Ġmen": 1370,
    "Ġstop": 1371,
    "Ġcent": 1372,
    "Ġsw": 1373,
    "Ġbest": 1374,
    "##ash": 1375,
    "##aj": 1376,
    "##une": 1377,
    "Ġinst": 1378,
    "Ġboth": 1379,
    "##eg": 1380,
    "Ġseem": 1381,
    "##ision": 1382,
    "Ġeach": 1383,
    "Ġsing": 1384,
    "Ġnothing": 1385,
    "##ames": 1386,
    "Ġfun": 1387,
    "Ġdep": 1388,
    "ĠGod": 1389,
    "##iet": 1390,
    "Ġdef": 1391,
    "Ġcle": 1392,
    "##vern": 1393,
    "Ġbre": 1394,
    "##ities": 1395,
    "##its": 1396,
    "Ġwater": 1397,
    "##ired": 1398,
    "##cept": 1399,
    "Ġnumber": 1400,
    "##ures": 1401,
    "##stand": 1402,
    "Ġfollow": 1403,
    "##ular": 1404,
    "Ġpass": 1405,
    "Ġfather": 1406,
    "##ope": 1407,
    "Ġsaw": 1408,
    "ĠAmerican": 1409,
    "ĠAs": 1410,
    "##rib": 1411,
    "Ġhard": 1412,
    "||": 1413,
    "##ohn": 1414,
    "##ane": 1415,
    "##ivers": 1416,
    "Ġmother": 1417,
    "Ġlater": 1418,
    "ĠâĢľ": 1419,
    "##rand": 1420,
    "Ġdoesn": 1421,
    "ĠNo": 1422,
    "Ġfamily": 1423,
    "Ġ-": 1424,
    "Ġimp": 1425,
    "Ġlist": 1426,
    "##rew": 1427,
    "Ġteam": 1428,
    "##ream": 1429,
    "##ung": 1430,
    "Ġprodu": 1431,
    "##ax": 1432,
    "Ġlar": 1433,
    "##ton": 1434,
    "Ġ198": 1435,
    "Ġfr": 1436,
    "##blem": 1437,
    "##ets": 1438,
    "âĢľ": 1439,
    "##ross": 1440,
    "Ġcity": 1441,
    "##alf": 1442,
    "##ery": 1443,
    "Ġyeah": 1444,
    "##osed": 1445,
    "Ġ6": 1446,
    "Ġenough": 1447,
    "Ġchar": 1448,
    "##iness": 1449,
    "##ING": 1450,
    "Ġactually": 1451,
    "##att": 1452,
    "On": 1453,
    "##ister": 1454,
    "Just": 1455,
    "Ġelse": 1456,
    "Ġagainst": 1457,
    "##uth": 1458,
    "##ctor": 1459,
    "##mber": 1460,
    "Ġsmall": 1461,
    "Ġwait": 1462,
    "Ġdied": 1463,
    "##eb": 1464,
    "##ines": 1465,
    "Ġ--": 1466,
    "Ġcap": 1467,
    "Ġseen": 1468,
    "##rist": 1469,
    "##ote": 1470,
    "##AN": 1471,
    "Ġproblem": 1472,
    "Ġhigh": 1473,
    "Ġpop": 1474,
    "##ling": 1475,
    "Ġtoget": 1476,
    "Ġtogether": 1477,
    "in": 1478,
    "Ġyoung": 1479,
    "it": 1480,
    "ĠEng": 1481,
    "##ublic": 1482,
    "Ġwithout": 1483,
    "##ined": 1484,
    "##ern": 1485,
    "Who": 1486,
    "##omm": 1487,
    "##ific": 1488,
    "Ġdire": 1489,
    "Ġwanted": 1490,
    "Ġbecame": 1491,
    "Ġref": 1492,
    "Ġsorry": 1493,
    "Ġadd": 1494,
    "ĠStates": 1495,
    "Ġfact": 1496,
    "Ġfive": 1497,
    "##ably": 1498,
    "Where": 1499,
    "##rop": 1500,
    "##Ã©": 1501,
    "Ġfew": 1502,
    "Ġyes": 1503,
    "##uc": 1504,
    "Ġdisc": 1505,
    "##ared": 1506,
    "##less": 1507,
    "Ġid": 1508,
    "Ġrep": 1509,
    "##inc": 1510,
    "Ġeverything": 1511,
    "Ġmind": 1512,
    "Ġcoming": 1513,
    "##ik": 1514,
    "Ġhear": 1515,
    "Ġrest": 1516,
    "##ution": 1517,
    "Look": 1518,
    "Then": 1519,
    "Ġroom": 1520,
    "Ġbad": 1521,
    "Ġonce": 1522,
    "Ġloc": 1523,
    "Ġsince": 1524,
    "Ġsix": 1525,
    "Ġweek": 1526,
    "##ral": 1527,
    "ĠSp": 1528,
    "##ha": 1529,
    "Ġ197": 1530,
    "Ġunderstand": 1531,
    "Ġstand": 1532,
    "Ġsign": 1533,
    "##ey": 1534,
    "Ġsim": 1535,
    "Ġsk": 1536,
    "Ġlight": 1537,
    "Ġlive": 1538,
    "##uff": 1539,
    "Ġstay": 1540,
    "Ġread": 1541,
    "##ield": 1542,
    "##uss": 1543,
    "Ġleave": 1544,
    "Ġborn": 1545,
    "Ġsays": 1546,
    "ĠBut": 1547,
    "Ġ7": 1548,
    "##ury": 1549,
    "Ġheart": 1550,
    "Ġcoll": 1551,
    "##ertain": 1552,
    "##erest": 1553,
    "ĠInd": 1554,
    "##ina": 1555,
    "Ġbelieve": 1556,
    "Ġtimes": 1557,
    "Ġside": 1558,
    "Ġduring": 1559,
    "Ġlooking": 1560,
    "##ism": 1561,
    "Are": 1562,
    "##ecause": 1563,
    "Ġchildren": 1564,
    "âĻª": 1565,
    "Ġev": 1566,
    "##ense": 1567,
    "##AT": 1568,
    "Ġquite": 1569,
    "Ġpret": 1570,
    "ĠIs": 1571,
    "##stem": 1572,
    "##orning": 1573,
    "19": 1574,
    "Ġimport": 1575,
    "Ġson": 1576,
    "##anna": 1577,
    "Ġhum": 1578,
    "##oon": 1579,
    "Ġtoday": 1580,
    "##ball": 1581,
    "Ġsit": 1582,
    "Ġâ": 1583,
    "Ġquest": 1584,
    "##ows": 1585,
    "Ġinter": 1586,
    "Ġcompl": 1587,
    "Ġexp": 1588,
    "##ants": 1589,
    "Ġtrans": 1590,
    "ĠĠ": 1591,
    "Ġkid": 1592,
    "Ġdays": 1593,
    "Ġhappened": 1594,
    "Ġmeet": 1595,
    "Ġopen": 1596,
    "##son": 1597,
    "##ised": 1598,
    "Ġ8": 1599,
    "Ġ;": 1600,
    "##aid": 1601,
    "Right": 1602,
    "Ġlead": 1603,
    "Ġmove": 1604,
    "##ten": 1605,
    "Ġwar": 1606,
    "##ital": 1607,
    "Ġconf": 1608,
    "Ġplease": 1609,
    "Ġfar": 1610,
    "Ġface": 1611,
    "##ead": 1612,
    "Uh": 1613,
    "##ger": 1614,
    "Ġgener": 1615,
    "##leep": 1616,
    "Ġeyes": 1617,
    "âĢĵ": 1618,
    "Ġtown": 1619,
    "Ġgetting": 1620,
    "Ġgroup": 1621,
    "Ġnice": 1622,
    "##ef": 1623,
    "##iew": 1624,
    "##ON": 1625,
    "Ġisn": 1626,
    "Ġext": 1627,
    "##aby": 1628,
    "Ġthough": 1629,
    "##ither": 1630,
    "Ġbeh": 1631,
    "Ġmusic": 1632,
    "##ries": 1633,
    "##ments": 1634,
    "Ġart": 1635,
    "Ġwhole": 1636,
    "?\"": 1637,
    "Ġcol": 1638,
    "##ech": 1639,
    "##aut": 1640,
    "Ġsort": 1641,
    "Ġed": 1642,
    "Ġland": 1643,
    "Ġdra": 1644,
    "Ch": 1645,
    "Ġhour": 1646,
    "Ġbro": 1647,
    "As": 1648,
    "ĠJohn": 1649,
    "For": 1650,
    "##ete": 1651,
    "##ists": 1652,
    "Ġposs": 1653,
    "Ġdri": 1654,
    "okay": 1655,
    "Ġinterest": 1656,
    "Ġwoman": 1657,
    "##aster": 1658,
    "##cted": 1659,
    "##dy": 1660,
    "##ober": 1661,
    "Ġheard": 1662,
    "Ġplan": 1663,
    "ĠZ": 1664,
    "Sh": 1665,
    "Ġbuild": 1666,
    "Ġyet": 1667,
    "Ġeas": 1668,
    "##iam": 1669,
    "Mm": 1670,
    "Ġplayed": 1671,
    "##ient": 1672,
    "##ready": 1673,
    "Ġ[": 1674,
    "Ġjob": 1675,
    "##by": 1676,
    "yeah": 1677,
    "ĠCl": 1678,
    "Ġstate": 1679,
    "Ġem": 1680,
    "Ġair": 1681,
    "Ġfoot": 1682,
    "ĠPr": 1683,
    "Ġremember": 1684,
    "##ize": 1685,
    "Ġmorning": 1686,
    "Ġhalf": 1687,
    "Ġfil": 1688,
    "Ġhimself": 1689,
    "Ġstarted": 1690,
    "##dd": 1691,
    "##ues": 1692,
    "Ġ196": 1693,
    "##ump": 1694,
    "##reen": 1695,
    "Ġ10": 1696,
    "##ats": 1697,
    "Ġmed": 1698,
    "Ġwalk": 1699,
    "Ġknew": 1700,
    "Ġhaving": 1701,
    "Ġ9": 1702,
    "Ġrecord": 1703,
    "##ev": 1704,
    "##ized": 1705,
    "Ġtalking": 1706,
    "Ġsystem": 1707,
    "##iversity": 1708,
    "Good": 1709,
    "Ġhold": 1710,
    "Ġmain": 1711,
    "##ives": 1712,
    "##iver": 1713,
    "Ġmod": 1714,
    "Ġdeath": 1715,
    "Ġsir": 1716,
    "Ġcur": 1717,
    "##ert": 1718,
    "Ġalready": 1719,
    "Ġpay": 1720,
    "##ison": 1721,
    "Ġconc": 1722,
    "Ġimportant": 1723,
    "Did": 1724,
    "Ġwrong": 1725,
    "##amed": 1726,
    "Ġsoon": 1727,
    "Ġsong": 1728,
    "##ta": 1729,
    "ĠWe": 1730,
    "##ched": 1731,
    "##enn": 1732,
    "Ġalong": 1733,
    "Ġmil": 1734,
    "Ġsaying": 1735,
    "Can": 1736,
    "##AR": 1737,
    "##app": 1738,
    "ĠMay": 1739,
    "Ġpower": 1740,
    "Ġreturn": 1741,
    "Ġidea": 1742,
    "Ġgi": 1743,
    "ĠQ": 1744,
    "Ġgave": 1745,
    "Al": 1746,
    "Ġmonth": 1747,
    "Ġans": 1748,
    "Ġdoor": 1749,
    "Ġdead": 1750,
    "Go": 1751,
    "Ġmiss": 1752,
    "##ex": 1753,
    "Ġupon": 1754,
    "##ided": 1755,
    "000": 1756,
    "Ġcountry": 1757,
    "Ġbrother": 1758,
    "ĠAt": 1759,
    "##aps": 1760,
    "##velop": 1761,
    "no": 1762,
    "Ġri": 1763,
    "ĠHow": 1764,
    "##ipp": 1765,
    "Ġprom": 1766,
    "Ġprob": 1767,
    "Ġgovern": 1768,
    "##ering": 1769,
    "Ġty": 1770,
    "Ġfull": 1771,
    "Ġhur": 1772,
    "Ġmeans": 1773,
    "ĠâĢĵ": 1774,
    "ĠGerm": 1775,
    "ĠâĻª": 1776,
    "Ġeff": 1777,
    "Ġprov": 1778,
    "Ġcase": 1779,
    "Ġwin": 1780,
    "Ġeat": 1781,
    "Ġtrying": 1782,
    "##ility": 1783,
    "##ature": 1784,
    "Ġgame": 1785,
    "##ages": 1786,
    "##oice": 1787,
    "Ġround": 1788,
    "Ġdel": 1789,
    "ĠCount": 1790,
    "##idd": 1791,
    "ĠThere": 1792,
    "Ġasked": 1793,
    "##aughter": 1794,
    "ĠOh": 1795,
    "##sh": 1796,
    "Ġtop": 1797,
    "Ġwife": 1798,
    "Ġsound": 1799,
    "Ġjo": 1800,
    "##wards": 1801,
    "##ically": 1802,
    "##most": 1803,
    "Ġinf": 1804,
    "##nce": 1805,
    "##ying": 1806,
    "Ġgone": 1807,
    "Ġarea": 1808,
    "Ġlaw": 1809,
    "Âł": 1810,
    "##ony": 1811,
    "Ġins": 1812,
    "Ġbusiness": 1813,
    "ĠChrist": 1814,
    "##eed": 1815,
    "Ġspeak": 1816,
    "Er": 1817,
    "st": 1818,
    "Your": 1819,
    "##lish": 1820,
    "Ġmatter": 1821,
    "ĠKing": 1822,
    "Ġbegan": 1823,
    "##urch": 1824,
    "Ġexpl": 1825,
    "Ġbring": 1826,
    "##ience": 1827,
    "##OR": 1828,
    "Ġpretty": 1829,
    "Ġtri": 1830,
    "##ES": 1831,
    "gt": 1832,
    "##ately": 1833,
    "##EN": 1834,
    "Ġfore": 1835,
    "Ġlear": 1836,
    "Ġequ": 1837,
    "##leased": 1838,
    "Ġwind": 1839,
    "Ġhands": 1840,
    "he": 1841,
    "Ġthank": 1842,
    "##ted": 1843,
    "Get": 1844,
    "Ġsent": 1845,
    "##anu": 1846,
    "##aken": 1847,
    "##ially": 1848,
    "##rict": 1849,
    "Ġhappen": 1850,
    "Ġguy": 1851,
    "##ection": 1852,
    "Ġstory": 1853,
    "Ġcreat": 1854,
    "##ural": 1855,
    "Ġ`": 1856,
    "##ned": 1857,
    "##ello": 1858,
    "##ush": 1859,
    "##ces": 1860,
    "Ġshall": 1861,
    "Ġlost": 1862,
    "##eth": 1863,
    "Ġcontin": 1864,
    "Ġable": 1865,
    "Ġmovie": 1866,
    ".âĢĿ": 1867,
    "Ġserv": 1868,
    "##uro": 1869,
    "##orrow": 1870,
    "Ġfuck": 1871,
    "Ġchang": 1872,
    "Ġless": 1873,
    "##iter": 1874,
    "##ept": 1875,
    "Ġcertain": 1876,
    "An": 1877,
    "##eal": 1878,
    "ĠSc": 1879,
    "..": 1880,
    "##ring": 1881,
    "Ġbeaut": 1882,
    "Ġmill": 1883,
    "##eter": 1884,
    "Ġoffic": 1885,
    "Ġpain": 1886,
    "##ured": 1887,
    "##gy": 1888,
    "Ġpri": 1889,
    "Ġbaby": 1890,
    "##ai": 1891,
    "Ġpartic": 1892,
    "Ġchange": 1893,
    "Ġpolit": 1894,
    "##orld": 1895,
    "Ġoften": 1896,
    "Ġwond": 1897,
    "Ġmaking": 1898,
    "##ole": 1899,
    "Ġhist": 1900,
    "ĠTHE": 1901,
    "Ġgoes": 1902,
    "Ġclass": 1903,
    "At": 1904,
    "##ional": 1905,
    "May": 1906,
    "Ġfell": 1907,
    "Ġleg": 1908,
    "Ġ17": 1909,
    "Ġbas": 1910,
    "Ġfriends": 1911,
    "##LL": 1912,
    "##erv": 1913,
    "Ġwanna": 1914,
    "Ġlooked": 1915,
    "Ġmoment": 1916,
    "Ġsomeone": 1917,
    "Ġ15": 1918,
    "ĠAll": 1919,
    "##ple": 1920,
    "Ġwasn": 1921,
    "##ract": 1922,
    "Ġwatch": 1923,
    "Ġfight": 1924,
    "##undred": 1925,
    "##ator": 1926,
    "ĠBl": 1927,
    "##rap": 1928,
    "One": 1929,
    "Ġ195": 1930,
    "Ġ194": 1931,
    "##cle": 1932,
    "##ye": 1933,
    "Here": 1934,
    "ĠBrit": 1935,
    "##arent": 1936,
    "Ġbody": 1937,
    "##ides": 1938,
    "Ġfine": 1939,
    "##ron": 1940,
    "##arch": 1941,
    "Ġwomen": 1942,
    "##med": 1943,
    "Ġyourself": 1944,
    "Ġage": 1945,
    "Ġexc": 1946,
    "Ġdevelop": 1947,
    "Ġ202": 1948,
    "Ġcomes": 1949,
    "Ġexper": 1950,
    "Ġnear": 1951,
    "##arth": 1952,
    "ĠĠĠĠĠ": 1953,
    "do": 1954,
    "Ġline": 1955,
    "Ġpat": 1956,
    "Ġguys": 1957,
    "Ġmark": 1958,
    "##fess": 1959,
    "##aces": 1960,
    "Ġ...": 1961,
    "##rigin": 1962,
    "Ġsleep": 1963,
    "Ġvis": 1964,
    "ĠYork": 1965,
    "##iec": 1966,
    "Ġpos": 1967,
    "Ġbed": 1968,
    "Ġclose": 1969,
    "##me": 1970,
    "Ġprobably": 1971,
    "Ġca": 1972,
    "Ġlarge": 1973,
    "Ġsn": 1974,
    "Ġago": 1975,
    "##ster": 1976,
    "To": 1977,
    "Ġshort": 1978,
    "##used": 1979,
    "ĠThat": 1980,
    "!\"": 1981,
    "but": 1982,
    "##ention": 1983,
    "Ġterm": 1984,
    "##gue": 1985,
    "##artment": 1986,
    "Ġgiven": 1987,
    "Ġworking": 1988,
    "##where": 1989,
    "Ġbreak": 1990,
    "Ġprot": 1991,
    "##ices": 1992,
    "Ġdet": 1993,
    "Ġtrue": 1994,
    "##uly": 1995,
    "Ġ|": 1996,
    "Ġfire": 1997,
    "##ape": 1998,
    "##ley": 1999,
    "##utes": 2000,
    "##enty": 2001,
    "ĠHis": 2002,
    "ĠCounty": 2003,
    "Because": 2004,
    "Ġwouldn": 2005,
    "Ġes": 2006,
    "##apan": 2007,
    "Ġeight": 2008,
    "Ġhundred": 2009,
    "Ġbecome": 2010,
    "to": 2011,
    "Ġorder": 2012,
    "Ġfall": 2013,
    "Ġcut": 2014,
    "ĠCan": 2015,
    "ĠFor": 2016,
    "Ġpresent": 2017,
    "##ama": 2018,
    "Ġter": 2019,
    "Ġearly": 2020,
    "##aper": 2021,
    "##bum": 2022,
    "##wer": 2023,
    "Ġdeal": 2024,
    "##ged": 2025,
    "Ġpick": 2026,
    "##ality": 2027,
    "##ulation": 2028,
    "##ps": 2029,
    "Ġsol": 2030,
    "ĠCon": 2031,
    "##elt": 2032,
    "Ġhope": 2033,
    "##els": 2034,
    "Ġhaven": 2035,
    "##rol": 2036,
    "Ġrece": 2037,
    "ĠYes": 2038,
    "##ilt": 2039,
    "##bs": 2040,
    "##ajor": 2041,
    "##ox": 2042,
    ",âĢĿ": 2043,
    "##anuary": 2044,
    "Ġalmost": 2045,
    "Ġ12": 2046,
    "Ġaw": 2047,
    "Ġdiv": 2048,
    "ĠUniversity": 2049,
    "Ġstre": 2050,
    "Ġleast": 2051,
    "##ians": 2052,
    "Ġcor": 2053,
    "Ġbegin": 2054,
    "Ġfilm": 2055,
    "Ġorgan": 2056,
    "##ief": 2057,
    "Ġquestion": 2058,
    "Ġten": 2059,
    "##ouble": 2060,
    "ĠOn": 2061,
    "born": 2062,
    "##br": 2063,
    "Ġocc": 2064,
    "##iful": 2065,
    "##ards": 2066,
    "ĠGr": 2067,
    "Ġaff": 2068,
    "Ġblack": 2069,
    "ĠAp": 2070,
    "##ining": 2071,
    "##omp": 2072,
    "Ġmyself": 2073,
    "##oud": 2074,
    "Ġwhite": 2075,
    "##ril": 2076,
    "Ġadv": 2077,
    "ĠPro": 2078,
    "Ġoper": 2079,
    "Ġpublic": 2080,
    "##ains": 2081,
    "##ived": 2082,
    "##ample": 2083,
    "ĠWorld": 2084,
    "##gram": 2085,
    "Ġcommun": 2086,
    "##raz": 2087,
    "is": 2088,
    "Ġconst": 2089,
    "Ġsqu": 2090,
    "Ġready": 2091,
    "Ġmarried": 2092,
    "Ġlate": 2093,
    "ĠJapan": 2094,
    "##oke": 2095,
    "Ġ_": 2096,
    "##iously": 2097,
    "##ium": 2098,
    "Ġopp": 2099,
    "Ġvar": 2100,
    "##sy": 2101,
    "Ġmaybe": 2102,
    "##rest": 2103,
    "Ġhor": 2104,
    "Ġdad": 2105,
    "Ġfree": 2106,
    "Ġ16": 2107,
    "##ully": 2108,
    "Ġreason": 2109,
    "##ugust": 2110,
    "Ġswe": 2111,
    "##iting": 2112,
    "##angu": 2113,
    "Ġalone": 2114,
    "Ġoh": 2115,
    "##ann": 2116,
    "##ccess": 2117,
    "##osp": 2118,
    "Ġkilled": 2119,
    "Ġgovernment": 2120,
    "Ġguess": 2121,
    "##ese": 2122,
    "ĠJanuary": 2123,
    "Ġcompany": 2124,
    "##ler": 2125,
    "##rent": 2126,
    "##alth": 2127,
    "Mr": 2128,
    "Ġred": 2129,
    "Ġest": 2130,
    "Ġblood": 2131,
    "Every": 2132,
    "Ġhappy": 2133,
    "##ene": 2134,
    "Please": 2135,
    "Ġalbum": 2136,
    "##oor": 2137,
    "Ġreleased": 2138,
    "Wh": 2139,
    "Ġbrought": 2140,
    "Ġbehind": 2141,
    "huh": 2142,
    "##eng": 2143,
    "Ġsat": 2144,
    "Ġorigin": 2145,
    "Ġsever": 2146,
    "##selves": 2147,
    "ĠĠĠĠ": 2148,
    "Ġpar": 2149,
    "Ġwords": 2150,
    "##pr": 2151,
    "Ġhon": 2152,
    "ĠWar": 2153,
    "ĠAust": 2154,
    "Ġdrink": 2155,
    "##ney": 2156,
    "Ġarm": 2157,
    "Ġtele": 2158,
    "##augh": 2159,
    "Ġhell": 2160,
    "##umb": 2161,
    "Ġmakes": 2162,
    "##ology": 2163,
    "ĠYeah": 2164,
    "Ġ193": 2165,
    "of": 2166,
    "Ġtre": 2167,
    "ĠEnglish": 2168,
    "Ġtaken": 2169,
    "ĠSouth": 2170,
    "Ġbar": 2171,
    "Ġnews": 2172,
    "Ġseveral": 2173,
    "Ġseries": 2174,
    "##eor": 2175,
    "ĠFrance": 2176,
    "##ently": 2177,
    "Ġgra": 2178,
    "Ġfood": 2179,
    "Ġfront": 2180,
    "ĠYOU": 2181,
    "ĠMarch": 2182,
    "##ones": 2183,
    "##haps": 2184,
    "##ped": 2185,
    "##rench": 2186,
    "##ement": 2187,
    "ĠEuro": 2188,
    "Ġdog": 2189,
    "Ġval": 2190,
    "Ġmag": 2191,
    "Ġanim": 2192,
    "Ġstat": 2193,
    "##ks": 2194,
    "Ġhuman": 2195,
    "Ġpast": 2196,
    "Ġtaking": 2197,
    "Ġhot": 2198,
    "Ġann": 2199,
    "Some": 2200,
    "##aced": 2201,
    "Ġ$": 2202,
    "##eptember": 2203,
    "ĠDec": 2204,
    "Ġsupport": 2205,
    "ĠMiss": 2206,
    "Ġstuff": 2207,
    "##ior": 2208,
    "##urs": 2209,
    "Ġseason": 2210,
    "Ġstrong": 2211,
    "##ctober": 2212,
    "ĠMin": 2213,
    "ĠComm": 2214,
    "Ġband": 2215,
    "##ude": 2216,
    "Ġ]": 2217,
    "ĠAugust": 2218,
    "Ġpict": 2219,
    "##unt": 2220,
    "Ġeither": 2221,
    "Ġball": 2222,
    "##lex": 2223,
    "##band": 2224,
    "Ġdem": 2225,
    "ĠWh": 2226,
    "##IS": 2227,
    "Ġ&": 2228,
    "##oint": 2229,
    "##ots": 2230,
    "##ales": 2231,
    "##ances": 2232,
    "##atic": 2233,
    "Ġsold": 2234,
    "Ġeng": 2235,
    "Ġresp": 2236,
    "Ġcharac": 2237,
    "##aim": 2238,
    "Ġadm": 2239,
    "ĠPh": 2240,
    "Ġdaughter": 2241,
    "Ġpiec": 2242,
    "Ġrather": 2243,
    "Ġfig": 2244,
    "Ġexample": 2245,
    "Ġthinking": 2246,
    "Ġattack": 2247,
    "##ider": 2248,
    "##ches": 2249,
    "there": 2250,
    "ĠJune": 2251,
    "##oe": 2252,
    "##ma": 2253,
    "Ġallow": 2254,
    "##wo": 2255,
    "ĠWill": 2256,
    "Ġap": 2257,
    "##hern": 2258,
    "Ġminutes": 2259,
    "Ġquick": 2260,
    "ĠMrs": 2261,
    "Ġlooks": 2262,
    "##iving": 2263,
    "Ġcouldn": 2264,
    "Ġprogram": 2265,
    "we": 2266,
    "Ġreport": 2267,
    "Ġothers": 2268,
    "ĠBritish": 2269,
    "Ġroad": 2270,
    "Ġparty": 2271,
    "Ġinform": 2272,
    "Be": 2273,
    "##ety": 2274,
    "Ġtou": 2275,
    "Ġlisten": 2276,
    "Ġwithin": 2277,
    "##ald": 2278,
    "Ġliving": 2279,
    "Ġtem": 2280,
    "Ġheld": 2281,
    "##arr": 2282,
    "Ġbeautiful": 2283,
    "##ency": 2284,
    "##oman": 2285,
    "##men": 2286,
    "Ġsuccess": 2287,
    "Ġdesign": 2288,
    "Ġnamed": 2289,
    "##resent": 2290,
    "##head": 2291,
    "Ġnational": 2292,
    "##aring": 2293,
    "##ained": 2294,
    "##oad": 2295,
    "Ġgrow": 2296,
    "ĠEurope": 2297,
    "Ġwants": 2298,
    "##itting": 2299,
    "Ġmillion": 2300,
    "Ġresult": 2301,
    "Ġminute": 2302,
    "ĠSeptember": 2303,
    "##ode": 2304,
    "Ġnorth": 2305,
    "Ġperform": 2306,
    "##itten": 2307,
    "##aul": 2308,
    "Ġinside": 2309,
    "Ġbra": 2310,
    "##ories": 2311,
    "Ġstru": 2312,
    "ĠCol": 2313,
    "ĠBe": 2314,
    "Ġspecial": 2315,
    "##ored": 2316,
    "ĠOctober": 2317,
    "##actly": 2318,
    "##ege": 2319,
    "##isc": 2320,
    "ĠNorth": 2321,
    "Ġlangu": 2322,
    "Ġnec": 2323,
    "ĠAd": 2324,
    "Ġstra": 2325,
    "ĠTr": 2326,
    "ĠApril": 2327,
    "Ah": 2328,
    "##ovember": 2329,
    "##ounc": 2330,
    "Ġmember": 2331,
    "Ex": 2332,
    "Ġ11": 2333,
    "ĠJuly": 2334,
    "##ousand": 2335,
    "##oub": 2336,
    "ĠPres": 2337,
    "Ġsum": 2338,
    "Ġrepl": 2339,
    "Or": 2340,
    "##ze": 2341,
    "Ġturned": 2342,
    "Ġmess": 2343,
    "Ġwonder": 2344,
    "Ġve": 2345,
    "Ġsingle": 2346,
    "ĠNational": 2347,
    "##fully": 2348,
    "Ġvill": 2349,
    "##airs": 2350,
    "##anger": 2351,
    "Ġformer": 2352,
    "##ĠĠĠĠĠĠĠĠĠĠĠĠĠĠĠĠ": 2353,
    "Ġlived": 2354,
    "Ġrock": 2355,
    "ĠPl": 2356,
    "##fe": 2357,
    "Ġsil": 2358,
    "Ġappear": 2359,
    "##cial": 2360,
    "Ġincluding": 2361,
    "Maybe": 2362,
    "Ġking": 2363,
    "Ġelect": 2364,
    "ĠSw": 2365,
    "Ġtest": 2366,
    "##unch": 2367,
    "ĠGo": 2368,
    "where": 2369,
    "##unk": 2370,
    "Ġdie": 2371,
    "##pped": 2372,
    "Ġexpect": 2373,
    "##amb": 2374,
    "##itch": 2375,
    "Ġdream": 2376,
    "##ara": 2377,
    "##fect": 2378,
    "##con": 2379,
    "##usband": 2380,
    "##ruary": 2381,
    "Ġship": 2382,
    "##ounds": 2383,
    "##ebruary": 2384,
    "##ued": 2385,
    "Hello": 2386,
    "Ġcamp": 2387,
    "ĠDecember": 2388,
    "Ġcommon": 2389,
    "##over": 2390,
    "ĠCar": 2391,
    "ĠWhen": 2392,
    "ĠSo": 2393,
    "##oul": 2394,
    "Ġfelt": 2395,
    "\")": 2396,
    "Ġplaying": 2397,
    "##key": 2398,
    "##idge": 2399,
    "Ġthird": 2400,
    "Ġdear": 2401,
    "With": 2402,
    "Ġvoice": 2403,
    "##AS": 2404,
    "##ternational": 2405,
    "##not": 2406,
    "##ana": 2407,
    "##fort": 2408,
    "Ġusing": 2409,
    "Ġmonths": 2410,
    "Ġrev": 2411,
    "##que": 2412,
    "Ġacross": 2413,
    "##hm": 2414,
    "##echn": 2415,
    "Ġoutside": 2416,
    "Ġfootball": 2417,
    "Have": 2418,
    "ĠNovember": 2419,
    "ĠFl": 2420,
    "Ġsometimes": 2421,
    "ĠFrench": 2422,
    "Ġdark": 2423,
    "ĠX": 2424,
    "Ġmemb": 2425,
    "wh": 2426,
    "ĠCal": 2427,
    "Ġworked": 2428,
    "Ġz": 2429,
    "##ended": 2430,
    "Ġcheck": 2431,
    "ĠBar": 2432,
    "Ġpossible": 2433,
    "After": 2434,
    "Ġhours": 2435,
    "Ġeffect": 2436,
    "##ached": 2437,
    "Ġthousand": 2438,
    "Ġamong": 2439,
    "Ġhit": 2440,
    "ĠOr": 2441,
    "Ġhair": 2442,
    "##vision": 2443,
    "Ġrequ": 2444,
    "Ġdest": 2445,
    "Ġfif": 2446,
    "Ġ192": 2447,
    "##ele": 2448,
    "Ġgun": 2449,
    "##pec": 2450,
    "Ġforg": 2451,
    "Ġcareer": 2452,
    "Ġcop": 2453,
    "Ġproc": 2454,
    "##overed": 2455,
    "Ġclub": 2456,
    "Ġdesc": 2457,
    "Ġmajor": 2458,
    "##irth": 2459,
    "Ġfollowing": 2460,
    "Ġill": 2461,
    "Ġhusband": 2462,
    "##iddle": 2463,
    "Ġpoor": 2464,
    "Ġfre": 2465,
    "ĠMan": 2466,
    "Ġsun": 2467,
    "##ata": 2468,
    "Ġdam": 2469,
    "ĠDo": 2470,
    "Ġprofess": 2471,
    "##oved": 2472,
    "Ġ13": 2473,
    "Ġappro": 2474,
    "Ġtried": 2475,
    "Ġwish": 2476,
    "Ġtot": 2477,
    "##che": 2478,
    "ĠFebruary": 2479,
    "##ays": 2480,
    "Ġtom": 2481,
    "sh": 2482,
    "##ND": 2483,
    "##rodu": 2484,
    "Ġaf": 2485,
    "Ġla": 2486,
    "Re": 2487,
    "##read": 2488,
    "Ġ14": 2489,
    "##lf": 2490,
    "Ġsend": 2491,
    "ĠCity": 2492,
    "20": 2493,
    "##eared": 2494,
    "##though": 2495,
    "Ġcir": 2496,
    "Ġlevel": 2497,
    "Ġmoved": 2498,
    "Ġgotta": 2499,
    "Ġseven": 2500,
    "Ġhistory": 2501,
    "##ases": 2502,
    "Ġbuilt": 2503,
    "Ġbox": 2504,
    "Any": 2505,
    "ĠHer": 2506,
    "Ġpolice": 2507,
    "Ġ2010": 2508,
    "##uthor": 2509,
    "##attle": 2510,
    "##ED": 2511,
    "##gest": 2512,
    "Ġfeet": 2513,
    "Ġgrand": 2514,
    "ĠTO": 2515,
    "##ressed": 2516,
    "ĠAf": 2517,
    "##aint": 2518,
    "Ġbuilding": 2519,
    "Ġproper": 2520,
    "Ġmembers": 2521,
    "Ġusually": 2522,
    "Ġcre": 2523,
    "##----": 2524,
    "Ġtill": 2525,
    "ĠPar": 2526,
    "##work": 2527,
    "##omin": 2528,
    "Ġgets": 2529,
    "##itions": 2530,
    "Ġfa": 2531,
    "Ġparent": 2532,
    "Ġav": 2533,
    "Ġcoup": 2534,
    "Ġcost": 2535,
    "Ġoffice": 2536,
    "Ġcal": 2537,
    "##rit": 2538,
    "##onight": 2539,
    "Ġstar": 2540,
    "##ean": 2541,
    "Ġtreat": 2542,
    "Ġworry": 2543,
    "##rog": 2544,
    "ĠGeor": 2545,
    "Ġanyone": 2546,
    "##ified": 2547,
    "Ġmur": 2548,
    "Ġgold": 2549,
    "##OM": 2550,
    "Ġpull": 2551,
    "ĠEd": 2552,
    "##yn": 2553,
    "Ġanswer": 2554,
    "Ġchance": 2555,
    "##raid": 2556,
    "Ġcomplete": 2557,
    "##ondon": 2558,
    "Ġcontrol": 2559,
    "Ġfield": 2560,
    "Ġpopulation": 2561,
    "Of": 2562,
    "Ġsweet": 2563,
    "Ġworks": 2564,
    "Ġbuy": 2565,
    "or": 2566,
    "##idence": 2567,
    "Ġabs": 2568,
    "Ġknows": 2569,
    "Ġwhether": 2570,
    "Ġstation": 2571,
    "Ġteac": 2572,
    "##ham": 2573,
    "Ġrad": 2574,
    "##een": 2575,
    "Ġcond": 2576,
    "##ET": 2577,
    "ĠGu": 2578,
    "Ġbased": 2579,
    "Ġlay": 2580,
    "##iod": 2581,
    "Ġord": 2582,
    "ĠAb": 2583,
    "##iol": 2584,
    "Ġdev": 2585,
    "##urg": 2586,
    "##ino": 2587,
    "Ġeasy": 2588,
    "well": 2589,
    "Ġcannot": 2590,
    "Ġprop": 2591,
    "Ġwall": 2592,
    "Ġplayer": 2593,
    "Ġ``": 2594,
    "Ġtwenty": 2595,
    "Ġwritten": 2596,
    "ĠCent": 2597,
    "ĠRep": 2598,
    "Ġstep": 2599,
    "Ġ30": 2600,
    "##of": 2601,
    "ĠLe": 2602,
    "ĠPresident": 2603,
    "##uk": 2604,
    "Ġlives": 2605,
    "Ġste": 2606,
    "##irty": 2607,
    "##por": 2608,
    "Ġsecret": 2609,
    "ĠAfter": 2610,
    "Ġsister": 2611,
    "##ges": 2612,
    "##eople": 2613,
    "ĠIf": 2614,
    "Ġevent": 2615,
    "Ġregion": 2616,
    "Ġfav": 2617,
    "let": 2618,
    "##come": 2619,
    "Ġlocal": 2620,
    "Ġview": 2621,
    "##asure": 2622,
    "Ġseems": 2623,
    "##ae": 2624,
    "##iding": 2625,
    "Ġphone": 2626,
    "##hys": 2627,
    "##IT": 2628,
    "##illy": 2629,
    "Ġgeneral": 2630,
    "Ġpract": 2631,
    "##par": 2632,
    "##soci": 2633,
    "Ġmine": 2634,
    "Ġiss": 2635,
    "##ule": 2636,
    "Ġeveryone": 2637,
    "##omb": 2638,
    "Ġcurrent": 2639,
    "Ġcouple": 2640,
    "Ġvide": 2641,
    "##OW": 2642,
    "Ġafraid": 2643,
    "Ġclear": 2644,
    "Ġsouth": 2645,
    "Ġlow": 2646,
    "ĠEl": 2647,
    "Ġcentury": 2648,
    "Ġprocess": 2649,
    "Ġpost": 2650,
    "Ġones": 2651,
    "Ġbird": 2652,
    "##ising": 2653,
    "Ġfast": 2654,
    "##ding": 2655,
    "Ġwrote": 2656,
    "ĠLea": 2657,
    "look": 2658,
    "so": 2659,
    "Ġmot": 2660,
    "Ġdraw": 2661,
    "Ġdeep": 2662,
    "ĠWest": 2663,
    "ĠDon": 2664,
    "##ument": 2665,
    "ĠHar": 2666,
    "Ġcold": 2667,
    "##ampions": 2668,
    "ĠLondon": 2669,
    "##ula": 2670,
    "##ift": 2671,
    "##EA": 2672,
    "Ġdiffic": 2673,
    "Ġinvol": 2674,
    "Ġground": 2675,
    "Ġexactly": 2676,
    "Ġfair": 2677,
    "Ġseemed": 2678,
    "Ġwrite": 2679,
    "Ġtomorrow": 2680,
    "Ġtable": 2681,
    "Ġgirls": 2682,
    "##ada": 2683,
    "Ġcry": 2684,
    "al": 2685,
    "Take": 2686,
    "Ġsea": 2687,
    "##ourn": 2688,
    "##ission": 2689,
    "Ġboys": 2690,
    "Ġlonger": 2691,
    "Ġincre": 2692,
    "Ġsense": 2693,
    "##itive": 2694,
    "Ġbirth": 2695,
    "##iron": 2696,
    "Erm": 2697,
    "##ected": 2698,
    "##mm": 2699,
    "##ogn": 2700,
    "Ġdin": 2701,
    "ĠEngland": 2702,
    "##unic": 2703,
    "Ġpaper": 2704,
    "Ġdistrict": 2705,
    "Ġsuff": 2706,
    "ĠJack": 2707,
    "Ġcharacter": 2708,
    "##uri": 2709,
    "Ġhuh": 2710,
    "##ask": 2711,
    "Ġbott": 2712,
    "##ization": 2713,
    "Ġsex": 2714,
    "Ġinformation": 2715,
    "##ills": 2716,
    "See": 2717,
    "Ġpur": 2718,
    "##oose": 2719,
    "Ġchanged": 2720,
    "##oard": 2721,
    "##ording": 2722,
    "ĠItal": 2723,
    "Wait": 2724,
    "who": 2725,
    "His": 2726,
    "Ġfur": 2727,
    "Ġtruth": 2728,
    "Ġkids": 2729,
    "Ġdirect": 2730,
    "##entle": 2731,
    "##erc": 2732,
    "##aur": 2733,
    "ĠAustral": 2734,
    "Ġdepartment": 2735,
    "##sc": 2736,
    "Ġcompet": 2737,
    "##ration": 2738,
    "##hel": 2739,
    "Ġrunning": 2740,
    "Ġ25": 2741,
    "Ġlik": 2742,
    "ĠOne": 2743,
    "Ġsupposed": 2744,
    "##ani": 2745,
    "##uation": 2746,
    "##ouncil": 2747,
    "##ination": 2748,
    "##irt": 2749,
    "Ġwood": 2750,
    "TH": 2751,
    "Ġpress": 2752,
    "Ġpubl": 2753,
    "âĢĶ": 2754,
    "Ġservice": 2755,
    "Ġran": 2756,
    "Ġsomebody": 2757,
    "Ġcat": 2758,
    "ĠGerman": 2759,
    "Ġfail": 2760,
    "##avy": 2761,
    "Ġlab": 2762,
    "Ġgen": 2763,
    "ĠWell": 2764,
    "Ġdeb": 2765,
    "Ġforget": 2766,
    "Cl": 2767,
    "Ġhurt": 2768,
    "Ġeduc": 2769,
    "Ġtonight": 2770,
    "Ġsuper": 2771,
    "Ġcross": 2772,
    "Ġnat": 2773,
    "Ġshot": 2774,
    "she": 2775,
    "Ġperiod": 2776,
    "##conom": 2777,
    "##GH": 2778,
    "##ille": 2779,
    "##OT": 2780,
    "Ġ*": 2781,
    "##dom": 2782,
    "##erry": 2783,
    "ĠLord": 2784,
    "Ġneeds": 2785,
    "Ġtrouble": 2786,
    "##uture": 2787,
    "##ael": 2788,
    "Ġreceived": 2789,
    "Ġhig": 2790,
    "Ġtree": 2791,
    "ĠUS": 2792,
    "##ops": 2793,
    "Ġtype": 2794,
    "Ġclean": 2795,
    "ĠAmerica": 2796,
    "Ġauthor": 2797,
    "Ġ191": 2798,
    "Ġtelevision": 2799,
    "##to": 2800,
    "Ġposition": 2801,
    "Ġ0": 2802,
    "they": 2803,
    "##itary": 2804,
    "Like": 2805,
    "ĠThen": 2806,
    "##emy": 2807,
    "Ġblue": 2808,
    "##acy": 2809,
    "can": 2810,
    "ĠDr": 2811,
    "##more": 2812,
    "##aff": 2813,
    "##ption": 2814,
    "##owers": 2815,
    "##let": 2816,
    "Ġrepresent": 2817,
    "Ġluck": 2818,
    "##ospital": 2819,
    "Ġtrad": 2820,
    "Ġlady": 2821,
    "Ġtechn": 2822,
    "Ġple": 2823,
    "Ġkept": 2824,
    "ĠSchool": 2825,
    "##arty": 2826,
    "##alt": 2827,
    "##room": 2828,
    "ĠRuss": 2829,
    "Ġcreated": 2830,
    "##cer": 2831,
    "ĠAm": 2832,
    "##aged": 2833,
    "Ġentire": 2834,
    "##ford": 2835,
    "Ġmount": 2836,
    "Ġarri": 2837,
    "for": 2838,
    "Ġtit": 2839,
    "Ġtouch": 2840,
    "Ġthemselves": 2841,
    "Ġlanguage": 2842,
    "##dden": 2843,
    "Ġconn": 2844,
    "Ġaccept": 2845,
    "Ġcos": 2846,
    "##II": 2847,
    "ĠEx": 2848,
    "Ġwaiting": 2849,
    "##joy": 2850,
    "##ror": 2851,
    "##oes": 2852,
    "Ġbank": 2853,
    "ĠRe": 2854,
    "Ġeverybody": 2855,
    "##eder": 2856,
    "Ġvers": 2857,
    "Ġsell": 2858,
    "Ġvillage": 2859,
    "Ġear": 2860,
    "Thanks": 2861,
    "Ġwhatever": 2862,
    "##LE": 2863,
    "##uz": 2864,
    "##avid": 2865,
    "##ploy": 2866,
    "ch": 2867,
    "##oming": 2868,
    "ĠAfric": 2869,
    "Ġhy": 2870,
    "Ġ100": 2871,
    "Ġobject": 2872,
    "Sorry": 2873,
    "Ġsurpr": 2874,
    "##ky": 2875,
    "Ġfucking": 2876,
    "here": 2877,
    "Ġsudden": 2878,
    "##ivil": 2879,
    "Ġstraight": 2880,
    "Ġcook": 2881,
    "Ġsugg": 2882,
    "Ġsuggest": 2883,
    "Un": 2884,
    "Ġabove": 2885,
    "ĠState": 2886,
    "##lu": 2887,
    "##IC": 2888,
    "##irm": 2889,
    "Ġfly": 2890,
    "cl": 2891,
    "Ġmist": 2892,
    "Ġparents": 2893,
    "Ġspecies": 2894,
    "##olution": 2895,
    "##ician": 2896,
    "Ġperhaps": 2897,
    "##estern": 2898,
    "ĠPeter": 2899,
    "Ġgreen": 2900,
    "ĠMy": 2901,
    "Ġrul": 2902,
    "##fer": 2903,
    "Ġpot": 2904,
    "##ager": 2905,
    "##bers": 2906,
    "##ression": 2907,
    "Ġfuture": 2908,
    "ĠTom": 2909,
    "Ġrese": 2910,
    "Ġhowever": 2911,
    "##omes": 2912,
    "ĠDe": 2913,
    "##stit": 2914,
    "Ġpicture": 2915,
    "Ġpriv": 2916,
    "Ġlim": 2917,
    "Ġrespect": 2918,
    "Ġcomput": 2919,
    "Ġbooks": 2920,
    "Ġcell": 2921,
    "##teen": 2922,
    "##ping": 2923,
    "##ending": 2924,
    "Ġinstead": 2925,
    "Ġtakes": 2926,
    "##inal": 2927,
    "Ġdecided": 2928,
    "Ġproblems": 2929,
    "Ġexist": 2930,
    "Ġinclude": 2931,
    "on": 2932,
    "##reet": 2933,
    "##atter": 2934,
    "Ġfeeling": 2935,
    "Ġvol": 2936,
    "##tle": 2937,
    "Tell": 2938,
    "Ġshoot": 2939,
    "Ġitself": 2940,
    "ĠMc": 2941,
    "Ġcarry": 2942,
    "Ġcirc": 2943,
    "Ġpiece": 2944,
    "Ġled": 2945,
    "##roy": 2946,
    "Ġstri": 2947,
    "Ġperfect": 2948,
    "Ġmouth": 2949,
    "Ġang": 2950,
    "Ġfinished": 2951,
    "Ġlaugh": 2952,
    "Ġport": 2953,
    "ĠPol": 2954,
    "##ocr": 2955,
    "Ġimag": 2956,
    "Ġherself": 2957,
    "ĠSy": 2958,
    "Ġinvest": 2959,
    "##hem": 2960,
    "Ġlearn": 2961,
    "##bit": 2962,
    "Ġcult": 2963,
    "Ġdro": 2964,
    "br": 2965,
    "##isten": 2966,
    "##razy": 2967,
    "Ġdoctor": 2968,
    "##ivid": 2969,
    "##lands": 2970,
    "ĠOF": 2971,
    "Ġletter": 2972,
    "##eneral": 2973,
    "##ences": 2974,
    "These": 2975,
    "Ġserved": 2976,
    "Ġdue": 2977,
    "##ilar": 2978,
    "Ġdoll": 2979,
    "Ġfix": 2980,
    "Ġaren": 2981,
    "Ġproject": 2982,
    "ĠNot": 2983,
    "this": 2984,
    "Will": 2985,
    "ĠHowever": 2986,
    "##pecially": 2987,
    "##ental": 2988,
    "Ġhappens": 2989,
    "##unicip": 2990,
    "yes": 2991,
    "Ġdifficult": 2992,
    "Ġworth": 2993,
    "Ġchurch": 2994,
    "Ġtrust": 2995,
    "Ġdi": 2996,
    "Ġvideo": 2997,
    "Ġcover": 2998,
    "Ġmem": 2999,
    "ĠEm": 3000,
    "Stop": 3001,
    "ĠHouse": 3002,
    "Ġspace": 3003,
    "Ġ24": 3004,
    "Ġant": 3005,
    "##ran": 3006,
    "Ġfinal": 3007,
    "##ampionship": 3008,
    "##ien": 3009,
    "##AY": 3010,
    "Ġearth": 3011,
    "##olute": 3012,
    "ĠPhil": 3013,
    "Hi": 3014,
    "Ġpopular": 3015,
    "##ograp": 3016,
    "ĠLeague": 3017,
    "Ġnorm": 3018,
    "Ġain": 3019,
    "##amm": 3020,
    "##line": 3021,
    "Ġtrack": 3022,
    "##amer": 3023,
    "Ġactiv": 3024,
    "Ġhealth": 3025,
    "Ġlad": 3026,
    "Ġprison": 3027,
    "##ray": 3028,
    "##viously": 3029,
    "Ġtelling": 3030,
    "Ġshit": 3031,
    "how": 3032,
    "##ival": 3033,
    "Ġhorse": 3034,
    "Ġesc": 3035,
    "Ġslow": 3036,
    "Ġanyway": 3037,
    "Ġrecogn": 3038,
    "##itor": 3039,
    "Ġnine": 3040,
    "Ġsoft": 3041,
    "Ġsafe": 3042,
    "Ġrelations": 3043,
    "Ġdoub": 3044,
    "Ġpresident": 3045,
    "ĠTo": 3046,
    "##rill": 3047,
    "##RE": 3048,
    "ĠCap": 3049,
    "Ġgentle": 3050,
    "Ar": 3051,
    "Ġweeks": 3052,
    "Ġ2014": 3053,
    "Ġsocial": 3054,
    "##erence": 3055,
    "##lin": 3056,
    "##ken": 3057,
    "##uted": 3058,
    "Ġfear": 3059,
    "ĠThese": 3060,
    "Ġmiddle": 3061,
    "Ġ21": 3062,
    "Ġriver": 3063,
    "ĠColl": 3064,
    "##raph": 3065,
    "Ġpassed": 3066,
    "##epend": 3067,
    "Ġhang": 3068,
    "Ġfigure": 3069,
    "Ġcorn": 3070,
    "##rug": 3071,
    "Ġviol": 3072,
    "Ġep": 3073,
    "Ġspir": 3074,
    "##ichael": 3075,
    "Ġdanger": 3076,
    "##itted": 3077,
    "##ades": 3078,
    "Ġmeant": 3079,
    "ĠGermany": 3080,
    "##val": 3081,
    "re": 3082,
    "Ġphot": 3083,
    "##ashing": 3084,
    "Ġsave": 3085,
    "##cl": 3086,
    "##US": 3087,
    "Ġcounty": 3088,
    "##eep": 3089,
    "ĠPaul": 3090,
    "##Ã¡": 3091,
    "Ġphys": 3092,
    "Ġengine": 3093,
    "Ġjud": 3094,
    "?âĢĿ": 3095,
    "ĠIndian": 3096,
    "Ġenjoy": 3097,
    "Ġgames": 3098,
    "##ius": 3099,
    "Ġahead": 3100,
    "##gel": 3101,
    "as": 3102,
    "ĠPark": 3103,
    "##empt": 3104,
    "##iers": 3105,
    "##ander": 3106,
    "Ġestab": 3107,
    "Ġcourt": 3108,
    "Ġfunny": 3109,
    "Ġtrain": 3110,
    "Ġ2018": 3111,
    "Ġmeeting": 3112,
    "Ġprinc": 3113,
    "Ġevening": 3114,
    "Ġhop": 3115,
    "Ġseat": 3116,
    "Ġfamous": 3117,
    "Ġtyp": 3118,
    "Ġclot": 3119,
    "Ġgod": 3120,
    "Ġvict": 3121,
    "##oom": 3122,
    "em": 3123,
    "Ġfurther": 3124,
    "Ġcast": 3125,
    "ĠSec": 3126,
    "with": 3127,
    "##bor": 3128,
    "##bed": 3129,
    "Ġeconom": 3130,
    "ll": 3131,
    "##oly": 3132,
    "Ġappl": 3133,
    "Ġsus": 3134,
    "Ġexcept": 3135,
    "##riage": 3136,
    "##ishing": 3137,
    "Ġ2011": 3138,
    "Ġfish": 3139,
    "##van": 3140,
    "Ġmach": 3141,
    "Ġener": 3142,
    "##rible": 3143,
    "Ġglad": 3144,
    "Ġcrazy": 3145,
    "Ġopened": 3146,
    "##iforn": 3147,
    "Ġ#": 3148,
    "Ġda": 3149,
    "Ġneg": 3150,
    "Ġsick": 3151,
    "Ġide": 3152,
    "Ġcrit": 3153,
    "##yle": 3154,
    "Ġreturned": 3155,
    "##ceed": 3156,
    "##ume": 3157,
    "Ġquiet": 3158,
    "Ġfill": 3159,
    "Ġ(\"": 3160,
    "Ġaut": 3161,
    "ĠQue": 3162,
    "Ġleaving": 3163,
    "Ġstood": 3164,
    "Ġum": 3165,
    "Ġcool": 3166,
    "##roll": 3167,
    "Ġself": 3168,
    "Ġcapital": 3169,
    "Ġrole": 3170,
    "Ġthrow": 3171,
    "ĠWilliam": 3172,
    "##ris": 3173,
    "Ġnin": 3174,
    "##ifornia": 3175,
    "Mar": 3176,
    "##erve": 3177,
    "##oph": 3178,
    "##oura": 3179,
    "Ġdisapp": 3180,
    "Ġring": 3181,
    "Ġcatch": 3182,
    "Ġbeginning": 3183,
    "18": 3184,
    "##ires": 3185,
    "Ġdinner": 3186,
    "Ġaccount": 3187,
    "Ġbreat": 3188,
    "Ġmad": 3189,
    "Ġforce": 3190,
    "Ġmult": 3191,
    "Ġsubject": 3192,
    "ĠWhy": 3193,
    "ĠSome": 3194,
    "Ġ2013": 3195,
    "Give": 3196,
    "##reg": 3197,
    "Ġhospital": 3198,
    "Ġfeat": 3199,
    "ĠSe": 3200,
    "like": 3201,
    "up": 3202,
    "Ġwhom": 3203,
    "Ġburn": 3204,
    "Ġfloor": 3205,
    "Ġcommune": 3206,
    "##now": 3207,
    "Ġclaim": 3208,
    "Ġagre": 3209,
    "Ġx": 3210,
    "Ġchair": 3211,
    "Ġpolitical": 3212,
    "##cient": 3213,
    "Ġ2017": 3214,
    "##rey": 3215,
    "ĠRiver": 3216,
    "Ġmass": 3217,
    "Ġcomb": 3218,
    "Ġclos": 3219,
    "##itz": 3220,
    "##TER": 3221,
    "##uge": 3222,
    "##lect": 3223,
    "##medi": 3224,
    "Ġeye": 3225,
    "Ġnon": 3226,
    "Ġparts": 3227,
    "Ġsitting": 3228,
    "ĠHigh": 3229,
    "Ġshut": 3230,
    "Ġgiving": 3231,
    "Ġforward": 3232,
    "Ġnecess": 3233,
    "Ġcommunity": 3234,
    "Ġident": 3235,
    "lt": 3236,
    "ĠSm": 3237,
    "Ġrespons": 3238,
    "Ġintrodu": 3239,
    "##ellow": 3240,
    "Ġmention": 3241,
    "Ġoriginal": 3242,
    "Ġdrive": 3243,
    "Ġcause": 3244,
    "Ġstick": 3245,
    "Ġ2020": 3246,
    "Ġreached": 3247,
    "Ġtotal": 3248,
    "Ġinteresting": 3249,
    "Ġstudents": 3250,
    "ĠSam": 3251,
    "Ġcountries": 3252,
    "##reme": 3253,
    "##ID": 3254,
    "be": 3255,
    "Ġmater": 3256,
    "Ġbeat": 3257,
    "##co": 3258,
    "Ġquestions": 3259,
    "Ġfem": 3260,
    "Ġkey": 3261,
    "Ġbag": 3262,
    "ĠEast": 3263,
    "##af": 3264,
    "##ica": 3265,
    "##hood": 3266,
    "ĠRoman": 3267,
    "##ging": 3268,
    "Ġsepar": 3269,
    "Ġsoci": 3270,
    "Ġrelig": 3271,
    "Ġ)": 3272,
    "ĠGood": 3273,
    "Ġfing": 3274,
    "Ġobs": 3275,
    "ĠCalifornia": 3276,
    "##iny": 3277,
    "Ġplaces": 3278,
    "ĠGeorge": 3279,
    "not": 3280,
    "By": 3281,
    "Ġproduct": 3282,
    "Ġindivid": 3283,
    "##imate": 3284,
    "##ication": 3285,
    "ĠMus": 3286,
    "Ġmatch": 3287,
    "##ili": 3288,
    "Ġyours": 3289,
    "##ply": 3290,
    "Ġquickly": 3291,
    "Ġhoney": 3292,
    "Ġ22": 3293,
    "Ġlose": 3294,
    "##inist": 3295,
    "Ġneigh": 3296,
    "##field": 3297,
    "Ġstage": 3298,
    "Ġhung": 3299,
    "##ears": 3300,
    "Ġamount": 3301,
    "##raft": 3302,
    "ĠMary": 3303,
    "##AC": 3304,
    "##esus": 3305,
    "ĠSu": 3306,
    "Somet": 3307,
    "##ocked": 3308,
    "are": 3309,
    "ĠRed": 3310,
    "Ġappeared": 3311,
    "##uel": 3312,
    "Ġstudy": 3313,
    "Ġpen": 3314,
    "Ġparticular": 3315,
    "##ffic": 3316,
    "Ġstore": 3317,
    "Ġ2012": 3318,
    "Ġinn": 3319,
    "Ġbear": 3320,
    "Even": 3321,
    "##ounced": 3322,
    "Ġhost": 3323,
    "Ġwhose": 3324,
    "200": 3325,
    "Ġtowards": 3326,
    "ĠRepublic": 3327,
    "Ġmarket": 3328,
    "##cent": 3329,
    "Ġkiss": 3330,
    "Ġsimilar": 3331,
    "##inite": 3332,
    "Ġpark": 3333,
    "Ġalive": 3334,
    "ĠIN": 3335,
    "Ġmis": 3336,
    "ĠIndia": 3337,
    "Ġtravel": 3338,
    "Ġsimple": 3339,
    "Ġpal": 3340,
    "Ġmid": 3341,
    "Ġ2015": 3342,
    "##iety": 3343,
    "Ġjump": 3344,
    "ĠJapanese": 3345,
    "Ġmoving": 3346,
    "##olly": 3347,
    "Ġenergy": 3348,
    "Ġwindow": 3349,
    "Ġsuppose": 3350,
    "Ġgrad": 3351,
    "##het": 3352,
    "Ġroll": 3353,
    "Ġdeg": 3354,
    "##uty": 3355,
    "Ġ2008": 3356,
    "Ġlocated": 3357,
    "Ġcried": 3358,
    "ĠGl": 3359,
    "Ġpublished": 3360,
    "##ico": 3361,
    "Ġcolor": 3362,
    "##upid": 3363,
    "##cher": 3364,
    "God": 3365,
    "##iled": 3366,
    "From": 3367,
    "Ġanymore": 3368,
    "ĠQu": 3369,
    "Ġfollowed": 3370,
    "##arden": 3371,
    "Ġnatural": 3372,
    "##ming": 3373,
    "ĠBy": 3374,
    "Ġ()": 3375,
    "Ġconsider": 3376,
    "##oyal": 3377,
    "Ġpolic": 3378,
    "Ġindust": 3379,
    "##ruction": 3380,
    "Ġcaught": 3381,
    "ĠGovern": 3382,
    "##ites": 3383,
    "Ġwide": 3384,
    "ĠGreat": 3385,
    "ĠCor": 3386,
    "ĠLou": 3387,
    "Ġris": 3388,
    "Nothing": 3389,
    "ĠJust": 3390,
    "Ġvisit": 3391,
    "ĠParty": 3392,
    "Ġenc": 3393,
    "##orts": 3394,
    "Really": 3395,
    "10": 3396,
    "##rian": 3397,
    "##aven": 3398,
    "Ġways": 3399,
    "##mas": 3400,
    "##ext": 3401,
    "Ġ2016": 3402,
    "Ġneeded": 3403,
    "##rab": 3404,
    "now": 3405,
    "Ġexperience": 3406,
    "Ġbelong": 3407,
    "Ġcertainly": 3408,
    "##anch": 3409,
    "ĠMed": 3410,
    "##anks": 3411,
    "Ġrace": 3412,
    "Ġbill": 3413,
    "##ensive": 3414,
    "Ġteacher": 3415,
    "Ġmunicip": 3416,
    "Ġben": 3417,
    "Ġver": 3418,
    "Ġsituation": 3419,
    "ĠJo": 3420,
    "##ÃŃ": 3421,
    "Listen": 3422,
    "ĠMe": 3423,
    "Ġsad": 3424,
    "Ġlie": 3425,
    "Ġperm": 3426,
    "##Ã¶": 3427,
    "Ġdress": 3428,
    "##ids": 3429,
    "Ġterms": 3430,
    "##wered": 3431,
    "Ġprep": 3432,
    "Ġalright": 3433,
    "##nes": 3434,
    "##uses": 3435,
    "Ġanybody": 3436,
    "Ġ2007": 3437,
    "Ġfinally": 3438,
    "##wood": 3439,
    "Ġfac": 3440,
    "Ġallowed": 3441,
    "ĠII": 3442,
    "##asons": 3443,
    "##go": 3444,
    "Ġstopped": 3445,
    "##iment": 3446,
    "##ett": 3447,
    "Ġmiles": 3448,
    "Ġearl": 3449,
    "ĠIT": 3450,
    "Ġ23": 3451,
    "Bl": 3452,
    "Ġdiscuss": 3453,
    "Ġconcern": 3454,
    "Ġstrange": 3455,
    "Ġshop": 3456,
    "Ġprotect": 3457,
    "##cuse": 3458,
    "##ago": 3459,
    "all": 3460,
    "ĠMad": 3461,
    "Ġ2009": 3462,
    "one": 3463,
    "##omen": 3464,
    "Ġstreet": 3465,
    "##bert": 3466,
    "Ġemploy": 3467,
    "Ġequal": 3468,
    "##Ã¼": 3469,
    "##inary": 3470,
    "Ġarch": 3471,
    "Ġshows": 3472,
    "Ġexam": 3473,
    "##ship": 3474,
    "ĠRich": 3475,
    "##istic": 3476,
    "Ġ2006": 3477,
    "##sych": 3478,
    "ĠÂ": 3479,
    "Ġfool": 3480,
    "ĠBro": 3481,
    "Ġserious": 3482,
    "##udd": 3483,
    "Ġanimals": 3484,
    "##anish": 3485,
    "##ero": 3486,
    "##itional": 3487,
    "##orthern": 3488,
    "ĠWith": 3489,
    "##pper": 3490,
    "##AL": 3491,
    "##ights": 3492,
    "an": 3493,
    "Ġespecially": 3494,
    "Ġboard": 3495,
    ".,": 3496,
    "ĠCup": 3497,
    "Ġwriting": 3498,
    "##ils": 3499,
    "Ġinflu": 3500,
    "##resh": 3501,
    "##urity": 3502,
    "did": 3503,
    "Ġvalue": 3504,
    "##ensus": 3505,
    "Ġpeace": 3506,
    "Ġbroad": 3507,
    "Ġisland": 3508,
    "Ġsurv": 3509,
    "##inct": 3510,
    "Ġinvolved": 3511,
    "Ġmilitary": 3512,
    "ĠCo": 3513,
    "##UT": 3514,
    "Ġmaterial": 3515,
    "Ġice": 3516,
    "##iling": 3517,
    "##ari": 3518,
    "Ġpaid": 3519,
    "Ġquar": 3520,
    "ĠDavid": 3521,
    "Ġbull": 3522,
    "Ġrid": 3523,
    "Ġdance": 3524,
    "ĠAir": 3525,
    "ex": 3526,
    "ĠJames": 3527,
    "ĠBen": 3528,
    "Ġemb": 3529,
    "Ġmodern": 3530,
    "Ġvarious": 3531,
    "Ġconv": 3532,
    "Ġdestroy": 3533,
    "Ġplays": 3534,
    "##ram": 3535,
    "Ġfarm": 3536,
    "Ġspent": 3537,
    "##ortun": 3538,
    "ĠAre": 3539,
    "ĠPer": 3540,
    "ĠMart": 3541,
    "Ġwild": 3542,
    "Ġfort": 3543,
    "Ġwarm": 3544,
    "Ġpack": 3545,
    "Ġbought": 3546,
    "Our": 3547,
    "##yl": 3548,
    "##iction": 3549,
    "##ength": 3550,
    "ĠSer": 3551,
    "Ġsoul": 3552,
    "##ustom": 3553,
    "Ġ2019": 3554,
    "OK": 3555,
    "Ġtax": 3556,
    "ĠChar": 3557,
    ".'": 3558,
    "Ġjoined": 3559,
    "Sp": 3560,
    "##VE": 3561,
    "Ġegg": 3562,
    "##ocks": 3563,
    "Ġasking": 3564,
    "Ġproduced": 3565,
    "ĠNow": 3566,
    "Ġnet": 3567,
    "Ġprofessional": 3568,
    "00": 3569,
    "##gar": 3570,
    "Ġdrug": 3571,
    "Ġremain": 3572,
    "##olutely": 3573,
    "Ġhate": 3574,
    "##iced": 3575,
    "Ġaction": 3576,
    "Ġlargest": 3577,
    "##outhern": 3578,
    "ĠWho": 3579,
    "Ġdate": 3580,
    "ĠSan": 3581,
    "##ala": 3582,
    "Ġdescrib": 3583,
    "Ġmix": 3584,
    "Ġenv": 3585,
    "Ġ50": 3586,
    "Ġet": 3587,
    "Ġrelationship": 3588,
    "##rel": 3589,
    "##cell": 3590,
    "Ġfavor": 3591,
    "ĠChurch": 3592,
    "Ġwat": 3593,
    "Ġcand": 3594,
    "Ġalthough": 3595,
    "Ġrefer": 3596,
    "##pen": 3597,
    "Ġseeing": 3598,
    "##well": 3599,
    "Ġattempt": 3600,
    "Ġbase": 3601,
    "Ġanswered": 3602,
    "##cious": 3603,
    "Ġwest": 3604,
    "Ġ190": 3605,
    "Ġglass": 3606,
    "Ġcivil": 3607,
    "Ġsummer": 3608,
    "ĠHey": 3609,
    "##ibility": 3610,
    "##edy": 3611,
    "Ġconside": 3612,
    "Ġimmedi": 3613,
    "Ġconsidered": 3614,
    "ĠMor": 3615,
    "ĠDad": 3616,
    "Ġofficial": 3617,
    "ĠDem": 3618,
    "##AP": 3619,
    "Ġ26": 3620,
    "Ġgives": 3621,
    "ĠJim": 3622,
    "Me": 3623,
    "Ġwear": 3624,
    "ĠTV": 3625,
    "Ġcoff": 3626,
    "##obert": 3627,
    "Ġeast": 3628,
    "ĠEn": 3629,
    "Ġbroke": 3630,
    "Ġsomewhere": 3631,
    "Ġgrew": 3632,
    "Two": 3633,
    "Ġ:": 3634,
    "ĠGrand": 3635,
    "##reek": 3636,
    "Ġarms": 3637,
    "##ify": 3638,
    "##hod": 3639,
    "was": 3640,
    "Ġdevelopment": 3641,
    "Tr": 3642,
    "Ġloved": 3643,
    "Ġstanding": 3644,
    "##ancy": 3645,
    "Ġsour": 3646,
    "Ġplant": 3647,
    "Ġdata": 3648,
    "ĠSch": 3649,
    "##itude": 3650,
    "Ġpoints": 3651,
    "Ġcard": 3652,
    "##ography": 3653,
    "Ġnumbers": 3654,
    "Which": 3655,
    "Ġtitle": 3656,
    "Ġareas": 3657,
    "Ġpolitician": 3658,
    "##istrict": 3659,
    "##ises": 3660,
    "Ġ28": 3661,
    "Ġsize": 3662,
    "Ġunc": 3663,
    "Ġhous": 3664,
    "ĠGeneral": 3665,
    "Ġnature": 3666,
    "Ġtend": 3667,
    "Ġcompan": 3668,
    "Ġhat": 3669,
    "which": 3670,
    "##asing": 3671,
    "##vious": 3672,
    "ĠEuropean": 3673,
    "Ġpersonal": 3674,
    "Ġstruct": 3675,
    "Ġtired": 3676,
    "##ners": 3677,
    "##ential": 3678,
    "Ġ27": 3679,
    "Ġmaster": 3680,
    "ĠSoc": 3681,
    "Ġaud": 3682,
    "Ġpers": 3683,
    "Ġrob": 3684,
    "Ġdig": 3685,
    "Ġgas": 3686,
    "##icle": 3687,
    "ĠLet": 3688,
    "Ġarmy": 3689,
    "Ġpurp": 3690,
    "Would": 3691,
    "ĠFrank": 3692,
    "##ique": 3693,
    "Ġsal": 3694,
    "##ourt": 3695,
    "Ġprim": 3696,
    "##ament": 3697,
    "Ġclothes": 3698,
    "##ators": 3699,
    "Pro": 3700,
    "##uts": 3701,
    "##asc": 3702,
    "ĠAg": 3703,
    "!âĢĿ": 3704,
    "Ab": 3705,
    "Ġfund": 3706,
    "Ġfunction": 3707,
    "Ġincluded": 3708,
    "##rif": 3709,
    "##terday": 3710,
    "Ġstars": 3711,
    "Ġmer": 3712,
    "##irgin": 3713,
    "Ġcomputer": 3714,
    "##cast": 3715,
    "Ġstupid": 3716,
    "##ability": 3717,
    "##ether": 3718,
    "##face": 3719,
    "Ġcollege": 3720,
    "Ġbrain": 3721,
    "##lymp": 3722,
    "##bour": 3723,
    "Ġadded": 3724,
    "Ġmommy": 3725,
    "##ounded": 3726,
    "Ġeducation": 3727,
    "Â´": 3728,
    "Ġheavy": 3729,
    "Does": 3730,
    "##iber": 3731,
    "##friend": 3732,
    "##istory": 3733,
    "##ya": 3734,
    "Ġshare": 3735,
    "Um": 3736,
    "Ġcompletely": 3737,
    "Ġresearch": 3738,
    "see": 3739,
    "Ġaver": 3740,
    "##rect": 3741,
    "ĠCouncil": 3742,
    "Ġcommand": 3743,
    "ĠBel": 3744,
    "Ġprivate": 3745,
    "##ka": 3746,
    "Ġsimply": 3747,
    "Ġimm": 3748,
    "Ġspirit": 3749,
    "##ville": 3750,
    "Ġboat": 3751,
    "##chen": 3752,
    "Ġdrop": 3753,
    "##olic": 3754,
    "##ularly": 3755,
    "ĠPal": 3756,
    "ĠWhere": 3757,
    "Qu": 3758,
    "ĠLa": 3759,
    "ĠEarth": 3760,
    "##EL": 3761,
    "Ġnearly": 3762,
    "##icated": 3763,
    "Ġtrees": 3764,
    "ĠMinister": 3765,
    "Ġsearch": 3766,
    "##ograph": 3767,
    "Ġdirected": 3768,
    "Ġindeed": 3769,
    "##ki": 3770,
    "##AM": 3771,
    "Pl": 3772,
    "Sure": 3773,
    "201": 3774,
    "##noon": 3775,
    "Ġmodel": 3776,
    "##ena": 3777,
    "Ġextra": 3778,
    "##oid": 3779,
    "Ġcontract": 3780,
    "Ġimpro": 3781,
    "Ġscient": 3782,
    "Very": 3783,
    "Ġcaused": 3784,
    "##board": 3785,
    "Ġdaddy": 3786,
    "##off": 3787,
    "##gress": 3788,
    "Ġnames": 3789,
    "right": 3790,
    "Ġevidence": 3791,
    "Ġdoubt": 3792,
    "Ġthanks": 3793,
    "Ġtea": 3794,
    "##hest": 3795,
    "Ġdifference": 3796,
    "Her": 3797,
    "Ġexplain": 3798,
    "ĠSte": 3799,
    "ĠBlack": 3800,
    "Ġelection": 3801,
    "ĠMon": 3802,
    "##ston": 3803,
    "##antic": 3804,
    "##astic": 3805,
    "ĠParis": 3806,
    "Ġtick": 3807,
    "Ġcontinued": 3808,
    "Ġpray": 3809,
    "Ġtalked": 3810,
    "##iday": 3811,
    "##antly": 3812,
    "ĠOkay": 3813,
    "Ġavail": 3814,
    "ĠHen": 3815,
    "##wise": 3816,
    "ĠAustralia": 3817,
    "Ġaward": 3818,
    "##osing": 3819,
    "Per": 3820,
    "##omas": 3821,
    "##chie": 3822,
    "##ological": 3823,
    "Ġsens": 3824,
    "Ġdecl": 3825,
    "ĠSir": 3826,
    "Ġtour": 3827,
    "Ġwed": 3828,
    "Ġbow": 3829,
    "##ruct": 3830,
    "Ġrail": 3831,
    "ĠMex": 3832,
    "##istics": 3833,
    "##burg": 3834,
    "ĠOlymp": 3835,
    "##ails": 3836,
    "##ively": 3837,
    "Ġbroken": 3838,
    "Ġappoint": 3839,
    "Ġforest": 3840,
    "Ġrain": 3841,
    "ĠDep": 3842,
    "ĠOK": 3843,
    "Ġhistor": 3844,
    "ĠĠĠĠĠĠĠĠĠĠĠĠĠĠĠĠĠ": 3845,
    "##tered": 3846,
    "Ġindepend": 3847,
    "Ġbud": 3848,
    "ĠComp": 3849,
    "Ġpromise": 3850,
    "Ġwel": 3851,
    "ĠSen": 3852,
    "Ġsounds": 3853,
    "##ashington": 3854,
    "Ġgroups": 3855,
    "Ġradio": 3856,
    "Ġwatching": 3857,
    "##ij": 3858,
    "Ġlo": 3859,
    "Ġnobody": 3860,
    "Ġattention": 3861,
    "Ġassoci": 3862,
    "##ously": 3863,
    "Ġcomfort": 3864,
    "Ġfoc": 3865,
    "Ġhelped": 3866,
    "Ġwonderful": 3867,
    "Ġarr": 3868,
    "Ġsuddenly": 3869,
    "Ġbur": 3870,
    "##anced": 3871,
    "Fr": 3872,
    "Ġur": 3873,
    "Ġbattle": 3874,
    "##ledge": 3875,
    "Ġliter": 3876,
    "Ġfle": 3877,
    "Ġpath": 3878,
    "Ġcharge": 3879,
    "##ux": 3880,
    "##light": 3881,
    "##iles": 3882,
    "ĠChampionship": 3883,
    "Ġarrest": 3884,
    "##uke": 3885,
    "Ġcup": 3886,
    "ĠAc": 3887,
    "Ġpercent": 3888,
    "Ġrich": 3889,
    "Ġ2000": 3890,
    "Ġmarry": 3891,
    "Ġreach": 3892,
    "Ġshouldn": 3893,
    "##ushed": 3894,
    "ĠTur": 3895,
    "Ġarg": 3896,
    "##raw": 3897,
    "Ġversion": 3898,
    "Ġdoc": 3899,
    "##rie": 3900,
    "##useum": 3901,
    "##action": 3902,
    "Ġthirty": 3903,
    "##azing": 3904,
    "##inese": 3905,
    "##ibly": 3906,
    "##ords": 3907,
    "Ġrights": 3908,
    "##unn": 3909,
    "Ġinj": 3910,
    "Ġmeaning": 3911,
    "Ġspend": 3912,
    "Ġestabl": 3913,
    "ĠSim": 3914,
    "##aker": 3915,
    "Ġdefe": 3916,
    "Ġsand": 3917,
    "ĠMont": 3918,
    "##ground": 3919,
    "##illa": 3920,
    "Ġbottom": 3921,
    "Ġsight": 3922,
    "##tt": 3923,
    "ĠUnion": 3924,
    "Ġblow": 3925,
    "ĠBer": 3926,
    "##nown": 3927,
    "##iot": 3928,
    "##de": 3929,
    "Ġfifty": 3930,
    "ĠAnt": 3931,
    "Ġshowed": 3932,
    "ĠReg": 3933,
    "ĠCome": 3934,
    "##aste": 3935,
    "##ests": 3936,
    "Ġhappening": 3937,
    "Ġfit": 3938,
    "Ġinterested": 3939,
    "ĠĠĠĠĠĠ": 3940,
    "ĠStreet": 3941,
    "ĠMichael": 3942,
    "##FF": 3943,
    "Ġfinish": 3944,
    "##ittee": 3945,
    "##OS": 3946,
    "Ġthreat": 3947,
    "Ġlength": 3948,
    "Ġannounced": 3949,
    "Ġclosed": 3950,
    "Ġredu": 3951,
    "Ġopportun": 3952,
    "Ġlog": 3953,
    "##ERE": 3954,
    "ĠCollege": 3955,
    "Man": 3956,
    "ĠDan": 3957,
    "ĠChina": 3958,
    "Ġpounds": 3959,
    "Ġformed": 3960,
    "##usion": 3961,
    "Ġafternoon": 3962,
    "Ġnor": 3963,
    "##elebr": 3964,
    "##ples": 3965,
    "Ġfat": 3966,
    "Ġfounded": 3967,
    "15": 3968,
    "Ġweap": 3969,
    "ĠHall": 3970,
    "Ġchoice": 3971,
    "##ables": 3972,
    "##ida": 3973,
    "Ġdise": 3974,
    "##aves": 3975,
    "ĠChristian": 3976,
    "Excuse": 3977,
    "Ġcalling": 3978,
    "##elve": 3979,
    "Ġden": 3980,
    "Ġhigher": 3981,
    "Ġ29": 3982,
    "Ġbelow": 3983,
    "ĠPat": 3984,
    "##ironment": 3985,
    "ĠPort": 3986,
    "Ġbri": 3987,
    "ĠCr": 3988,
    "pl": 3989,
    "##Ã³": 3990,
    "ĠWH": 3991,
    "Ġinit": 3992,
    "Ġtraining": 3993,
    "Ġspeed": 3994,
    "Ġdirector": 3995,
    "Ġbirthday": 3996,
    "Ġnormal": 3997,
    "Ġweren": 3998,
    "Ġmarriage": 3999,
    "Ġnovel": 4000,
    "##berg": 4001,
    "Ġstreng": 4002,
    "##amn": 4003,
    "##oring": 4004,
    "##osition": 4005,
    "ĠON": 4006,
    "Am": 4007,
    "âĢĿ": 4008,
    "ĠGreen": 4009,
    "ĠInternational": 4010,
    "##aly": 4011,
    "Ġactor": 4012,
    "ĠNor": 4013,
    "ĠDistrict": 4014,
    "Ġmurder": 4015,
    "aha": 4016,
    "##king": 4017,
    "John": 4018,
    "##icks": 4019,
    "##ubb": 4020,
    "Ġtemper": 4021,
    "##view": 4022,
    "##ilities": 4023,
    "##isf": 4024,
    "Br": 4025,
    "Ġmethod": 4026,
    "Ġstarting": 4027,
    "##osh": 4028,
    "##ript": 4029,
    "ĠJew": 4030,
    "Ġfellow": 4031,
    "Ġhall": 4032,
    "##oted": 4033,
    "##inn": 4034,
    "Ġ2005": 4035,
    "##apers": 4036,
    "##ification": 4037,
    "##asion": 4038,
    "Ġbright": 4039,
    "##atives": 4040,
    "Ġspoke": 4041,
    "Ġscience": 4042,
    "Ġstories": 4043,
    "ĠPenn": 4044,
    "mm": 4045,
    "ĠÃ": 4046,
    "Ġ189": 4047,
    "come": 4048,
    "12": 4049,
    "##ria": 4050,
    "##urb": 4051,
    "Ġcarried": 4052,
    "##cul": 4053,
    "Ġaccident": 4054,
    "##str": 4055,
    "Ġdeveloped": 4056,
    "Ġlower": 4057,
    "Ġmanage": 4058,
    "Ġsite": 4059,
    "Ġlovely": 4060,
    "Ġended": 4061,
    "Ġcenter": 4062,
    "ĠPri": 4063,
    "##upp": 4064,
    "Ġoffer": 4065,
    "##ession": 4066,
    "##ols": 4067,
    "Ġworse": 4068,
    "Ġchanges": 4069,
    "ĠWashington": 4070,
    "Ġdeterm": 4071,
    "Ġcoffee": 4072,
    "Ġpsych": 4073,
    "##za": 4074,
    "##aries": 4075,
    "##alley": 4076,
    "ĠIts": 4077,
    "Ġavailable": 4078,
    "Ġexec": 4079,
    "ĠYour": 4080,
    "##set": 4081,
    "##arily": 4082,
    "Ġsociety": 4083,
    "ĠMal": 4084,
    "ĠChristmas": 4085,
    "Ġleader": 4086,
    "Ġassist": 4087,
    "Ġhuge": 4088,
    "ĠCanada": 4089,
    "##IM": 4090,
    "##LD": 4091,
    "Ġlif": 4092,
    "##arp": 4093,
    "Ġstates": 4094,
    "Ġdecision": 4095,
    "##ees": 4096,
    "Ġfeed": 4097,
    "ĠArmy": 4098,
    "Ġsnow": 4099,
    "Ġregard": 4100,
    "Ġearlier": 4101,
    "Ġaverage": 4102,
    "Ġtext": 4103,
    "Ġmachine": 4104,
    "Ġputting": 4105,
    "Ġpun": 4106,
    "ĠAlex": 4107,
    "Ġschools": 4108,
    "Ġcapt": 4109,
    "Was": 4110,
    "Ġmilk": 4111,
    "Ġund": 4112,
    "##ams": 4113,
    "Ġyesterday": 4114,
    "##iest": 4115,
    "Ġmessage": 4116,
    "Ġbusy": 4117,
    "Ġlines": 4118,
    "##ipped": 4119,
    "Ġrout": 4120,
    "Ġhol": 4121,
    "ĠKh": 4122,
    "ĠQueen": 4123,
    "Ġbes": 4124,
    "Ġspread": 4125,
    "ĠOld": 4126,
    "People": 4127,
    "Ġcustom": 4128,
    "Ġplus": 4129,
    "Ġmultip": 4130,
    "Ġepis": 4131,
    "##OO": 4132,
    "Ġmovies": 4133,
    "why": 4134,
    "Only": 4135,
    "Ġmovement": 4136,
    "ĠAfrica": 4137,
    "Ġagree": 4138,
    "##arliam": 4139,
    "##sequ": 4140,
    "Ġsongs": 4141,
    "year": 4142,
    "ĠChe": 4143,
    "Ġcreate": 4144,
    "ĠAND": 4145,
    "Ġnose": 4146,
    "Ġlearned": 4147,
    "ĠTex": 4148,
    "17": 4149,
    "Ġride": 4150,
    "##initely": 4151,
    "##olf": 4152,
    "##ummer": 4153,
    "##rag": 4154,
    "##IGH": 4155,
    "Dad": 4156,
    "Ġcases": 4157,
    "##ossible": 4158,
    "Ġpage": 4159,
    "##for": 4160,
    "Ġ40": 4161,
    "Ġcondu": 4162,
    "Ġinternational": 4163,
    "First": 4164,
    "ĠSl": 4165,
    "Ġcareful": 4166,
    "Ġhero": 4167,
    "Ġestablished": 4168,
    "Ġmor": 4169,
    "Ġoccur": 4170,
    "Ġhonest": 4171,
    "Sir": 4172,
    "ĠMark": 4173,
    "Ġ2004": 4174,
    "Ġgarden": 4175,
    "Ġaccess": 4176,
    "CH": 4177,
    "##bon": 4178,
    "Ġcelebr": 4179,
    "Sc": 4180,
    "Ġcy": 4181,
    "Ġleaves": 4182,
    "##arliament": 4183,
    "Ġbath": 4184,
    "##ips": 4185,
    "Ġyellow": 4186,
    "Ġdemand": 4187,
    "##uit": 4188,
    "Ġhun": 4189,
    "Ġsuit": 4190,
    "ĠBE": 4191,
    "##ccording": 4192,
    "Ġ..": 4193,
    "##oday": 4194,
    "ĠAward": 4195,
    "Ġrule": 4196,
    "##vania": 4197,
    "Ġlegs": 4198,
    "Ġstyle": 4199,
    "Ġliked": 4200,
    "Ġjoin": 4201,
    "Ġfaith": 4202,
    "##hib": 4203,
    "##acing": 4204,
    "Ġsquare": 4205,
    "##ems": 4206,
    "##ims": 4207,
    "Ġsinger": 4208,
    "##lor": 4209,
    "ĠLouis": 4210,
    "##la": 4211,
    "##rat": 4212,
    "Ġpred": 4213,
    "##ournal": 4214,
    "##oves": 4215,
    "Ġterrible": 4216,
    "Ġnone": 4217,
    "Ġinvestig": 4218,
    "Ġneck": 4219,
    "Ġcensus": 4220,
    "##ension": 4221,
    "Ġevents": 4222,
    "Ġproduction": 4223,
    "Ġkit": 4224,
    "Ġbi": 4225,
    "Ġscared": 4226,
    "Ġfault": 4227,
    "ĠItalian": 4228,
    "hm": 4229,
    "##ette": 4230,
    "Ġcorner": 4231,
    "Ġmunicipality": 4232,
    "ĠFranc": 4233,
    "ĠCaptain": 4234,
    "Ġprincip": 4235,
    "##sey": 4236,
    "Ġought": 4237,
    "Ġstone": 4238,
    "Ġcontact": 4239,
    "ĠWhite": 4240,
    "##ita": 4241,
    "Ġdistrib": 4242,
    "Ġdry": 4243,
    "##emember": 4244,
    "Ġsmell": 4245,
    "##ms": 4246,
    "##apt": 4247,
    "##imb": 4248,
    "ĠSat": 4249,
    "Ġwa": 4250,
    "Ġeating": 4251,
    "if": 4252,
    "Ġchem": 4253,
    "Ġanimal": 4254,
    "ĠRob": 4255,
    "Ġprof": 4256,
    "##onel": 4257,
    "ar": 4258,
    "ĠChinese": 4259,
    "##aign": 4260,
    "##ini": 4261,
    "ĠIsland": 4262,
    "Ġideas": 4263,
    "Ġtherefore": 4264,
    "##order": 4265,
    "ĠME": 4266,
    "##icked": 4267,
    "ĠOf": 4268,
    "##ederal": 4269,
    "##cy": 4270,
    "##rupt": 4271,
    "##syl": 4272,
    "##etic": 4273,
    "ĠKore": 4274,
    "Mhm": 4275,
    "##nie": 4276,
    "ĠĠĠĠĠĠĠĠĠ": 4277,
    "Ġfol": 4278,
    "##elp": 4279,
    "Ġimmediately": 4280,
    "##uzz": 4281,
    "11": 4282,
    "##fast": 4283,
    "WH": 4284,
    "##ilies": 4285,
    "Ġflowers": 4286,
    "ĠFrom": 4287,
    "Ġcow": 4288,
    "Ġskin": 4289,
    "Ġsky": 4290,
    "Ġhey": 4291,
    "THE": 4292,
    "Ġ186": 4293,
    "##NA": 4294,
    "ĠBill": 4295,
    "##cean": 4296,
    "am": 4297,
    "Ġcred": 4298,
    "Ġlikely": 4299,
    "Ġ2021": 4300,
    "ĠVirgin": 4301,
    "Ġbell": 4302,
    "Ġtall": 4303,
    "##itation": 4304,
    "##oses": 4305,
    "##hab": 4306,
    "##ELL": 4307,
    "##lected": 4308,
    "Ġsigned": 4309,
    "Ġwelcome": 4310,
    "##sylvania": 4311,
    "##icago": 4312,
    "Ġraised": 4313,
    "##otten": 4314,
    "Ġlying": 4315,
    "Ġpieces": 4316,
    "Ġolder": 4317,
    "Ġdistance": 4318,
    "Ġwit": 4319,
    "##phone": 4320,
    "##ipe": 4321,
    "16": 4322,
    "Ġmostly": 4323,
    "Ġbelieved": 4324,
    "##erved": 4325,
    "Ġfrog": 4326,
    "##agn": 4327,
    "##icro": 4328,
    "ĠCong": 4329,
    "##aug": 4330,
    "Ġbenef": 4331,
    "Ġir": 4332,
    "Ġtheory": 4333,
    "ve": 4334,
    "Ġcamer": 4335,
    "##the": 4336,
    "ĠMa": 4337,
    "Ġnecessary": 4338,
    "##ancing": 4339,
    "ĠRussian": 4340,
    "Ġspecific": 4341,
    "go": 4342,
    "Ġchief": 4343,
    "Ġharm": 4344,
    "##asant": 4345,
    "Ġsevent": 4346,
    "ĠMil": 4347,
    "Ġacqu": 4348,
    "Ġdiscovered": 4349,
    "##night": 4350,
    "ĠRes": 4351,
    "Ġdisp": 4352,
    "ĠâĢĺ": 4353,
    "Ġcoast": 4354,
    "Ġcontinue": 4355,
    "##gain": 4356,
    "##CH": 4357,
    "##razil": 4358,
    "##ns": 4359,
    "Ġservices": 4360,
    "##urt": 4361,
    "##mpire": 4362,
    "ĠTexas": 4363,
    "Ġarrived": 4364,
    "Ġdepend": 4365,
    "##ware": 4366,
    "Ġbey": 4367,
    "##vert": 4368,
    "Ġstorm": 4369,
    "Ġconvers": 4370,
    "##annel": 4371,
    "Never": 4372,
    "ĠCharl": 4373,
    "mhm": 4374,
    "ĠSwed": 4375,
    "Ġcrime": 4376,
    "ĠPrince": 4377,
    "Ġwalked": 4378,
    "Ġtruck": 4379,
    "Ġut": 4380,
    "Ġelected": 4381,
    "##utch": 4382,
    "Ġsuccessful": 4383,
    "Ġbeyond": 4384,
    "Ġspl": 4385,
    "Ġrepe": 4386,
    "ĠJesus": 4387,
    "##vey": 4388,
    "Ġscene": 4389,
    "ĠST": 4390,
    "Ġru": 4391,
    "Ġaged": 4392,
    "##atory": 4393,
    "ĠRec": 4394,
    "##using": 4395,
    "Ġindividual": 4396,
    "ĠSund": 4397,
    "ĠĠĠĠĠĠĠ": 4398,
    "Ġimagine": 4399,
    "##stairs": 4400,
    "sp": 4401,
    "Ġgar": 4402,
    "Ġfighting": 4403,
    "ĠCourt": 4404,
    "Ġweak": 4405,
    "Ġmountain": 4406,
    "Ġ1990": 4407,
    "ĠTe": 4408,
    "##iant": 4409,
    "Ġintell": 4410,
    "Ġofficer": 4411,
    "ĠPennsylvania": 4412,
    "Ġspot": 4413,
    "Ġreb": 4414,
    "Ġcovered": 4415,
    "Could": 4416,
    "Ġmoon": 4417,
    "ĠScott": 4418,
    "Ġfirm": 4419,
    "Ġreview": 4420,
    "Ġ2001": 4421,
    "Dr": 4422,
    "ĠRobert": 4423,
    "Ġchall": 4424,
    "##ateg": 4425,
    "Ġpractice": 4426,
    "ĠAct": 4427,
    "Ġgoal": 4428,
    "Ġ31": 4429,
    "Ġcollect": 4430,
    "Ġenvironment": 4431,
    "Ġaddress": 4432,
    "##house": 4433,
    "Ġattract": 4434,
    "Ġreading": 4435,
    "don": 4436,
    "Ġcab": 4437,
    "Ġparticip": 4438,
    "Ġess": 4439,
    "Ġcrow": 4440,
    "ĠIS": 4441,
    "Ġprice": 4442,
    "....": 4443,
    "ĠArt": 4444,
    "Ġapart": 4445,
    "Ġreve": 4446,
    "Ġtells": 4447,
    "##...": 4448,
    "ĠDuring": 4449,
    "Ġformula": 4450,
    "Ġble": 4451,
    "ĠDemocr": 4452,
    "##arling": 4453,
    "Ġphil": 4454,
    "Ġspeaking": 4455,
    "Ġboss": 4456,
    "Ġfresh": 4457,
    "Ġholding": 4458,
    "ĠRichard": 4459,
    "##uments": 4460,
    "Ġwedding": 4461,
    "##kin": 4462,
    "Ġdouble": 4463,
    "##UR": 4464,
    "Ġwalking": 4465,
    "Ġdescribed": 4466,
    "##isted": 4467,
    "Ġrelease": 4468,
    "##ulf": 4469,
    "ĠCharles": 4470,
    "Ġfourth": 4471,
    "##west": 4472,
    "Ġpurpose": 4473,
    "Ġemer": 4474,
    "Ġprint": 4475,
    "Ġrules": 4476,
    "ĠKingdom": 4477,
    "ĠSal": 4478,
    "Ġadminist": 4479,
    "Ġissue": 4480,
    "Ġfemale": 4481,
    "##iana": 4482,
    "##aching": 4483,
    "Ġpictures": 4484,
    "Ġ188": 4485,
    "Ġangry": 4486,
    "ĠMount": 4487,
    "Ġpig": 4488,
    "##hew": 4489,
    ";&": 4490,
    "Ġtail": 4491,
    "ĠJul": 4492,
    "##ora": 4493,
    "Ġtar": 4494,
    "Ġforces": 4495,
    "Ġshown": 4496,
    "ĠSpanish": 4497,
    "##itiz": 4498,
    "Ġsettle": 4499,
    "##ients": 4500,
    "Ġrange": 4501,
    "Ġtwice": 4502,
    "Gu": 4503,
    "##rs": 4504,
    "Ġpositive": 4505,
    "Ġoil": 4506,
    "Ġreplied": 4507,
    "Ġenemy": 4508,
    "##pping": 4509,
    "Ġ1980": 4510,
    "Ġregular": 4511,
    "Ġtro": 4512,
    "his": 4513,
    "ĠHenry": 4514,
    "##IR": 4515,
    "ĠDel": 4516,
    "good": 4517,
    "##ura": 4518,
    "##atin": 4519,
    "##lt": 4520,
    "Ġslight": 4521,
    "Ġpan": 4522,
    "Ġbehav": 4523,
    "##Ã¤": 4524,
    "##anda": 4525,
    "ĠLaw": 4526,
    "Ġtrade": 4527,
    "##AD": 4528,
    "Ġlots": 4529,
    "ĠBrazil": 4530,
    "Ġsurface": 4531,
    "##ores": 4532,
    "##itar": 4533,
    "Ġstrength": 4534,
    "##mon": 4535,
    "Ġ2003": 4536,
    "##rial": 4537,
    "Ġnetwork": 4538,
    "Ġsle": 4539,
    "Ġdangerous": 4540,
    "Ġrate": 4541,
    "##pty": 4542,
    "13": 4543,
    "Ġbound": 4544,
    "Ġaccording": 4545,
    "##alled": 4546,
    "Ġchick": 4547,
    "##ictor": 4548,
    "Ġachie": 4549,
    "##oop": 4550,
    "##yer": 4551,
    "##oz": 4552,
    "Ġdirection": 4553,
    "Ġswim": 4554,
    "Put": 4555,
    "bl": 4556,
    "Ġlink": 4557,
    "Ġsoldiers": 4558,
    "Ġsatisf": 4559,
    "##sec": 4560,
    "Ġhide": 4561,
    "Ġloss": 4562,
    "##enth": 4563,
    "##KE": 4564,
    "Ġeasily": 4565,
    "##how": 4566,
    "ĠBob": 4567,
    "##50": 4568,
    "##âĢĻ": 4569,
    "Ġmemory": 4570,
    "Ġletters": 4571,
    "##ourage": 4572,
    "Wow": 4573,
    "##izing": 4574,
    "Ġcalls": 4575,
    "ĠSov": 4576,
    "##icate": 4577,
    "Ġknowledge": 4578,
    "ĠGold": 4579,
    "##ashion": 4580,
    "##road": 4581,
    "##lam": 4582,
    "Ġrecorded": 4583,
    "Ġpressure": 4584,
    "de": 4585,
    "##isters": 4586,
    "Ġdesp": 4587,
    "ĠBrown": 4588,
    "14": 4589,
    "Ġsac": 4590,
    "Ġcoun": 4591,
    "Ġproperty": 4592,
    "Ġnotice": 4593,
    "time": 4594,
    "##ademy": 4595,
    "Ġ2002": 4596,
    "ĠTHAT": 4597,
    "Ġmissing": 4598,
    "Ġmir": 4599,
    "ĠSoviet": 4600,
    "##rely": 4601,
    "ĠMac": 4602,
    "Ġstudent": 4603,
    "##ket": 4604,
    "##ker": 4605,
    "##oseph": 4606,
    "Ġtwelve": 4607,
    "Ġspe": 4608,
    "Ġcru": 4609,
    "Ġnewsp": 4610,
    "Ġyouth": 4611,
    "Ġder": 4612,
    "Ġhasn": 4613,
    "Ġrose": 4614,
    "##ulations": 4615,
    "##iring": 4616,
    "ĠDay": 4617,
    "Ġload": 4618,
    "cause": 4619,
    "##aine": 4620,
    "##ours": 4621,
    "Ġ2022": 4622,
    "##isions": 4623,
    "Ġchoose": 4624,
    "Ġfrequ": 4625,
    "Ġproud": 4626,
    "Ġancient": 4627,
    "Ġteams": 4628,
    "ĠItaly": 4629,
    "Ġplaced": 4630,
    "ĠChicago": 4631,
    "Ġcars": 4632,
    "ĠAnne": 4633,
    "##aled": 4634,
    "Everything": 4635,
    "Ġthinks": 4636,
    "Ġbridge": 4637,
    "Ġentered": 4638,
    "Ġhar": 4639,
    "ĠRoyal": 4640,
    "##iation": 4641,
    "Ġhors": 4642,
    "ĠTown": 4643,
    "##ona": 4644,
    "Ġcoach": 4645,
    "##sp": 4646,
    "Ġhonor": 4647,
    "Ġplayers": 4648,
    "##ota": 4649,
    "Ġsignific": 4650,
    "would": 4651,
    "Ġdollars": 4652,
    "Ġcomplet": 4653,
    "##adian": 4654,
    "ĠCH": 4655,
    "##aped": 4656,
    "Ġ00": 4657,
    "##abor": 4658,
    "ĠNe": 4659,
    "##vell": 4660,
    "Ad": 4661,
    "Ġkitchen": 4662,
    "ĠOl": 4663,
    "Ġanywhere": 4664,
    "Ġextreme": 4665,
    "Ġspring": 4666,
    "Ġmistake": 4667,
    "Ġcampaign": 4668,
    "Ġdropped": 4669,
    "##play": 4670,
    "uh": 4671,
    "ĠHere": 4672,
    "Those": 4673,
    "##idden": 4674,
    "Ġintern": 4675,
    "##oms": 4676,
    "Ġflat": 4677,
    "##BC": 4678,
    "Got": 4679,
    "Ġforgot": 4680,
    "Fuck": 4681,
    "##back": 4682,
    "Ġsecurity": 4683,
    "Ġ187": 4684,
    "Ġdegree": 4685,
    "Che": 4686,
    "Bye": 4687,
    "Since": 4688,
    "##ENT": 4689,
    "Ġopin": 4690,
    "Ġweight": 4691,
    "##uf": 4692,
    "Ġbrown": 4693,
    "Ġthroughout": 4694,
    "Ġcondition": 4695,
    "Ġdisease": 4696,
    "Ġlunch": 4697,
    "YOU": 4698,
    "ĠCath": 4699,
    "Ġpainting": 4700,
    "History": 4701,
    "Keep": 4702,
    "Ġcaptain": 4703,
    "##igned": 4704,
    "30": 4705,
    "##UN": 4706,
    "Ġbigger": 4707,
    "##gn": 4708,
    "ĠDO": 4709,
    "Ġbirds": 4710,
    "Ġwhis": 4711,
    "ĠFirst": 4712,
    "Ġincludes": 4713,
    "Ġleading": 4714,
    "##gypt": 4715,
    "day": 4716,
    "Ġqual": 4717,
    "##ano": 4718,
    "Ġwee": 4719,
    "because": 4720,
    "##eless": 4721,
    "ĠCarol": 4722,
    "Ġpolicy": 4723,
    "Ġtaught": 4724,
    "Ġsett": 4725,
    "Ġbab": 4726,
    "Americ": 4727,
    "##semb": 4728,
    "ĠPre": 4729,
    "Ġabsolutely": 4730,
    "Ġunless": 4731,
    "##zen": 4732,
    "##itect": 4733,
    "Ġbeg": 4734,
    "Ġdamn": 4735,
    "Ġgradu": 4736,
    "Ġopportunity": 4737,
    "Ġwriter": 4738,
    "Great": 4739,
    "Ġfamilies": 4740,
    "ĠPeople": 4741,
    "Ġcentral": 4742,
    "Ġhouses": 4743,
    "Ġsystems": 4744,
    "##utions": 4745,
    "##stitute": 4746,
    "Hold": 4747,
    "ĠAssoci": 4748,
    "ĠThank": 4749,
    "Ġsurprise": 4750,
    "##father": 4751,
    "Ġblock": 4752,
    "ĠPrinc": 4753,
    "Ġcorrect": 4754,
    "Ġmagaz": 4755,
    "##ato": 4756,
    "Ġguard": 4757,
    "ĠPe": 4758,
    "Ġstudied": 4759,
    "Ġstaff": 4760,
    "Ġeventually": 4761,
    "Ġpet": 4762,
    "##arah": 4763,
    "##cing": 4764,
    "Ġrom": 4765,
    "##istan": 4766,
    "Ġsurr": 4767,
    "ĠDiv": 4768,
    "Ġcontrib": 4769,
    "Ġshoes": 4770,
    "##ube": 4771,
    "Ġmum": 4772,
    "ĠJoe": 4773,
    "##iverse": 4774,
    "Ġrisk": 4775,
    "##yr": 4776,
    "ĠFred": 4777,
    "ĠIll": 4778,
    "##anta": 4779,
    "##hold": 4780,
    "Ġcities": 4781,
    "##ompl": 4782,
    "##rain": 4783,
    "Ġforty": 4784,
    "Ġhel": 4785,
    "Ġge": 4786,
    "##den": 4787,
    "Ġprovince": 4788,
    "Ġobviously": 4789,
    "Ġnote": 4790,
    "Ġgrowing": 4791,
    "Ġprince": 4792,
    "Ġmedical": 4793,
    "##VER": 4794,
    "Ġworried": 4795,
    "Ġ1970": 4796,
    "Ġsmaller": 4797,
    "Ġconstit": 4798,
    "##esty": 4799,
    "Ġpatient": 4800,
    "##arsh": 4801,
    "##otion": 4802,
    "##ca": 4803,
    "ĠWil": 4804,
    "Ġbecomes": 4805,
    "Ġmm": 4806,
    "##roat": 4807,
    "##shire": 4808,
    "Ġescape": 4809,
    "Ġpock": 4810,
    "Ġvan": 4811,
    "Ġdriving": 4812,
    "##iqu": 4813,
    "##asy": 4814,
    "Ġuses": 4815,
    "Ġmurd": 4816,
    "'.": 4817,
    "En": 4818,
    "Ġteach": 4819,
    "Ġmagn": 4820,
    "##fl": 4821,
    "ĠDes": 4822,
    "Tom": 4823,
    "Ġthou": 4824,
    "##umber": 4825,
    "Con": 4826,
    "##lear": 4827,
    "##ses": 4828,
    "Ġforced": 4829,
    "##estival": 4830,
    "Ġremained": 4831,
    "199": 4832,
    "ĠSing": 4833,
    "Ġlaid": 4834,
    "Ġcancer": 4835,
    "Ġtrip": 4836,
    "Ġmanager": 4837,
    "Ġruns": 4838,
    "##ares": 4839,
    "Ġenter": 4840,
    "Ġhighest": 4841,
    "Ġslowly": 4842,
    "Lea": 4843,
    "Ġresults": 4844,
    "Ġstudio": 4845,
    "ĠCarl": 4846,
    "ĠBay": 4847,
    "Ġoccup": 4848,
    "Ġtypes": 4849,
    "at": 4850,
    "Ġbreath": 4851,
    "Le": 4852,
    "##under": 4853,
    "_,": 4854,
    "Ġpush": 4855,
    "##Ã¨": 4856,
    "Ġban": 4857,
    "Ġprovide": 4858,
    "Ġscreen": 4859,
    "##imin": 4860,
    "ĠMany": 4861,
    "##tained": 4862,
    "just": 4863,
    "Ġagreed": 4864,
    "##ruit": 4865,
    "##ls": 4866,
    "Ġsmile": 4867,
    "Ġbrothers": 4868,
    "pro": 4869,
    "Ġmentioned": 4870,
    "Ġimpossible": 4871,
    "Ġparticularly": 4872,
    "Ġpicked": 4873,
    "Ġamazing": 4874,
    "Ġchap": 4875,
    "my": 4876,
    "ĠSmith": 4877,
    "Ġlucky": 4878,
    "Ġkinds": 4879,
    "when": 4880,
    "Alright": 4881,
    "Ġopening": 4882,
    "Ġgrass": 4883,
    "##edom": 4884,
    "##elling": 4885,
    "##odes": 4886,
    "##gent": 4887,
    "Ġthus": 4888,
    "##EC": 4889,
    "Se": 4890,
    "##mit": 4891,
    "Ġweird": 4892,
    "Ġinterview": 4893,
    "##kins": 4894,
    "##icles": 4895,
    "Ġexpected": 4896,
    "Pr": 4897,
    "Ġactress": 4898,
    "Ġnomin": 4899,
    "Ġheaven": 4900,
    "##aches": 4901,
    "ĠEr": 4902,
    "Ġcurrently": 4903,
    "ĠScot": 4904,
    "Ġsaved": 4905,
    "##och": 4906,
    "Ġplans": 4907,
    "Ġartist": 4908,
    "ĠJer": 4909,
    "##oken": 4910,
    "##rael": 4911,
    "##isl": 4912,
    "Ġvote": 4913,
    "Ġuniversity": 4914,
    "##ications": 4915,
    "##da": 4916,
    "Ġwearing": 4917,
    "Ġsen": 4918,
    "##bered": 4919,
    "Ġforth": 4920,
    "Ġplanet": 4921,
    "##aniel": 4922,
    "Ġappre": 4923,
    "Ġlaws": 4924,
    "Ġinvent": 4925,
    "Something": 4926,
    "Ġbomb": 4927,
    "##ulous": 4928,
    "Ġhungry": 4929,
    "##ashed": 4930,
    "Ooh": 4931,
    "##ucky": 4932,
    "##like": 4933,
    "Ġbread": 4934,
    "Ġcode": 4935,
    "New": 4936,
    "Mom": 4937,
    "##--------": 4938,
    "Ġpleasure": 4939,
    "Ġheat": 4940,
    "Ġplane": 4941,
    "Ġaddition": 4942,
    "Ġperformance": 4943,
    "Ġuncle": 4944,
    "Ġhole": 4945,
    "##lement": 4946,
    "Ġelectric": 4947,
    "Ġcompetition": 4948,
    "Ġnation": 4949,
    "##ION": 4950,
    "##gged": 4951,
    "Ġlarger": 4952,
    "##arn": 4953,
    "##arry": 4954,
    "Miss": 4955,
    "##aked": 4956,
    "Ġmission": 4957,
    "Ġleaders": 4958,
    "Ġminus": 4959,
    "Ġindustry": 4960,
    "##eff": 4961,
    "Ġshout": 4962,
    "Ġbreakfast": 4963,
    "Ġhill": 4964,
    "Ġwinter": 4965,
    "Ġrough": 4966,
    "Ġconcept": 4967,
    "ĠEgypt": 4968,
    "Ġdesigned": 4969,
    "##istry": 4970,
    "##adow": 4971,
    "Ġgenerally": 4972,
    "ĠLittle": 4973,
    "Ġreported": 4974,
    "Act": 4975,
    "Ġblind": 4976,
    "ĠCentral": 4977,
    "Ġstarts": 4978,
    "Ġpoet": 4979,
    "##enny": 4980,
    "##chan": 4981,
    "##astern": 4982,
    "Ġshape": 4983,
    "Ġrelated": 4984,
    "Ġsusp": 4985,
    "Ġtoward": 4986,
    "Ġfinger": 4987,
    "Ġstuck": 4988,
    "Ġstructure": 4989,
    "ĠRock": 4990,
    "ĠIr": 4991,
    "ĠMag": 4992,
    "ĠFather": 4993,
    "Ġcompanies": 4994,
    "Ġ1999": 4995,
    "Ġbrief": 4996,
    "##arrow": 4997,
    "Ġprevent": 4998,
    "Ġlikes": 4999,
    "ĠThomas": 5000,
    "Ġsmart": 5001,
    "Ġhurry": 5002,
    "Ġweather": 5003,
    "Ġtape": 5004,
    "ĠLee": 5005,
    "##rough": 5006,
    "Ġma": 5007,
    "##iano": 5008,
    "##ighs": 5009,
    "Ġcitiz": 5010,
    "##Ļ«": 5011,
    "##gen": 5012,
    "Ġsides": 5013,
    "Ġgreatest": 5014,
    "Ġlearning": 5015,
    "Ġamb": 5016,
    "Ġstrugg": 5017,
    "Ġdefinitely": 5018,
    "ĠAcademy": 5019,
    "Ġya": 5020,
    "##cend": 5021,
    "Ġfeatures": 5022,
    "Ġhotel": 5023,
    "ĠMom": 5024,
    "Ġperformed": 5025,
    "##ishes": 5026,
    "Ġfright": 5027,
    "Ġbal": 5028,
    "Ġtransl": 5029,
    "Three": 5030,
    "ĠVirginia": 5031,
    "Ġculture": 5032,
    "Ġrap": 5033,
    "Ġaware": 5034,
    "##fessor": 5035,
    "Ġcentre": 5036,
    "con": 5037,
    "Ġhorses": 5038,
    "##eck": 5039,
    "Ġforms": 5040,
    "Ġren": 5041,
    "Ġpair": 5042,
    "Ġiron": 5043,
    "##ansas": 5044,
    "Ġforeign": 5045,
    "Ġsch": 5046,
    "ĠAtl": 5047,
    "Ġnegative": 5048,
    "ĠAh": 5049,
    "Ġplants": 5050,
    "Ġissues": 5051,
    "Ġspeech": 5052,
    "##RO": 5053,
    "##icious": 5054,
    "Ġremark": 5055,
    "##lo": 5056,
    "##IGHT": 5057,
    "Ġpowerful": 5058,
    "Huh": 5059,
    "##ola": 5060,
    "Ġevil": 5061,
    "Ġvac": 5062,
    "Ġretired": 5063,
    "ĠCont": 5064,
    "Ġsilver": 5065,
    "##ican": 5066,
    "ĠRoad": 5067,
    "Ġfilled": 5068,
    "Ġjudge": 5069,
    "Ġsection": 5070,
    "ĠGreek": 5071,
    "Ġsource": 5072,
    "Ġcrew": 5073,
    "##oma": 5074,
    "Ġprec": 5075,
    "ĠBoy": 5076,
    "Ġgreater": 5077,
    "##gu": 5078,
    "ĠBet": 5079,
    "Ġduty": 5080,
    "Ġthick": 5081,
    "##mph": 5082,
    "##rad": 5083,
    "Ġcomplex": 5084,
    "Ġinstr": 5085,
    "Ġphilos": 5086,
    "ĠMost": 5087,
    "Ġcrowd": 5088,
    "##utive": 5089,
    "##hered": 5090,
    "Ġsinging": 5091,
    "##uten": 5092,
    "Ġcalm": 5093,
    "Ġorders": 5094,
    "Ġconditions": 5095,
    "Ġbless": 5096,
    "Ġhandle": 5097,
    "##osite": 5098,
    "Ġdescri": 5099,
    "##elle": 5100,
    "Ġbasket": 5101,
    "Ġempty": 5102,
    "##||": 5103,
    "ĠFil": 5104,
    "Ġturns": 5105,
    "##gl": 5106,
    "##arts": 5107,
    "by": 5108,
    "##enge": 5109,
    "##icient": 5110,
    "Say": 5111,
    "Ġlack": 5112,
    "Ġcrack": 5113,
    "ĠMexico": 5114,
    "Ġrank": 5115,
    "ĠDid": 5116,
    "ĠBur": 5117,
    "Once": 5118,
    "ĠAfrican": 5119,
    "Ġbloody": 5120,
    "##icine": 5121,
    "Ġteeth": 5122,
    "Ġquarter": 5123,
    "##host": 5124,
    "Ġheads": 5125,
    "Ġserve": 5126,
    "Ġoffered": 5127,
    "Ġsteal": 5128,
    "Ġreasons": 5129,
    "##imately": 5130,
    "ĠFore": 5131,
    "ĠHill": 5132,
    "##asty": 5133,
    "Ġedge": 5134,
    "ĠFox": 5135,
    "##urry": 5136,
    "Ġbeauty": 5137,
    "Ġoriginally": 5138,
    "Ġwitness": 5139,
    "##ourney": 5140,
    "ĠSecret": 5141,
    "Ġstandard": 5142,
    "Ġincrease": 5143,
    "Ġrealize": 5144,
    "old": 5145,
    "ĠMartin": 5146,
    "un": 5147,
    "##aving": 5148,
    "Ġjoy": 5149,
    "##va": 5150,
    "ĠCongress": 5151,
    "##anged": 5152,
    "Ġbiggest": 5153,
    "##ste": 5154,
    "Ġopt": 5155,
    "Ġourselves": 5156,
    "ĠWestern": 5157,
    "Ġsem": 5158,
    "Ġneither": 5159,
    "ĠFlor": 5160,
    "##oned": 5161,
    "##stood": 5162,
    "Ġbecoming": 5163,
    "##ockey": 5164,
    "Ġmale": 5165,
    "Ġbasically": 5166,
    "##usic": 5167,
    "##ros": 5168,
    "##odies": 5169,
    "ĠSunday": 5170,
    "Ġcontain": 5171,
    "Ġ1960": 5172,
    "Ġneighbor": 5173,
    "Ġsake": 5174,
    "ĠHi": 5175,
    "Ġ1998": 5176,
    "Ġtarget": 5177,
    "Ġmissed": 5178,
    "Ġcharacters": 5179,
    "Ġmeasure": 5180,
    "Ġordered": 5181,
    "Ġdivided": 5182,
    "ĠAustralian": 5183,
    "##hi": 5184,
    "Ġsymb": 5185,
    "Before": 5186,
    "ĠCom": 5187,
    "Ġgrown": 5188,
    "Ġbitch": 5189,
    "##anted": 5190,
    "ĠSuper": 5191,
    "Ġhardly": 5192,
    "Ġsuspect": 5193,
    "##urday": 5194,
    "Ġladies": 5195,
    "Other": 5196,
    "ĠProv": 5197,
    "Ġmut": 5198,
    "##ening": 5199,
    "Ġmedia": 5200,
    "clock": 5201,
    "ĠSun": 5202,
    "Ġ1996": 5203,
    "Ġseparate": 5204,
    "##peror": 5205,
    "ĠSpain": 5206,
    "Ġtransfer": 5207,
    "ĠMet": 5208,
    "Ġdogs": 5209,
    "Ġjournal": 5210,
    "ĠVictor": 5211,
    "Ġresponsible": 5212,
    "ĠApp": 5213,
    "##rick": 5214,
    "Ġcere": 5215,
    "ĠMother": 5216,
    "ĠFin": 5217,
    "Ġdecide": 5218,
    "Ġign": 5219,
    "ĠMaster": 5220,
    "ĠTwo": 5221,
    "ĠWood": 5222,
    "ĠCanadian": 5223,
    "Ġdare": 5224,
    "Ġkilling": 5225,
    "Ġreplaced": 5226,
    "Ġeggs": 5227,
    "Ġtight": 5228,
    "Ġnorthern": 5229,
    "##ooth": 5230,
    "Ġstatistics": 5231,
    "##fortun": 5232,
    "##aud": 5233,
    "##ault": 5234,
    "Ġadult": 5235,
    "Ġactive": 5236,
    "Ġtotally": 5237,
    "Ġvot": 5238,
    "Ġacting": 5239,
    "Ġremind": 5240,
    "##rees": 5241,
    "Ġgay": 5242,
    "Ġmechan": 5243,
    "Ġforever": 5244,
    "Perhaps": 5245,
    "ĠAssociation": 5246,
    "Ġlegal": 5247,
    "er": 5248,
    "Ġprevious": 5249,
    "Ġconnect": 5250,
    "ĠLos": 5251,
    "Ġcommer": 5252,
    "Ġdirectly": 5253,
    "##craft": 5254,
    "ĠRussia": 5255,
    "##ado": 5256,
    "##aded": 5257,
    "ĠTor": 5258,
    "##ali": 5259,
    "man": 5260,
    "##CK": 5261,
    "Ġox": 5262,
    "ĠRome": 5263,
    "##ois": 5264,
    "Ġdocument": 5265,
    "her": 5266,
    "##time": 5267,
    "##vere": 5268,
    "Ġunit": 5269,
    "Ġpromised": 5270,
    "Ġphysical": 5271,
    "Ġlies": 5272,
    "ĠAnge": 5273,
    "##aret": 5274,
    "Ġcouncil": 5275,
    "##umn": 5276,
    "Ġcritic": 5277,
    "##ked": 5278,
    "ĠPet": 5279,
    "Ġwaste": 5280,
    "Ġterrit": 5281,
    "Ġgentlemen": 5282,
    "Ġwine": 5283,
    "Ġwilling": 5284,
    "##eds": 5285,
    "Mrs": 5286,
    "##mark": 5287,
    "ĠSea": 5288,
    "Ġprove": 5289,
    "##ishop": 5290,
    "Ġturning": 5291,
    "ĠCatholic": 5292,
    "##mond": 5293,
    "Ġcuri": 5294,
    "Ġarchitect": 5295,
    "Ġclearly": 5296,
    "Ġnoise": 5297,
    "out": 5298,
    "Ġfailed": 5299,
    "##ias": 5300,
    "Ġmeat": 5301,
    "Ġcopy": 5302,
    "ĠSH": 5303,
    "##yan": 5304,
    "ĠIre": 5305,
    "##wr": 5306,
    "Ġorganization": 5307,
    "Ġsilly": 5308,
    "Ġju": 5309,
    "Ġwake": 5310,
    "ĠLuc": 5311,
    "Ġsaf": 5312,
    "##isher": 5313,
    "Ġdelight": 5314,
    "ĠGet": 5315,
    "ĠJud": 5316,
    "Ġlawyer": 5317,
    "Ġcamera": 5318,
    "Ġflight": 5319,
    "from": 5320,
    "ĠConf": 5321,
    "Ġsuc": 5322,
    "Ġonto": 5323,
    "Ġresour": 5324,
    "##lder": 5325,
    "Ġinstit": 5326,
    "Ġzero": 5327,
    "Ġseconds": 5328,
    "Ġtaste": 5329,
    "Ġimage": 5330,
    "Ġtransport": 5331,
    "##olit": 5332,
    "Ġcontent": 5333,
    "Ġscream": 5334,
    "##aughed": 5335,
    "Ġears": 5336,
    "Ġappointed": 5337,
    "##inter": 5338,
    "Ġmotor": 5339,
    "Ġflying": 5340,
    "ĠTra": 5341,
    "Ġinfluence": 5342,
    "have": 5343,
    "ĠBig": 5344,
    "##EE": 5345,
    "ĠRev": 5346,
    "ĠIsrael": 5347,
    "Ind": 5348,
    "Ġappreci": 5349,
    "Ġsurprised": 5350,
    "Ġbother": 5351,
    "Ġproduce": 5352,
    "##elcome": 5353,
    "##iger": 5354,
    "Ġtechnology": 5355,
    "Ġintroduced": 5356,
    "Isn": 5357,
    "##cience": 5358,
    "Ġcandid": 5359,
    "##elly": 5360,
    "##ban": 5361,
    "Ġkick": 5362,
    "Ġlock": 5363,
    "Ġroof": 5364,
    "Ġpulled": 5365,
    "Ġexcl": 5366,
    "##abeth": 5367,
    "##uan": 5368,
    "##ender": 5369,
    "##rated": 5370,
    "\"?": 5371,
    "##rid": 5372,
    "ĠCat": 5373,
    "Ġdivision": 5374,
    "ĠMaj": 5375,
    "Ġconcerned": 5376,
    "sc": 5377,
    "##iance": 5378,
    "##ima": 5379,
    "Ġplat": 5380,
    "##uman": 5381,
    "Ġpattern": 5382,
    "Ġkeeping": 5383,
    "##ctions": 5384,
    "put": 5385,
    "Ġreligious": 5386,
    "Ġbuildings": 5387,
    "Ġlibr": 5388,
    "Ġindependent": 5389,
    "Ġsouthern": 5390,
    "ĠMel": 5391,
    "Help": 5392,
    "Ġsucceed": 5393,
    "##RI": 5394,
    "Ġwet": 5395,
    "Ġeasier": 5396,
    "##lig": 5397,
    "##arently": 5398,
    "Ġepisode": 5399,
    "Nice": 5400,
    "Ġdestroyed": 5401,
    "##osen": 5402,
    "Ġlanguages": 5403,
    "ĠHam": 5404,
    "##ancial": 5405,
    "Ġprepared": 5406,
    "Ġ1995": 5407,
    "Cos": 5408,
    "##mar": 5409,
    "ĠLady": 5410,
    "##inois": 5411,
    ".)": 5412,
    "Ġloud": 5413,
    "Ġopinion": 5414,
    "Ġasleep": 5415,
    "Most": 5416,
    "ĠMill": 5417,
    "ĠCenter": 5418,
    "##nces": 5419,
    "Ġsports": 5420,
    "said": 5421,
    "##atre": 5422,
    "Ġadop": 5423,
    "Ġ1994": 5424,
    "ĠCompany": 5425,
    "Ġdrunk": 5426,
    "Bet": 5427,
    "Ġcrying": 5428,
    "##agon": 5429,
    "Ġpit": 5430,
    "Ġmeas": 5431,
    "##bye": 5432,
    "Remember": 5433,
    "Ġlistening": 5434,
    "##idents": 5435,
    "##ennis": 5436,
    "##orter": 5437,
    "Ġrecently": 5438,
    "Fine": 5439,
    "Ġremem": 5440,
    "Ġdemon": 5441,
    "##TH": 5442,
    "Ġquality": 5443,
    "Ġanal": 5444,
    "ĠGovernment": 5445,
    "##ushing": 5446,
    "##azz": 5447,
    "Ġpalace": 5448,
    "##ardon": 5449,
    "ĠAngeles": 5450,
    "Ġpil": 5451,
    "##oking": 5452,
    "ĠSand": 5453,
    "Ġinsp": 5454,
    "ĠFlorida": 5455,
    "Ġteaching": 5456,
    "Ġlaughing": 5457,
    "##rate": 5458,
    "##uals": 5459,
    "Ġlaughed": 5460,
    "##tering": 5461,
    "Ġactual": 5462,
    "About": 5463,
    "##ga": 5464,
    "Ġveh": 5465,
    "During": 5466,
    "Ġleague": 5467,
    "ĠChief": 5468,
    "##elled": 5469,
    "Ġodd": 5470,
    "Ġninete": 5471,
    "Ġcloud": 5472,
    "ĠEll": 5473,
    "ĠLake": 5474,
    "ĠBecause": 5475,
    "Ġmetal": 5476,
    "##ella": 5477,
    "Ġjourney": 5478,
    "Ġswear": 5479,
    "Over": 5480,
    "Ġ60": 5481,
    "ĠTheir": 5482,
    "##utenant": 5483,
    "Ok": 5484,
    "Ġdying": 5485,
    "##kend": 5486,
    "Ġworst": 5487,
    "Ġthrew": 5488,
    "##ua": 5489,
    "ĠBest": 5490,
    "##anny": 5491,
    "Ġmagic": 5492,
    "le": 5493,
    "Ġmanaged": 5494,
    "Ġmainly": 5495,
    "se": 5496,
    "##oles": 5497,
    "Ġrecords": 5498,
    "Ġmaid": 5499,
    "Nobody": 5500,
    "Ġknock": 5501,
    "Ġtrial": 5502,
    "##isco": 5503,
    "ĠArab": 5504,
    "ĠRay": 5505,
    "##achel": 5506,
    "Ġfixed": 5507,
    "Ġsleeping": 5508,
    "ĠDa": 5509,
    "Ġappears": 5510,
    "km": 5511,
    "Ġpossibly": 5512,
    "ĠUK": 5513,
    "##ropical": 5514,
    "ĠServ": 5515,
    "Ġdreams": 5516,
    "Ha": 5517,
    "##rer": 5518,
    "Ġpound": 5519,
    "Ġsteps": 5520,
    "##rier": 5521,
    "Ġsequ": 5522,
    "Tw": 5523,
    "##vis": 5524,
    "Ġplanning": 5525,
    "##uries": 5526,
    "Ġpure": 5527,
    "Ġresist": 5528,
    "##ios": 5529,
    "Ġadvant": 5530,
    "Ġwatched": 5531,
    "ĠSaint": 5532,
    "alright": 5533,
    "ĠGovernor": 5534,
    "##ooper": 5535,
    "ĠWomen": 5536,
    "##oured": 5537,
    "Ġast": 5538,
    "Ph": 5539,
    "ĠDutch": 5540,
    "Ġstream": 5541,
    "ĠDick": 5542,
    "Ġusual": 5543,
    "##icide": 5544,
    "Ġbrand": 5545,
    "ĠDepartment": 5546,
    "Ġawful": 5547,
    "##bur": 5548,
    "Ġnuc": 5549,
    "Ġscore": 5550,
    "Ġshowing": 5551,
    "##cellent": 5552,
    "int": 5553,
    "Ġeth": 5554,
    "Ġdrew": 5555,
    "Ġprovided": 5556,
    "Ġplain": 5557,
    "two": 5558,
    "Ġhadn": 5559,
    "Ġ1992": 5560,
    "##onse": 5561,
    "Ġdamage": 5562,
    "Ġfashion": 5563,
    "##ctors": 5564,
    "ĠBritain": 5565,
    "##AU": 5566,
    "Ġbuck": 5567,
    "App": 5568,
    "Today": 5569,
    "Ġpartner": 5570,
    "##LY": 5571,
    "ĠBu": 5572,
    "ĠHaw": 5573,
    "Ġ1997": 5574,
    "Ġburied": 5575,
    "##urance": 5576,
    "Ġends": 5577,
    "AND": 5578,
    "##alent": 5579,
    "Ġrow": 5580,
    "ĠOther": 5581,
    "American": 5582,
    "##zz": 5583,
    "Ġtrib": 5584,
    "ĠDen": 5585,
    "ĠFOR": 5586,
    "ĠSil": 5587,
    "Ġcoat": 5588,
    "Ġknowing": 5589,
    "Ġcircum": 5590,
    "##enced": 5591,
    "##itzer": 5592,
    "ĠEmpire": 5593,
    "##esse": 5594,
    "ĠCast": 5595,
    "Ġmanner": 5596,
    "Ġgro": 5597,
    "##ANT": 5598,
    "had": 5599,
    "##oices": 5600,
    "Ġyounger": 5601,
    "Ġstayed": 5602,
    "Ġfeels": 5603,
    "De": 5604,
    "Gr": 5605,
    "ĠGO": 5606,
    "Ġspoken": 5607,
    "ĠYoung": 5608,
    "Ġeverywhere": 5609,
    "Ġexpression": 5610,
    "##iable": 5611,
    "Ġofficers": 5612,
    "Ġfeelings": 5613,
    "Ġappearance": 5614,
    "Ġdebut": 5615,
    "Ġconstruction": 5616,
    "bye": 5617,
    "Ġowned": 5618,
    "Ġfingers": 5619,
    "##orough": 5620,
    "Ġremains": 5621,
    "Ġconversation": 5622,
    "en": 5623,
    "Ġwalls": 5624,
    "Ġdom": 5625,
    "Ġstudies": 5626,
    "Ġgift": 5627,
    "##rig": 5628,
    "Ġmagazine": 5629,
    "##put": 5630,
    "##change": 5631,
    "##ocol": 5632,
    "Ġassum": 5633,
    "198": 5634,
    "ĠRad": 5635,
    "Ġnoticed": 5636,
    "Ġmel": 5637,
    "##oving": 5638,
    "Ġdrag": 5639,
    "Ġpocket": 5640,
    "ĠMatt": 5641,
    "Ġrequired": 5642,
    "Ġexpress": 5643,
    "##imum": 5644,
    "Ġchamp": 5645,
    "Ġanx": 5646,
    "ĠDev": 5647,
    "##heast": 5648,
    "ĠClub": 5649,
    "ĠAN": 5650,
    "then": 5651,
    "Ġeconomic": 5652,
    "##ouch": 5653,
    "ĠGeorg": 5654,
    "Make": 5655,
    "Ġprem": 5656,
    "Ġguns": 5657,
    "Ġsmoke": 5658,
    "##ogether": 5659,
    "Ġtong": 5660,
    "Ġlocation": 5661,
    "Ġstock": 5662,
    "Ġash": 5663,
    "Ġdirty": 5664,
    "Ġbutter": 5665,
    "Ġ1993": 5666,
    "Ġsect": 5667,
    "Ġalt": 5668,
    "Ġreact": 5669,
    "##ounce": 5670,
    "Ġduck": 5671,
    "Ġrat": 5672,
    "Ġupset": 5673,
    "Ġtroops": 5674,
    "ĠSummer": 5675,
    "Ġce": 5676,
    "Ġcous": 5677,
    "ĠMur": 5678,
    "ĠIllinois": 5679,
    "ĠAng": 5680,
    "Ġpapers": 5681,
    "Ġloves": 5682,
    "##lection": 5683,
    "ĠStan": 5684,
    "Ġoccasion": 5685,
    "Ġwinning": 5686,
    "Sometimes": 5687,
    "Ġcart": 5688,
    "##orial": 5689,
    "Ġscrew": 5690,
    "##anche": 5691,
    "##can": 5692,
    "Ġrequire": 5693,
    "##ingu": 5694,
    "Ġlosing": 5695,
    "##lyn": 5696,
    "ĠPak": 5697,
    "Ġprefer": 5698,
    "##ournament": 5699,
    "ĠFar": 5700,
    "##ih": 5701,
    "Ġflow": 5702,
    "Ġrequest": 5703,
    "ĠJane": 5704,
    "##OME": 5705,
    "Ġstret": 5706,
    "Ġdrama": 5707,
    "Ġcollection": 5708,
    "Ġreality": 5709,
    "Ġopposite": 5710,
    "ĠTw": 5711,
    "##ties": 5712,
    "ĠStud": 5713,
    "Another": 5714,
    "ĠParliament": 5715,
    "Ġoperation": 5716,
    "Ġreligion": 5717,
    "Leave": 5718,
    "ĠRog": 5719,
    "Ġrestaur": 5720,
    "ĠIreland": 5721,
    "Ġwheel": 5722,
    "##sembly": 5723,
    "##mn": 5724,
    "##ache": 5725,
    "ĠAunt": 5726,
    "Ġthee": 5727,
    "Shut": 5728,
    "ĠAmericans": 5729,
    "Ġminor": 5730,
    "Ġbye": 5731,
    "Ġautom": 5732,
    "##appy": 5733,
    "Ġimprove": 5734,
    "Think": 5735,
    "ĠGroup": 5736,
    "More": 5737,
    "Ġunits": 5738,
    "ĠAnn": 5739,
    "##owa": 5740,
    "ĠKent": 5741,
    "##duc": 5742,
    "ĠGames": 5743,
    "ĠHon": 5744,
    "Ġbottle": 5745,
    "El": 5746,
    "ab": 5747,
    "Ġprogress": 5748,
    "##apa": 5749,
    "Ġcake": 5750,
    "Ġmusical": 5751,
    "##lict": 5752,
    "##iven": 5753,
    "Ġmicro": 5754,
    "Ġcompleted": 5755,
    "##yp": 5756,
    "##resp": 5757,
    "Ġrub": 5758,
    "Ġfinding": 5759,
    "Ġcells": 5760,
    "Ġinnoc": 5761,
    "Ġtrick": 5762,
    "Ġintellig": 5763,
    "ĠMajor": 5764,
    "##ulty": 5765,
    "Ġdriver": 5766,
    "Actually": 5767,
    "Ġrelative": 5768,
    "##reak": 5769,
    "Ġgall": 5770,
    "...?": 5771,
    "Stay": 5772,
    "Ġexcuse": 5773,
    "ĠMass": 5774,
    "ĠVer": 5775,
    "Ġtreatment": 5776,
    "ĠCamp": 5777,
    "Ġfavorite": 5778,
    "Ġtraditional": 5779,
    "ĠLook": 5780,
    "Ġability": 5781,
    "Ġraise": 5782,
    "##cel": 5783,
    "Ġhelping": 5784,
    "##bo": 5785,
    "ĠSqu": 5786,
    "ĠPrime": 5787,
    "##arian": 5788,
    "Ġeffort": 5789,
    "Ġfought": 5790,
    "Ġscr": 5791,
    "##aria": 5792,
    "Ġhumans": 5793,
    "Ġfavour": 5794,
    "me": 5795,
    "##emic": 5796,
    "Ġexerc": 5797,
    "Ġjoke": 5798,
    "##onder": 5799,
    "Everyone": 5800,
    "Anyway": 5801,
    "ĠRail": 5802,
    "ĠDivision": 5803,
    "Ġfile": 5804,
    "Ġcash": 5805,
    "Ġjack": 5806,
    "Ġgiant": 5807,
    "Ġdrugs": 5808,
    "Ġ1991": 5809,
    "ĠTim": 5810,
    "Ġmatches": 5811,
    "ĠScotland": 5812,
    "Ġthousands": 5813,
    "Ġweekend": 5814,
    "Ġthoughts": 5815,
    "Ġbasis": 5816,
    "Ġadvice": 5817,
    "Ġtiny": 5818,
    "##stitution": 5819,
    "##20": 5820,
    "Ġlights": 5821,
    "Ġflag": 5822,
    "ĠEvery": 5823,
    "Ġgate": 5824,
    "##aval": 5825,
    "Ġstruck": 5826,
    "Ġfro": 5827,
    "Ġthy": 5828,
    "Ġwebs": 5829,
    "##onds": 5830,
    "Next": 5831,
    "##Äģ": 5832,
    "Ġguitar": 5833,
    "ĠRight": 5834,
    "##igg": 5835,
    "Ġstatement": 5836,
    "Ġaffect": 5837,
    "##ila": 5838,
    "Ġadj": 5839,
    "Ġflower": 5840,
    "##ira": 5841,
    "Cause": 5842,
    "Ġbast": 5843,
    "Ġchemical": 5844,
    "Ġuseful": 5845,
    "##ILL": 5846,
    "##oos": 5847,
    "ĠHa": 5848,
    "Didn": 5849,
    "Ġwestern": 5850,
    "Ġspr": 5851,
    "Ġjobs": 5852,
    "25": 5853,
    "##CE": 5854,
    "ĠPrincess": 5855,
    "Ġphilosop": 5856,
    "##obile": 5857,
    "Ne": 5858,
    "##osa": 5859,
    "Ġdepart": 5860,
    "Ġships": 5861,
    "##UST": 5862,
    "ĠHA": 5863,
    "Ġaltern": 5864,
    "hand": 5865,
    "off": 5866,
    "Ġ185": 5867,
    "Ġforgotten": 5868,
    "Ġmatters": 5869,
    "ĠOff": 5870,
    "##uing": 5871,
    "##acle": 5872,
    "##vest": 5873,
    "Ġtim": 5874,
    "Ġnerv": 5875,
    "Ġsafety": 5876,
    "50": 5877,
    "law": 5878,
    "ĠCons": 5879,
    "ĠGe": 5880,
    "##RA": 5881,
    "Ġpurs": 5882,
    "Ġetc": 5883,
    "Ġye": 5884,
    "While": 5885,
    "RE": 5886,
    "your": 5887,
    "Ġattend": 5888,
    "Ġcloser": 5889,
    "ĠSus": 5890,
    "ĠGre": 5891,
    "Ġsword": 5892,
    "##add": 5893,
    "Ġfreedom": 5894,
    "Ġfinancial": 5895,
    "##eral": 5896,
    "##ja": 5897,
    "Ġflo": 5898,
    "##thur": 5899,
    "ĠMusic": 5900,
    "##igan": 5901,
    "ĠOlympics": 5902,
    "##ildren": 5903,
    "II": 5904,
    "Ġbodies": 5905,
    "ĠCam": 5906,
    "ĠSaturday": 5907,
    "##hile": 5908,
    "Ġeffects": 5909,
    "._": 5910,
    "##erman": 5911,
    "Ġawarded": 5912,
    "ĠDire": 5913,
    "Ġninety": 5914,
    "Ġfal": 5915,
    "ĠDoctor": 5916,
    "Damn": 5917,
    "##rary": 5918,
    "##egr": 5919,
    "##lim": 5920,
    "##ST": 5921,
    "ĠHel": 5922,
    "Ġreceive": 5923,
    "##aimed": 5924,
    "Ġpresence": 5925,
    "##lying": 5926,
    "Ġmotion": 5927,
    "##inger": 5928,
    "##urse": 5929,
    "ĠWal": 5930,
    "Ġfocus": 5931,
    "Ġsplit": 5932,
    "##kes": 5933,
    "##ootball": 5934,
    "##isa": 5935,
    "Ġrise": 5936,
    "##stead": 5937,
    "ĠRose": 5938,
    "ĠJoseph": 5939,
    "Ġgolden": 5940,
    "Ġdeclared": 5941,
    "ĠLatin": 5942,
    "ĠMike": 5943,
    "Ġgentleman": 5944,
    "Ġaccepted": 5945,
    "Many": 5946,
    "However": 5947,
    "ĠMax": 5948,
    "ĠBas": 5949,
    "##ailed": 5950,
    "Ġnative": 5951,
    "##stances": 5952,
    "##olved": 5953,
    "Ġminister": 5954,
    "Ġbringing": 5955,
    "Ġearn": 5956,
    "ĠDemocratic": 5957,
    "Ġselected": 5958,
    "Ġthin": 5959,
    "Ġlect": 5960,
    "ĠWind": 5961,
    "Sm": 5962,
    "Ġbare": 5963,
    "Ġtemperature": 5964,
    "Ġdressed": 5965,
    "ĠInstitute": 5966,
    "##yo": 5967,
    "Ġtears": 5968,
    "##ilty": 5969,
    "Ġgri": 5970,
    "Ġhearing": 5971,
    "Ġcredit": 5972,
    "Ġgraph": 5973,
    "##IF": 5974,
    "Ġborder": 5975,
    "some": 5976,
    "Ġsignal": 5977,
    "Ġresponse": 5978,
    "##izabeth": 5979,
    "##onic": 5980,
    "##iliar": 5981,
    "Ġdarling": 5982,
    "Ġcream": 5983,
    "Ġbranch": 5984,
    "ĠMajesty": 5985,
    "Ġweapons": 5986,
    "Everybody": 5987,
    "Ġentirely": 5988,
    "##iro": 5989,
    "Ġrecomm": 5990,
    "Ġafford": 5991,
    "Ġinhab": 5992,
    "ĠCommittee": 5993,
    "Ġbroadcast": 5994,
    "Ġsail": 5995,
    "ĠBell": 5996,
    "Ġmate": 5997,
    "Ġrecent": 5998,
    "21": 5999,
    "##ads": 6000,
    "Ġwave": 6001,
    "Ġmort": 6002,
    "Ġworkers": 6003,
    "Ġcontains": 6004,
    "##hin": 6005,
    "Ġnewspaper": 6006,
    "##amber": 6007,
    "ĠWhile": 6008,
    "ĠFre": 6009,
    "##ective": 6010,
    "ĠKim": 6011,
    "Ġdivor": 6012,
    "##aming": 6013,
    "Ġcro": 6014,
    "Ġlips": 6015,
    "Ġuns": 6016,
    "ĠLand": 6017,
    "Ġcommercial": 6018,
    "Ġ1989": 6019,
    "Ġexcited": 6020,
    "Ġchicken": 6021,
    "Ġfired": 6022,
    "Ġfifteen": 6023,
    "##iminal": 6024,
    "##OP": 6025,
    "Ġauthority": 6026,
    "Ġsilence": 6027,
    "ĠLove": 6028,
    "Ġ1950": 6029,
    "##uous": 6030,
    "Ġperfectly": 6031,
    "Someone": 6032,
    "Ġhyd": 6033,
    "Ġfalling": 6034,
    "ĠOs": 6035,
    "##arge": 6036,
    "##ervation": 6037,
    "Ġapproach": 6038,
    "Ġcastle": 6039,
    "Ġbillion": 6040,
    "Whatever": 6041,
    "Ġsignificant": 6042,
    "Ġ\"\"": 6043,
    "Out": 6044,
    "##bury": 6045,
    "Ġtur": 6046,
    "Ġlic": 6047,
    "##ysis": 6048,
    "Ġmo": 6049,
    "Ġfaster": 6050,
    "Ġmanagement": 6051,
    "ĠPan": 6052,
    "Ġdesire": 6053,
    "Ġactivity": 6054,
    "Ġstreets": 6055,
    "##elie": 6056,
    "Christ": 6057,
    "ĠHol": 6058,
    "thank": 6059,
    "197": 6060,
    "##nam": 6061,
    "Ġ184": 6062,
    "##vention": 6063,
    "Ġmajority": 6064,
    "Ġdrawing": 6065,
    "##ulated": 6066,
    "ĠArch": 6067,
    "ĠSince": 6068,
    "Ġcomment": 6069,
    "Ġboo": 6070,
    "Ġboot": 6071,
    "Ġlabor": 6072,
    "Ġcarefully": 6073,
    "##ITH": 6074,
    "Ġdrinking": 6075,
    "Ġfruit": 6076,
    "ĠFer": 6077,
    "Ġconnected": 6078,
    "##venue": 6079,
    "Ġsolution": 6080,
    "ĠSociety": 6081,
    "Ġnineteen": 6082,
    "ĠIran": 6083,
    "ĠEdward": 6084,
    "Ġpool": 6085,
    "Ġsugar": 6086,
    "##quar": 6087,
    "Ġsixty": 6088,
    "Ġbeach": 6089,
    "Ġrele": 6090,
    "Ġgrave": 6091,
    "Ġah": 6092,
    "##imp": 6093,
    "##rant": 6094,
    "##zy": 6095,
    "Ġsuck": 6096,
    "ĠSecretary": 6097,
    "ĠIm": 6098,
    "Ġconcent": 6099,
    "ĠHot": 6100,
    "com": 6101,
    "##vy": 6102,
    "ĠMer": 6103,
    "Ġqueen": 6104,
    "##essel": 6105,
    "##erves": 6106,
    "##stant": 6107,
    "Ġmedicine": 6108,
    "Ġrent": 6109,
    "Ġdiam": 6110,
    "ĠProfessor": 6111,
    "Ġarrange": 6112,
    "ĠDou": 6113,
    "##illed": 6114,
    "Ġelement": 6115,
    "Ġgain": 6116,
    "Ġkeeps": 6117,
    "Ġsettled": 6118,
    "qu": 6119,
    "Ġshr": 6120,
    "Ġremoved": 6121,
    "Ġunderstood": 6122,
    ".]": 6123,
    "Ġfant": 6124,
    "ĠSee": 6125,
    "Ġkidding": 6126,
    "##ummy": 6127,
    "Ġplanned": 6128,
    "Ġtough": 6129,
    "Ġfully": 6130,
    "Ġpotential": 6131,
    "Ġlake": 6132,
    "Ġsharp": 6133,
    "Ġlord": 6134,
    "may": 6135,
    "##acter": 6136,
    "##ulate": 6137,
    "ĠYear": 6138,
    "##owed": 6139,
    "Ġcomedy": 6140,
    "ĠPlay": 6141,
    "Ġincreased": 6142,
    "##ipping": 6143,
    "Ġbasic": 6144,
    "Ġbeside": 6145,
    "Ġadvent": 6146,
    "ĠTrans": 6147,
    "Ġsin": 6148,
    "##ipl": 6149,
    "Ġhabit": 6150,
    "Should": 6151,
    "ĠBilly": 6152,
    "##abb": 6153,
    "Ġprimary": 6154,
    "Ġscored": 6155,
    "Ġnumer": 6156,
    "##gor": 6157,
    "ah": 6158,
    "##eping": 6159,
    "Ġotherwise": 6160,
    "Ġterror": 6161,
    "Ġmixed": 6162,
    "Ġdefend": 6163,
    "Ġhighly": 6164,
    "Ġprograms": 6165,
    "Ġmap": 6166,
    "Ġaudience": 6167,
    "##onia": 6168,
    "##isp": 6169,
    "Ġfederal": 6170,
    "Ġroy": 6171,
    "Call": 6172,
    "Ġapartment": 6173,
    "Ġsexual": 6174,
    "Ġchat": 6175,
    "##eman": 6176,
    "Ġjail": 6177,
    "##wers": 6178,
    "Welcome": 6179,
    "Ġfigures": 6180,
    "ĠWAS": 6181,
    "ĠJackson": 6182,
    "Ġgoals": 6183,
    "##aging": 6184,
    "Whoa": 6185,
    "ĠHello": 6186,
    "##wan": 6187,
    "Ġdim": 6188,
    "Ġscar": 6189,
    "Ġunk": 6190,
    "Ġmountains": 6191,
    "Ġcharm": 6192,
    "Ġsetting": 6193,
    "ĠKN": 6194,
    "Ġpregn": 6195,
    "Ġprior": 6196,
    "Hmm": 6197,
    "Ġroles": 6198,
    "Ġvictory": 6199,
    "Ġpleased": 6200,
    "ĠHE": 6201,
    "...\"": 6202,
    "##obal": 6203,
    "Ġconsum": 6204,
    "Ġdu": 6205,
    "Ġstatus": 6206,
    "Ġforgive": 6207,
    "##ador": 6208,
    "##acks": 6209,
    "##bl": 6210,
    "ĠMuseum": 6211,
    "ĠGirl": 6212,
    "Ġkingdom": 6213,
    "Ġpassing": 6214,
    "Ġcomfortable": 6215,
    "Ġtor": 6216,
    "##hetic": 6217,
    "Ġfailure": 6218,
    "##spect": 6219,
    "##gency": 6220,
    "##uckles": 6221,
    "Ġpaying": 6222,
    "Ġfifth": 6223,
    "ĠBa": 6224,
    "Ġsuggested": 6225,
    "Ġow": 6226,
    "Ġarrested": 6227,
    "##oir": 6228,
    "Ġchanging": 6229,
    "Ġdefeated": 6230,
    "##ALL": 6231,
    "##unny": 6232,
    "##porary": 6233,
    "Ġupper": 6234,
    "##ivity": 6235,
    "Ġeighty": 6236,
    "Ġrapid": 6237,
    "Ġ(;": 6238,
    "Ġrailway": 6239,
    "##adium": 6240,
    "##oston": 6241,
    "Cap": 6242,
    "##stra": 6243,
    "Ġproceed": 6244,
    "Ġagent": 6245,
    "Ġinvited": 6246,
    "Ġfaces": 6247,
    "Ġmuseum": 6248,
    "##ropri": 6249,
    "ĠNorthern": 6250,
    "##what": 6251,
    "Love": 6252,
    "Ġchosen": 6253,
    "Ġelements": 6254,
    "Ġnervous": 6255,
    "Ġhiding": 6256,
    "Ġexhib": 6257,
    "##rep": 6258,
    "Ġpra": 6259,
    "##itzerland": 6260,
    "gr": 6261,
    "Ġknife": 6262,
    "##ports": 6263,
    "##inda": 6264,
    "Ġstrike": 6265,
    "ĠSweden": 6266,
    "##IL": 6267,
    "ĠJewish": 6268,
    "Ġwash": 6269,
    "##amily": 6270,
    "Ġproducer": 6271,
    "Ġ1988": 6272,
    "Ġapolog": 6273,
    "Ġrepresented": 6274,
    "##zer": 6275,
    "Ġchannel": 6276,
    "ĠGar": 6277,
    "ĠLu": 6278,
    "Ġavoid": 6279,
    "Ġextremely": 6280,
    "##eel": 6281,
    "Ġdancing": 6282,
    "Ġpossess": 6283,
    "Ġgrowth": 6284,
    "##alls": 6285,
    "Ġcontroll": 6286,
    "Ġprofessor": 6287,
    "Ġcircle": 6288,
    "##odd": 6289,
    "ĠLy": 6290,
    "fl": 6291,
    "Ġgirlfriend": 6292,
    "tr": 6293,
    "Ġeh": 6294,
    "ĠPac": 6295,
    "##stein": 6296,
    "##gment": 6297,
    "Ġ80": 6298,
    "##ufact": 6299,
    "Ġdomin": 6300,
    "##enger": 6301,
    "ĠCle": 6302,
    "La": 6303,
    "Ġmanufact": 6304,
    "Ġwid": 6305,
    "##usted": 6306,
    "Ġchest": 6307,
    "Ġactivities": 6308,
    "Ġschol": 6309,
    "Jack": 6310,
    "##orse": 6311,
    "Ġlibrary": 6312,
    "Ġwindows": 6313,
    "Try": 6314,
    "ĠFriday": 6315,
    "##eer": 6316,
    "Ġplenty": 6317,
    "##izes": 6318,
    "Ġwealth": 6319,
    "##osc": 6320,
    "Ġsomehow": 6321,
    "Ġdisplay": 6322,
    "##RY": 6323,
    "ĠHarry": 6324,
    "Ġnotes": 6325,
    "Ġroute": 6326,
    "##ece": 6327,
    "will": 6328,
    "Ġselling": 6329,
    "Ġunf": 6330,
    "##ocal": 6331,
    "ĠStar": 6332,
    "##hens": 6333,
    "Ġflew": 6334,
    "Ġult": 6335,
    "Ġmax": 6336,
    "ĠAsia": 6337,
    "Ġpurch": 6338,
    "Ġupstairs": 6339,
    "##min": 6340,
    "Ġsees": 6341,
    "Ġchampionship": 6342,
    "Ġshooting": 6343,
    "Ġadvantage": 6344,
    "##load": 6345,
    "ĠZeal": 6346,
    "Ġtongue": 6347,
    "Car": 6348,
    "##isation": 6349,
    "Ġcolour": 6350,
    "Back": 6351,
    "Ġexpand": 6352,
    "Ġbunch": 6353,
    "Ġcompos": 6354,
    "Ġbelief": 6355,
    "##han": 6356,
    "Ġfields": 6357,
    "Ġunderstanding": 6358,
    "Ġmultiple": 6359,
    "##riff": 6360,
    "ĠBo": 6361,
    "Ġproducts": 6362,
    "Ġsons": 6363,
    "##ishment": 6364,
    ",'": 6365,
    "nd": 6366,
    "ĠColumb": 6367,
    "##li": 6368,
    "##onday": 6369,
    "Ġcarrying": 6370,
    "app": 6371,
    "Ġsoldier": 6372,
    "Ġinstance": 6373,
    "Ġsales": 6374,
    "Ġclimb": 6375,
    "Ġaircraft": 6376,
    "Ġguilty": 6377,
    "Ġachieve": 6378,
    "##iences": 6379,
    "##pa": 6380,
    "Ġslightly": 6381,
    "##ercy": 6382,
    "##vin": 6383,
    "Ġdesert": 6384,
    "Ġcalcul": 6385,
    "Ġocean": 6386,
    "ĠSouthern": 6387,
    "Ste": 6388,
    "ĠMah": 6389,
    "Ġshell": 6390,
    "Ġconsist": 6391,
    "Ġowner": 6392,
    "Ġpowers": 6393,
    "Ġdism": 6394,
    "hey": 6395,
    "Ġkil": 6396,
    "##ums": 6397,
    "Ġtraffic": 6398,
    "Ġfilms": 6399,
    "##IE": 6400,
    "Ġded": 6401,
    "Ġghost": 6402,
    "Ġliber": 6403,
    "Ġresc": 6404,
    "Ġinterp": 6405,
    "Ġdoors": 6406,
    "ĠOk": 6407,
    "Ġhanging": 6408,
    "ĠMore": 6409,
    "Ġunt": 6410,
    "##win": 6411,
    "Ġproof": 6412,
    "Ġseriously": 6413,
    "\").": 6414,
    "Ġpoison": 6415,
    "ĠCorn": 6416,
    "ĠWay": 6417,
    "##iform": 6418,
    "Ġsched": 6419,
    "Ġ500": 6420,
    "Ġ1987": 6421,
    "Ġmathem": 6422,
    "Ġnarrow": 6423,
    "Ġscale": 6424,
    "ĠBang": 6425,
    "Ġchain": 6426,
    "Ġentertain": 6427,
    "##aughs": 6428,
    "Ġlatter": 6429,
    "Ġconnection": 6430,
    "Ġrevolution": 6431,
    "##bably": 6432,
    "ĠIowa": 6433,
    "Ġtone": 6434,
    "Ġcounter": 6435,
    "Ġquant": 6436,
    "Ġresources": 6437,
    "ĠSwitzerland": 6438,
    "Ġbrave": 6439,
    "ĠJac": 6440,
    "##ulture": 6441,
    "Ġpink": 6442,
    "Ġ183": 6443,
    "ĠZealand": 6444,
    "ĠNat": 6445,
    "Ġcauses": 6446,
    "##outs": 6447,
    "Ġexpensive": 6448,
    "Hurry": 6449,
    "Ġsupported": 6450,
    "ĠLong": 6451,
    "Ġrealized": 6452,
    "23": 6453,
    "##awa": 6454,
    "Ġguest": 6455,
    "Ġtask": 6456,
    "Ġscientific": 6457,
    "ĠCharlie": 6458,
    "24": 6459,
    "##overy": 6460,
    "ĠUncle": 6461,
    "##acher": 6462,
    "Ġspect": 6463,
    "ĠIrish": 6464,
    "Ġcitizens": 6465,
    "Ġheav": 6466,
    "##apes": 6467,
    "Ġ90": 6468,
    "ĠWE": 6469,
    "ĠLike": 6470,
    "',": 6471,
    "Ġbat": 6472,
    "Ġgang": 6473,
    "##amin": 6474,
    "ĠMY": 6475,
    "Ġsupply": 6476,
    "Ġrecording": 6477,
    "ĠMcC": 6478,
    "Ġimpl": 6479,
    "Ġunion": 6480,
    "Ġweapon": 6481,
    "Ġapprox": 6482,
    "ĠThanks": 6483,
    "Ġemot": 6484,
    "Ġstring": 6485,
    "ĠCarolina": 6486,
    "Move": 6487,
    "##icy": 6488,
    "Ġuniverse": 6489,
    "Ġdetails": 6490,
    "ĠDis": 6491,
    "Ġcant": 6492,
    "ĠAmy": 6493,
    "Ġcheer": 6494,
    "ĠColonel": 6495,
    "Ġremembered": 6496,
    "##inent": 6497,
    "Ġdiss": 6498,
    "##esc": 6499,
    "Ġblame": 6500,
    "Ġcosts": 6501,
    "Ġgather": 6502,
    "Ġlevels": 6503,
    "):": 6504,
    "ĠTer": 6505,
    "does": 6506,
    "Ġspell": 6507,
    "ĠStep": 6508,
    "##weet": 6509,
    "##eaking": 6510,
    "ĠEs": 6511,
    "Ser": 6512,
    "##PS": 6513,
    "Ġ1984": 6514,
    "ĠJohnson": 6515,
    "##bey": 6516,
    "Ġfamiliar": 6517,
    "Ġincred": 6518,
    "##book": 6519,
    "Ġwings": 6520,
    "ĠJan": 6521,
    "ĠAwards": 6522,
    "##angers": 6523,
    "Still": 6524,
    "196": 6525,
    "Ġfairly": 6526,
    "Shit": 6527,
    "Ġtradition": 6528,
    "ĠLight": 6529,
    "##uls": 6530,
    "ĠChair": 6531,
    "Ġwondering": 6532,
    "Ġshore": 6533,
    "Ġsilent": 6534,
    "Ġreck": 6535,
    "##esides": 6536,
    "Ġ35": 6537,
    "ĠMic": 6538,
    "Ġtransform": 6539,
    "Ġlabel": 6540,
    "##mother": 6541,
    "Ġhidden": 6542,
    "ĠIslam": 6543,
    "ĠMich": 6544,
    "Ġclasses": 6545,
    "ĠNOT": 6546,
    "Ġoldest": 6547,
    "##egal": 6548,
    "Ġgrab": 6549,
    "Ġhyp": 6550,
    "Ġdust": 6551,
    "Ġpiano": 6552,
    "##roke": 6553,
    "Ġspin": 6554,
    "Ġ32": 6555,
    "him": 6556,
    "##war": 6557,
    "Ġseasons": 6558,
    "Ġshirt": 6559,
    "ĠJun": 6560,
    "##ava": 6561,
    "##ji": 6562,
    "Ġmental": 6563,
    "Ġstaying": 6564,
    "Col": 6565,
    "##verse": 6566,
    "Ġate": 6567,
    "Ġpriest": 6568,
    "Ġsport": 6569,
    "ĠUnder": 6570,
    "Ġafterwards": 6571,
    "Ġmole": 6572,
    "ĠCommission": 6573,
    "Ġ1979": 6574,
    "Ġplatform": 6575,
    "ĠHy": 6576,
    "##elf": 6577,
    "##urd": 6578,
    "Ġsheep": 6579,
    "Ġvessel": 6580,
    "Ġthroat": 6581,
    "ĠAT": 6582,
    "Ġresponsibility": 6583,
    "Ġroyal": 6584,
    "##Î¿": 6585,
    "Ġrac": 6586,
    "Ġdisappoint": 6587,
    "Ġhook": 6588,
    "ĠValley": 6589,
    "Ed": 6590,
    "##omer": 6591,
    "ĠSk": 6592,
    "Ġvirt": 6593,
    "According": 6594,
    "Ġadvert": 6595,
    "Ġcapac": 6596,
    "##lend": 6597,
    "Ġpin": 6598,
    "Ġplate": 6599,
    "##APTER": 6600,
    "Ġbudget": 6601,
    "Watch": 6602,
    "very": 6603,
    "Ġcards": 6604,
    "##Ã±": 6605,
    "ĠJean": 6606,
    "Ġhello": 6607,
    "Ġeastern": 6608,
    "Ġsolid": 6609,
    "Ġprincess": 6610,
    "Ġ/": 6611,
    "Ġlimited": 6612,
    "Ġcousin": 6613,
    "##gie": 6614,
    "##CT": 6615,
    "Ġ1981": 6616,
    "##icted": 6617,
    "Ġfeature": 6618,
    "Ġfinds": 6619,
    "Ġpresented": 6620,
    "Ġpill": 6621,
    "ĠLab": 6622,
    "##ela": 6623,
    "##worth": 6624,
    "Ġaband": 6625,
    "Ġtravell": 6626,
    "Ġbreaking": 6627,
    "Ġcabin": 6628,
    "##etch": 6629,
    "Up": 6630,
    "Ġunivers": 6631,
    "##eau": 6632,
    "##pet": 6633,
    "Ġwise": 6634,
    "##OL": 6635,
    "Ġath": 6636,
    "Ġ1972": 6637,
    "IT": 6638,
    "Ġshoulder": 6639,
    "Ġshame": 6640,
    "ĠVal": 6641,
    "Ġeconomy": 6642,
    "Aye": 6643,
    "Ġtournament": 6644,
    "Ġ1986": 6645,
    "Ġattacked": 6646,
    "##uper": 6647,
    "Ġnea": 6648,
    "##ario": 6649,
    "ĠOut": 6650,
    "Ġchose": 6651,
    "Ġrocks": 6652,
    "22": 6653,
    "Ġdread": 6654,
    "Ġcolon": 6655,
    "Sit": 6656,
    "Ġtroub": 6657,
    "Ġ70": 6658,
    "Ġ<": 6659,
    "##eding": 6660,
    "ĠBra": 6661,
    "##rence": 6662,
    "Ġartists": 6663,
    "Ġparties": 6664,
    "Ġ--&": 6665,
    "Ġrefused": 6666,
    "Ġwaited": 6667,
    "##ez": 6668,
    "##andy": 6669,
    "ĠKorea": 6670,
    "Ġham": 6671,
    "ĠAngel": 6672,
    "##aning": 6673,
    "Ġflu": 6674,
    "Ġentr": 6675,
    "Ġfan": 6676,
    "##unched": 6677,
    "Ġpassion": 6678,
    "ĠProvince": 6679,
    "##ko": 6680,
    "Ġpoll": 6681,
    "##aka": 6682,
    "ĠTHIS": 6683,
    "Ġfolks": 6684,
    "ĠRepublican": 6685,
    "were": 6686,
    "Ġlat": 6687,
    "Has": 6688,
    "Care": 6689,
    "##ova": 6690,
    "##aws": 6691,
    "##AND": 6692,
    "Ġmedal": 6693,
    "##rast": 6694,
    "Ġrelax": 6695,
    "##athy": 6696,
    "Ġangel": 6697,
    "Ġjustice": 6698,
    "Open": 6699,
    "Ġliqu": 6700,
    "Ġstated": 6701,
    "ĠJeff": 6702,
    "Ġdial": 6703,
    "##oto": 6704,
    "Ġcheese": 6705,
    "##ESS": 6706,
    "Ġwire": 6707,
    "Ġsuffered": 6708,
    "Ġstations": 6709,
    "##urally": 6710,
    "Ġoccurred": 6711,
    "ĠSol": 6712,
    "Ġdetermined": 6713,
    "Ġbatter": 6714,
    "##icket": 6715,
    "Ġbegins": 6716,
    "Ġchallenge": 6717,
    "ĠWales": 6718,
    "Ġ1983": 6719,
    "ĠRod": 6720,
    "Ġeditor": 6721,
    "Ġpolitics": 6722,
    "##alm": 6723,
    "Ġconscious": 6724,
    "Ġdisappeared": 6725,
    "##fortunately": 6726,
    "ĠFootball": 6727,
    "Ġblank": 6728,
    "ĠWall": 6729,
    "Ġintegr": 6730,
    "ĠKe": 6731,
    "Ġgeneration": 6732,
    "##entially": 6733,
    "Ġtelephone": 6734,
    "Ġanti": 6735,
    "##AUGH": 6736,
    "Ġvariety": 6737,
    "Ġadmit": 6738,
    "##erk": 6739,
    "Ġgodd": 6740,
    "Ġdrawn": 6741,
    "Ġcrown": 6742,
    "##inson": 6743,
    "##rilliant": 6744,
    "Ġnormally": 6745,
    "Ġfalse": 6746,
    "ĠCommun": 6747,
    "##enes": 6748,
    "Ġattended": 6749,
    "ĠTre": 6750,
    "Ġpaint": 6751,
    "ĠYOUR": 6752,
    "ĠFort": 6753,
    "Ġhappiness": 6754,
    "Although": 6755,
    "Ġridic": 6756,
    "Ġ1985": 6757,
    "Ġhelps": 6758,
    "Ġinnocent": 6759,
    "##cest": 6760,
    "Ġcontinues": 6761,
    "Under": 6762,
    "##encies": 6763,
    "Ġprotection": 6764,
    "Ġ1982": 6765,
    "Ġeleven": 6766,
    "Ġconflict": 6767,
    "##iece": 6768,
    "##RB": 6769,
    "Ġunus": 6770,
    "Ġfurn": 6771,
    "##omed": 6772,
    "##iments": 6773,
    "##isse": 6774,
    "Ġproposed": 6775,
    "Ġlocked": 6776,
    "Ġlone": 6777,
    "Sam": 6778,
    "Ġhomes": 6779,
    "Ġlegisl": 6780,
    "Ġtemple": 6781,
    "Ġdaily": 6782,
    "Ġvent": 6783,
    "Ġidiot": 6784,
    "Ġexistence": 6785,
    "##ordin": 6786,
    "Ġarticle": 6787,
    "##jo": 6788,
    "Ġbite": 6789,
    "ĠInter": 6790,
    "##ronic": 6791,
    "ĠEven": 6792,
    "##ologist": 6793,
    "Ġswitch": 6794,
    "ĠBook": 6795,
    "Ġcarbon": 6796,
    "Ġrab": 6797,
    "ĠSecond": 6798,
    "Ġcateg": 6799,
    "Ġhom": 6800,
    "ĠTri": 6801,
    "Ġdegrees": 6802,
    "ĠUk": 6803,
    "Ġtouched": 6804,
    "ĠSP": 6805,
    "##hings": 6806,
    "100": 6807,
    "Ġax": 6808,
    "ĠEv": 6809,
    "Ġbackground": 6810,
    "Ġreferred": 6811,
    "##ONE": 6812,
    "Ġnurs": 6813,
    "Ġonline": 6814,
    "Ġclimate": 6815,
    "Ġshadow": 6816,
    "Ġveget": 6817,
    "##heim": 6818,
    "Ġfold": 6819,
    "##ints": 6820,
    "Ġstands": 6821,
    "Ġvictim": 6822,
    "Â¶": 6823,
    "get": 6824,
    "ĠRam": 6825,
    "Ġequip": 6826,
    "Ġsentence": 6827,
    "ĠNick": 6828,
    "Ġoperations": 6829,
    "Sec": 6830,
    "ĠTony": 6831,
    "Ġrespond": 6832,
    "Ġinhabit": 6833,
    "Ġsole": 6834,
    "ĠLib": 6835,
    "Ġrare": 6836,
    "Ġtower": 6837,
    "ĠHave": 6838,
    "Ġimpact": 6839,
    "##ourse": 6840,
    "Ġconcert": 6841,
    "Ġaim": 6842,
    "Ġsurg": 6843,
    "ĠNE": 6844,
    "ĠSenate": 6845,
    "##lN": 6846,
    "Ġkiller": 6847,
    "##iac": 6848,
    "##earch": 6849,
    "Ġflood": 6850,
    "Looks": 6851,
    "##ingly": 6852,
    "Ġpa": 6853,
    "##eps": 6854,
    "Early": 6855,
    "ĠNaz": 6856,
    "Ġtreated": 6857,
    "Ġincreasing": 6858,
    "ĠAS": 6859,
    "Ġpleasant": 6860,
    "Ġsuicide": 6861,
    "Ġbutton": 6862,
    "Ġvision": 6863,
    "Ġwrit": 6864,
    "Ġdyn": 6865,
    "Ġunknown": 6866,
    "Ġcriminal": 6867,
    "Ġcommittee": 6868,
    "Mad": 6869,
    "##angle": 6870,
    "Ġheight": 6871,
    "##aki": 6872,
    "##rical": 6873,
    "##eek": 6874,
    "cent": 6875,
    "Ġcig": 6876,
    "Ġtowns": 6877,
    "Club": 6878,
    "ĠFour": 6879,
    "Ġorange": 6880,
    "ĠIII": 6881,
    "Ġestablish": 6882,
    "Jesus": 6883,
    "Peter": 6884,
    "Ġloose": 6885,
    "##idae": 6886,
    "##istor": 6887,
    "Ġregret": 6888,
    "##uns": 6889,
    "ĠâĢĶ": 6890,
    "Ġassociated": 6891,
    "Ġchart": 6892,
    "Ġcoal": 6893,
    "Ġobjects": 6894,
    "Ġtied": 6895,
    "Mother": 6896,
    "Fl": 6897,
    "Ġaspect": 6898,
    "Ġvalues": 6899,
    "##ducation": 6900,
    "##coh": 6901,
    "Ġsymbol": 6902,
    "Ġterritory": 6903,
    "##ras": 6904,
    "##gly": 6905,
    "ĠThree": 6906,
    "Ġfallen": 6907,
    "##wa": 6908,
    "ĠBoston": 6909,
    "Ġ36": 6910,
    "##orpor": 6911,
    "Ġquit": 6912,
    "Ġhundreds": 6913,
    "ĠForce": 6914,
    "##geant": 6915,
    "Turn": 6916,
    "Ġengaged": 6917,
    "Ġrecognized": 6918,
    "Ġserving": 6919,
    "Ġframe": 6920,
    "##okes": 6921,
    "Ġ1976": 6922,
    "Ġhorn": 6923,
    "Ġpreviously": 6924,
    "Ġcute": 6925,
    "##aron": 6926,
    "Ġincome": 6927,
    "Ġseek": 6928,
    "Ġfollows": 6929,
    "##OULD": 6930,
    "Ġinstrument": 6931,
    "##eneath": 6932,
    "ĠKansas": 6933,
    "ĠKNOW": 6934,
    "##GE": 6935,
    "HE": 6936,
    "##ito": 6937,
    "##IA": 6938,
    "Ġhunting": 6939,
    "Ġjuice": 6940,
    "Ġ1978": 6941,
    "Ġviolence": 6942,
    "Ġneighbour": 6943,
    "Ġconsequ": 6944,
    "Ġboyfriend": 6945,
    "Again": 6946,
    "ĠLater": 6947,
    "Ġclock": 6948,
    "ĠGal": 6949,
    "##ieutenant": 6950,
    "Ġtruly": 6951,
    "Ġhoping": 6952,
    "Ġsacrif": 6953,
    "Ġappreciate": 6954,
    "Ġdiscover": 6955,
    "Ġcott": 6956,
    "Ġrooms": 6957,
    "##ba": 6958,
    "##athan": 6959,
    "ĠUp": 6960,
    "##uce": 6961,
    "Ġtie": 6962,
    "Ġsisters": 6963,
    "Ġbenefit": 6964,
    "##ception": 6965,
    "ĠSur": 6966,
    "ĠKong": 6967,
    "ĠPortug": 6968,
    "Ġdrove": 6969,
    "Ġclient": 6970,
    "Ġhandsome": 6971,
    "Ġfeatured": 6972,
    "Ġmyst": 6973,
    "Ġcommission": 6974,
    "ĠAss": 6975,
    "Ġfancy": 6976,
    "ĠLife": 6977,
    "Father": 6978,
    "##boy": 6979,
    "##ricane": 6980,
    "ĠJones": 6981,
    "Ġsuffering": 6982,
    "Ġargument": 6983,
    "ĠNorm": 6984,
    "ĠJohnny": 6985,
    "Ġsenior": 6986,
    "Ġbeer": 6987,
    "##oof": 6988,
    "ĠAccording": 6989,
    "##itty": 6990,
    "Ġmaintain": 6991,
    "##lla": 6992,
    "Ġpeak": 6993,
    "ĠTay": 6994,
    "##osphere": 6995,
    "Ġsuppl": 6996,
    "Ġconduct": 6997,
    "##KING": 6998,
    "\"),": 6999,
    "Ġaunt": 7000,
    "##nic": 7001,
    "##adel": 7002,
    "##ounding": 7003,
    "ĠJimmy": 7004,
    "ĠGra": 7005,
    "should": 7006,
    "Ġordinary": 7007,
    "five": 7008,
    "Ġlit": 7009,
    "ĠDor": 7010,
    "Ġcompared": 7011,
    "Ġclever": 7012,
    "ĠEmperor": 7013,
    "Ġestim": 7014,
    "Ġshock": 7015,
    "Paul": 7016,
    "Ġapple": 7017,
    "Last": 7018,
    "Ġwo": 7019,
    "Ġappeal": 7020,
    "Ġdistinct": 7021,
    "##iser": 7022,
    "##emies": 7023,
    "Ġrecognize": 7024,
    "##mes": 7025,
    "Ġborrow": 7026,
    "500": 7027,
    "ĠMem": 7028,
    "##ustration": 7029,
    "Ġsurvive": 7030,
    "Little": 7031,
    "Ġfate": 7032,
    "ĠSocial": 7033,
    "##fall": 7034,
    "Ġmail": 7035,
    "##asm": 7036,
    "ĠElizabeth": 7037,
    "Ge": 7038,
    "##iat": 7039,
    "##olk": 7040,
    "ĠEastern": 7041,
    "##asts": 7042,
    "Ġrepeated": 7043,
    "Ġproperly": 7044,
    "Ġ1974": 7045,
    "Bill": 7046,
    "comm": 7047,
    "Ġdescend": 7048,
    "ĠMen": 7049,
    "Ġbehavior": 7050,
    "##bridge": 7051,
    "##era": 7052,
    "Ġ1973": 7053,
    "##ements": 7054,
    "Ġadministr": 7055,
    "Ġcourage": 7056,
    "Ġinqu": 7057,
    "ĠHan": 7058,
    "Ġlin": 7059,
    "ĠCO": 7060,
    "ĠChris": 7061,
    "ĠMat": 7062,
    "ĠRecords": 7063,
    "##LA": 7064,
    "ĠLiber": 7065,
    "Ġlimit": 7066,
    "Ġdeliver": 7067,
    "##arrass": 7068,
    "Ġrestaurant": 7069,
    "##inging": 7070,
    "##aire": 7071,
    "##obb": 7072,
    "##iy": 7073,
    "##sect": 7074,
    "##oln": 7075,
    "Ġok": 7076,
    "Ġcheap": 7077,
    "##place": 7078,
    "##quarters": 7079,
    "##ERS": 7080,
    "ĠMiddle": 7081,
    "Ġ300": 7082,
    "##gle": 7083,
    "##ealous": 7084,
    "##hole": 7085,
    "Ġcreature": 7086,
    "Ġearned": 7087,
    "ĠAlan": 7088,
    "ĠJersey": 7089,
    "Four": 7090,
    "Ġcontest": 7091,
    "ĠConn": 7092,
    "Ġ01": 7093,
    "Ġwebsite": 7094,
    "rd": 7095,
    "##aya": 7096,
    "Ġens": 7097,
    "Ġunique": 7098,
    "##isy": 7099,
    "Ġ45": 7100,
    "ĠHind": 7101,
    "##ague": 7102,
    "Ġexcellent": 7103,
    "Ġapparently": 7104,
    "##ocolate": 7105,
    "Ġnoted": 7106,
    "##down": 7107,
    "##IST": 7108,
    "Em": 7109,
    "Ġrum": 7110,
    "ĠBank": 7111,
    "ĠFair": 7112,
    "night": 7113,
    "Ġbatt": 7114,
    "##anging": 7115,
    "Ġagreement": 7116,
    "##venge": 7117,
    "Ġindividuals": 7118,
    "##onn": 7119,
    "Ġequipment": 7120,
    "##wide": 7121,
    "##imal": 7122,
    "##iration": 7123,
    "ĠTime": 7124,
    "Ġburning": 7125,
    "ĠFestival": 7126,
    "ĠPhilipp": 7127,
    "##low": 7128,
    "Ġsigns": 7129,
    "ĠVen": 7130,
    "Ġreports": 7131,
    "ĠHAVE": 7132,
    "Ġpushed": 7133,
    "##omach": 7134,
    "ĠMarg": 7135,
    "Ġconsult": 7136,
    "also": 7137,
    "ad": 7138,
    "##HL": 7139,
    "Ġsaving": 7140,
    "Ġchampion": 7141,
    "##wich": 7142,
    "##unting": 7143,
    "ĠShow": 7144,
    "Ġcircumstances": 7145,
    "ĠCa": 7146,
    "Ġholds": 7147,
    "##sters": 7148,
    "Ġalarm": 7149,
    "Ġsomewhat": 7150,
    "Ġpartners": 7151,
    "##achus": 7152,
    "##arant": 7153,
    "Ġexact": 7154,
    "Ġcommitted": 7155,
    "Ġofficially": 7156,
    "Ġgoodness": 7157,
    "Ġconstant": 7158,
    "Ġbrings": 7159,
    "Ġpatients": 7160,
    "##gs": 7161,
    "ĠHome": 7162,
    "Ġobvious": 7163,
    "Ġgovernor": 7164,
    "ĠMonday": 7165,
    "##izations": 7166,
    "Ġcas": 7167,
    "Ġbuddy": 7168,
    "Ġbastard": 7169,
    "ĠHu": 7170,
    "Ġlisted": 7171,
    "ĠTy": 7172,
    "##una": 7173,
    "hmm": 7174,
    "##ika": 7175,
    "Ġsoftware": 7176,
    "Ġrot": 7177,
    "##atherine": 7178,
    "##bow": 7179,
    "##olt": 7180,
    "Ġnuclear": 7181,
    "##otic": 7182,
    "ĠBarb": 7183,
    "ĠJr": 7184,
    "##ACK": 7185,
    "##heart": 7186,
    "Ġexperiment": 7187,
    "##ading": 7188,
    "ĠRon": 7189,
    "ĠKenn": 7190,
    "Ġreject": 7191,
    "Ġintended": 7192,
    "##ented": 7193,
    "Their": 7194,
    "Ġcheek": 7195,
    "Ġimportance": 7196,
    "##gian": 7197,
    "##arks": 7198,
    "Ġconference": 7199,
    "Ġ1969": 7200,
    "##oked": 7201,
    "Ġexplained": 7202,
    "ĠAlthough": 7203,
    "Ġpretend": 7204,
    "##Åį": 7205,
    "ĠSteve": 7206,
    "Ġmeal": 7207,
    "ĠAsian": 7208,
    "Ġadditional": 7209,
    "Ġbabies": 7210,
    "ĠOx": 7211,
    "Ġmoves": 7212,
    "Ġtrail": 7213,
    "ĠHoly": 7214,
    "ĠMaria": 7215,
    "##ometimes": 7216,
    "Ġadvance": 7217,
    "Ġ1968": 7218,
    "Big": 7219,
    "##while": 7220,
    "##ront": 7221,
    "##etts": 7222,
    "##stone": 7223,
    "Ġexchange": 7224,
    "ĠKen": 7225,
    "Ġ1975": 7226,
    "ĠMod": 7227,
    "Ġdesk": 7228,
    "Ġlaunched": 7229,
    "##osal": 7230,
    "Ġwoods": 7231,
    "ĠLI": 7232,
    "##pered": 7233,
    "Ġslept": 7234,
    "##Ã´": 7235,
    "##zo": 7236,
    "##iral": 7237,
    "Ġeaten": 7238,
    "ĠBlue": 7239,
    "Ġdepends": 7240,
    "Ġwithd": 7241,
    "##ĠĠĠ": 7242,
    "Ġnominated": 7243,
    "##umph": 7244,
    "27": 7245,
    "##gend": 7246,
    "Ġassistant": 7247,
    "ĠService": 7248,
    "Ġperman": 7249,
    "Ġ1971": 7250,
    "Ġroot": 7251,
    "based": 7252,
    "Ġweb": 7253,
    "Ġwrest": 7254,
    "ĠBern": 7255,
    "Ġkeys": 7256,
    "ĠPakistan": 7257,
    "Ġstole": 7258,
    "ĠDet": 7259,
    "##addy": 7260,
    "Ġsolve": 7261,
    "ĠRom": 7262,
    "Pres": 7263,
    "##lers": 7264,
    "Ġtracks": 7265,
    "##BS": 7266,
    "##aren": 7267,
    "##retty": 7268,
    "Ġscript": 7269,
    "##aze": 7270,
    "Ġ1977": 7271,
    "26": 7272,
    "ĠAv": 7273,
    "Ġcommit": 7274,
    "##evin": 7275,
    "Ġdarkness": 7276,
    "##otal": 7277,
    "Ġhorrible": 7278,
    "ĠTem": 7279,
    "ĠNavy": 7280,
    "Ġshel": 7281,
    "Ġclim": 7282,
    "ĠGeorgia": 7283,
    "per": 7284,
    "Ġteachers": 7285,
    "Ġhistorical": 7286,
    "##hess": 7287,
    "ĠBrother": 7288,
    "Ġclaimed": 7289,
    "##aling": 7290,
    "Ġgoods": 7291,
    "Both": 7292,
    "ĠTurk": 7293,
    "Ġho": 7294,
    "Ġpale": 7295,
    "ĠTele": 7296,
    "ĠBus": 7297,
    "ĠAtlantic": 7298,
    "Ġpump": 7299,
    "ĠAndrew": 7300,
    "Ġ1930": 7301,
    "Ġcommonly": 7302,
    "ĠCivil": 7303,
    "Ġswimming": 7304,
    "Ġneighborhood": 7305,
    "known": 7306,
    "##inking": 7307,
    "Ġreaction": 7308,
    "##Ã©e": 7309,
    "##erer": 7310,
    "David": 7311,
    "##asp": 7312,
    "Ġdescribe": 7313,
    "Ġoverall": 7314,
    "##ati": 7315,
    "Ġowe": 7316,
    "##estic": 7317,
    "Ġatm": 7318,
    "Ġactions": 7319,
    "Ġclosely": 7320,
    "ĠPacific": 7321,
    "Ġtoil": 7322,
    "##incoln": 7323,
    "Ġwinner": 7324,
    "Ġbedroom": 7325,
    "ĠPL": 7326,
    "ĠDef": 7327,
    "##obe": 7328,
    "Ġaccomp": 7329,
    "##aura": 7330,
    "Ġeleph": 7331,
    "Ġdefin": 7332,
    "Ġcompeted": 7333,
    "##inity": 7334,
    "ĠDar": 7335,
    "Ġprime": 7336,
    "Ġfriendly": 7337,
    "##standing": 7338,
    "Ġphotograph": 7339,
    "##sell": 7340,
    "Ġmyth": 7341,
    "Ġsitu": 7342,
    "Ġ1940": 7343,
    "ĠBerlin": 7344,
    "Gl": 7345,
    "##olen": 7346,
    "ĠHung": 7347,
    "ĠCy": 7348,
    "Ġallows": 7349,
    "Ġwished": 7350,
    "##writer": 7351,
    "ĠBull": 7352,
    "ĠAdm": 7353,
    "Ġancest": 7354,
    "##unts": 7355,
    ",--": 7356,
    "##unes": 7357,
    "Ġexplos": 7358,
    "Ġcorresp": 7359,
    "ĠPrize": 7360,
    "##atics": 7361,
    "Ġsymp": 7362,
    "Ġproved": 7363,
    "ĠFrancisco": 7364,
    "Ġembarrass": 7365,
    "Ġlift": 7366,
    "Ġbasketball": 7367,
    "Ġspite": 7368,
    "Ġindustrial": 7369,
    "##achusetts": 7370,
    "ĠVan": 7371,
    "Ġholiday": 7372,
    "Ġsettlement": 7373,
    "Ġretire": 7374,
    "Ġ1964": 7375,
    "Saint": 7376,
    "Ġalcoh": 7377,
    "##mpt": 7378,
    "##ching": 7379,
    "Ġcock": 7380,
    "ĠGil": 7381,
    "##water": 7382,
    "Ġremaining": 7383,
    "Ġcorpor": 7384,
    "Ġromantic": 7385,
    "want": 7386,
    "Ġdies": 7387,
    "ĠBoth": 7388,
    "##anches": 7389,
    "Ma": 7390,
    "##omy": 7391,
    "Ġgotten": 7392,
    "Ġcurious": 7393,
    "ĠHarr": 7394,
    "Ġsplend": 7395,
    "Ġdram": 7396,
    "##chestra": 7397,
    "Ġfishing": 7398,
    "##anes": 7399,
    "##iley": 7400,
    "##Ã§": 7401,
    "Ġaside": 7402,
    "Ġaccompl": 7403,
    "Ġmarked": 7404,
    "40": 7405,
    "ĠArthur": 7406,
    "Ġinsurance": 7407,
    "Ġinvestigation": 7408,
    "Fin": 7409,
    "##ami": 7410,
    "Ġanalysis": 7411,
    "Ġcomposed": 7412,
    "Ġwing": 7413,
    "Ġconqu": 7414,
    "##uy": 7415,
    "##ouri": 7416,
    "Ġridiculous": 7417,
    "Ġfrightened": 7418,
    "'?": 7419,
    "##reck": 7420,
    "Ġpuzz": 7421,
    "##oops": 7422,
    "Ġmerely": 7423,
    "Ġbathroom": 7424,
    "##burgh": 7425,
    "Ġvalley": 7426,
    "Ġtender": 7427,
    "mom": 7428,
    "ĠWITH": 7429,
    "CHAPTER": 7430,
    "##wing": 7431,
    "##cles": 7432,
    "Ġsteel": 7433,
    "ĠNether": 7434,
    "Ġfalls": 7435,
    "##EM": 7436,
    "ĠDi": 7437,
    "##you": 7438,
    "Ġemergency": 7439,
    "ĠSant": 7440,
    "Ġdevil": 7441,
    "Ġdesper": 7442,
    "Ġnearby": 7443,
    "Ġgods": 7444,
    "##iques": 7445,
    "##ropriate": 7446,
    "##osis": 7447,
    "##TS": 7448,
    "Ġgal": 7449,
    "Ġsending": 7450,
    "##aska": 7451,
    "##Ã³n": 7452,
    "Ġlonely": 7453,
    "##UM": 7454,
    "Ġtools": 7455,
    "Ġnurse": 7456,
    "âĻ«": 7457,
    "##wick": 7458,
    "Ġbones": 7459,
    "ĠOnly": 7460,
    "##gues": 7461,
    "##ierce": 7462,
    "ĠHea": 7463,
    "Ġsimpl": 7464,
    "ĠWater": 7465,
    "Ġstronger": 7466,
    "Geor": 7467,
    "Ġtort": 7468,
    "Ġnut": 7469,
    "ĠRaj": 7470,
    "Ġexamples": 7471,
    "Ġmaterials": 7472,
    "##omi": 7473,
    "Ġsets": 7474,
    "Ġcritical": 7475,
    "Ġstomach": 7476,
    "ĠUh": 7477,
    "ĠTok": 7478,
    "Ġprote": 7479,
    "Ġapplication": 7480,
    "ĠBoard": 7481,
    "##AB": 7482,
    "##rich": 7483,
    "ĠInt": 7484,
    "Ġmonster": 7485,
    "Ġwore": 7486,
    "Ġbeneath": 7487,
    "Ġreward": 7488,
    "##irmed": 7489,
    "ĠBav": 7490,
    "Ġdecor": 7491,
    "Ġefforts": 7492,
    "ĠOpen": 7493,
    "Anything": 7494,
    "##ogue": 7495,
    "##otted": 7496,
    "only": 7497,
    "Ġcaptured": 7498,
    "Comm": 7499,
    "ĠUN": 7500,
    "##unning": 7501,
    "ĠAbout": 7502,
    "##onsense": 7503,
    "Ġhired": 7504,
    "Ġpregnant": 7505,
    "Ġjun": 7506,
    "ĠNob": 7507,
    "Ġacid": 7508,
    "Ġestate": 7509,
    "Five": 7510,
    "ĠCAN": 7511,
    "ĠIntern": 7512,
    "##ruce": 7513,
    "ĠTa": 7514,
    "Ġours": 7515,
    "ĠFilm": 7516,
    "ĠBattle": 7517,
    "Ġmethods": 7518,
    "Ġshared": 7519,
    "ĠGall": 7520,
    "##ordon": 7521,
    "Ġsweetie": 7522,
    "over": 7523,
    "Ġpride": 7524,
    "Ġprotest": 7525,
    "Ġenemies": 7526,
    "Ġbutt": 7527,
    "Ġairport": 7528,
    "Shall": 7529,
    "Ġexercise": 7530,
    "##itors": 7531,
    "Ġmile": 7532,
    "Ġsurely": 7533,
    "ĠKorean": 7534,
    "##vant": 7535,
    "Ġmood": 7536,
    "ĠCub": 7537,
    "##esp": 7538,
    "ĠSel": 7539,
    "Ġ1967": 7540,
    "down": 7541,
    "ĠLeon": 7542,
    "Ġdump": 7543,
    "Ġlands": 7544,
    "ĠPen": 7545,
    "Ġuniform": 7546,
    "Ġsalt": 7547,
    "Ġ33": 7548,
    "Ġ(,": 7549,
    "Ġattacks": 7550,
    "Ġcopies": 7551,
    "Ġenjoyed": 7552,
    "Ġdefeat": 7553,
    "Life": 7554,
    "Ġtalent": 7555,
    "Ġtoys": 7556,
    "Ġshook": 7557,
    "Ġapply": 7558,
    "Ġliterature": 7559,
    "ĠDirector": 7560,
    "ĠTimes": 7561,
    "Too": 7562,
    "##force": 7563,
    "Ġadopted": 7564,
    "more": 7565,
    "ĠBible": 7566,
    "Ġbrilliant": 7567,
    "##aser": 7568,
    "##asters": 7569,
    "Ġugly": 7570,
    "##rav": 7571,
    "Ġnumerous": 7572,
    "Sim": 7573,
    "Ġta": 7574,
    "##bsolutely": 7575,
    "Ġcolors": 7576,
    "Captain": 7577,
    "Ġsoil": 7578,
    "every": 7579,
    "Ġdealing": 7580,
    "Ġinhabitants": 7581,
    "Ġsurgery": 7582,
    "Ġrand": 7583,
    "Ġphr": 7584,
    "##apping": 7585,
    "Ġapplied": 7586,
    "ĠBrook": 7587,
    "ĠOffice": 7588,
    "##onent": 7589,
    "Ġrug": 7590,
    "Ġoblig": 7591,
    "Ġauthorities": 7592,
    "--\"": 7593,
    "##agement": 7594,
    "Ġskills": 7595,
    "Ġproced": 7596,
    "ĠDav": 7597,
    "ĠOver": 7598,
    "Ġsorts": 7599,
    "##ifying": 7600,
    "Ġagric": 7601,
    "##olitan": 7602,
    "Ġrings": 7603,
    "ĠJon": 7604,
    "Ġdevice": 7605,
    "Ġorganized": 7606,
    "Ġgained": 7607,
    "Ġseats": 7608,
    "Ġdistributed": 7609,
    "Ġjoint": 7610,
    "Ġfolk": 7611,
    "##itable": 7612,
    "Ġreform": 7613,
    "Ġtheme": 7614,
    "Ġmayor": 7615,
    "Ġfactory": 7616,
    "Ġburst": 7617,
    "##ithm": 7618,
    "Ġspo": 7619,
    "ĠSimon": 7620,
    "##ription": 7621,
    "Ġdelay": 7622,
    "28": 7623,
    "Ġthrown": 7624,
    "ĠRepresent": 7625,
    "ĠDON": 7626,
    "ĠScottish": 7627,
    "ĠMichigan": 7628,
    "ĠDaniel": 7629,
    "ĠNight": 7630,
    "Ġsam": 7631,
    "Ġyard": 7632,
    "ĠTommy": 7633,
    "Ġsale": 7634,
    "Exactly": 7635,
    "Ġvehicle": 7636,
    "ĠAssembly": 7637,
    "Ġconcl": 7638,
    "##rogen": 7639,
    "Ġfortune": 7640,
    "##EF": 7641,
    "##UCK": 7642,
    "##ppy": 7643,
    "ĠKat": 7644,
    "ĠAlice": 7645,
    "Ġcomplain": 7646,
    "Ġdetail": 7647,
    "##iri": 7648,
    "Boy": 7649,
    "Ġmyster": 7650,
    "ĠArts": 7651,
    "Ġunusual": 7652,
    "##ultural": 7653,
    "Ġticket": 7654,
    "Ġtrains": 7655,
    "Ġcomplicated": 7656,
    "OH": 7657,
    "any": 7658,
    "Ġtip": 7659,
    "ĠAny": 7660,
    "Ġ181": 7661,
    "Ġtear": 7662,
    "ĠDNA": 7663,
    "Ġannual": 7664,
    "ĠSon": 7665,
    "##stance": 7666,
    "ĠAri": 7667,
    "Ġeffective": 7668,
    "##ori": 7669,
    "Ġblocks": 7670,
    "##ructed": 7671,
    "Ġinstant": 7672,
    "##alo": 7673,
    "Ġhousehold": 7674,
    "Ġprize": 7675,
    "ĠMassachusetts": 7676,
    "cont": 7677,
    "Ġconce": 7678,
    "Ġ1945": 7679,
    "Frank": 7680,
    "Ġscientists": 7681,
    "Ġdemocr": 7682,
    "ĠAdam": 7683,
    "Ġaid": 7684,
    "ĠNetherlands": 7685,
    "say": 7686,
    "Ġincident": 7687,
    "Ġdraft": 7688,
    "##oster": 7689,
    "ĠArgent": 7690,
    "##eh": 7691,
    "Ġburned": 7692,
    "Ġinitial": 7693,
    "##icing": 7694,
    "ĠSup": 7695,
    "ĠGer": 7696,
    "##ateful": 7697,
    "ĠViet": 7698,
    "Ġbullet": 7699,
    "##athered": 7700,
    "Ġpity": 7701,
    "ĠOb": 7702,
    "##gging": 7703,
    "ĠNet": 7704,
    "Ġopera": 7705,
    "Ġdisappear": 7706,
    "ĠOlympic": 7707,
    "Ġdoctors": 7708,
    "##ivered": 7709,
    "ĠBefore": 7710,
    "maybe": 7711,
    "01": 7712,
    "Eng": 7713,
    "Ġplot": 7714,
    "Ġelev": 7715,
    "Ġharder": 7716,
    "Ġparish": 7717,
    "ĠNic": 7718,
    "Ġteen": 7719,
    "##oti": 7720,
    "Bring": 7721,
    "Ġstranger": 7722,
    "Ap": 7723,
    "ind": 7724,
    "##OUT": 7725,
    "Ġobserved": 7726,
    "ĠSarah": 7727,
    "ĠDuke": 7728,
    "##phia": 7729,
    "Ġsixth": 7730,
    "Ġelections": 7731,
    "Ġpermission": 7732,
    "Time": 7733,
    "Ġbride": 7734,
    "Ġconsists": 7735,
    "Ġattitude": 7736,
    "Ġsuffer": 7737,
    "ĠWHAT": 7738,
    "##ington": 7739,
    "Ġhearts": 7740,
    "Ġfuel": 7741,
    "Ġwarning": 7742,
    "Ġcultural": 7743,
    "##ige": 7744,
    "##rane": 7745,
    "ĠBea": 7746,
    "Ġlegend": 7747,
    "Ġbadly": 7748,
    "little": 7749,
    "##owing": 7750,
    "##umes": 7751,
    "Ġdish": 7752,
    "Ġpow": 7753,
    "ĠLew": 7754,
    "Ġunable": 7755,
    "##rot": 7756,
    "Ġcruel": 7757,
    "Ġcandidate": 7758,
    "Ġrandom": 7759,
    "##Äĩ": 7760,
    "Somebody": 7761,
    "Yep": 7762,
    "Ġhast": 7763,
    "Ġhills": 7764,
    "Ġpupp": 7765,
    "ĠProt": 7766,
    "Ġadvanced": 7767,
    "Ġroads": 7768,
    "General": 7769,
    "##ollowing": 7770,
    "Ġsubsequ": 7771,
    "##inem": 7772,
    "ĠEve": 7773,
    "ĠOhio": 7774,
    "Ġcreating": 7775,
    "ĠBab": 7776,
    "##engers": 7777,
    "Ġspare": 7778,
    "Ġstruggle": 7779,
    "ĠBad": 7780,
    "Ġgre": 7781,
    "##uties": 7782,
    "Ġwhenever": 7783,
    "Ġnights": 7784,
    "Im": 7785,
    "Ġislands": 7786,
    "Ġstress": 7787,
    "Ġowners": 7788,
    "Ġassume": 7789,
    "##eness": 7790,
    "ĠMir": 7791,
    "ĠKn": 7792,
    "Ġconfess": 7793,
    "Jo": 7794,
    "ĠRa": 7795,
    "Ġbalance": 7796,
    "ĠAB": 7797,
    "ĠSC": 7798,
    "Ġriding": 7799,
    "Ġpointed": 7800,
    "Ġbelongs": 7801,
    "##aph": 7802,
    "Ġbits": 7803,
    "Ġangle": 7804,
    "##cript": 7805,
    "Ġhonour": 7806,
    "Ġacts": 7807,
    "Ġexplan": 7808,
    "Ġlesson": 7809,
    "Ġjealous": 7810,
    "Ġidentity": 7811,
    "Ġleads": 7812,
    "Ġseventy": 7813,
    "##âĻª": 7814,
    "ĠWilliams": 7815,
    "ĠChampionships": 7816,
    "Ġpages": 7817,
    "ĠLeg": 7818,
    "##orney": 7819,
    "##EST": 7820,
    "looking": 7821,
    "Whe": 7822,
    "##itter": 7823,
    "Ġjew": 7824,
    "Ġvolume": 7825,
    "##utation": 7826,
    "three": 7827,
    "Cong": 7828,
    "##unte": 7829,
    "ĠLes": 7830,
    "Ġvisited": 7831,
    "WHAT": 7832,
    "##adelphia": 7833,
    "Bar": 7834,
    "ĠMid": 7835,
    "##uma": 7836,
    "Ġbuying": 7837,
    "Ġballs": 7838,
    "ĠRoss": 7839,
    "ĠDanny": 7840,
    "ĠHead": 7841,
    "Ġarmed": 7842,
    "##opp": 7843,
    "Ġvia": 7844,
    "ĠAustria": 7845,
    "Ġcapable": 7846,
    "Ġphoto": 7847,
    "##isms": 7848,
    "Ġstairs": 7849,
    "##erent": 7850,
    "Ġcharges": 7851,
    "ĠBroad": 7852,
    "##omething": 7853,
    "##OB": 7854,
    "Ġwaves": 7855,
    "Ġeager": 7856,
    "##perial": 7857,
    "ĠWork": 7858,
    "Ġoperating": 7859,
    "Ġimpress": 7860,
    "Ġyards": 7861,
    "##ici": 7862,
    "##cha": 7863,
    "##apped": 7864,
    "Ġsmooth": 7865,
    "Ġruled": 7866,
    "Ġdebt": 7867,
    "ĠEnter": 7868,
    "Ġspending": 7869,
    "##aughters": 7870,
    "hi": 7871,
    "Ġcrash": 7872,
    "ĠClass": 7873,
    "ĠStr": 7874,
    "Ġsquared": 7875,
    "Ġmud": 7876,
    "##abet": 7877,
    "ĠHong": 7878,
    "Ġapproximately": 7879,
    "Ġpants": 7880,
    "ĠNations": 7881,
    "Ġtropical": 7882,
    "ĠForest": 7883,
    "Ġconver": 7884,
    "Mart": 7885,
    "Michael": 7886,
    "##ilton": 7887,
    "Ġrevealed": 7888,
    "four": 7889,
    "Ġwounded": 7890,
    "ĠAlso": 7891,
    "Ġaffected": 7892,
    "ĠOcean": 7893,
    "##rem": 7894,
    "Ġmeters": 7895,
    "Ġwand": 7896,
    "Ġrecommend": 7897,
    "Ġtrained": 7898,
    "Ġinterpret": 7899,
    "ĠBon": 7900,
    "Ġmoral": 7901,
    "ĠChairman": 7902,
    "ĠUs": 7903,
    "Ġquietly": 7904,
    "Ġwaters": 7905,
    "##aughing": 7906,
    "Ġcapacity": 7907,
    "##âĢĶ": 7908,
    "##ervative": 7909,
    "##ygen": 7910,
    "ĠGi": 7911,
    "Ġpainted": 7912,
    "##esome": 7913,
    "ĠKar": 7914,
    "Ġelder": 7915,
    "##ureau": 7916,
    "Ġregions": 7917,
    "ĠNews": 7918,
    "ĠVol": 7919,
    "Ġconclud": 7920,
    "ĠVictoria": 7921,
    "ĠGen": 7922,
    "Ġintroduce": 7923,
    "Ġcutting": 7924,
    "##ursday": 7925,
    "Ġwhist": 7926,
    "Ġdespite": 7927,
    "Ġtab": 7928,
    "Ġexpert": 7929,
    "Ġlaunch": 7930,
    "Ġcooking": 7931,
    "##ART": 7932,
    "Ġcreation": 7933,
    "Ġtalks": 7934,
    "##40": 7935,
    "Ġfart": 7936,
    "Ġdistribution": 7937,
    "Ġphilosophy": 7938,
    "##ii": 7939,
    "##kel": 7940,
    "ĠEach": 7941,
    "Ġstudying": 7942,
    "Ġmurdered": 7943,
    "Ġbone": 7944,
    "ĠAsh": 7945,
    "##otte": 7946,
    "Ġvoices": 7947,
    "Ġmarks": 7948,
    "_.": 7949,
    "ha": 7950,
    "Ġshake": 7951,
    "Ġgrey": 7952,
    "Ġinterrupt": 7953,
    "called": 7954,
    "room": 7955,
    "ĠLine": 7956,
    "ĠFound": 7957,
    "##onscious": 7958,
    "Ġreference": 7959,
    "Ġdozen": 7960,
    "Ġglobal": 7961,
    "sur": 7962,
    "Ġlecture": 7963,
    "Ġhockey": 7964,
    "Ġchocolate": 7965,
    "Ġ180": 7966,
    "Ġinterests": 7967,
    "Ġprogramme": 7968,
    "Ġmouse": 7969,
    "Ġaccur": 7970,
    "MAN": 7971,
    "Ġera": 7972,
    "ĠRevolution": 7973,
    "Ġguests": 7974,
    "Ġacad": 7975,
    "Ġfuneral": 7976,
    "Ġhealthy": 7977,
    "Ġlistened": 7978,
    "Ġexciting": 7979,
    "##aned": 7980,
    "Ġsubs": 7981,
    "Ġbaseball": 7982,
    "##cus": 7983,
    "##iture": 7984,
    "ĠSar": 7985,
    "Eh": 7986,
    "##ardo": 7987,
    "##icky": 7988,
    "Ġdeserve": 7989,
    "Ġreflect": 7990,
    "Ġmunicipal": 7991,
    "about": 7992,
    "##anting": 7993,
    "Ġalgor": 7994,
    "Ġrelief": 7995,
    "ĠTake": 7996,
    "Ġgraduated": 7997,
    "##ands": 7998,
    "##aved": 7999,
    "##aa": 8000,
    "Ġcrap": 8001,
    "Ġped": 8002,
    "Ġstolen": 8003,
    "Ġcert": 8004,
    "Ġanswers": 8005,
    "Ġsources": 8006,
    "##uable": 8007,
    "##har": 8008,
    "Ġguarant": 8009,
    "##UL": 8010,
    "##othy": 8011,
    "##leg": 8012,
    "##ensity": 8013,
    "##rovers": 8014,
    "Ġ1966": 8015,
    "Ġcrossed": 8016,
    "ĠFR": 8017,
    "Ġarts": 8018,
    "ĠGolden": 8019,
    "Ġtrem": 8020,
    "Ġfond": 8021,
    "Ġunp": 8022,
    "Ġsmiled": 8023,
    "ĠUP": 8024,
    "Ġgray": 8025,
    "Ġalbums": 8026,
    "ĠALL": 8027,
    "##raine": 8028,
    "ĠArk": 8029,
    "Ġcenturies": 8030,
    "Ġgenus": 8031,
    "##OTH": 8032,
    "##usting": 8033,
    "##inder": 8034,
    "##ondisse": 8035,
    "Ġmillions": 8036,
    "##uild": 8037,
    "##rete": 8038,
    "ĠOper": 8039,
    "##mony": 8040,
    "##ingham": 8041,
    "ĠBudd": 8042,
    "ĠAlexander": 8043,
    "ĠCross": 8044,
    "ĠOffic": 8045,
    "##orders": 8046,
    "Ġgrandfather": 8047,
    "Ġfeather": 8048,
    "Ġheadquarters": 8049,
    "Ġsecure": 8050,
    "##iner": 8051,
    "##erences": 8052,
    "ĠFord": 8053,
    "ĠÂ£": 8054,
    "##Ã¦": 8055,
    "##eper": 8056,
    "Ġ1963": 8057,
    "##ARD": 8058,
    "ĠĠĠĠĠĠĠĠĠĠĠĠĠĠĠĠĠĠĠĠĠĠĠĠĠ": 8059,
    "Ġvast": 8060,
    "##irds": 8061,
    "Ġfunctions": 8062,
    "Ġdistricts": 8063,
    "ĠHolly": 8064,
    "Ġnuts": 8065,
    "Ġbetray": 8066,
    "ĠIslands": 8067,
    "ĠPoland": 8068,
    "ĠTownship": 8069,
    "Ġwitch": 8070,
    "Ġrhy": 8071,
    "Ġshopping": 8072,
    "ĠSanta": 8073,
    "ĠTed": 8074,
    "ĠBre": 8075,
    "##OD": 8076,
    "Ġcollea": 8077,
    "##adesh": 8078,
    "Te": 8079,
    "##CA": 8080,
    "Ġsucceeded": 8081,
    "##IV": 8082,
    "##icking": 8083,
    "Ġmerch": 8084,
    "##irus": 8085,
    "##sen": 8086,
    "Besides": 8087,
    "Red": 8088,
    "wow": 8089,
    "Ġdude": 8090,
    "ĠSub": 8091,
    "Ġunb": 8092,
    "Ġatmosphere": 8093,
    "##utor": 8094,
    "ĠMarsh": 8095,
    "Jim": 8096,
    "Six": 8097,
    "Ġsites": 8098,
    "Ġsquad": 8099,
    "Ben": 8100,
    "back": 8101,
    "##heme": 8102,
    "Ġracing": 8103,
    "Ġprisoners": 8104,
    "Ġinjury": 8105,
    "##thony": 8106,
    "could": 8107,
    "##sk": 8108,
    "##iar": 8109,
    "Ġjumped": 8110,
    "Ġshoulders": 8111,
    "Ill": 8112,
    "ĠSwedish": 8113,
    "sm": 8114,
    "Ġbul": 8115,
    "Ġhi": 8116,
    "##eline": 8117,
    "Ġextended": 8118,
    "##ederation": 8119,
    "Ġentrance": 8120,
    "Ġstir": 8121,
    "ĠHealth": 8122,
    "##obby": 8123,
    "Ġfriendship": 8124,
    "##SE": 8125,
    "Ġstones": 8126,
    "ĠWat": 8127,
    "their": 8128,
    "Ġ1965": 8129,
    "Ġpilot": 8130,
    "##PP": 8131,
    "Ġbanks": 8132,
    "ĠColumbia": 8133,
    "ĠMissouri": 8134,
    "Ġwidely": 8135,
    "ĠBrazilian": 8136,
    "Ġmirror": 8137,
    "Ġsan": 8138,
    "##irk": 8139,
    "##pton": 8140,
    "Ġcris": 8141,
    "ĠPlease": 8142,
    "ĠLincoln": 8143,
    "Ġsang": 8144,
    "Ġaffair": 8145,
    "them": 8146,
    "Ġinterf": 8147,
    "Brother": 8148,
    "##anz": 8149,
    "Ġlion": 8150,
    "Ġassign": 8151,
    "Ġfactor": 8152,
    "ĠMo": 8153,
    "Ġfacts": 8154,
    "ĠSa": 8155,
    "Ġbranches": 8156,
    "ĠAnother": 8157,
    "Ġprovides": 8158,
    "ĠEp": 8159,
    "##berry": 8160,
    "Ġfra": 8161,
    "ĠRos": 8162,
    "Ġ1948": 8163,
    "Ġcorrespond": 8164,
    "Ġthrill": 8165,
    "ĠMeg": 8166,
    "Ġconcer": 8167,
    "Ġpersons": 8168,
    "##REA": 8169,
    "Ġtunn": 8170,
    "Ġfans": 8171,
    "Ġbitter": 8172,
    "Ġglasses": 8173,
    "Ġgrade": 8174,
    "Ġchecked": 8175,
    "Ġitems": 8176,
    "Ġanger": 8177,
    "Ġnick": 8178,
    "ĠTam": 8179,
    "ĠWed": 8180,
    "Ġgrace": 8181,
    "Ġillust": 8182,
    "##ecess": 8183,
    "Ġalleg": 8184,
    "ĠInc": 8185,
    "Ġarranged": 8186,
    "ĠSong": 8187,
    "Ġslide": 8188,
    "Ġsufficient": 8189,
    "Ġselect": 8190,
    "Ġfigured": 8191,
    "##eable": 8192,
    "ĠFederal": 8193,
    "ĠPolice": 8194,
    "asked": 8195,
    "##olm": 8196,
    "##ordan": 8197,
    "Ġurban": 8198,
    "Ġedition": 8199,
    "ĠOxford": 8200,
    "Ġwound": 8201,
    "ĠSure": 8202,
    "Ġpoly": 8203,
    "Ġconfused": 8204,
    "ĠDisney": 8205,
    "head": 8206,
    "Ġprojects": 8207,
    "Ġvictims": 8208,
    "Ġexecutive": 8209,
    "ĠWait": 8210,
    "Ġinspect": 8211,
    "ĠBC": 8212,
    "##UD": 8213,
    "ĠFe": 8214,
    "ĠEst": 8215,
    "Ġputs": 8216,
    "##amps": 8217,
    "Ġevolution": 8218,
    "Ġdecisions": 8219,
    "know": 8220,
    "##azed": 8221,
    "Ġdiscussion": 8222,
    "Ġsurrounded": 8223,
    "##uesday": 8224,
    "Ġindu": 8225,
    "Ġchildhood": 8226,
    "Ġdistingu": 8227,
    "Rich": 8228,
    "##ropolitan": 8229,
    "Ġconfidence": 8230,
    "ĠMexican": 8231,
    "Ġknees": 8232,
    "Ġremove": 8233,
    "Ġcovers": 8234,
    "Also": 8235,
    "ĠTaylor": 8236,
    "##fred": 8237,
    "Ġreviews": 8238,
    "##akh": 8239,
    "##uv": 8240,
    "Ġgathered": 8241,
    "ĠWalk": 8242,
    "##umin": 8243,
    "ĠDaddy": 8244,
    "Grand": 8245,
    "Ġplastic": 8246,
    "Ġstarring": 8247,
    "Ġpiss": 8248,
    "##ipper": 8249,
    "##ographer": 8250,
    "##Ã¡n": 8251,
    "Ġrib": 8252,
    "Ġcou": 8253,
    "Ġpractical": 8254,
    "Ġinstruct": 8255,
    "##chers": 8256,
    "Ġtow": 8257,
    "ĠFC": 8258,
    "ĠFire": 8259,
    "Ġinjured": 8260,
    "Ġknocked": 8261,
    "ĠJerry": 8262,
    "ĠARE": 8263,
    "Ġdemonstr": 8264,
    "Ġescaped": 8265,
    "ĠIra": 8266,
    "##orne": 8267,
    "Ġprofession": 8268,
    "ĠNothing": 8269,
    "Ġloyal": 8270,
    "Ġrising": 8271,
    "Ġnoble": 8272,
    "Ġissued": 8273,
    "Ġconstitution": 8274,
    "Ġintelligence": 8275,
    "Aw": 8276,
    "##fle": 8277,
    "ĠBor": 8278,
    "ĠBall": 8279,
    "Ġviews": 8280,
    "##80": 8281,
    "Ġnorthwest": 8282,
    "Ġindependence": 8283,
    "ĠAndy": 8284,
    "##uled": 8285,
    "29": 8286,
    "##uate": 8287,
    "Ġawards": 8288,
    "##antry": 8289,
    "Ġheaded": 8290,
    "Ġsupper": 8291,
    "##bra": 8292,
    "##onents": 8293,
    "Ġrush": 8294,
    "ĠTop": 8295,
    "##elia": 8296,
    "Were": 8297,
    "Ġcommunication": 8298,
    "Ġsubjects": 8299,
    "Ġreduced": 8300,
    "Ġsmiling": 8301,
    "Ġsurre": 8302,
    "Ġdepth": 8303,
    "##oscow": 8304,
    "##rison": 8305,
    "Ġterrif": 8306,
    "Ġaffairs": 8307,
    "Ġpossibility": 8308,
    "Ġtries": 8309,
    "THAT": 8310,
    "after": 8311,
    "##ghan": 8312,
    "##rive": 8313,
    "ĠPope": 8314,
    "ĠFel": 8315,
    "Ġmodels": 8316,
    ";/": 8317,
    "##atically": 8318,
    "##ules": 8319,
    "##case": 8320,
    "##ulpt": 8321,
    "ĠSupreme": 8322,
    "Old": 8323,
    "Ġtoy": 8324,
    "Ġfairy": 8325,
    "Ġcompar": 8326,
    "Ġ34": 8327,
    "Â°": 8328,
    "##BI": 8329,
    "##ierre": 8330,
    "Without": 8331,
    "Music": 8332,
    "Ġsooner": 8333,
    "Ġ+": 8334,
    "ĠDam": 8335,
    "Ġservant": 8336,
    "Ġsumm": 8337,
    "ĠCoast": 8338,
    "Us": 8339,
    "##ui": 8340,
    "Ġ1920": 8341,
    "##enly": 8342,
    "ĠDun": 8343,
    "Ġdifficulty": 8344,
    "##leton": 8345,
    "ĠSystem": 8346,
    "Dear": 8347,
    "Ġgranted": 8348,
    "Ġletting": 8349,
    "Ġcommunities": 8350,
    "Ġbeating": 8351,
    "Ġprepare": 8352,
    "ĠJews": 8353,
    "Ġing": 8354,
    "Ġbegun": 8355,
    "##lle": 8356,
    "ĠRab": 8357,
    "Ġ1956": 8358,
    "Ġclaims": 8359,
    "##don": 8360,
    "Ġec": 8361,
    "##etime": 8362,
    "Ġbreast": 8363,
    "ĠPhiladelphia": 8364,
    "##erable": 8365,
    "##iped": 8366,
    "##tical": 8367,
    "Ġ1962": 8368,
    "Ġdiagn": 8369,
    "Ġsed": 8370,
    "Ġdrown": 8371,
    "ĠÂ¶": 8372,
    "##itage": 8373,
    "ĠTell": 8374,
    "ĠDave": 8375,
    "ĠBrad": 8376,
    "Ġdawn": 8377,
    "Probably": 8378,
    "##opher": 8379,
    "ĠGET": 8380,
    "Ġcharged": 8381,
    "ĠSpec": 8382,
    "Ġreturning": 8383,
    "##onym": 8384,
    "##OOD": 8385,
    "rel": 8386,
    "##do": 8387,
    "Ġcollabor": 8388,
    "Ġparliament": 8389,
    "Char": 8390,
    "Ġadministration": 8391,
    "ĠRadio": 8392,
    "##arted": 8393,
    "##osity": 8394,
    "195": 8395,
    "NO": 8396,
    "##nesday": 8397,
    "##aus": 8398,
    "##IG": 8399,
    "##adies": 8400,
    "ĠCD": 8401,
    "Sw": 8402,
    "Ġmoments": 8403,
    "ĠPolish": 8404,
    "house": 8405,
    "##emon": 8406,
    "Ġprovinc": 8407,
    "Ġsecretary": 8408,
    "LL": 8409,
    "Ġsoup": 8410,
    "ĠOUT": 8411,
    "Ġ75": 8412,
    "Ġ1958": 8413,
    "Ġreplace": 8414,
    "Ġillness": 8415,
    "Ġnecessarily": 8416,
    "Ġheavily": 8417,
    "ĠBavaria": 8418,
    "ĠInternet": 8419,
    "ĠCz": 8420,
    "those": 8421,
    "##foot": 8422,
    "ĠWin": 8423,
    "##osaur": 8424,
    "Ġdumb": 8425,
    "##oa": 8426,
    "Ġsust": 8427,
    "Ġceremony": 8428,
    "##ifer": 8429,
    "ĠGreg": 8430,
    "Ġbesides": 8431,
    "Ġbon": 8432,
    "ĠSO": 8433,
    "##illing": 8434,
    "Ġlung": 8435,
    "ĠPers": 8436,
    "##ifts": 8437,
    "ĠOw": 8438,
    "ĠMatthew": 8439,
    "Aren": 8440,
    "Ġfiction": 8441,
    "ĠAM": 8442,
    "ĠAlp": 8443,
    "Pat": 8444,
    "##bec": 8445,
    "Ġawake": 8446,
    "James": 8447,
    "ĠScience": 8448,
    "Ġashamed": 8449,
    "Ġtorn": 8450,
    "Ġdea": 8451,
    "##enses": 8452,
    "##acon": 8453,
    "ĠNever": 8454,
    "Ġcontem": 8455,
    "Ġchairman": 8456,
    "Ġastron": 8457,
    "WE": 8458,
    "Ġ1939": 8459,
    "Int": 8460,
    "Ġpup": 8461,
    "##anges": 8462,
    "Ġslave": 8463,
    "##mann": 8464,
    "Ġdefense": 8465,
    "Ġconfirmed": 8466,
    "Ġpoetry": 8467,
    "Ġunlike": 8468,
    "##ucker": 8469,
    "Ġtap": 8470,
    "Ġdriven": 8471,
    "Ġcustomers": 8472,
    "Cor": 8473,
    "##30": 8474,
    "Ġforb": 8475,
    "ĠBBC": 8476,
    "##hatt": 8477,
    "##ienced": 8478,
    "Ġfestival": 8479,
    "##tery": 8480,
    "Ġending": 8481,
    "##itled": 8482,
    "##iders": 8483,
    "Ġformal": 8484,
    "Ġseparated": 8485,
    "ĠĠĠĠĠĠĠĠĠĠĠĠĠĠĠĠĠĠĠĠĠĠĠĠĠĠĠĠĠĠĠĠĠ": 8486,
    "ĠWalter": 8487,
    "class": 8488,
    "##com": 8489,
    "##Ã¢": 8490,
    "Ġfox": 8491,
    "ĠPart": 8492,
    "Ġsav": 8493,
    "Ġpersonally": 8494,
    "Ġsteam": 8495,
    "Ġtheatre": 8496,
    "Ġcontext": 8497,
    "ĠGuard": 8498,
    "Ġpersu": 8499,
    "Ġoutl": 8500,
    "Ġpresidential": 8501,
    "##**": 8502,
    "ĠEducation": 8503,
    "##intend": 8504,
    "Ġdefined": 8505,
    "Ġfoolish": 8506,
    "SH": 8507,
    "##box": 8508,
    "Ġstrict": 8509,
    "Ġmassive": 8510,
    "Ġcats": 8511,
    "##rix": 8512,
    "##agger": 8513,
    "##izz": 8514,
    "Ġshortly": 8515,
    "Ġtreasure": 8516,
    "ĠPublic": 8517,
    "Ġ182": 8518,
    "Ġdeck": 8519,
    "us": 8520,
    "Ġalcohol": 8521,
    "##hh": 8522,
    "Ġnest": 8523,
    "Ġcops": 8524,
    "##ratulations": 8525,
    "##KS": 8526,
    "##allel": 8527,
    "Ġregist": 8528,
    "##rows": 8529,
    "##uct": 8530,
    "##LES": 8531,
    "##urches": 8532,
    "ĠWas": 8533,
    "ĠWinter": 8534,
    "Ġappropriate": 8535,
    "Ġ1961": 8536,
    "Ġ1947": 8537,
    "hello": 8538,
    "##Ã£": 8539,
    "Ġgy": 8540,
    "##outheast": 8541,
    "ĠSusan": 8542,
    "Ġsplendid": 8543,
    "Ġdaughters": 8544,
    "Ġsympt": 8545,
    "Ġsolo": 8546,
    "Ġmachines": 8547,
    "##rons": 8548,
    "ĠAk": 8549,
    "##ugg": 8550,
    "Forget": 8551,
    "ĠKentucky": 8552,
    "ĠNO": 8553,
    "Ġ1957": 8554,
    "Ġalternative": 8555,
    "##hus": 8556,
    "##inced": 8557,
    "Ġsorrow": 8558,
    "Ġbass": 8559,
    "##bing": 8560,
    "##rene": 8561,
    "Ġjournalist": 8562,
    "Ġexclaimed": 8563,
    "##fish": 8564,
    "Ġpor": 8565,
    "Ġchamber": 8566,
    "ĠAtt": 8567,
    "Ġassociation": 8568,
    "ĠJess": 8569,
    "##everal": 8570,
    "Ġoccas": 8571,
    "great": 8572,
    "##TA": 8573,
    "ĠBow": 8574,
    "Ġflash": 8575,
    "ĠTeam": 8576,
    "##EO": 8577,
    "##eare": 8578,
    "Ġboats": 8579,
    "Ġextent": 8580,
    "Ġnic": 8581,
    "Ġdeeply": 8582,
    "Alex": 8583,
    "Mon": 8584,
    "##mo": 8585,
    "Ġleaf": 8586,
    "Ġminds": 8587,
    "Ġideal": 8588,
    "Ġspiritual": 8589,
    "Ġopposed": 8590,
    "Ġvotes": 8591,
    "ĠMayor": 8592,
    "Ġyo": 8593,
    "Ġlover": 8594,
    "Mmm": 8595,
    "ĠWilson": 8596,
    "Ant": 8597,
    "Ġpoem": 8598,
    "Ġiniti": 8599,
    "Ġlifted": 8600,
    "ĠKhan": 8601,
    "other": 8602,
    "Ġfasc": 8603,
    "Ġgrateful": 8604,
    "Ġrivers": 8605,
    "Ġ179": 8606,
    "ĠConstitution": 8607,
    "Ġscheme": 8608,
    "Ġcolumn": 8609,
    "31": 8610,
    "##inton": 8611,
    "Ġ400": 8612,
    "Ġtickets": 8613,
    "ĠAD": 8614,
    "ĠPict": 8615,
    "ĠGro": 8616,
    "Ġsock": 8617,
    "Ġpron": 8618,
    "Ġimplement": 8619,
    "Rec": 8620,
    "Ġmama": 8621,
    "Ġpitch": 8622,
    "Ġwondered": 8623,
    "Ġexisting": 8624,
    "/&": 8625,
    "Rep": 8626,
    "##hire": 8627,
    "Ġepisodes": 8628,
    "Ġreckon": 8629,
    "Until": 8630,
    "Ġdipl": 8631,
    "##orted": 8632,
    "Ġimpression": 8633,
    "Ġ1944": 8634,
    "Ġprinciple": 8635,
    "##ubble": 8636,
    "Ġclubs": 8637,
    "Ġengineer": 8638,
    "Ġidentified": 8639,
    "##nesota": 8640,
    "Ġinspired": 8641,
    "##bell": 8642,
    "ĠCard": 8643,
    "Ġuser": 8644,
    "ĠCorpor": 8645,
    "Ġoxygen": 8646,
    "Ġsnake": 8647,
    "##ippi": 8648,
    "Ġlap": 8649,
    "##iva": 8650,
    "##ersonal": 8651,
    "work": 8652,
    "Ġcombined": 8653,
    "Ġpir": 8654,
    "Ġpul": 8655,
    "ĠStone": 8656,
    "Ġdating": 8657,
    "Ġworn": 8658,
    "Ġcomputers": 8659,
    "Ġneut": 8660,
    "Ġliterally": 8661,
    "Ġinner": 8662,
    "Ġstim": 8663,
    "Ġinvented": 8664,
    "##EP": 8665,
    "Ġencoura": 8666,
    "Ġjury": 8667,
    "##iki": 8668,
    "##AKE": 8669,
    "Ġgor": 8670,
    "Ġshift": 8671,
    "ĠEric": 8672,
    "Cont": 8673,
    "ĠSav": 8674,
    "Ġalph": 8675,
    "##MS": 8676,
    "Ġcontrovers": 8677,
    "Ġthrowing": 8678,
    "Ġcrisis": 8679,
    "Ġvel": 8680,
    "ĠâĻ«": 8681,
    "Ġabsor": 8682,
    "Ġthir": 8683,
    "Ġenorm": 8684,
    "Ġimages": 8685,
    "Ġvari": 8686,
    "Ġprisoner": 8687,
    "##mouth": 8688,
    "Ġdates": 8689,
    "Ġpassage": 8690,
    "ĠAirport": 8691,
    "Ġcombination": 8692,
    "ĠTokyo": 8693,
    "Want": 8694,
    "Check": 8695,
    "Ġanxious": 8696,
    "ĠLieutenant": 8697,
    "Ġscholars": 8698,
    "##rim": 8699,
    "ĠMoscow": 8700,
    "Ġ42": 8701,
    "ĠStation": 8702,
    "Ġregional": 8703,
    "##erick": 8704,
    "##via": 8705,
    "Ġevident": 8706,
    "Ġstraw": 8707,
    "Ġengineering": 8708,
    "Happy": 8709,
    "tell": 8710,
    "##western": 8711,
    "##greg": 8712,
    "ĠReally": 8713,
    "ĠJustice": 8714,
    "Ġconvinced": 8715,
    "ALL": 8716,
    "Ġhurts": 8717,
    "ĠHans": 8718,
    "Ġincredible": 8719,
    "Pre": 8720,
    "Ġrear": 8721,
    "Ġshower": 8722,
    "Ġpositions": 8723,
    "Ġstops": 8724,
    "Jul": 8725,
    "ĠHay": 8726,
    "Ġnarr": 8727,
    "Ġreply": 8728,
    "Black": 8729,
    "Har": 8730,
    "Long": 8731,
    "Ġcrop": 8732,
    "ĠPR": 8733,
    "Ġattached": 8734,
    "Ġorganizations": 8735,
    "Ġtests": 8736,
    "Ġvideos": 8737,
    "Ġnaturally": 8738,
    "Ġinsect": 8739,
    "Ġprincipal": 8740,
    "Ġcooper": 8741,
    "Ġhm": 8742,
    "##atoes": 8743,
    "ĠJos": 8744,
    "Ġrescue": 8745,
    "Ġviolent": 8746,
    "Ġ37": 8747,
    "Ġhorror": 8748,
    "ĠTechn": 8749,
    "ĠChap": 8750,
    "Ġsculpt": 8751,
    "Ġpersonality": 8752,
    "Ġtransferred": 8753,
    "Ġadministrative": 8754,
    "Ġnaked": 8755,
    "ĠSher": 8756,
    "um": 8757,
    "Ġtransm": 8758,
    "Ġmusician": 8759,
    "Ġgrav": 8760,
    "Ġoccupied": 8761,
    "Ġkilomet": 8762,
    "##atures": 8763,
    "Ġrice": 8764,
    "Ġsyn": 8765,
    "Ġnort": 8766,
    "ĠBridge": 8767,
    "Ġstable": 8768,
    "Ġ1952": 8769,
    "ĠSteven": 8770,
    "Ġprecise": 8771,
    "Ġmystery": 8772,
    "Ġunha": 8773,
    "##---": 8774,
    "##ques": 8775,
    "Rel": 8776,
    "##ti": 8777,
    "##usive": 8778,
    "Ġ1949": 8779,
    "Ġstrip": 8780,
    "Ġacquired": 8781,
    "Ġsatisfied": 8782,
    "Ġfrequently": 8783,
    "Its": 8784,
    "Ġ1942": 8785,
    "Talk": 8786,
    "##specially": 8787,
    "Ġpie": 8788,
    "Ġsevere": 8789,
    "Ġgreatly": 8790,
    "##prise": 8791,
    "Ġhunt": 8792,
    "Ġpicking": 8793,
    "music": 8794,
    "ĠBrian": 8795,
    "ĠRoger": 8796,
    "Ġbeings": 8797,
    "ĠPop": 8798,
    "Ġrope": 8799,
    "Ġprosec": 8800,
    "Ġbowl": 8801,
    "Ġpunishment": 8802,
    "##rum": 8803,
    "##alling": 8804,
    "##abad": 8805,
    "Ġbold": 8806,
    "ĠIraq": 8807,
    "ĠSn": 8808,
    "ĠWild": 8809,
    "Ġprecious": 8810,
    "Ġoperated": 8811,
    "Ġillegal": 8812,
    "Ġhoped": 8813,
    "##iah": 8814,
    "ĠCastle": 8815,
    "##aga": 8816,
    "##ordinary": 8817,
    "ĠĠĠĠĠĠĠĠĠĠĠĠĠ": 8818,
    "William": 8819,
    "Son": 8820,
    "des": 8821,
    "Ġpour": 8822,
    "Ġinher": 8823,
    "ĠMot": 8824,
    "Ġkinda": 8825,
    "ĠMinnesota": 8826,
    "Aha": 8827,
    "Par": 8828,
    "ĠFle": 8829,
    "##agers": 8830,
    "Ġmonkey": 8831,
    "##irit": 8832,
    "Ġdiscip": 8833,
    "Ġpurple": 8834,
    "Ġinitially": 8835,
    "##uj": 8836,
    "##emet": 8837,
    "Ġvisual": 8838,
    "ĠBal": 8839,
    "ĠUt": 8840,
    "Ġproperties": 8841,
    "Poor": 8842,
    "Ġtechnical": 8843,
    "##FL": 8844,
    "Ġtank": 8845,
    "##ertainly": 8846,
    "Ġtypical": 8847,
    "##iÄĩ": 8848,
    "Ġmere": 8849,
    "##andal": 8850,
    "Ġbike": 8851,
    "##sex": 8852,
    "Ġprepar": 8853,
    "Ġarrive": 8854,
    "##aith": 8855,
    "##oons": 8856,
    "##lesh": 8857,
    "ĠAli": 8858,
    "ĠSeries": 8859,
    "Foot": 8860,
    "Robert": 8861,
    "ÂĴ": 8862,
    "##icit": 8863,
    "##ifferent": 8864,
    "##oration": 8865,
    "##acked": 8866,
    "ĠBetty": 8867,
    "ĠHospital": 8868,
    "Ġarticles": 8869,
    "Ġregarded": 8870,
    "35": 8871,
    "##hoot": 8872,
    "ĠCentre": 8873,
    "ĠMargaret": 8874,
    "Ġmal": 8875,
    "Ġdownstairs": 8876,
    "Ġerror": 8877,
    "Ġstrate": 8878,
    "Ġpasses": 8879,
    "Ġtesting": 8880,
    "Ġadventure": 8881,
    "##otes": 8882,
    "ĠAustrian": 8883,
    "Ġcontrolled": 8884,
    "##nold": 8885,
    "Ġlately": 8886,
    "##rait": 8887,
    "Ġvice": 8888,
    "##akers": 8889,
    "Charl": 8890,
    "Ġstrategy": 8891,
    "##lie": 8892,
    "##acles": 8893,
    "Ġswall": 8894,
    "Ġadmitted": 8895,
    "ĠLouisiana": 8896,
    "Ġfever": 8897,
    "Ġrestrict": 8898,
    "Ten": 8899,
    "Ġcausing": 8900,
    "Ġrode": 8901,
    "Each": 8902,
    "Ġbond": 8903,
    "Ġguide": 8904,
    "##velopment": 8905,
    "ĠGreece": 8906,
    "Ġexplanation": 8907,
    "Ġwicked": 8908,
    "Ġment": 8909,
    "ĠEle": 8910,
    "ĠNa": 8911,
    "Ġ1954": 8912,
    "Ġofficials": 8913,
    "##mont": 8914,
    "##jan": 8915,
    "##pected": 8916,
    "##lah": 8917,
    "Ġrevenge": 8918,
    "##stal": 8919,
    "Ġnowhere": 8920,
    "##alais": 8921,
    "play": 8922,
    "comp": 8923,
    "##ungle": 8924,
    "Ġ38": 8925,
    "Ġvaluable": 8926,
    "Ġwishes": 8927,
    "ĠOt": 8928,
    "Ġasks": 8929,
    "Ġwins": 8930,
    "ĠPas": 8931,
    "Ġ1941": 8932,
    "Ġdigital": 8933,
    "Ġloan": 8934,
    "Ġdescription": 8935,
    "Ġbacter": 8936,
    "Ġhug": 8937,
    "##uster": 8938,
    "Ġexpecting": 8939,
    "Ġimmig": 8940,
    "##uther": 8941,
    "Ġages": 8942,
    "Stand": 8943,
    "Mark": 8944,
    "Ġtool": 8945,
    "##onto": 8946,
    "Ġpromoted": 8947,
    "##unno": 8948,
    "King": 8949,
    "Work": 8950,
    "##itched": 8951,
    "Ġdiet": 8952,
    "Ġintention": 8953,
    "Daddy": 8954,
    "##ania": 8955,
    "Ġhes": 8956,
    "Ġequation": 8957,
    "Ġ1959": 8958,
    "ĠIndians": 8959,
    "##ddie": 8960,
    "##END": 8961,
    "##lly": 8962,
    "ĠNap": 8963,
    "Ġdece": 8964,
    "Ġpermanent": 8965,
    "Ġphen": 8966,
    "International": 8967,
    "Run": 8968,
    "##hedral": 8969,
    "ĠCop": 8970,
    "ĠBart": 8971,
    "Ġworship": 8972,
    "Ġdiscovery": 8973,
    "Ġcore": 8974,
    "Ġreign": 8975,
    "ĠSpring": 8976,
    "Ġannoy": 8977,
    "##neath": 8978,
    "ĠThursday": 8979,
    "Ġpulling": 8980,
    "##usal": 8981,
    "Ġmemories": 8982,
    "Ġnations": 8983,
    "Ġconstitu": 8984,
    "wait": 8985,
    "##dney": 8986,
    "##ype": 8987,
    "##pir": 8988,
    "Ġfulf": 8989,
    "Ġcreatures": 8990,
    "ĠCL": 8991,
    "ĠLo": 8992,
    "Ġthrone": 8993,
    "Ġdisturb": 8994,
    "Ġvillages": 8995,
    "##resents": 8996,
    "turn": 8997,
    "##met": 8998,
    "Ġacted": 8999,
    "long": 9000,
    "##ester": 9001,
    "ĠSab": 9002,
    "Ġrapidly": 9003,
    "Ġlt": 9004,
    "##chi": 9005,
    "Ġportion": 9006,
    "Ġdefinition": 9007,
    "##ds": 9008,
    "##aman": 9009,
    "ĠLi": 9010,
    "ĠRus": 9011,
    "Ġ1946": 9012,
    "Ġcampus": 9013,
    "Ġgarage": 9014,
    "ĠDown": 9015,
    "Ġraces": 9016,
    "ĠColor": 9017,
    "Honey": 9018,
    "Ġneat": 9019,
    "ĠKy": 9020,
    "Ġbron": 9021,
    "Ġdeveloping": 9022,
    "Ġabandoned": 9023,
    "##icians": 9024,
    "Ġeld": 9025,
    "ĠForm": 9026,
    "Ġexha": 9027,
    "Ġaccused": 9028,
    "].": 9029,
    "Ġprayer": 9030,
    "Ġholes": 9031,
    "min": 9032,
    "Ġhousing": 9033,
    "Ġessentially": 9034,
    "Ġresistance": 9035,
    "ĠFoundation": 9036,
    "GR": 9037,
    "##fit": 9038,
    "Ġsurvey": 9039,
    "ĠBah": 9040,
    "ĠJUST": 9041,
    "##ensions": 9042,
    "Ġphotos": 9043,
    "Ġintellect": 9044,
    "ĠWhe": 9045,
    "Ann": 9046,
    "##iography": 9047,
    "Ġbang": 9048,
    "Ġfed": 9049,
    "Ġnap": 9050,
    "ĠMississ": 9051,
    "Ġthorough": 9052,
    "ĠHit": 9053,
    "Ġsheet": 9054,
    "Ġcommander": 9055,
    "Ġinternal": 9056,
    "ĠCur": 9057,
    "Ġarchitecture": 9058,
    "ĠCzech": 9059,
    "##60": 9060,
    "Ġdecre": 9061,
    "Ġassault": 9062,
    "##cules": 9063,
    "Ġanaly": 9064,
    "##aks": 9065,
    "Show": 9066,
    "wanna": 9067,
    "##aro": 9068,
    "##rose": 9069,
    "ĠLabour": 9070,
    "Ġbelt": 9071,
    "Ġbreathing": 9072,
    "##vi": 9073,
    "Ġvolunte": 9074,
    "ĠHERE": 9075,
    "##III": 9076,
    "Ġfaint": 9077,
    "Ġadapt": 9078,
    "ĠJacob": 9079,
    "ĠStephen": 9080,
    "Ġliquid": 9081,
    "##bar": 9082,
    "ĠMuslim": 9083,
    "Cle": 9084,
    "Ġouter": 9085,
    "Ow": 9086,
    "col": 9087,
    "##nel": 9088,
    "##orf": 9089,
    "##chief": 9090,
    "Ġrecon": 9091,
    "Ġreputation": 9092,
    "Total": 9093,
    "##gers": 9094,
    "ĠSid": 9095,
    "Ġeighteen": 9096,
    "Ġdomestic": 9097,
    "Ġalongside": 9098,
    "##mphas": 9099,
    "Ġcomposer": 9100,
    "ĠTest": 9101,
    "##olas": 9102,
    "Ġdisg": 9103,
    "##INE": 9104,
    "Ġtast": 9105,
    "Ġooh": 9106,
    "Ġrefers": 9107,
    "ĠOrder": 9108,
    "##zes": 9109,
    "##agle": 9110,
    "Ġskill": 9111,
    "##scape": 9112,
    "Ġphrase": 9113,
    "Ġstroke": 9114,
    "##akesp": 9115,
    "Ġlessons": 9116,
    "Ġtiss": 9117,
    "Ġbump": 9118,
    "arr": 9119,
    ".[": 9120,
    "rep": 9121,
    "Ġdragon": 9122,
    "Ġmaximum": 9123,
    "##rior": 9124,
    "Ġabroad": 9125,
    "Ġcycle": 9126,
    "Goodbye": 9127,
    "Ġprotected": 9128,
    "Ġstepped": 9129,
    "Ġkissed": 9130,
    "##glas": 9131,
    "George": 9132,
    "ĠEnd": 9133,
    "Ġversions": 9134,
    "##==": 9135,
    "ĠGame": 9136,
    "##rett": 9137,
    "##ardens": 9138,
    "Ġbags": 9139,
    "##ragon": 9140,
    "Better": 9141,
    "##Ã£o": 9142,
    "##Å¡": 9143,
    "ĠVill": 9144,
    "Ġflows": 9145,
    "ĠMarie": 9146,
    "Ġexped": 9147,
    "ĠIndiana": 9148,
    "ĠLewis": 9149,
    "ĠBat": 9150,
    "Ġwhoa": 9151,
    "Ġbrush": 9152,
    "Ġpipe": 9153,
    "ĠCON": 9154,
    "##OUGH": 9155,
    "ĠTurkey": 9156,
    "Ġcraw": 9157,
    "ĠRoy": 9158,
    "Com": 9159,
    "Lou": 9160,
    "Ġwra": 9161,
    "ĠHoll": 9162,
    "Ġsubt": 9163,
    "Ġdedicated": 9164,
    "Ġfence": 9165,
    "Ġnonsense": 9166,
    "Ġpassengers": 9167,
    "Ġleadership": 9168,
    "Ġcoc": 9169,
    "Ġmessages": 9170,
    "Ġabsolute": 9171,
    "##teenth": 9172,
    "Ġmobile": 9173,
    "Ġestimated": 9174,
    "ĠAle": 9175,
    "Ġscarce": 9176,
    "Down": 9177,
    "Ġelimin": 9178,
    "ĠConference": 9179,
    ".--": 9180,
    "##BA": 9181,
    "ĠSoph": 9182,
    "##ternal": 9183,
    "Ġbenefits": 9184,
    ".âĢĻ": 9185,
    "Ġproport": 9186,
    "##ibilities": 9187,
    "Ġobst": 9188,
    "Ġreduce": 9189,
    "Ġstores": 9190,
    "ĠHonor": 9191,
    "##lar": 9192,
    "ĠRIGHT": 9193,
    "Ġgenius": 9194,
    "Ġboots": 9195,
    "##IND": 9196,
    "ĠPot": 9197,
    "Ġopposition": 9198,
    "Such": 9199,
    "##adows": 9200,
    "Ġnotable": 9201,
    "ĠPost": 9202,
    "##ubs": 9203,
    "im": 9204,
    "ĠÎ": 9205,
    "Ġisol": 9206,
    "Ġdelivered": 9207,
    "Ġrepeat": 9208,
    "Ġelephant": 9209,
    "Ġnickn": 9210,
    "Ġfiles": 9211,
    "Ġbreathe": 9212,
    "45": 9213,
    "##vard": 9214,
    "##olis": 9215,
    "ĠChannel": 9216,
    "Ġgrandmother": 9217,
    "Ġtoilet": 9218,
    "32": 9219,
    "##rin": 9220,
    "Ġfacilities": 9221,
    "##theless": 9222,
    "##bage": 9223,
    "Ġoption": 9224,
    "ĠTuesday": 9225,
    "Ġcave": 9226,
    "ĠOur": 9227,
    "Ġwooden": 9228,
    "##rong": 9229,
    "Ġappearances": 9230,
    "Ġzone": 9231,
    "ĠVery": 9232,
    "Ġexperienced": 9233,
    "Ġwhispered": 9234,
    "##note": 9235,
    "ĠTurn": 9236,
    "Ġlasted": 9237,
    "Ġconfident": 9238,
    "under": 9239,
    "ĠRh": 9240,
    "Ġupd": 9241,
    "Ġathlet": 9242,
    "Comp": 9243,
    "##cho": 9244,
    "ĠLau": 9245,
    "Ġrural": 9246,
    "##anchester": 9247,
    "##roc": 9248,
    "Ġappointment": 9249,
    "Ġske": 9250,
    "Ġdat": 9251,
    "Ġrelation": 9252,
    "Ġsought": 9253,
    "Ġcritics": 9254,
    "##emetery": 9255,
    "Must": 9256,
    "Ob": 9257,
    "##WE": 9258,
    "Ġ150": 9259,
    "Ġ||": 9260,
    "Ġhoriz": 9261,
    "ĠHeaven": 9262,
    "##akespeare": 9263,
    "Hen": 9264,
    "##VD": 9265,
    "Ġengin": 9266,
    "Ġstab": 9267,
    "Ġentry": 9268,
    "Ġsemi": 9269,
    "these": 9270,
    "Ġfounder": 9271,
    "Ġyoungest": 9272,
    "Ġdocuments": 9273,
    "##||||": 9274,
    "IN": 9275,
    "Ġhits": 9276,
    "ĠBul": 9277,
    "Ġlargely": 9278,
    "Ġidentify": 9279,
    "Ġelectricity": 9280,
    "ĠHell": 9281,
    "take": 9282,
    "ĠBrand": 9283,
    "Ġsixteen": 9284,
    "Find": 9285,
    "##utiful": 9286,
    "ĠHard": 9287,
    "ĠNi": 9288,
    "Ġcarriage": 9289,
    "Ġfleet": 9290,
    "Ġwheels": 9291,
    "Ġsurvived": 9292,
    "Ġsequence": 9293,
    "Absolutely": 9294,
    "ĠIce": 9295,
    "ĠHal": 9296,
    "Ġwanting": 9297,
    "Ġclin": 9298,
    "##tainment": 9299,
    "##endment": 9300,
    "Ġrepresents": 9301,
    "Ġbehavi": 9302,
    "Ġgalax": 9303,
    "##uter": 9304,
    "##oli": 9305,
    "Ġoffers": 9306,
    "Ġpurposes": 9307,
    "Ġrelatively": 9308,
    "Ġexists": 9309,
    "Ġsingles": 9310,
    "Norm": 9311,
    "Ġrein": 9312,
    "Ġtrap": 9313,
    "Ġutter": 9314,
    "None": 9315,
    "##rome": 9316,
    "Ġshoe": 9317,
    "ĠKennedy": 9318,
    "Ġbark": 9319,
    "ĠVice": 9320,
    "Ġheading": 9321,
    "##ggie": 9322,
    "Ġfellows": 9323,
    "ĠTai": 9324,
    "ĠJay": 9325,
    "Ġusers": 9326,
    "Ġindic": 9327,
    "inc": 9328,
    "ĠLIKE": 9329,
    "Ġinsult": 9330,
    "Ġengines": 9331,
    "Ġenvironmental": 9332,
    "Ġdepos": 9333,
    "Ġ1955": 9334,
    "ĠBeth": 9335,
    "Ġdetect": 9336,
    "##ribly": 9337,
    "Ġfab": 9338,
    "##ogs": 9339,
    "Step": 9340,
    "Ġobtained": 9341,
    "Ġsession": 9342,
    "Ġmig": 9343,
    "##ogy": 9344,
    "Ġlanded": 9345,
    "erm": 9346,
    "Ġlatest": 9347,
    "bet": 9348,
    "made": 9349,
    "Ġpossession": 9350,
    "##lon": 9351,
    "##oogle": 9352,
    "Ġsouthwest": 9353,
    "Doesn": 9354,
    "ĠCab": 9355,
    "Ġmargin": 9356,
    "Ġthreatened": 9357,
    "Phil": 9358,
    "##adi": 9359,
    "##amma": 9360,
    "Laughter": 9361,
    "Ġcattle": 9362,
    "Ġamongst": 9363,
    "Ġspons": 9364,
    "Ġworldwide": 9365,
    "##hips": 9366,
    "Ġinvolve": 9367,
    "Ġsna": 9368,
    "ĠRel": 9369,
    "##fly": 9370,
    "Ġtooth": 9371,
    "Ġslipped": 9372,
    "Ġconfirm": 9373,
    "Ġtypically": 9374,
    "Ġdivorce": 9375,
    "##irts": 9376,
    "##rying": 9377,
    "Ġcrimes": 9378,
    "Ġexpressed": 9379,
    "Ġexperiences": 9380,
    "ĠRegion": 9381,
    "ĠPlan": 9382,
    "ĠMu": 9383,
    "ĠRailway": 9384,
    "Ġholy": 9385,
    "ĠHor": 9386,
    "ĠInf": 9387,
    "Ġfourteen": 9388,
    "Ġnegoti": 9389,
    "ĠTour": 9390,
    "Ġrabbit": 9391,
    "ey": 9392,
    "##itals": 9393,
    "Doctor": 9394,
    "Ġdollar": 9395,
    "Ġclouds": 9396,
    "Ġacademic": 9397,
    "Ġreprodu": 9398,
    "Quick": 9399,
    "ĠPy": 9400,
    "##orious": 9401,
    "ĠSara": 9402,
    "Ġagency": 9403,
    "##ogan": 9404,
    "##icity": 9405,
    "Ġslip": 9406,
    "Ġfoss": 9407,
    "Ġfaced": 9408,
    "ĠRo": 9409,
    "Ġinches": 9410,
    "Ġruined": 9411,
    "Ġfake": 9412,
    "ĠBalt": 9413,
    "Ġexplore": 9414,
    "ĠHas": 9415,
    "Ġcontrast": 9416,
    "ĠAnton": 9417,
    "ĠWednesday": 9418,
    "##Ä±": 9419,
    "ĠGive": 9420,
    "##umbling": 9421,
    "Ġruin": 9422,
    "Ġ1943": 9423,
    "Ġsweetheart": 9424,
    "Ġ65": 9425,
    "##ATH": 9426,
    "ĠGrant": 9427,
    "Ġspirits": 9428,
    "Ġtale": 9429,
    "Ġreaching": 9430,
    "##osl": 9431,
    "##70": 9432,
    "Ġfo": 9433,
    "Ġven": 9434,
    "##ancer": 9435,
    "ĠArm": 9436,
    "Ġequals": 9437,
    "Ġcapture": 9438,
    "Death": 9439,
    "##nda": 9440,
    "##itated": 9441,
    "Ġselection": 9442,
    "ĠExp": 9443,
    "ĠPrem": 9444,
    "##pent": 9445,
    "ĠDer": 9446,
    "ĠGermans": 9447,
    "res": 9448,
    "##iel": 9449,
    "##herry": 9450,
    "Ġfocused": 9451,
    "Ġconducted": 9452,
    "Ġmeetings": 9453,
    "Ġdelicious": 9454,
    "##EAH": 9455,
    "##lock": 9456,
    "ĠKa": 9457,
    "Ġdistant": 9458,
    "##shit": 9459,
    "Ġawesome": 9460,
    "ĠMiller": 9461,
    "Ġtent": 9462,
    "Ġmath": 9463,
    "##uting": 9464,
    "Ġfactors": 9465,
    "##ienna": 9466,
    "##lahoma": 9467,
    "Ġhated": 9468,
    "ĠJam": 9469,
    "ĠStop": 9470,
    "Ġdifferences": 9471,
    "Ġrival": 9472,
    "Ġ48": 9473,
    "Hang": 9474,
    "##die": 9475,
    "Ġserves": 9476,
    "##annah": 9477,
    "Ġuseless": 9478,
    "##EAD": 9479,
    "dis": 9480,
    "gl": 9481,
    "Ġloving": 9482,
    "ĠTs": 9483,
    "##endar": 9484,
    "Ġmerged": 9485,
    "Ġtoast": 9486,
    "ĠBeach": 9487,
    "ĠMississippi": 9488,
    "Ġconven": 9489,
    "ĠCommon": 9490,
    "##uki": 9491,
    "ĠAR": 9492,
    "Ġsup": 9493,
    "Ġmighty": 9494,
    "Ġdebate": 9495,
    "Ġfantastic": 9496,
    "Ġdow": 9497,
    "ĠRyan": 9498,
    "Ġcanton": 9499,
    "Career": 9500,
    "##bach": 9501,
    "##romise": 9502,
    "Ġtennis": 9503,
    "Ġemp": 9504,
    "##endy": 9505,
    "Ġ1953": 9506,
    "Ġannounce": 9507,
    "Ġinstitution": 9508,
    "Ġemphas": 9509,
    "##otta": 9510,
    "Ġphase": 9511,
    "Ġbands": 9512,
    "\";": 9513,
    "ĠClark": 9514,
    "DO": 9515,
    "Ġtherap": 9516,
    "Ġpardon": 9517,
    "ĠAlbert": 9518,
    "Sch": 9519,
    "Ġbent": 9520,
    "ĠHockey": 9521,
    "ĠFree": 9522,
    "##iko": 9523,
    "Ask": 9524,
    "Ġprimarily": 9525,
    "Tomorrow": 9526,
    "Geography": 9527,
    "ĠRepresentatives": 9528,
    "Ġbot": 9529,
    "Ġpushing": 9530,
    "ĠBh": 9531,
    "ĠBand": 9532,
    "Ġpartly": 9533,
    "Ġfrag": 9534,
    "Ġinch": 9535,
    "Ġslaves": 9536,
    "Pol": 9537,
    "Ġwoke": 9538,
    "Ġbend": 9539,
    "##cknow": 9540,
    "##umble": 9541,
    "Ġproviding": 9542,
    "##organ": 9543,
    "ĠSix": 9544,
    "Ġsoap": 9545,
    "ĠNord": 9546,
    "Ġwherever": 9547,
    "Ġsubm": 9548,
    "Lord": 9549,
    "ĠWel": 9550,
    "Ġrefuse": 9551,
    "Ġbarrel": 9552,
    "##oody": 9553,
    "##iveness": 9554,
    "tw": 9555,
    "##itement": 9556,
    "Ġbid": 9557,
    "Ġflesh": 9558,
    "ĠJason": 9559,
    "Ġpresents": 9560,
    "Dec": 9561,
    "Super": 9562,
    "##oust": 9563,
    "ĠIV": 9564,
    "Ġstadium": 9565,
    "ĠWeb": 9566,
    "##udge": 9567,
    "Ġaccounts": 9568,
    "Ġrolled": 9569,
    "Ġmamm": 9570,
    "ĠWy": 9571,
    "Mary": 9572,
    "##idering": 9573,
    "Ġprofit": 9574,
    "Ġnewspapers": 9575,
    "LAUGH": 9576,
    "##ieur": 9577,
    "Ġunderneath": 9578,
    "Ġincorpor": 9579,
    "Ġencourage": 9580,
    "Ġchapter": 9581,
    "Sub": 9582,
    "Ġdrinks": 9583,
    "Ġcookie": 9584,
    "Ġsacred": 9585,
    "##imental": 9586,
    "ĠKevin": 9587,
    "##izza": 9588,
    "Ġfrank": 9589,
    "Ġinteract": 9590,
    "##onde": 9591,
    "Ġgrant": 9592,
    "form": 9593,
    "ĠBishop": 9594,
    "##bie": 9595,
    "ĠAL": 9596,
    "Ġblew": 9597,
    "Had": 9598,
    "##bre": 9599,
    "##rack": 9600,
    "Ġdamaged": 9601,
    "Ġunhappy": 9602,
    "Ġbeast": 9603,
    "Ġreasonable": 9604,
    "Yet": 9605,
    "##real": 9606,
    "Ġpenal": 9607,
    "##isk": 9608,
    "Ġchop": 9609,
    "Ġ41": 9610,
    "Ġreceiving": 9611,
    "mommy": 9612,
    "Ġresidents": 9613,
    "##eanwhile": 9614,
    "ĠVietnam": 9615,
    "##TING": 9616,
    "##olves": 9617,
    "ĠBaby": 9618,
    "##olve": 9619,
    "Ġsurrounding": 9620,
    "been": 9621,
    "Ġmovements": 9622,
    "ĠPoint": 9623,
    "Ġfuckin": 9624,
    "ĠFrancis": 9625,
    "##orage": 9626,
    "##arin": 9627,
    "Ġinput": 9628,
    "ĠDie": 9629,
    "Ġassess": 9630,
    "ĠHollywood": 9631,
    "Ġwreck": 9632,
    "ĠElect": 9633,
    "Ġtempt": 9634,
    "Ġparticipated": 9635,
    "Ġpaintings": 9636,
    "Ġmysterious": 9637,
    "Ġduties": 9638,
    "ĠTen": 9639,
    "Ġchalleng": 9640,
    "Ġinstruments": 9641,
    "Illustration": 9642,
    "Ġcricket": 9643,
    "Ġstrateg": 9644,
    "##shine": 9645,
    "##inction": 9646,
    "âĢĺ": 9647,
    "part": 9648,
    "##ashi": 9649,
    "ĠSydney": 9650,
    "Ġ1938": 9651,
    "Congratulations": 9652,
    "##CO": 9653,
    "##ansion": 9654,
    "ĠHistory": 9655,
    "first": 9656,
    "Ġconclusion": 9657,
    "Ġenormous": 9658,
    "##part": 9659,
    "##LING": 9660,
    "Ġoverl": 9661,
    "ĠBarry": 9662,
    "ĠTurkish": 9663,
    "Ġretirement": 9664,
    "Ġtunnel": 9665,
    "Ġsymptoms": 9666,
    "Ġpip": 9667,
    "Ġdisaster": 9668,
    "Ġdecent": 9669,
    "Ġformat": 9670,
    "Ġroots": 9671,
    "ĠCir": 9672,
    "Ġstandards": 9673,
    "Ġprobability": 9674,
    "Ġrequires": 9675,
    "Ġstaring": 9676,
    "such": 9677,
    "##lause": 9678,
    "Ġunex": 9679,
    "Ġcares": 9680,
    "Ġboxes": 9681,
    "Ġadults": 9682,
    "##zing": 9683,
    "Ġvon": 9684,
    "Ġscare": 9685,
    "Ġphenomen": 9686,
    "##pher": 9687,
    "Ġknee": 9688,
    "Ġclassic": 9689,
    "before": 9690,
    "##apore": 9691,
    "##INK": 9692,
    "##ORE": 9693,
    "ĠPeace": 9694,
    "Ġwarn": 9695,
    "Da": 9696,
    "Hon": 9697,
    "##ridge": 9698,
    "Ġaer": 9699,
    "Ġgreet": 9700,
    "##utt": 9701,
    "Ġ39": 9702,
    "Ġkidna": 9703,
    "ĠPhilip": 9704,
    "Ġimmediate": 9705,
    "Ġextraordinary": 9706,
    "Ġdreadful": 9707,
    "##rected": 9708,
    "ĠJordan": 9709,
    "ĠEth": 9710,
    "Ġintent": 9711,
    "##onsieur": 9712,
    "ĠWANT": 9713,
    "Ġundert": 9714,
    "Ġgosh": 9715,
    "Ġscenes": 9716,
    "ST": 9717,
    "Ġjudgment": 9718,
    "Ġemotional": 9719,
    "Ġsacrifice": 9720,
    "Ġinstinct": 9721,
    "Ġwinds": 9722,
    "##arc": 9723,
    "ĠOnce": 9724,
    "Ġdisag": 9725,
    "Ġassigned": 9726,
    "ĠCarter": 9727,
    "##).": 9728,
    "##acement": 9729,
    "ĠMoon": 9730,
    "Ġcontained": 9731,
    "Ġrolling": 9732,
    "Calais": 9733,
    "Later": 9734,
    "ĠSometimes": 9735,
    "Ġseed": 9736,
    "âĢİ": 9737,
    "##ocated": 9738,
    "Ġpec": 9739,
    "Ġtaxes": 9740,
    "Ġlicense": 9741,
    "ĠOklahoma": 9742,
    "Ġalgorithm": 9743,
    "Ġeval": 9744,
    "60": 9745,
    "Men": 9746,
    "Ġdign": 9747,
    "##ovie": 9748,
    "Ġremote": 9749,
    "##hesis": 9750,
    "##iversary": 9751,
    "Ġadding": 9752,
    "##CC": 9753,
    "##orous": 9754,
    "ĠWOR": 9755,
    "way": 9756,
    "Ġsample": 9757,
    "##inds": 9758,
    "Ġincl": 9759,
    "##lessly": 9760,
    "Ġapologize": 9761,
    "Ġkitt": 9762,
    "ĠBud": 9763,
    "Ġune": 9764,
    "Ġairpl": 9765,
    "##uits": 9766,
    "Ġcoordin": 9767,
    "Ġopens": 9768,
    "##ologists": 9769,
    "Ġvisitors": 9770,
    "Ġwriters": 9771,
    "ĠAff": 9772,
    "##ighed": 9773,
    "Ġcomic": 9774,
    "##asha": 9775,
    "Ġstrongly": 9776,
    "really": 9777,
    "ĠCreek": 9778,
    "Ġlanding": 9779,
    "Ġtitles": 9780,
    "Ġdetermine": 9781,
    "Aah": 9782,
    "##abel": 9783,
    "Ġ1934": 9784,
    "six": 9785,
    "##idel": 9786,
    "ĠChuck": 9787,
    "##onsin": 9788,
    "Ġjoining": 9789,
    "ĠDavis": 9790,
    "34": 9791,
    "Ġoffering": 9792,
    "Ġstructures": 9793,
    "##bourne": 9794,
    "Ġtub": 9795,
    "##ashes": 9796,
    "ĠSU": 9797,
    "Ġsmoking": 9798,
    "Ġmedium": 9799,
    "##keeper": 9800,
    "ĠAvenue": 9801,
    "Ġ64": 9802,
    "Ġconstantly": 9803,
    "Ġparallel": 9804,
    "Ġcod": 9805,
    "ĠSpecial": 9806,
    "##igen": 9807,
    "Ġresear": 9808,
    "Ġetern": 9809,
    "Ġaston": 9810,
    "Ġlied": 9811,
    "Ġservants": 9812,
    "Ġbeaten": 9813,
    "##esar": 9814,
    "Ġcann": 9815,
    "Ġagents": 9816,
    "Ġprices": 9817,
    "Ġinvestment": 9818,
    "ĠPhilippines": 9819,
    "sec": 9820,
    "Ġintense": 9821,
    "##egas": 9822,
    ");": 9823,
    "Ġbay": 9824,
    "ĠPic": 9825,
    "##thm": 9826,
    "Ġtwin": 9827,
    "Ġassass": 9828,
    "Ġreturns": 9829,
    "door": 9830,
    "##master": 9831,
    "##OY": 9832,
    "##VID": 9833,
    "Ġtheore": 9834,
    "Ġwolf": 9835,
    "Ġmask": 9836,
    "ĠTit": 9837,
    "Ġhistoric": 9838,
    "Ġscreaming": 9839,
    "##ondissement": 9840,
    "ĠBase": 9841,
    "Ġ1951": 9842,
    "Ġcelebrate": 9843,
    "ĠMm": 9844,
    "Ġsector": 9845,
    "\"...": 9846,
    "Ġdepending": 9847,
    "ĠUSA": 9848,
    "##uddenly": 9849,
    "Ġinstructions": 9850,
    "again": 9851,
    "##istol": 9852,
    "ĠMorgan": 9853,
    "Ġachieved": 9854,
    "ĠHug": 9855,
    "Ġnewly": 9856,
    "ĠColorado": 9857,
    "ĠRoll": 9858,
    "Ġanimated": 9859,
    "##isconsin": 9860,
    "ĠNetwork": 9861,
    "ĠBurn": 9862,
    "Ġargue": 9863,
    "ĠMaybe": 9864,
    "Ġstarred": 9865,
    "Ġpredict": 9866,
    "Ġfrequency": 9867,
    "##formation": 9868,
    "Ġarrival": 9869,
    "##bits": 9870,
    "##pective": 9871,
    "ĠTenn": 9872,
    "Ġgoin": 9873,
    "Ġchurches": 9874,
    "Ġmidnight": 9875,
    "Footnote": 9876,
    "Sl": 9877,
    "##allas": 9878,
    "ĠField": 9879,
    "Ġtrunk": 9880,
    "##geon": 9881,
    "ĠGOT": 9882,
    "ĠOtt": 9883,
    "Trans": 9884,
    "ĠTheatre": 9885,
    "Ġrecover": 9886,
    "##encer": 9887,
    "##uese": 9888,
    "Ġdivide": 9889,
    "Ġ1936": 9890,
    "##erg": 9891,
    "##gger": 9892,
    "Ġswing": 9893,
    "Ġequival": 9894,
    "##rell": 9895,
    "##odge": 9896,
    "Ġcurtain": 9897,
    "Always": 9898,
    "Ġwrites": 9899,
    "Ġclassical": 9900,
    "Ġseventh": 9901,
    "san": 9902,
    "Ġlaughter": 9903,
    "Ġfootballer": 9904,
    "ĠMoo": 9905,
    "ĠKr": 9906,
    "ĠStory": 9907,
    "Ġbarely": 9908,
    "car": 9909,
    "Ġdirt": 9910,
    "Ġitem": 9911,
    "ĠGordon": 9912,
    "Ġ1933": 9913,
    "Ġrailroad": 9914,
    "Twenty": 9915,
    "lea": 9916,
    "##lets": 9917,
    "##elson": 9918,
    "Ġfacing": 9919,
    "##OOK": 9920,
    "Sy": 9921,
    "Ġwashing": 9922,
    "ĠHuman": 9923,
    "Ġcounties": 9924,
    "Ġshouted": 9925,
    "ĠMP": 9926,
    "ĠHIM": 9927,
    "ĠWars": 9928,
    "Ġcourts": 9929,
    "Ġenthus": 9930,
    "Ġproducing": 9931,
    "Ġprominent": 9932,
    "Ġpref": 9933,
    "Ġclothing": 9934,
    "ĠSenator": 9935,
    "##ubbles": 9936,
    "che": 9937,
    "ĠCape": 9938,
    "##ntario": 9939,
    "Ġstrings": 9940,
    "##anguage": 9941,
    "Art": 9942,
    "Ġexception": 9943,
    "Ġearliest": 9944,
    "Ġaltogether": 9945,
    "rec": 9946,
    "Ġcollected": 9947,
    "ĠCorps": 9948,
    "36": 9949,
    "##vor": 9950,
    "##oyd": 9951,
    "ĠSA": 9952,
    "ĠMaine": 9953,
    "ĠWolf": 9954,
    "Ġtribe": 9955,
    "Ġimproved": 9956,
    "33": 9957,
    "ĠSay": 9958,
    "##asses": 9959,
    "Ġapproved": 9960,
    "##essee": 9961,
    "Ġmob": 9962,
    "##agne": 9963,
    "ĠAnthony": 9964,
    "Ġdrift": 9965,
    "ĠPalace": 9966,
    "Ġdismiss": 9967,
    "even": 9968,
    "Ġalien": 9969,
    "Ġemployed": 9970,
    "Ġroughly": 9971,
    "Ġjacket": 9972,
    "Ġwis": 9973,
    "##ARS": 9974,
    "ĠAfghan": 9975,
    "Ġsoftly": 9976,
    "ĠIndepend": 9977,
    "ĠAnna": 9978,
    "Ġallowing": 9979,
    "Ġattempted": 9980,
    "Second": 9981,
    "West": 9982,
    "Uncle": 9983,
    "ĠReddy": 9984,
    "Ġregarding": 9985,
    "Ġpy": 9986,
    "##ags": 9987,
    "Ġgrows": 9988,
    "Unless": 9989,
    "Ġemployees": 9990,
    "ĠDeath": 9991,
    "##orters": 9992,
    "##inks": 9993,
    "##encing": 9994,
    "ĠCorporation": 9995,
    "##gon": 9996,
    "Ġairl": 9997,
    "##uration": 9998,
    "<mask>": 9999
}