<pad>
<s>
</s>
<unk>
!
"
#
$
%
&
'
(
)
*
+
,
-
.
/
0
1
2
3
4
5
6
7
8
9
:
;
<
=
>
?
@
A
B
C
D
E
F
G
H
I
J
K
L
M
N
O
P
Q
R
S
T
U
V
W
X
Y
Z
[
\
]
^
_
`
a
b
c
d
e
f
g
h
i
j
k
l
m
n
o
p
q
r
s
t
u
v
w
x
y
z
{
|
}
~
¡
¢
£
¤
¥
¦
§
¨
©
ª
«
¬
®
¯
°
±
²
³
´
µ
¶
·
¸
¹
º
»
¼
½
¾
¿
Â
Ã
Ä
Å
Æ
Ç
È
É
Ê
Ë
Ì
Í
Î
Ï
Ð
Ñ
Ò
Ó
Ô
Õ
Ö
×
Ø
Ù
Ú
Û
Ü
Ý
Þ
à
á
â
ã
ä
å
æ
ç
è
é
ê
ë
ì
í
î
ï
ð
ĉ
Č
Ġ
ġ
Ģ
ģ
Ĥ
ĥ
Ħ
ħ
Ĩ
ĩ
Ī
ī
Ĭ
ĭ
Į
į
İ
ı
Ĳ
ĳ
Ĵ
ĵ
Ķ
ķ
ĸ
Ĺ
ĺ
Ļ
ļ
Ľ
ľ
Ŀ
ŀ
Ł
ł
Ń
##u
##n
##i
##h
##a
##b
##t
##e
##d
##f
##s
##l
##Į
##w
##y
##o
##r
##T
##c
##m
##E
##p
##D
##U
##S
##Y
##K
##Ã
##¶
##g
##¤
##z
##v
##Q
##j
##B
##q
##N
##G
##O
##V
##W
##k
##x
##M
##A
##H
##I
##L
##Z
##P
##R
##C
##X
##á
##¹
##ĩ
##¸
##į
##Å
##¡
##F
##¥
##³
##ĳ
##ì
##°
##í
##Ĳ
##«
##Ä
##1
##8
##7
##3
##4
##9
##0
##ĥ
##Ń
##º
##ı
##ï
##©
##¨
##-
##&
##£
##5
##¼
##J
##´
##é
##ħ
##±
##è
##ī
##6
##2
##"
##}
##.
##Ľ
##ŀ
##»
##¢
##å
##¯
##¿
##à
##µ
##+
##æ
##ĸ
##Ĭ
##®
##Ģ
##Ħ
##ķ
##Ķ
##ë
##Î
##§
##½
##Ï
##ģ
##Ĥ
##Ŀ
##ê
##ĭ
##Ð
##Ñ
##²
##'
##ľ
##ª
##Ļ
###
##)
##ç
##¾
##İ
##ä
##ļ
##>
##<
##/
##Ł
##Â
##Ī
##·
##ĵ
##¦
##É
##Ë
##Ê
##_
##ã
##*
##\
##ł
##Ĩ
##È
##(
##Ĵ
##%
##?
##[
##Ç
##:
##;
##Ĺ
##¬
##]
##,
##|
##×
##â
##ĺ
##^
##=
##Ø
##Ù
##!
##Ú
##Õ
##Ö
##@
##$
##Ġ
##Û
##Æ
##~
##Ó
##Ò
##`
##Ü
##{
##Ô
##ġ
##Þ
##Í
##Ì
##ð
##Ý
Ġt
##he
Ġa
##in
Ġthe
##re
Ġw
##ou
Ġs
##on
##er
##at
##nd
##is
##it
Ġb
Ġo
Ġc
Ġm
##an
Ġf
##ing
##or
Ġh
##ed
##ll
Ġd
##en
Ġto
##es
Ġth
##ar
Ġp
Ġy
Ġof
##as
Ġin
Ġyou
Ġand
Ġl
Ġg
##om
Ġn
ĠI
##ic
##ow
##ve
##al
##ot
##et
Ġhe
##le
##us
's
##ay
Ġit
Ġbe
Ġis
Ġthat
Ġon
##ion
##id
Ġe
##ad
##gh
##ld
##ut
Ġre
##ent
Ġwas
##im
##ac
Ġwe
##ver
##am
Ġwh
Ġfor
ĠS
##ly
##ri
##ro
ĠT
##st
##ir
Ġ.
##ke
Ġst
Ġha
##se
't
##oo
##ght
ĠA
##out
ĠC
##ith
Ġme
##all
ĠM
Ġk
Ġu
Ġan
Ġwith
##ur
##ec
Ġdo
Ġas
##her
##ill
##ch
##ter
##if
ĠH
##ome
Ġ1
##ce
ĠB
The
##hat
Ġare
##il
Ġhave
Ġnot
Ġat
Ġthis
##ould
##ust
Ġse
##ant
##ra
Ġgo
Ġli
##ation
Ġkn
##op
ĠP
##ea
##ĠĠ
##un
ĠW
##..
##ol
##ge
##ell
##our
##ul
Ġhis
##rom
Ġ,
Ġsh
Ġknow
##ore
Ġ"
Ġj
ĠD
Ġne
##ain
##pp
##el
ĠG
##ct
##and
##art
Ġcan
...
##um
You
Ġ?
##ist
Ġso
Ġyour
Ġ2
Ġall
Ġthey
Ġmy
##est
Ġal
ĠThe
##em
ĠL
ĠR
Ġab
##ers
ĠF
Ġby
Ġfrom
##ess
Ġwhat
Ġr
ĠN
##os
##th
Ġher
##ight
Ġor
Ġone
##nt
Ġwhe
Ġcon
##ie
ĠJ
Ġup
Ġch
##ig
##ard
Ġthere
##ab
##red
're
Ġhad
##ally
Ġsu
Ġcom
##ry
Ġdon
##qu
##ate
##ack
Ġout
Ġbut
Ġhim
Ġwor
##ood
##ook
Ġpl
##very
##ake
##res
##ive
Ġde
Ġlike
Ġ(
Ġus
##ame
Ġshe
'm
##od
##ong
ĠE
##ink
Ġpro
##ast
It
Ġ19
Ġabout
Ġget
ĠO
Ġv
Ġsa
Ġex
Ġwere
##ound
##ort
##ind
##ich
##one
##ap
##ck
##ity
Ġjust
And
##ber
Ġsp
##ear
##right
He
Ġ20
##ak
##ies
##ect
Ġdid
##ep
Ġwho
Ġhere
Ġno
##eah
##ime
##ine
Ġthem
Ġwant
'll
Ġman
Ġif
Ġwould
##ud
Ġthink
Ġ'
##ous
##ven
Ġwill
What
Ġsome
##hing
Ġint
ĠK
##own
##ost
##itt
##ice
Ġany
##ment
##ag
Ġright
##ide
Ġhas
ĠY
##ough
Ġgot
##ther
##use
ĠHe
Ġsee
Ġwhich
Ġwhen
##ure
Ġar
Ġsay
##iv
Ġag
##end
##ip
Ġtw
We
##ian
##ia
Ġbeen
Ġtime
##are
##way
ĠIt
##ace
Ġsaid
##ove
've
Ġpe
Ġbec
##ff
ĠU
##ick
Ġnow
Ġcl
Th
Ġtr
##ose
##ish
##ĠĠĠĠ
##ause
Ġlook
##ople
##na
Ġle
##reat
##âĢ
Ġmore
##ary
Ġtheir
Ġgoing
Ġthen
##ree
Ġcould
So
âĢ
##other
No
##ue
Ġother
Ġ=
Ġback
Ġover
##ond
Ġoff
##so
##ite
##irst
ĠSt
##age
##ank
##ere
But
##ew
Ġpeople
Ġqu
##orn
##ang
##ble
Ġro
ĠCh
##act
Ġthing
##ass
Ġwork
Oh
Ġvery
Ġtwo
##ount
##pl
That
##fter
##ase
##ire
Ġgood
##pt
##ord
##per
Yeah
Ġtoo
##og
##sel
##ub
##omet
Ġen
##ans
##ated
Ġfirst
##ance
##ittle
##erm
##kay
Ġinto
##mer
##ov
##ions
##ade
##alk
##oll
##hed
##oy
Ġdown
Ġhow
##hy
Ġyear
Ġun
Ġpart
Ġway
##ial
Ġgr
Ġbr
##oc
Ġpr
##iz
Ġour
##ild
Ġam
Ġcall
##ought
Ġlittle
##ach
##ne
Ġcome
Ġbl
ĠIn
Ġsc
Ġplay
Ġalso
Ġim
Ġonly
ĠV
##ater
##nder
Ġwhere
Ġevery
##cc
Ġagain
##here
##ife
Well
##av
##urn
##wn
Ġad
Ġsomet
Ġday
Ġneed
Ġbet
##ru
Ġ201
##uch
##ty
##iss
Ġfe
##ress
Ġact
."
Ġmake
##ark
Ġwell
Ġtake
##ence
Ġafter
##ile
##fore
Ġgu
In
##00
##self
##ng
##ory
Ġbecause
Ġcont
##we
##au
Ġthan
##able
##ical
Ġcomp
Ġdis
Ġte
##ign
Ġlet
##thing
Ġreally
##orm
Ġshould
##uck
Ġpre
##ict
Ġtell
##ool
Ġhapp
##hen
##ob
##ather
Ġwr
##int
##les
##ens
Ġthr
##ied
##onna
##ull
##ft
Ġapp
Ġunder
Ġthese
Ġmuch
Ġdoes
Ġfl
##ult
Ġsomething
This
Ġnew
ĠTh
Ġres
Ġput
##old
##ody
Ġgonna
Ġpo
Ġper
Ġmean
Ġmade
They
##ons
and
##--
##iff
Ġlong
'd
the
##ious
##ath
Ġser
ĠUn
##ving
##amp
##ved
--
Ġtalk
Ġnever
Ġinc
##land
Yes
##ations
She
Ġbefore
##ock
Ġer
##ates
Ġeven
Ġmay
##ting
##du
##ily
Ġits
Ġcar
##ouse
Ġbu
Ġdidn
Ġrem
##ady
ĠâĢ
Ġcomm
##ee
Ġ3
Ġke
There
Ġsm
##ave
Ġrec
##vers
Ġyears
##ho
##port
##ition
##ember
##anc
##ors
##ren
##ise
##ix
Ġhand
##ually
##ward
##lp
##aw
##ited
Ġmany
Ġthrough
##ried
Ġ200
##mp
If
Ġold
Ġsec
##air
##ful
##ail
you
##vel
##be
##igh
Ġmost
Ġstart
Ġthree
Ġgreat
Ġdiff
##ince
th
Ġlife
Ġthings
##get
Ġthought
Ġfound
How
Ġhelp
Ġthose
Ġbel
Ġstill
##âĢĿ
##oss
Ġaway
##ever
##ves
Ġdes
Ġused
Ġfind
##ings
##oot
##tain
Ġask
Ġ''
Ġlove
##irl
Ġmust
Ġhome
##hes
Ġlast
##riend
Ġdoing
Ġi
Ġco
##imes
##day
Ġcr
##oh
Ġra
##ents
Ġown
Ġshow
what
Ġlea
##meric
##ational
##ny
##lease
Ġwent
Ġgive
Ġ!
Ġcame
##xt
Ġmin
##oney
Ġend
##Ļª
##ened
Ġbeing
Ġatt
##gin
##tern
Ġwon
Ġname
ĠMr
##ction
ĠShe
Ġcount
##ange
Ġcalled
##ont
##chool
##atch
##pe
Ġmov
##ait
##ah
##gan
Ġfam
".
##oth
Do
Ġ18
Ġsame
Now
##als
Ġchild
##ways
Ġdec
##ars
Ġcare
##ph
Ġsuch
##body
ĠYou
Ġcour
##ning
##te
Ġkind
Why
##aking
Ġfeel
##ib
Ġtry
Ġbig
##ident
##ug
ĠAmeric
Ġtra
Ġhead
Ġlot
Ġnight
âĢĻ
##oup
##IN
Ġworld
Ġsupp
Ġwhy
Ġplace
Ġsl
Ġpol
##ased
##my
##ĠĠĠĠĠĠĠĠ
##erson
##ci
##up
Ġdiffere
##any
##ss
Ġwom
Ġaround
##ER
Ġfin
Ġfriend
ĠMar
Ġnum
##ute
Ġkill
##ced
##ating
Ġgirl
##outh
Let
##side
ĠĠĠ
##form
##uring
Ġuse
##ower
Ġind
Ġacc
##ubl
ĠBr
Ġmight
Ġreg
Ġop
``
##man
Ġanother
Ġmar
##und
Ġrel
Ġ4
##hip
Don
Ġset
Ġturn
Ġche
##arly
##ork
##orry
Ġele
##pect
##ween
Ġhouse
Ġalways
##lud
Come
##ener
##ics
##arl
##ys
Ġfour
",
Ġac
##ible
Ġanything
Ġleft
##ier
Ġbetter
Ġdone
All
##az
Ġbit
Ġsure
##mb
Ġpres
##led
##vent
Ġ199
Ġsur
##ason
Ġstr
##ness
that
##io
St
Ġkeep
ĠAr
Ġboy
##ual
Ġ5
##ek
Ġel
ĠFr
##gg
Ġsy
Ġrun
ĠAnd
##aught
,"
Okay
##ott
Ġform
Ġmon
Ġreal
Ġbetween
My
##ike
Ġbelie
##ollow
ĠAl
Ġtold
Ġknown
##ret
Ġsecond
ĠThey
##ird
).
##ered
##ntil
##ished
##ters
##gr
##uh
##akes
##arm
Ġschool
##ins
Ġword
Ġstud
##der
Ġmoney
Ġdist
##row
Ġever
Ġgl
ĠNew
##ject
Ġent
##ale
##ner
Ġob
Hey
Ġdifferent
Ġret
Ġwhile
Ġmat
oh
Ġmom
Ġperson
Ġey
##orth
Ġbo
Is
##oun
Ġbus
ĠThis
Ġph
Ġinclud
Ġpoint
##ric
),
ĠTH
ĠSh
Ġsub
Thank
Ġcons
Ġokay
##ts
Ġmus
Ġcourse
Not
ĠWhat
Ġspec
Ġuntil
ĠUnited
Ġerm
Ġdr
##OU
Ġass
Ġinv
##ative
##olog
##eak
Ġbook
##enc
Ġuh
Ġtook
ĠAn
Ġmet
Ġnext
amp
When
##ok
Ġmen
Ġstop
Ġcent
Ġsw
Ġbest
##ash
##aj
##une
Ġinst
Ġboth
##eg
Ġseem
##ision
Ġeach
Ġsing
Ġnothing
##ames
Ġfun
Ġdep
ĠGod
##iet
Ġdef
Ġcle
##vern
Ġbre
##ities
##its
Ġwater
##ired
##cept
Ġnumber
##ures
##stand
Ġfollow
##ular
Ġpass
Ġfather
##ope
Ġsaw
ĠAmerican
ĠAs
##rib
Ġhard
||
##ohn
##ane
##ivers
Ġmother
Ġlater
ĠâĢľ
##rand
Ġdoesn
ĠNo
Ġfamily
Ġ-
Ġimp
Ġlist
##rew
Ġteam
##ream
##ung
Ġprodu
##ax
Ġlar
##ton
Ġ198
Ġfr
##blem
##ets
âĢľ
##ross
Ġcity
##alf
##ery
Ġyeah
##osed
Ġ6
Ġenough
Ġchar
##iness
##ING
Ġactually
##att
On
##ister
Just
Ġelse
Ġagainst
##uth
##ctor
##mber
Ġsmall
Ġwait
Ġdied
##eb
##ines
Ġ--
Ġcap
Ġseen
##rist
##ote
##AN
Ġproblem
Ġhigh
Ġpop
##ling
Ġtoget
Ġtogether
in
Ġyoung
it
ĠEng
##ublic
Ġwithout
##ined
##ern
Who
##omm
##ific
Ġdire
Ġwanted
Ġbecame
Ġref
Ġsorry
Ġadd
ĠStates
Ġfact
Ġfive
##ably
Where
##rop
##Ã©
Ġfew
Ġyes
##uc
Ġdisc
##ared
##less
Ġid
Ġrep
##inc
Ġeverything
Ġmind
Ġcoming
##ik
Ġhear
Ġrest
##ution
Look
Then
Ġroom
Ġbad
Ġonce
Ġloc
Ġsince
Ġsix
Ġweek
##ral
ĠSp
##ha
Ġ197
Ġunderstand
Ġstand
Ġsign
##ey
Ġsim
Ġsk
Ġlight
Ġlive
##uff
Ġstay
Ġread
##ield
##uss
Ġleave
Ġborn
Ġsays
ĠBut
Ġ7
##ury
Ġheart
Ġcoll
##ertain
##erest
ĠInd
##ina
Ġbelieve
Ġtimes
Ġside
Ġduring
Ġlooking
##ism
Are
##ecause
Ġchildren
âĻª
Ġev
##ense
##AT
Ġquite
Ġpret
ĠIs
##stem
##orning
19
Ġimport
Ġson
##anna
Ġhum
##oon
Ġtoday
##ball
Ġsit
Ġâ
Ġquest
##ows
Ġinter
Ġcompl
Ġexp
##ants
Ġtrans
ĠĠ
Ġkid
Ġdays
Ġhappened
Ġmeet
Ġopen
##son
##ised
Ġ8
Ġ;
##aid
Right
Ġlead
Ġmove
##ten
Ġwar
##ital
Ġconf
Ġplease
Ġfar
Ġface
##ead
Uh
##ger
Ġgener
##leep
Ġeyes
âĢĵ
Ġtown
Ġgetting
Ġgroup
Ġnice
##ef
##iew
##ON
Ġisn
Ġext
##aby
Ġthough
##ither
Ġbeh
Ġmusic
##ries
##ments
Ġart
Ġwhole
?"
Ġcol
##ech
##aut
Ġsort
Ġed
Ġland
Ġdra
Ch
Ġhour
Ġbro
As
ĠJohn
For
##ete
##ists
Ġposs
Ġdri
okay
Ġinterest
Ġwoman
##aster
##cted
##dy
##ober
Ġheard
Ġplan
ĠZ
Sh
Ġbuild
Ġyet
Ġeas
##iam
Mm
Ġplayed
##ient
##ready
Ġ[
Ġjob
##by
yeah
ĠCl
Ġstate
Ġem
Ġair
Ġfoot
ĠPr
Ġremember
##ize
Ġmorning
Ġhalf
Ġfil
Ġhimself
Ġstarted
##dd
##ues
Ġ196
##ump
##reen
Ġ10
##ats
Ġmed
Ġwalk
Ġknew
Ġhaving
Ġ9
Ġrecord
##ev
##ized
Ġtalking
Ġsystem
##iversity
Good
Ġhold
Ġmain
##ives
##iver
Ġmod
Ġdeath
Ġsir
Ġcur
##ert
Ġalready
Ġpay
##ison
Ġconc
Ġimportant
Did
Ġwrong
##amed
Ġsoon
Ġsong
##ta
ĠWe
##ched
##enn
Ġalong
Ġmil
Ġsaying
Can
##AR
##app
ĠMay
Ġpower
Ġreturn
Ġidea
Ġgi
ĠQ
Ġgave
Al
Ġmonth
Ġans
Ġdoor
Ġdead
Go
Ġmiss
##ex
Ġupon
##ided
000
Ġcountry
Ġbrother
ĠAt
##aps
##velop
no
Ġri
ĠHow
##ipp
Ġprom
Ġprob
Ġgovern
##ering
Ġty
Ġfull
Ġhur
Ġmeans
ĠâĢĵ
ĠGerm
ĠâĻª
Ġeff
Ġprov
Ġcase
Ġwin
Ġeat
Ġtrying
##ility
##ature
Ġgame
##ages
##oice
Ġround
Ġdel
ĠCount
##idd
ĠThere
Ġasked
##aughter
ĠOh
##sh
Ġtop
Ġwife
Ġsound
Ġjo
##wards
##ically
##most
Ġinf
##nce
##ying
Ġgone
Ġarea
Ġlaw
Âł
##ony
Ġins
Ġbusiness
ĠChrist
##eed
Ġspeak
Er
st
Your
##lish
Ġmatter
ĠKing
Ġbegan
##urch
Ġexpl
Ġbring
##ience
##OR
Ġpretty
Ġtri
##ES
gt
##ately
##EN
Ġfore
Ġlear
Ġequ
##leased
Ġwind
Ġhands
he
Ġthank
##ted
Get
Ġsent
##anu
##aken
##ially
##rict
Ġhappen
Ġguy
##ection
Ġstory
Ġcreat
##ural
Ġ`
##ned
##ello
##ush
##ces
Ġshall
Ġlost
##eth
Ġcontin
Ġable
Ġmovie
.âĢĿ
Ġserv
##uro
##orrow
Ġfuck
Ġchang
Ġless
##iter
##ept
Ġcertain
An
##eal
ĠSc
..
##ring
Ġbeaut
Ġmill
##eter
Ġoffic
Ġpain
##ured
##gy
Ġpri
Ġbaby
##ai
Ġpartic
Ġchange
Ġpolit
##orld
Ġoften
Ġwond
Ġmaking
##ole
Ġhist
ĠTHE
Ġgoes
Ġclass
At
##ional
May
Ġfell
Ġleg
Ġ17
Ġbas
Ġfriends
##LL
##erv
Ġwanna
Ġlooked
Ġmoment
Ġsomeone
Ġ15
ĠAll
##ple
Ġwasn
##ract
Ġwatch
Ġfight
##undred
##ator
ĠBl
##rap
One
Ġ195
Ġ194
##cle
##ye
Here
ĠBrit
##arent
Ġbody
##ides
Ġfine
##ron
##arch
Ġwomen
##med
Ġyourself
Ġage
Ġexc
Ġdevelop
Ġ202
Ġcomes
Ġexper
Ġnear
##arth
ĠĠĠĠĠ
do
Ġline
Ġpat
Ġguys
Ġmark
##fess
##aces
Ġ...
##rigin
Ġsleep
Ġvis
ĠYork
##iec
Ġpos
Ġbed
Ġclose
##me
Ġprobably
Ġca
Ġlarge
Ġsn
Ġago
##ster
To
Ġshort
##used
ĠThat
!"
but
##ention
Ġterm
##gue
##artment
Ġgiven
Ġworking
##where
Ġbreak
Ġprot
##ices
Ġdet
Ġtrue
##uly
Ġ|
Ġfire
##ape
##ley
##utes
##enty
ĠHis
ĠCounty
Because
Ġwouldn
Ġes
##apan
Ġeight
Ġhundred
Ġbecome
to
Ġorder
Ġfall
Ġcut
ĠCan
ĠFor
Ġpresent
##ama
Ġter
Ġearly
##aper
##bum
##wer
Ġdeal
##ged
Ġpick
##ality
##ulation
##ps
Ġsol
ĠCon
##elt
Ġhope
##els
Ġhaven
##rol
Ġrece
ĠYes
##ilt
##bs
##ajor
##ox
,âĢĿ
##anuary
Ġalmost
Ġ12
Ġaw
Ġdiv
ĠUniversity
Ġstre
Ġleast
##ians
Ġcor
Ġbegin
Ġfilm
Ġorgan
##ief
Ġquestion
Ġten
##ouble
ĠOn
born
##br
Ġocc
##iful
##ards
ĠGr
Ġaff
Ġblack
ĠAp
##ining
##omp
Ġmyself
##oud
Ġwhite
##ril
Ġadv
ĠPro
Ġoper
Ġpublic
##ains
##ived
##ample
ĠWorld
##gram
Ġcommun
##raz
is
Ġconst
Ġsqu
Ġready
Ġmarried
Ġlate
ĠJapan
##oke
Ġ_
##iously
##ium
Ġopp
Ġvar
##sy
Ġmaybe
##rest
Ġhor
Ġdad
Ġfree
Ġ16
##ully
Ġreason
##ugust
Ġswe
##iting
##angu
Ġalone
Ġoh
##ann
##ccess
##osp
Ġkilled
Ġgovernment
Ġguess
##ese
ĠJanuary
Ġcompany
##ler
##rent
##alth
Mr
Ġred
Ġest
Ġblood
Every
Ġhappy
##ene
Please
Ġalbum
##oor
Ġreleased
Wh
Ġbrought
Ġbehind
huh
##eng
Ġsat
Ġorigin
Ġsever
##selves
ĠĠĠĠ
Ġpar
Ġwords
##pr
Ġhon
ĠWar
ĠAust
Ġdrink
##ney
Ġarm
Ġtele
##augh
Ġhell
##umb
Ġmakes
##ology
ĠYeah
Ġ193
of
Ġtre
ĠEnglish
Ġtaken
ĠSouth
Ġbar
Ġnews
Ġseveral
Ġseries
##eor
ĠFrance
##ently
Ġgra
Ġfood
Ġfront
ĠYOU
ĠMarch
##ones
##haps
##ped
##rench
##ement
ĠEuro
Ġdog
Ġval
Ġmag
Ġanim
Ġstat
##ks
Ġhuman
Ġpast
Ġtaking
Ġhot
Ġann
Some
##aced
Ġ$
##eptember
ĠDec
Ġsupport
ĠMiss
Ġstuff
##ior
##urs
Ġseason
Ġstrong
##ctober
ĠMin
ĠComm
Ġband
##ude
Ġ]
ĠAugust
Ġpict
##unt
Ġeither
Ġball
##lex
##band
Ġdem
ĠWh
##IS
Ġ&
##oint
##ots
##ales
##ances
##atic
Ġsold
Ġeng
Ġresp
Ġcharac
##aim
Ġadm
ĠPh
Ġdaughter
Ġpiec
Ġrather
Ġfig
Ġexample
Ġthinking
Ġattack
##ider
##ches
there
ĠJune
##oe
##ma
Ġallow
##wo
ĠWill
Ġap
##hern
Ġminutes
Ġquick
ĠMrs
Ġlooks
##iving
Ġcouldn
Ġprogram
we
Ġreport
Ġothers
ĠBritish
Ġroad
Ġparty
Ġinform
Be
##ety
Ġtou
Ġlisten
Ġwithin
##ald
Ġliving
Ġtem
Ġheld
##arr
Ġbeautiful
##ency
##oman
##men
Ġsuccess
Ġdesign
Ġnamed
##resent
##head
Ġnational
##aring
##ained
##oad
Ġgrow
ĠEurope
Ġwants
##itting
Ġmillion
Ġresult
Ġminute
ĠSeptember
##ode
Ġnorth
Ġperform
##itten
##aul
Ġinside
Ġbra
##ories
Ġstru
ĠCol
ĠBe
Ġspecial
##ored
ĠOctober
##actly
##ege
##isc
ĠNorth
Ġlangu
Ġnec
ĠAd
Ġstra
ĠTr
ĠApril
Ah
##ovember
##ounc
Ġmember
Ex
Ġ11
ĠJuly
##ousand
##oub
ĠPres
Ġsum
Ġrepl
Or
##ze
Ġturned
Ġmess
Ġwonder
Ġve
Ġsingle
ĠNational
##fully
Ġvill
##airs
##anger
Ġformer
##ĠĠĠĠĠĠĠĠĠĠĠĠĠĠĠĠ
Ġlived
Ġrock
ĠPl
##fe
Ġsil
Ġappear
##cial
Ġincluding
Maybe
Ġking
Ġelect
ĠSw
Ġtest
##unch
ĠGo
where
##unk
Ġdie
##pped
Ġexpect
##amb
##itch
Ġdream
##ara
##fect
##con
##usband
##ruary
Ġship
##ounds
##ebruary
##ued
Hello
Ġcamp
ĠDecember
Ġcommon
##over
ĠCar
ĠWhen
ĠSo
##oul
Ġfelt
")
Ġplaying
##key
##idge
Ġthird
Ġdear
With
Ġvoice
##AS
##ternational
##not
##ana
##fort
Ġusing
Ġmonths
Ġrev
##que
Ġacross
##hm
##echn
Ġoutside
Ġfootball
Have
ĠNovember
ĠFl
Ġsometimes
ĠFrench
Ġdark
ĠX
Ġmemb
wh
ĠCal
Ġworked
Ġz
##ended
Ġcheck
ĠBar
Ġpossible
After
Ġhours
Ġeffect
##ached
Ġthousand
Ġamong
Ġhit
ĠOr
Ġhair
##vision
Ġrequ
Ġdest
Ġfif
Ġ192
##ele
Ġgun
##pec
Ġforg
Ġcareer
Ġcop
Ġproc
##overed
Ġclub
Ġdesc
Ġmajor
##irth
Ġfollowing
Ġill
Ġhusband
##iddle
Ġpoor
Ġfre
ĠMan
Ġsun
##ata
Ġdam
ĠDo
Ġprofess
##oved
Ġ13
Ġappro
Ġtried
Ġwish
Ġtot
##che
ĠFebruary
##ays
Ġtom
sh
##ND
##rodu
Ġaf
Ġla
Re
##read
Ġ14
##lf
Ġsend
ĠCity
20
##eared
##though
Ġcir
Ġlevel
Ġmoved
Ġgotta
Ġseven
Ġhistory
##ases
Ġbuilt
Ġbox
Any
ĠHer
Ġpolice
Ġ2010
##uthor
##attle
##ED
##gest
Ġfeet
Ġgrand
ĠTO
##ressed
ĠAf
##aint
Ġbuilding
Ġproper
Ġmembers
Ġusually
Ġcre
##----
Ġtill
ĠPar
##work
##omin
Ġgets
##itions
Ġfa
Ġparent
Ġav
Ġcoup
Ġcost
Ġoffice
Ġcal
##rit
##onight
Ġstar
##ean
Ġtreat
Ġworry
##rog
ĠGeor
Ġanyone
##ified
Ġmur
Ġgold
##OM
Ġpull
ĠEd
##yn
Ġanswer
Ġchance
##raid
Ġcomplete
##ondon
Ġcontrol
Ġfield
Ġpopulation
Of
Ġsweet
Ġworks
Ġbuy
or
##idence
Ġabs
Ġknows
Ġwhether
Ġstation
Ġteac
##ham
Ġrad
##een
Ġcond
##ET
ĠGu
Ġbased
Ġlay
##iod
Ġord
ĠAb
##iol
Ġdev
##urg
##ino
Ġeasy
well
Ġcannot
Ġprop
Ġwall
Ġplayer
Ġ``
Ġtwenty
Ġwritten
ĠCent
ĠRep
Ġstep
Ġ30
##of
ĠLe
ĠPresident
##uk
Ġlives
Ġste
##irty
##por
Ġsecret
ĠAfter
Ġsister
##ges
##eople
ĠIf
Ġevent
Ġregion
Ġfav
let
##come
Ġlocal
Ġview
##asure
Ġseems
##ae
##iding
Ġphone
##hys
##IT
##illy
Ġgeneral
Ġpract
##par
##soci
Ġmine
Ġiss
##ule
Ġeveryone
##omb
Ġcurrent
Ġcouple
Ġvide
##OW
Ġafraid
Ġclear
Ġsouth
Ġlow
ĠEl
Ġcentury
Ġprocess
Ġpost
Ġones
Ġbird
##ising
Ġfast
##ding
Ġwrote
ĠLea
look
so
Ġmot
Ġdraw
Ġdeep
ĠWest
ĠDon
##ument
ĠHar
Ġcold
##ampions
ĠLondon
##ula
##ift
##EA
Ġdiffic
Ġinvol
Ġground
Ġexactly
Ġfair
Ġseemed
Ġwrite
Ġtomorrow
Ġtable
Ġgirls
##ada
Ġcry
al
Take
Ġsea
##ourn
##ission
Ġboys
Ġlonger
Ġincre
Ġsense
##itive
Ġbirth
##iron
Erm
##ected
##mm
##ogn
Ġdin
ĠEngland
##unic
Ġpaper
Ġdistrict
Ġsuff
ĠJack
Ġcharacter
##uri
Ġhuh
##ask
Ġbott
##ization
Ġsex
Ġinformation
##ills
See
Ġpur
##oose
Ġchanged
##oard
##ording
ĠItal
Wait
who
His
Ġfur
Ġtruth
Ġkids
Ġdirect
##entle
##erc
##aur
ĠAustral
Ġdepartment
##sc
Ġcompet
##ration
##hel
Ġrunning
Ġ25
Ġlik
ĠOne
Ġsupposed
##ani
##uation
##ouncil
##ination
##irt
Ġwood
TH
Ġpress
Ġpubl
âĢĶ
Ġservice
Ġran
Ġsomebody
Ġcat
ĠGerman
Ġfail
##avy
Ġlab
Ġgen
ĠWell
Ġdeb
Ġforget
Cl
Ġhurt
Ġeduc
Ġtonight
Ġsuper
Ġcross
Ġnat
Ġshot
she
Ġperiod
##conom
##GH
##ille
##OT
Ġ*
##dom
##erry
ĠLord
Ġneeds
Ġtrouble
##uture
##ael
Ġreceived
Ġhig
Ġtree
ĠUS
##ops
Ġtype
Ġclean
ĠAmerica
Ġauthor
Ġ191
Ġtelevision
##to
Ġposition
Ġ0
they
##itary
Like
ĠThen
##emy
Ġblue
##acy
can
ĠDr
##more
##aff
##ption
##owers
##let
Ġrepresent
Ġluck
##ospital
Ġtrad
Ġlady
Ġtechn
Ġple
Ġkept
ĠSchool
##arty
##alt
##room
ĠRuss
Ġcreated
##cer
ĠAm
##aged
Ġentire
##ford
Ġmount
Ġarri
for
Ġtit
Ġtouch
Ġthemselves
Ġlanguage
##dden
Ġconn
Ġaccept
Ġcos
##II
ĠEx
Ġwaiting
##joy
##ror
##oes
Ġbank
ĠRe
Ġeverybody
##eder
Ġvers
Ġsell
Ġvillage
Ġear
Thanks
Ġwhatever
##LE
##uz
##avid
##ploy
ch
##oming
ĠAfric
Ġhy
Ġ100
Ġobject
Sorry
Ġsurpr
##ky
Ġfucking
here
Ġsudden
##ivil
Ġstraight
Ġcook
Ġsugg
Ġsuggest
Un
Ġabove
ĠState
##lu
##IC
##irm
Ġfly
cl
Ġmist
Ġparents
Ġspecies
##olution
##ician
Ġperhaps
##estern
ĠPeter
Ġgreen
ĠMy
Ġrul
##fer
Ġpot
##ager
##bers
##ression
Ġfuture
ĠTom
Ġrese
Ġhowever
##omes
ĠDe
##stit
Ġpicture
Ġpriv
Ġlim
Ġrespect
Ġcomput
Ġbooks
Ġcell
##teen
##ping
##ending
Ġinstead
Ġtakes
##inal
Ġdecided
Ġproblems
Ġexist
Ġinclude
on
##reet
##atter
Ġfeeling
Ġvol
##tle
Tell
Ġshoot
Ġitself
ĠMc
Ġcarry
Ġcirc
Ġpiece
Ġled
##roy
Ġstri
Ġperfect
Ġmouth
Ġang
Ġfinished
Ġlaugh
Ġport
ĠPol
##ocr
Ġimag
Ġherself
ĠSy
Ġinvest
##hem
Ġlearn
##bit
Ġcult
Ġdro
br
##isten
##razy
Ġdoctor
##ivid
##lands
ĠOF
Ġletter
##eneral
##ences
These
Ġserved
Ġdue
##ilar
Ġdoll
Ġfix
Ġaren
Ġproject
ĠNot
this
Will
ĠHowever
##pecially
##ental
Ġhappens
##unicip
yes
Ġdifficult
Ġworth
Ġchurch
Ġtrust
Ġdi
Ġvideo
Ġcover
Ġmem
ĠEm
Stop
ĠHouse
Ġspace
Ġ24
Ġant
##ran
Ġfinal
##ampionship
##ien
##AY
Ġearth
##olute
ĠPhil
Hi
Ġpopular
##ograp
ĠLeague
Ġnorm
Ġain
##amm
##line
Ġtrack
##amer
Ġactiv
Ġhealth
Ġlad
Ġprison
##ray
##viously
Ġtelling
Ġshit
how
##ival
Ġhorse
Ġesc
Ġslow
Ġanyway
Ġrecogn
##itor
Ġnine
Ġsoft
Ġsafe
Ġrelations
Ġdoub
Ġpresident
ĠTo
##rill
##RE
ĠCap
Ġgentle
Ar
Ġweeks
Ġ2014
Ġsocial
##erence
##lin
##ken
##uted
Ġfear
ĠThese
Ġmiddle
Ġ21
Ġriver
ĠColl
##raph
Ġpassed
##epend
Ġhang
Ġfigure
Ġcorn
##rug
Ġviol
Ġep
Ġspir
##ichael
Ġdanger
##itted
##ades
Ġmeant
ĠGermany
##val
re
Ġphot
##ashing
Ġsave
##cl
##US
Ġcounty
##eep
ĠPaul
##Ã¡
Ġphys
Ġengine
Ġjud
?âĢĿ
ĠIndian
Ġenjoy
Ġgames
##ius
Ġahead
##gel
as
ĠPark
##empt
##iers
##ander
Ġestab
Ġcourt
Ġfunny
Ġtrain
Ġ2018
Ġmeeting
Ġprinc
Ġevening
Ġhop
Ġseat
Ġfamous
Ġtyp
Ġclot
Ġgod
Ġvict
##oom
em
Ġfurther
Ġcast
ĠSec
with
##bor
##bed
Ġeconom
ll
##oly
Ġappl
Ġsus
Ġexcept
##riage
##ishing
Ġ2011
Ġfish
##van
Ġmach
Ġener
##rible
Ġglad
Ġcrazy
Ġopened
##iforn
Ġ#
Ġda
Ġneg
Ġsick
Ġide
Ġcrit
##yle
Ġreturned
##ceed
##ume
Ġquiet
Ġfill
Ġ("
Ġaut
ĠQue
Ġleaving
Ġstood
Ġum
Ġcool
##roll
Ġself
Ġcapital
Ġrole
Ġthrow
ĠWilliam
##ris
Ġnin
##ifornia
Mar
##erve
##oph
##oura
Ġdisapp
Ġring
Ġcatch
Ġbeginning
18
##ires
Ġdinner
Ġaccount
Ġbreat
Ġmad
Ġforce
Ġmult
Ġsubject
ĠWhy
ĠSome
Ġ2013
Give
##reg
Ġhospital
Ġfeat
ĠSe
like
up
Ġwhom
Ġburn
Ġfloor
Ġcommune
##now
Ġclaim
Ġagre
Ġx
Ġchair
Ġpolitical
##cient
Ġ2017
##rey
ĠRiver
Ġmass
Ġcomb
Ġclos
##itz
##TER
##uge
##lect
##medi
Ġeye
Ġnon
Ġparts
Ġsitting
ĠHigh
Ġshut
Ġgiving
Ġforward
Ġnecess
Ġcommunity
Ġident
lt
ĠSm
Ġrespons
Ġintrodu
##ellow
Ġmention
Ġoriginal
Ġdrive
Ġcause
Ġstick
Ġ2020
Ġreached
Ġtotal
Ġinteresting
Ġstudents
ĠSam
Ġcountries
##reme
##ID
be
Ġmater
Ġbeat
##co
Ġquestions
Ġfem
Ġkey
Ġbag
ĠEast
##af
##ica
##hood
ĠRoman
##ging
Ġsepar
Ġsoci
Ġrelig
Ġ)
ĠGood
Ġfing
Ġobs
ĠCalifornia
##iny
Ġplaces
ĠGeorge
not
By
Ġproduct
Ġindivid
##imate
##ication
ĠMus
Ġmatch
##ili
Ġyours
##ply
Ġquickly
Ġhoney
Ġ22
Ġlose
##inist
Ġneigh
##field
Ġstage
Ġhung
##ears
Ġamount
##raft
ĠMary
##AC
##esus
ĠSu
Somet
##ocked
are
ĠRed
Ġappeared
##uel
Ġstudy
Ġpen
Ġparticular
##ffic
Ġstore
Ġ2012
Ġinn
Ġbear
Even
##ounced
Ġhost
Ġwhose
200
Ġtowards
ĠRepublic
Ġmarket
##cent
Ġkiss
Ġsimilar
##inite
Ġpark
Ġalive
ĠIN
Ġmis
ĠIndia
Ġtravel
Ġsimple
Ġpal
Ġmid
Ġ2015
##iety
Ġjump
ĠJapanese
Ġmoving
##olly
Ġenergy
Ġwindow
Ġsuppose
Ġgrad
##het
Ġroll
Ġdeg
##uty
Ġ2008
Ġlocated
Ġcried
ĠGl
Ġpublished
##ico
Ġcolor
##upid
##cher
God
##iled
From
Ġanymore
ĠQu
Ġfollowed
##arden
Ġnatural
##ming
ĠBy
Ġ()
Ġconsider
##oyal
Ġpolic
Ġindust
##ruction
Ġcaught
ĠGovern
##ites
Ġwide
ĠGreat
ĠCor
ĠLou
Ġris
Nothing
ĠJust
Ġvisit
ĠParty
Ġenc
##orts
Really
10
##rian
##aven
Ġways
##mas
##ext
Ġ2016
Ġneeded
##rab
now
Ġexperience
Ġbelong
Ġcertainly
##anch
ĠMed
##anks
Ġrace
Ġbill
##ensive
Ġteacher
Ġmunicip
Ġben
Ġver
Ġsituation
ĠJo
##ÃŃ
Listen
ĠMe
Ġsad
Ġlie
Ġperm
##Ã¶
Ġdress
##ids
Ġterms
##wered
Ġprep
Ġalright
##nes
##uses
Ġanybody
Ġ2007
Ġfinally
##wood
Ġfac
Ġallowed
ĠII
##asons
##go
Ġstopped
##iment
##ett
Ġmiles
Ġearl
ĠIT
Ġ23
Bl
Ġdiscuss
Ġconcern
Ġstrange
Ġshop
Ġprotect
##cuse
##ago
all
ĠMad
Ġ2009
one
##omen
Ġstreet
##bert
Ġemploy
Ġequal
##Ã¼
##inary
Ġarch
Ġshows
Ġexam
##ship
ĠRich
##istic
Ġ2006
##sych
ĠÂ
Ġfool
ĠBro
Ġserious
##udd
Ġanimals
##anish
##ero
##itional
##orthern
ĠWith
##pper
##AL
##ights
an
Ġespecially
Ġboard
.,
ĠCup
Ġwriting
##ils
Ġinflu
##resh
##urity
did
Ġvalue
##ensus
Ġpeace
Ġbroad
Ġisland
Ġsurv
##inct
Ġinvolved
Ġmilitary
ĠCo
##UT
Ġmaterial
Ġice
##iling
##ari
Ġpaid
Ġquar
ĠDavid
Ġbull
Ġrid
Ġdance
ĠAir
ex
ĠJames
ĠBen
Ġemb
Ġmodern
Ġvarious
Ġconv
Ġdestroy
Ġplays
##ram
Ġfarm
Ġspent
##ortun
ĠAre
ĠPer
ĠMart
Ġwild
Ġfort
Ġwarm
Ġpack
Ġbought
Our
##yl
##iction
##ength
ĠSer
Ġsoul
##ustom
Ġ2019
OK
Ġtax
ĠChar
.'
Ġjoined
Sp
##VE
Ġegg
##ocks
Ġasking
Ġproduced
ĠNow
Ġnet
Ġprofessional
00
##gar
Ġdrug
Ġremain
##olutely
Ġhate
##iced
Ġaction
Ġlargest
##outhern
ĠWho
Ġdate
ĠSan
##ala
Ġdescrib
Ġmix
Ġenv
Ġ50
Ġet
Ġrelationship
##rel
##cell
Ġfavor
ĠChurch
Ġwat
Ġcand
Ġalthough
Ġrefer
##pen
Ġseeing
##well
Ġattempt
Ġbase
Ġanswered
##cious
Ġwest
Ġ190
Ġglass
Ġcivil
Ġsummer
ĠHey
##ibility
##edy
Ġconside
Ġimmedi
Ġconsidered
ĠMor
ĠDad
Ġofficial
ĠDem
##AP
Ġ26
Ġgives
ĠJim
Me
Ġwear
ĠTV
Ġcoff
##obert
Ġeast
ĠEn
Ġbroke
Ġsomewhere
Ġgrew
Two
Ġ:
ĠGrand
##reek
Ġarms
##ify
##hod
was
Ġdevelopment
Tr
Ġloved
Ġstanding
##ancy
Ġsour
Ġplant
Ġdata
ĠSch
##itude
Ġpoints
Ġcard
##ography
Ġnumbers
Which
Ġtitle
Ġareas
Ġpolitician
##istrict
##ises
Ġ28
Ġsize
Ġunc
Ġhous
ĠGeneral
Ġnature
Ġtend
Ġcompan
Ġhat
which
##asing
##vious
ĠEuropean
Ġpersonal
Ġstruct
Ġtired
##ners
##ential
Ġ27
Ġmaster
ĠSoc
Ġaud
Ġpers
Ġrob
Ġdig
Ġgas
##icle
ĠLet
Ġarmy
Ġpurp
Would
ĠFrank
##ique
Ġsal
##ourt
Ġprim
##ament
Ġclothes
##ators
Pro
##uts
##asc
ĠAg
!âĢĿ
Ab
Ġfund
Ġfunction
Ġincluded
##rif
##terday
Ġstars
Ġmer
##irgin
Ġcomputer
##cast
Ġstupid
##ability
##ether
##face
Ġcollege
Ġbrain
##lymp
##bour
Ġadded
Ġmommy
##ounded
Ġeducation
Â´
Ġheavy
Does
##iber
##friend
##istory
##ya
Ġshare
Um
Ġcompletely
Ġresearch
see
Ġaver
##rect
ĠCouncil
Ġcommand
ĠBel
Ġprivate
##ka
Ġsimply
Ġimm
Ġspirit
##ville
Ġboat
##chen
Ġdrop
##olic
##ularly
ĠPal
ĠWhere
Qu
ĠLa
ĠEarth
##EL
Ġnearly
##icated
Ġtrees
ĠMinister
Ġsearch
##ograph
Ġdirected
Ġindeed
##ki
##AM
Pl
Sure
201
##noon
Ġmodel
##ena
Ġextra
##oid
Ġcontract
Ġimpro
Ġscient
Very
Ġcaused
##board
Ġdaddy
##off
##gress
Ġnames
right
Ġevidence
Ġdoubt
Ġthanks
Ġtea
##hest
Ġdifference
Her
Ġexplain
ĠSte
ĠBlack
Ġelection
ĠMon
##ston
##antic
##astic
ĠParis
Ġtick
Ġcontinued
Ġpray
Ġtalked
##iday
##antly
ĠOkay
Ġavail
ĠHen
##wise
ĠAustralia
Ġaward
##osing
Per
##omas
##chie
##ological
Ġsens
Ġdecl
ĠSir
Ġtour
Ġwed
Ġbow
##ruct
Ġrail
ĠMex
##istics
##burg
ĠOlymp
##ails
##ively
Ġbroken
Ġappoint
Ġforest
Ġrain
ĠDep
ĠOK
Ġhistor
ĠĠĠĠĠĠĠĠĠĠĠĠĠĠĠĠĠ
##tered
Ġindepend
Ġbud
ĠComp
Ġpromise
Ġwel
ĠSen
Ġsounds
##ashington
Ġgroups
Ġradio
Ġwatching
##ij
Ġlo
Ġnobody
Ġattention
Ġassoci
##ously
Ġcomfort
Ġfoc
Ġhelped
Ġwonderful
Ġarr
Ġsuddenly
Ġbur
##anced
Fr
Ġur
Ġbattle
##ledge
Ġliter
Ġfle
Ġpath
Ġcharge
##ux
##light
##iles
ĠChampionship
Ġarrest
##uke
Ġcup
ĠAc
Ġpercent
Ġrich
Ġ2000
Ġmarry
Ġreach
Ġshouldn
##ushed
ĠTur
Ġarg
##raw
Ġversion
Ġdoc
##rie
##useum
##action
Ġthirty
##azing
##inese
##ibly
##ords
Ġrights
##unn
Ġinj
Ġmeaning
Ġspend
Ġestabl
ĠSim
##aker
Ġdefe
Ġsand
ĠMont
##ground
##illa
Ġbottom
Ġsight
##tt
ĠUnion
Ġblow
ĠBer
##nown
##iot
##de
Ġfifty
ĠAnt
Ġshowed
ĠReg
ĠCome
##aste
##ests
Ġhappening
Ġfit
Ġinterested
ĠĠĠĠĠĠ
ĠStreet
ĠMichael
##FF
Ġfinish
##ittee
##OS
Ġthreat
Ġlength
Ġannounced
Ġclosed
Ġredu
Ġopportun
Ġlog
##ERE
ĠCollege
Man
ĠDan
ĠChina
Ġpounds
Ġformed
##usion
Ġafternoon
Ġnor
##elebr
##ples
Ġfat
Ġfounded
15
Ġweap
ĠHall
Ġchoice
##ables
##ida
Ġdise
##aves
ĠChristian
Excuse
Ġcalling
##elve
Ġden
Ġhigher
Ġ29
Ġbelow
ĠPat
##ironment
ĠPort
Ġbri
ĠCr
pl
##Ã³
ĠWH
Ġinit
Ġtraining
Ġspeed
Ġdirector
Ġbirthday
Ġnormal
Ġweren
Ġmarriage
Ġnovel
##berg
Ġstreng
##amn
##oring
##osition
ĠON
Am
âĢĿ
ĠGreen
ĠInternational
##aly
Ġactor
ĠNor
ĠDistrict
Ġmurder
aha
##king
John
##icks
##ubb
Ġtemper
##view
##ilities
##isf
Br
Ġmethod
Ġstarting
##osh
##ript
ĠJew
Ġfellow
Ġhall
##oted
##inn
Ġ2005
##apers
##ification
##asion
Ġbright
##atives
Ġspoke
Ġscience
Ġstories
ĠPenn
mm
ĠÃ
Ġ189
come
12
##ria
##urb
Ġcarried
##cul
Ġaccident
##str
Ġdeveloped
Ġlower
Ġmanage
Ġsite
Ġlovely
Ġended
Ġcenter
ĠPri
##upp
Ġoffer
##ession
##ols
Ġworse
Ġchanges
ĠWashington
Ġdeterm
Ġcoffee
Ġpsych
##za
##aries
##alley
ĠIts
Ġavailable
Ġexec
ĠYour
##set
##arily
Ġsociety
ĠMal
ĠChristmas
Ġleader
Ġassist
Ġhuge
ĠCanada
##IM
##LD
Ġlif
##arp
Ġstates
Ġdecision
##ees
Ġfeed
ĠArmy
Ġsnow
Ġregard
Ġearlier
Ġaverage
Ġtext
Ġmachine
Ġputting
Ġpun
ĠAlex
Ġschools
Ġcapt
Was
Ġmilk
Ġund
##ams
Ġyesterday
##iest
Ġmessage
Ġbusy
Ġlines
##ipped
Ġrout
Ġhol
ĠKh
ĠQueen
Ġbes
Ġspread
ĠOld
People
Ġcustom
Ġplus
Ġmultip
Ġepis
##OO
Ġmovies
why
Only
Ġmovement
ĠAfrica
Ġagree
##arliam
##sequ
Ġsongs
year
ĠChe
Ġcreate
ĠAND
Ġnose
Ġlearned
ĠTex
17
Ġride
##initely
##olf
##ummer
##rag
##IGH
Dad
Ġcases
##ossible
Ġpage
##for
Ġ40
Ġcondu
Ġinternational
First
ĠSl
Ġcareful
Ġhero
Ġestablished
Ġmor
Ġoccur
Ġhonest
Sir
ĠMark
Ġ2004
Ġgarden
Ġaccess
CH
##bon
Ġcelebr
Sc
Ġcy
Ġleaves
##arliament
Ġbath
##ips
Ġyellow
Ġdemand
##uit
Ġhun
Ġsuit
ĠBE
##ccording
Ġ..
##oday
ĠAward
Ġrule
##vania
Ġlegs
Ġstyle
Ġliked
Ġjoin
Ġfaith
##hib
##acing
Ġsquare
##ems
##ims
Ġsinger
##lor
ĠLouis
##la
##rat
Ġpred
##ournal
##oves
Ġterrible
Ġnone
Ġinvestig
Ġneck
Ġcensus
##ension
Ġevents
Ġproduction
Ġkit
Ġbi
Ġscared
Ġfault
ĠItalian
hm
##ette
Ġcorner
Ġmunicipality
ĠFranc
ĠCaptain
Ġprincip
##sey
Ġought
Ġstone
Ġcontact
ĠWhite
##ita
Ġdistrib
Ġdry
##emember
Ġsmell
##ms
##apt
##imb
ĠSat
Ġwa
Ġeating
if
Ġchem
Ġanimal
ĠRob
Ġprof
##onel
ar
ĠChinese
##aign
##ini
ĠIsland
Ġideas
Ġtherefore
##order
ĠME
##icked
ĠOf
##ederal
##cy
##rupt
##syl
##etic
ĠKore
Mhm
##nie
ĠĠĠĠĠĠĠĠĠ
Ġfol
##elp
Ġimmediately
##uzz
11
##fast
WH
##ilies
Ġflowers
ĠFrom
Ġcow
Ġskin
Ġsky
Ġhey
THE
Ġ186
##NA
ĠBill
##cean
am
Ġcred
Ġlikely
Ġ2021
ĠVirgin
Ġbell
Ġtall
##itation
##oses
##hab
##ELL
##lected
Ġsigned
Ġwelcome
##sylvania
##icago
Ġraised
##otten
Ġlying
Ġpieces
Ġolder
Ġdistance
Ġwit
##phone
##ipe
16
Ġmostly
Ġbelieved
##erved
Ġfrog
##agn
##icro
ĠCong
##aug
Ġbenef
Ġir
Ġtheory
ve
Ġcamer
##the
ĠMa
Ġnecessary
##ancing
ĠRussian
Ġspecific
go
Ġchief
Ġharm
##asant
Ġsevent
ĠMil
Ġacqu
Ġdiscovered
##night
ĠRes
Ġdisp
ĠâĢĺ
Ġcoast
Ġcontinue
##gain
##CH
##razil
##ns
Ġservices
##urt
##mpire
ĠTexas
Ġarrived
Ġdepend
##ware
Ġbey
##vert
Ġstorm
Ġconvers
##annel
Never
ĠCharl
mhm
ĠSwed
Ġcrime
ĠPrince
Ġwalked
Ġtruck
Ġut
Ġelected
##utch
Ġsuccessful
Ġbeyond
Ġspl
Ġrepe
ĠJesus
##vey
Ġscene
ĠST
Ġru
Ġaged
##atory
ĠRec
##using
Ġindividual
ĠSund
ĠĠĠĠĠĠĠ
Ġimagine
##stairs
sp
Ġgar
Ġfighting
ĠCourt
Ġweak
Ġmountain
Ġ1990
ĠTe
##iant
Ġintell
Ġofficer
ĠPennsylvania
Ġspot
Ġreb
Ġcovered
Could
Ġmoon
ĠScott
Ġfirm
Ġreview
Ġ2001
Dr
ĠRobert
Ġchall
##ateg
Ġpractice
ĠAct
Ġgoal
Ġ31
Ġcollect
Ġenvironment
Ġaddress
##house
Ġattract
Ġreading
don
Ġcab
Ġparticip
Ġess
Ġcrow
ĠIS
Ġprice
....
ĠArt
Ġapart
Ġreve
Ġtells
##...
ĠDuring
Ġformula
Ġble
ĠDemocr
##arling
Ġphil
Ġspeaking
Ġboss
Ġfresh
Ġholding
ĠRichard
##uments
Ġwedding
##kin
Ġdouble
##UR
Ġwalking
Ġdescribed
##isted
Ġrelease
##ulf
ĠCharles
Ġfourth
##west
Ġpurpose
Ġemer
Ġprint
Ġrules
ĠKingdom
ĠSal
Ġadminist
Ġissue
Ġfemale
##iana
##aching
Ġpictures
Ġ188
Ġangry
ĠMount
Ġpig
##hew
;&
Ġtail
ĠJul
##ora
Ġtar
Ġforces
Ġshown
ĠSpanish
##itiz
Ġsettle
##ients
Ġrange
Ġtwice
Gu
##rs
Ġpositive
Ġoil
Ġreplied
Ġenemy
##pping
Ġ1980
Ġregular
Ġtro
his
ĠHenry
##IR
ĠDel
good
##ura
##atin
##lt
Ġslight
Ġpan
Ġbehav
##Ã¤
##anda
ĠLaw
Ġtrade
##AD
Ġlots
ĠBrazil
Ġsurface
##ores
##itar
Ġstrength
##mon
Ġ2003
##rial
Ġnetwork
Ġsle
Ġdangerous
Ġrate
##pty
13
Ġbound
Ġaccording
##alled
Ġchick
##ictor
Ġachie
##oop
##yer
##oz
Ġdirection
Ġswim
Put
bl
Ġlink
Ġsoldiers
Ġsatisf
##sec
Ġhide
Ġloss
##enth
##KE
Ġeasily
##how
ĠBob
##50
##âĢĻ
Ġmemory
Ġletters
##ourage
Wow
##izing
Ġcalls
ĠSov
##icate
Ġknowledge
ĠGold
##ashion
##road
##lam
Ġrecorded
Ġpressure
de
##isters
Ġdesp
ĠBrown
14
Ġsac
Ġcoun
Ġproperty
Ġnotice
time
##ademy
Ġ2002
ĠTHAT
Ġmissing
Ġmir
ĠSoviet
##rely
ĠMac
Ġstudent
##ket
##ker
##oseph
Ġtwelve
Ġspe
Ġcru
Ġnewsp
Ġyouth
Ġder
Ġhasn
Ġrose
##ulations
##iring
ĠDay
Ġload
cause
##aine
##ours
Ġ2022
##isions
Ġchoose
Ġfrequ
Ġproud
Ġancient
Ġteams
ĠItaly
Ġplaced
ĠChicago
Ġcars
ĠAnne
##aled
Everything
Ġthinks
Ġbridge
Ġentered
Ġhar
ĠRoyal
##iation
Ġhors
ĠTown
##ona
Ġcoach
##sp
Ġhonor
Ġplayers
##ota
Ġsignific
would
Ġdollars
Ġcomplet
##adian
ĠCH
##aped
Ġ00
##abor
ĠNe
##vell
Ad
Ġkitchen
ĠOl
Ġanywhere
Ġextreme
Ġspring
Ġmistake
Ġcampaign
Ġdropped
##play
uh
ĠHere
Those
##idden
Ġintern
##oms
Ġflat
##BC
Got
Ġforgot
Fuck
##back
Ġsecurity
Ġ187
Ġdegree
Che
Bye
Since
##ENT
Ġopin
Ġweight
##uf
Ġbrown
Ġthroughout
Ġcondition
Ġdisease
Ġlunch
YOU
ĠCath
Ġpainting
History
Keep
Ġcaptain
##igned
30
##UN
Ġbigger
##gn
ĠDO
Ġbirds
Ġwhis
ĠFirst
Ġincludes
Ġleading
##gypt
day
Ġqual
##ano
Ġwee
because
##eless
ĠCarol
Ġpolicy
Ġtaught
Ġsett
Ġbab
Americ
##semb
ĠPre
Ġabsolutely
Ġunless
##zen
##itect
Ġbeg
Ġdamn
Ġgradu
Ġopportunity
Ġwriter
Great
Ġfamilies
ĠPeople
Ġcentral
Ġhouses
Ġsystems
##utions
##stitute
Hold
ĠAssoci
ĠThank
Ġsurprise
##father
Ġblock
ĠPrinc
Ġcorrect
Ġmagaz
##ato
Ġguard
ĠPe
Ġstudied
Ġstaff
Ġeventually
Ġpet
##arah
##cing
Ġrom
##istan
Ġsurr
ĠDiv
Ġcontrib
Ġshoes
##ube
Ġmum
ĠJoe
##iverse
Ġrisk
##yr
ĠFred
ĠIll
##anta
##hold
Ġcities
##ompl
##rain
Ġforty
Ġhel
Ġge
##den
Ġprovince
Ġobviously
Ġnote
Ġgrowing
Ġprince
Ġmedical
##VER
Ġworried
Ġ1970
Ġsmaller
Ġconstit
##esty
Ġpatient
##arsh
##otion
##ca
ĠWil
Ġbecomes
Ġmm
##roat
##shire
Ġescape
Ġpock
Ġvan
Ġdriving
##iqu
##asy
Ġuses
Ġmurd
'.
En
Ġteach
Ġmagn
##fl
ĠDes
Tom
Ġthou
##umber
Con
##lear
##ses
Ġforced
##estival
Ġremained
199
ĠSing
Ġlaid
Ġcancer
Ġtrip
Ġmanager
Ġruns
##ares
Ġenter
Ġhighest
Ġslowly
Lea
Ġresults
Ġstudio
ĠCarl
ĠBay
Ġoccup
Ġtypes
at
Ġbreath
Le
##under
_,
Ġpush
##Ã¨
Ġban
Ġprovide
Ġscreen
##imin
ĠMany
##tained
just
Ġagreed
##ruit
##ls
Ġsmile
Ġbrothers
pro
Ġmentioned
Ġimpossible
Ġparticularly
Ġpicked
Ġamazing
Ġchap
my
ĠSmith
Ġlucky
Ġkinds
when
Alright
Ġopening
Ġgrass
##edom
##elling
##odes
##gent
Ġthus
##EC
Se
##mit
Ġweird
Ġinterview
##kins
##icles
Ġexpected
Pr
Ġactress
Ġnomin
Ġheaven
##aches
ĠEr
Ġcurrently
ĠScot
Ġsaved
##och
Ġplans
Ġartist
ĠJer
##oken
##rael
##isl
Ġvote
Ġuniversity
##ications
##da
Ġwearing
Ġsen
##bered
Ġforth
Ġplanet
##aniel
Ġappre
Ġlaws
Ġinvent
Something
Ġbomb
##ulous
Ġhungry
##ashed
Ooh
##ucky
##like
Ġbread
Ġcode
New
Mom
##--------
Ġpleasure
Ġheat
Ġplane
Ġaddition
Ġperformance
Ġuncle
Ġhole
##lement
Ġelectric
Ġcompetition
Ġnation
##ION
##gged
Ġlarger
##arn
##arry
Miss
##aked
Ġmission
Ġleaders
Ġminus
Ġindustry
##eff
Ġshout
Ġbreakfast
Ġhill
Ġwinter
Ġrough
Ġconcept
ĠEgypt
Ġdesigned
##istry
##adow
Ġgenerally
ĠLittle
Ġreported
Act
Ġblind
ĠCentral
Ġstarts
Ġpoet
##enny
##chan
##astern
Ġshape
Ġrelated
Ġsusp
Ġtoward
Ġfinger
Ġstuck
Ġstructure
ĠRock
ĠIr
ĠMag
ĠFather
Ġcompanies
Ġ1999
Ġbrief
##arrow
Ġprevent
Ġlikes
ĠThomas
Ġsmart
Ġhurry
Ġweather
Ġtape
ĠLee
##rough
Ġma
##iano
##ighs
Ġcitiz
##Ļ«
##gen
Ġsides
Ġgreatest
Ġlearning
Ġamb
Ġstrugg
Ġdefinitely
ĠAcademy
Ġya
##cend
Ġfeatures
Ġhotel
ĠMom
Ġperformed
##ishes
Ġfright
Ġbal
Ġtransl
Three
ĠVirginia
Ġculture
Ġrap
Ġaware
##fessor
Ġcentre
con
Ġhorses
##eck
Ġforms
Ġren
Ġpair
Ġiron
##ansas
Ġforeign
Ġsch
ĠAtl
Ġnegative
ĠAh
Ġplants
Ġissues
Ġspeech
##RO
##icious
Ġremark
##lo
##IGHT
Ġpowerful
Huh
##ola
Ġevil
Ġvac
Ġretired
ĠCont
Ġsilver
##ican
ĠRoad
Ġfilled
Ġjudge
Ġsection
ĠGreek
Ġsource
Ġcrew
##oma
Ġprec
ĠBoy
Ġgreater
##gu
ĠBet
Ġduty
Ġthick
##mph
##rad
Ġcomplex
Ġinstr
Ġphilos
ĠMost
Ġcrowd
##utive
##hered
Ġsinging
##uten
Ġcalm
Ġorders
Ġconditions
Ġbless
Ġhandle
##osite
Ġdescri
##elle
Ġbasket
Ġempty
##||
ĠFil
Ġturns
##gl
##arts
by
##enge
##icient
Say
Ġlack
Ġcrack
ĠMexico
Ġrank
ĠDid
ĠBur
Once
ĠAfrican
Ġbloody
##icine
Ġteeth
Ġquarter
##host
Ġheads
Ġserve
Ġoffered
Ġsteal
Ġreasons
##imately
ĠFore
ĠHill
##asty
Ġedge
ĠFox
##urry
Ġbeauty
Ġoriginally
Ġwitness
##ourney
ĠSecret
Ġstandard
Ġincrease
Ġrealize
old
ĠMartin
un
##aving
Ġjoy
##va
ĠCongress
##anged
Ġbiggest
##ste
Ġopt
Ġourselves
ĠWestern
Ġsem
Ġneither
ĠFlor
##oned
##stood
Ġbecoming
##ockey
Ġmale
Ġbasically
##usic
##ros
##odies
ĠSunday
Ġcontain
Ġ1960
Ġneighbor
Ġsake
ĠHi
Ġ1998
Ġtarget
Ġmissed
Ġcharacters
Ġmeasure
Ġordered
Ġdivided
ĠAustralian
##hi
Ġsymb
Before
ĠCom
Ġgrown
Ġbitch
##anted
ĠSuper
Ġhardly
Ġsuspect
##urday
Ġladies
Other
ĠProv
Ġmut
##ening
Ġmedia
clock
ĠSun
Ġ1996
Ġseparate
##peror
ĠSpain
Ġtransfer
ĠMet
Ġdogs
Ġjournal
ĠVictor
Ġresponsible
ĠApp
##rick
Ġcere
ĠMother
ĠFin
Ġdecide
Ġign
ĠMaster
ĠTwo
ĠWood
ĠCanadian
Ġdare
Ġkilling
Ġreplaced
Ġeggs
Ġtight
Ġnorthern
##ooth
Ġstatistics
##fortun
##aud
##ault
Ġadult
Ġactive
Ġtotally
Ġvot
Ġacting
Ġremind
##rees
Ġgay
Ġmechan
Ġforever
Perhaps
ĠAssociation
Ġlegal
er
Ġprevious
Ġconnect
ĠLos
Ġcommer
Ġdirectly
##craft
ĠRussia
##ado
##aded
ĠTor
##ali
man
##CK
Ġox
ĠRome
##ois
Ġdocument
her
##time
##vere
Ġunit
Ġpromised
Ġphysical
Ġlies
ĠAnge
##aret
Ġcouncil
##umn
Ġcritic
##ked
ĠPet
Ġwaste
Ġterrit
Ġgentlemen
Ġwine
Ġwilling
##eds
Mrs
##mark
ĠSea
Ġprove
##ishop
Ġturning
ĠCatholic
##mond
Ġcuri
Ġarchitect
Ġclearly
Ġnoise
out
Ġfailed
##ias
Ġmeat
Ġcopy
ĠSH
##yan
ĠIre
##wr
Ġorganization
Ġsilly
Ġju
Ġwake
ĠLuc
Ġsaf
##isher
Ġdelight
ĠGet
ĠJud
Ġlawyer
Ġcamera
Ġflight
from
ĠConf
Ġsuc
Ġonto
Ġresour
##lder
Ġinstit
Ġzero
Ġseconds
Ġtaste
Ġimage
Ġtransport
##olit
Ġcontent
Ġscream
##aughed
Ġears
Ġappointed
##inter
Ġmotor
Ġflying
ĠTra
Ġinfluence
have
ĠBig
##EE
ĠRev
ĠIsrael
Ind
Ġappreci
Ġsurprised
Ġbother
Ġproduce
##elcome
##iger
Ġtechnology
Ġintroduced
Isn
##cience
Ġcandid
##elly
##ban
Ġkick
Ġlock
Ġroof
Ġpulled
Ġexcl
##abeth
##uan
##ender
##rated
"?
##rid
ĠCat
Ġdivision
ĠMaj
Ġconcerned
sc
##iance
##ima
Ġplat
##uman
Ġpattern
Ġkeeping
##ctions
put
Ġreligious
Ġbuildings
Ġlibr
Ġindependent
Ġsouthern
ĠMel
Help
Ġsucceed
##RI
Ġwet
Ġeasier
##lig
##arently
Ġepisode
Nice
Ġdestroyed
##osen
Ġlanguages
ĠHam
##ancial
Ġprepared
Ġ1995
Cos
##mar
ĠLady
##inois
.)
Ġloud
Ġopinion
Ġasleep
Most
ĠMill
ĠCenter
##nces
Ġsports
said
##atre
Ġadop
Ġ1994
ĠCompany
Ġdrunk
Bet
Ġcrying
##agon
Ġpit
Ġmeas
##bye
Remember
Ġlistening
##idents
##ennis
##orter
Ġrecently
Fine
Ġremem
Ġdemon
##TH
Ġquality
Ġanal
ĠGovernment
##ushing
##azz
Ġpalace
##ardon
ĠAngeles
Ġpil
##oking
ĠSand
Ġinsp
ĠFlorida
Ġteaching
Ġlaughing
##rate
##uals
Ġlaughed
##tering
Ġactual
About
##ga
Ġveh
During
Ġleague
ĠChief
##elled
Ġodd
Ġninete
Ġcloud
ĠEll
ĠLake
ĠBecause
Ġmetal
##ella
Ġjourney
Ġswear
Over
Ġ60
ĠTheir
##utenant
Ok
Ġdying
##kend
Ġworst
Ġthrew
##ua
ĠBest
##anny
Ġmagic
le
Ġmanaged
Ġmainly
se
##oles
Ġrecords
Ġmaid
Nobody
Ġknock
Ġtrial
##isco
ĠArab
ĠRay
##achel
Ġfixed
Ġsleeping
ĠDa
Ġappears
km
Ġpossibly
ĠUK
##ropical
ĠServ
Ġdreams
Ha
##rer
Ġpound
Ġsteps
##rier
Ġsequ
Tw
##vis
Ġplanning
##uries
Ġpure
Ġresist
##ios
Ġadvant
Ġwatched
ĠSaint
alright
ĠGovernor
##ooper
ĠWomen
##oured
Ġast
Ph
ĠDutch
Ġstream
ĠDick
Ġusual
##icide
Ġbrand
ĠDepartment
Ġawful
##bur
Ġnuc
Ġscore
Ġshowing
##cellent
int
Ġeth
Ġdrew
Ġprovided
Ġplain
two
Ġhadn
Ġ1992
##onse
Ġdamage
Ġfashion
##ctors
ĠBritain
##AU
Ġbuck
App
Today
Ġpartner
##LY
ĠBu
ĠHaw
Ġ1997
Ġburied
##urance
Ġends
AND
##alent
Ġrow
ĠOther
American
##zz
Ġtrib
ĠDen
ĠFOR
ĠSil
Ġcoat
Ġknowing
Ġcircum
##enced
##itzer
ĠEmpire
##esse
ĠCast
Ġmanner
Ġgro
##ANT
had
##oices
Ġyounger
Ġstayed
Ġfeels
De
Gr
ĠGO
Ġspoken
ĠYoung
Ġeverywhere
Ġexpression
##iable
Ġofficers
Ġfeelings
Ġappearance
Ġdebut
Ġconstruction
bye
Ġowned
Ġfingers
##orough
Ġremains
Ġconversation
en
Ġwalls
Ġdom
Ġstudies
Ġgift
##rig
Ġmagazine
##put
##change
##ocol
Ġassum
198
ĠRad
Ġnoticed
Ġmel
##oving
Ġdrag
Ġpocket
ĠMatt
Ġrequired
Ġexpress
##imum
Ġchamp
Ġanx
ĠDev
##heast
ĠClub
ĠAN
then
Ġeconomic
##ouch
ĠGeorg
Make
Ġprem
Ġguns
Ġsmoke
##ogether
Ġtong
Ġlocation
Ġstock
Ġash
Ġdirty
Ġbutter
Ġ1993
Ġsect
Ġalt
Ġreact
##ounce
Ġduck
Ġrat
Ġupset
Ġtroops
ĠSummer
Ġce
Ġcous
ĠMur
ĠIllinois
ĠAng
Ġpapers
Ġloves
##lection
ĠStan
Ġoccasion
Ġwinning
Sometimes
Ġcart
##orial
Ġscrew
##anche
##can
Ġrequire
##ingu
Ġlosing
##lyn
ĠPak
Ġprefer
##ournament
ĠFar
##ih
Ġflow
Ġrequest
ĠJane
##OME
Ġstret
Ġdrama
Ġcollection
Ġreality
Ġopposite
ĠTw
##ties
ĠStud
Another
ĠParliament
Ġoperation
Ġreligion
Leave
ĠRog
Ġrestaur
ĠIreland
Ġwheel
##sembly
##mn
##ache
ĠAunt
Ġthee
Shut
ĠAmericans
Ġminor
Ġbye
Ġautom
##appy
Ġimprove
Think
ĠGroup
More
Ġunits
ĠAnn
##owa
ĠKent
##duc
ĠGames
ĠHon
Ġbottle
El
ab
Ġprogress
##apa
Ġcake
Ġmusical
##lict
##iven
Ġmicro
Ġcompleted
##yp
##resp
Ġrub
Ġfinding
Ġcells
Ġinnoc
Ġtrick
Ġintellig
ĠMajor
##ulty
Ġdriver
Actually
Ġrelative
##reak
Ġgall
...?
Stay
Ġexcuse
ĠMass
ĠVer
Ġtreatment
ĠCamp
Ġfavorite
Ġtraditional
ĠLook
Ġability
Ġraise
##cel
Ġhelping
##bo
ĠSqu
ĠPrime
##arian
Ġeffort
Ġfought
Ġscr
##aria
Ġhumans
Ġfavour
me
##emic
Ġexerc
Ġjoke
##onder
Everyone
Anyway
ĠRail
ĠDivision
Ġfile
Ġcash
Ġjack
Ġgiant
Ġdrugs
Ġ1991
ĠTim
Ġmatches
ĠScotland
Ġthousands
Ġweekend
Ġthoughts
Ġbasis
Ġadvice
Ġtiny
##stitution
##20
Ġlights
Ġflag
ĠEvery
Ġgate
##aval
Ġstruck
Ġfro
Ġthy
Ġwebs
##onds
Next
##Äģ
Ġguitar
ĠRight
##igg
Ġstatement
Ġaffect
##ila
Ġadj
Ġflower
##ira
Cause
Ġbast
Ġchemical
Ġuseful
##ILL
##oos
ĠHa
Didn
Ġwestern
Ġspr
Ġjobs
25
##CE
ĠPrincess
Ġphilosop
##obile
Ne
##osa
Ġdepart
Ġships
##UST
ĠHA
Ġaltern
hand
off
Ġ185
Ġforgotten
Ġmatters
ĠOff
##uing
##acle
##vest
Ġtim
Ġnerv
Ġsafety
50
law
ĠCons
ĠGe
##RA
Ġpurs
Ġetc
Ġye
While
RE
your
Ġattend
Ġcloser
ĠSus
ĠGre
Ġsword
##add
Ġfreedom
Ġfinancial
##eral
##ja
Ġflo
##thur
ĠMusic
##igan
ĠOlympics
##ildren
II
Ġbodies
ĠCam
ĠSaturday
##hile
Ġeffects
._
##erman
Ġawarded
ĠDire
Ġninety
Ġfal
ĠDoctor
Damn
##rary
##egr
##lim
##ST
ĠHel
Ġreceive
##aimed
Ġpresence
##lying
Ġmotion
##inger
##urse
ĠWal
Ġfocus
Ġsplit
##kes
##ootball
##isa
Ġrise
##stead
ĠRose
ĠJoseph
Ġgolden
Ġdeclared
ĠLatin
ĠMike
Ġgentleman
Ġaccepted
Many
However
ĠMax
ĠBas
##ailed
Ġnative
##stances
##olved
Ġminister
Ġbringing
Ġearn
ĠDemocratic
Ġselected
Ġthin
Ġlect
ĠWind
Sm
Ġbare
Ġtemperature
Ġdressed
ĠInstitute
##yo
Ġtears
##ilty
Ġgri
Ġhearing
Ġcredit
Ġgraph
##IF
Ġborder
some
Ġsignal
Ġresponse
##izabeth
##onic
##iliar
Ġdarling
Ġcream
Ġbranch
ĠMajesty
Ġweapons
Everybody
Ġentirely
##iro
Ġrecomm
Ġafford
Ġinhab
ĠCommittee
Ġbroadcast
Ġsail
ĠBell
Ġmate
Ġrecent
21
##ads
Ġwave
Ġmort
Ġworkers
Ġcontains
##hin
Ġnewspaper
##amber
ĠWhile
ĠFre
##ective
ĠKim
Ġdivor
##aming
Ġcro
Ġlips
Ġuns
ĠLand
Ġcommercial
Ġ1989
Ġexcited
Ġchicken
Ġfired
Ġfifteen
##iminal
##OP
Ġauthority
Ġsilence
ĠLove
Ġ1950
##uous
Ġperfectly
Someone
Ġhyd
Ġfalling
ĠOs
##arge
##ervation
Ġapproach
Ġcastle
Ġbillion
Whatever
Ġsignificant
Ġ""
Out
##bury
Ġtur
Ġlic
##ysis
Ġmo
Ġfaster
Ġmanagement
ĠPan
Ġdesire
Ġactivity
Ġstreets
##elie
Christ
ĠHol
thank
197
##nam
Ġ184
##vention
Ġmajority
Ġdrawing
##ulated
ĠArch
ĠSince
Ġcomment
Ġboo
Ġboot
Ġlabor
Ġcarefully
##ITH
Ġdrinking
Ġfruit
ĠFer
Ġconnected
##venue
Ġsolution
ĠSociety
Ġnineteen
ĠIran
ĠEdward
Ġpool
Ġsugar
##quar
Ġsixty
Ġbeach
Ġrele
Ġgrave
Ġah
##imp
##rant
##zy
Ġsuck
ĠSecretary
ĠIm
Ġconcent
ĠHot
com
##vy
ĠMer
Ġqueen
##essel
##erves
##stant
Ġmedicine
Ġrent
Ġdiam
ĠProfessor
Ġarrange
ĠDou
##illed
Ġelement
Ġgain
Ġkeeps
Ġsettled
qu
Ġshr
Ġremoved
Ġunderstood
.]
Ġfant
ĠSee
Ġkidding
##ummy
Ġplanned
Ġtough
Ġfully
Ġpotential
Ġlake
Ġsharp
Ġlord
may
##acter
##ulate
ĠYear
##owed
Ġcomedy
ĠPlay
Ġincreased
##ipping
Ġbasic
Ġbeside
Ġadvent
ĠTrans
Ġsin
##ipl
Ġhabit
Should
ĠBilly
##abb
Ġprimary
Ġscored
Ġnumer
##gor
ah
##eping
Ġotherwise
Ġterror
Ġmixed
Ġdefend
Ġhighly
Ġprograms
Ġmap
Ġaudience
##onia
##isp
Ġfederal
Ġroy
Call
Ġapartment
Ġsexual
Ġchat
##eman
Ġjail
##wers
Welcome
Ġfigures
ĠWAS
ĠJackson
Ġgoals
##aging
Whoa
ĠHello
##wan
Ġdim
Ġscar
Ġunk
Ġmountains
Ġcharm
Ġsetting
ĠKN
Ġpregn
Ġprior
Hmm
Ġroles
Ġvictory
Ġpleased
ĠHE
..."
##obal
Ġconsum
Ġdu
Ġstatus
Ġforgive
##ador
##acks
##bl
ĠMuseum
ĠGirl
Ġkingdom
Ġpassing
Ġcomfortable
Ġtor
##hetic
Ġfailure
##spect
##gency
##uckles
Ġpaying
Ġfifth
ĠBa
Ġsuggested
Ġow
Ġarrested
##oir
Ġchanging
Ġdefeated
##ALL
##unny
##porary
Ġupper
##ivity
Ġeighty
Ġrapid
Ġ(;
Ġrailway
##adium
##oston
Cap
##stra
Ġproceed
Ġagent
Ġinvited
Ġfaces
Ġmuseum
##ropri
ĠNorthern
##what
Love
Ġchosen
Ġelements
Ġnervous
Ġhiding
Ġexhib
##rep
Ġpra
##itzerland
gr
Ġknife
##ports
##inda
Ġstrike
ĠSweden
##IL
ĠJewish
Ġwash
##amily
Ġproducer
Ġ1988
Ġapolog
Ġrepresented
##zer
Ġchannel
ĠGar
ĠLu
Ġavoid
Ġextremely
##eel
Ġdancing
Ġpossess
Ġgrowth
##alls
Ġcontroll
Ġprofessor
Ġcircle
##odd
ĠLy
fl
Ġgirlfriend
tr
Ġeh
ĠPac
##stein
##gment
Ġ80
##ufact
Ġdomin
##enger
ĠCle
La
Ġmanufact
Ġwid
##usted
Ġchest
Ġactivities
Ġschol
Jack
##orse
Ġlibrary
Ġwindows
Try
ĠFriday
##eer
Ġplenty
##izes
Ġwealth
##osc
Ġsomehow
Ġdisplay
##RY
ĠHarry
Ġnotes
Ġroute
##ece
will
Ġselling
Ġunf
##ocal
ĠStar
##hens
Ġflew
Ġult
Ġmax
ĠAsia
Ġpurch
Ġupstairs
##min
Ġsees
Ġchampionship
Ġshooting
Ġadvantage
##load
ĠZeal
Ġtongue
Car
##isation
Ġcolour
Back
Ġexpand
Ġbunch
Ġcompos
Ġbelief
##han
Ġfields
Ġunderstanding
Ġmultiple
##riff
ĠBo
Ġproducts
Ġsons
##ishment
,'
nd
ĠColumb
##li
##onday
Ġcarrying
app
Ġsoldier
Ġinstance
Ġsales
Ġclimb
Ġaircraft
Ġguilty
Ġachieve
##iences
##pa
Ġslightly
##ercy
##vin
Ġdesert
Ġcalcul
Ġocean
ĠSouthern
Ste
ĠMah
Ġshell
Ġconsist
Ġowner
Ġpowers
Ġdism
hey
Ġkil
##ums
Ġtraffic
Ġfilms
##IE
Ġded
Ġghost
Ġliber
Ġresc
Ġinterp
Ġdoors
ĠOk
Ġhanging
ĠMore
Ġunt
##win
Ġproof
Ġseriously
").
Ġpoison
ĠCorn
ĠWay
##iform
Ġsched
Ġ500
Ġ1987
Ġmathem
Ġnarrow
Ġscale
ĠBang
Ġchain
Ġentertain
##aughs
Ġlatter
Ġconnection
Ġrevolution
##bably
ĠIowa
Ġtone
Ġcounter
Ġquant
Ġresources
ĠSwitzerland
Ġbrave
ĠJac
##ulture
Ġpink
Ġ183
ĠZealand
ĠNat
Ġcauses
##outs
Ġexpensive
Hurry
Ġsupported
ĠLong
Ġrealized
23
##awa
Ġguest
Ġtask
Ġscientific
ĠCharlie
24
##overy
ĠUncle
##acher
Ġspect
ĠIrish
Ġcitizens
Ġheav
##apes
Ġ90
ĠWE
ĠLike
',
Ġbat
Ġgang
##amin
ĠMY
Ġsupply
Ġrecording
ĠMcC
Ġimpl
Ġunion
Ġweapon
Ġapprox
ĠThanks
Ġemot
Ġstring
ĠCarolina
Move
##icy
Ġuniverse
Ġdetails
ĠDis
Ġcant
ĠAmy
Ġcheer
ĠColonel
Ġremembered
##inent
Ġdiss
##esc
Ġblame
Ġcosts
Ġgather
Ġlevels
):
ĠTer
does
Ġspell
ĠStep
##weet
##eaking
ĠEs
Ser
##PS
Ġ1984
ĠJohnson
##bey
Ġfamiliar
Ġincred
##book
Ġwings
ĠJan
ĠAwards
##angers
Still
196
Ġfairly
Shit
Ġtradition
ĠLight
##uls
ĠChair
Ġwondering
Ġshore
Ġsilent
Ġreck
##esides
Ġ35
ĠMic
Ġtransform
Ġlabel
##mother
Ġhidden
ĠIslam
ĠMich
Ġclasses
ĠNOT
Ġoldest
##egal
Ġgrab
Ġhyp
Ġdust
Ġpiano
##roke
Ġspin
Ġ32
him
##war
Ġseasons
Ġshirt
ĠJun
##ava
##ji
Ġmental
Ġstaying
Col
##verse
Ġate
Ġpriest
Ġsport
ĠUnder
Ġafterwards
Ġmole
ĠCommission
Ġ1979
Ġplatform
ĠHy
##elf
##urd
Ġsheep
Ġvessel
Ġthroat
ĠAT
Ġresponsibility
Ġroyal
##Î¿
Ġrac
Ġdisappoint
Ġhook
ĠValley
Ed
##omer
ĠSk
Ġvirt
According
Ġadvert
Ġcapac
##lend
Ġpin
Ġplate
##APTER
Ġbudget
Watch
very
Ġcards
##Ã±
ĠJean
Ġhello
Ġeastern
Ġsolid
Ġprincess
Ġ/
Ġlimited
Ġcousin
##gie
##CT
Ġ1981
##icted
Ġfeature
Ġfinds
Ġpresented
Ġpill
ĠLab
##ela
##worth
Ġaband
Ġtravell
Ġbreaking
Ġcabin
##etch
Up
Ġunivers
##eau
##pet
Ġwise
##OL
Ġath
Ġ1972
IT
Ġshoulder
Ġshame
ĠVal
Ġeconomy
Aye
Ġtournament
Ġ1986
Ġattacked
##uper
Ġnea
##ario
ĠOut
Ġchose
Ġrocks
22
Ġdread
Ġcolon
Sit
Ġtroub
Ġ70
Ġ<
##eding
ĠBra
##rence
Ġartists
Ġparties
Ġ--&
Ġrefused
Ġwaited
##ez
##andy
ĠKorea
Ġham
ĠAngel
##aning
Ġflu
Ġentr
Ġfan
##unched
Ġpassion
ĠProvince
##ko
Ġpoll
##aka
ĠTHIS
Ġfolks
ĠRepublican
were
Ġlat
Has
Care
##ova
##aws
##AND
Ġmedal
##rast
Ġrelax
##athy
Ġangel
Ġjustice
Open
Ġliqu
Ġstated
ĠJeff
Ġdial
##oto
Ġcheese
##ESS
Ġwire
Ġsuffered
Ġstations
##urally
Ġoccurred
ĠSol
Ġdetermined
Ġbatter
##icket
Ġbegins
Ġchallenge
ĠWales
Ġ1983
ĠRod
Ġeditor
Ġpolitics
##alm
Ġconscious
Ġdisappeared
##fortunately
ĠFootball
Ġblank
ĠWall
Ġintegr
ĠKe
Ġgeneration
##entially
Ġtelephone
Ġanti
##AUGH
Ġvariety
Ġadmit
##erk
Ġgodd
Ġdrawn
Ġcrown
##inson
##rilliant
Ġnormally
Ġfalse
ĠCommun
##enes
Ġattended
ĠTre
Ġpaint
ĠYOUR
ĠFort
Ġhappiness
Although
Ġridic
Ġ1985
Ġhelps
Ġinnocent
##cest
Ġcontinues
Under
##encies
Ġprotection
Ġ1982
Ġeleven
Ġconflict
##iece
##RB
Ġunus
Ġfurn
##omed
##iments
##isse
Ġproposed
Ġlocked
Ġlone
Sam
Ġhomes
Ġlegisl
Ġtemple
Ġdaily
Ġvent
Ġidiot
Ġexistence
##ordin
Ġarticle
##jo
Ġbite
ĠInter
##ronic
ĠEven
##ologist
Ġswitch
ĠBook
Ġcarbon
Ġrab
ĠSecond
Ġcateg
Ġhom
ĠTri
Ġdegrees
ĠUk
Ġtouched
ĠSP
##hings
100
Ġax
ĠEv
Ġbackground
Ġreferred
##ONE
Ġnurs
Ġonline
Ġclimate
Ġshadow
Ġveget
##heim
Ġfold
##ints
Ġstands
Ġvictim
Â¶
get
ĠRam
Ġequip
Ġsentence
ĠNick
Ġoperations
Sec
ĠTony
Ġrespond
Ġinhabit
Ġsole
ĠLib
Ġrare
Ġtower
ĠHave
Ġimpact
##ourse
Ġconcert
Ġaim
Ġsurg
ĠNE
ĠSenate
##lN
Ġkiller
##iac
##earch
Ġflood
Looks
##ingly
Ġpa
##eps
Early
ĠNaz
Ġtreated
Ġincreasing
ĠAS
Ġpleasant
Ġsuicide
Ġbutton
Ġvision
Ġwrit
Ġdyn
Ġunknown
Ġcriminal
Ġcommittee
Mad
##angle
Ġheight
##aki
##rical
##eek
cent
Ġcig
Ġtowns
Club
ĠFour
Ġorange
ĠIII
Ġestablish
Jesus
Peter
Ġloose
##idae
##istor
Ġregret
##uns
ĠâĢĶ
Ġassociated
Ġchart
Ġcoal
Ġobjects
Ġtied
Mother
Fl
Ġaspect
Ġvalues
##ducation
##coh
Ġsymbol
Ġterritory
##ras
##gly
ĠThree
Ġfallen
##wa
ĠBoston
Ġ36
##orpor
Ġquit
Ġhundreds
ĠForce
##geant
Turn
Ġengaged
Ġrecognized
Ġserving
Ġframe
##okes
Ġ1976
Ġhorn
Ġpreviously
Ġcute
##aron
Ġincome
Ġseek
Ġfollows
##OULD
Ġinstrument
##eneath
ĠKansas
ĠKNOW
##GE
HE
##ito
##IA
Ġhunting
Ġjuice
Ġ1978
Ġviolence
Ġneighbour
Ġconsequ
Ġboyfriend
Again
ĠLater
Ġclock
ĠGal
##ieutenant
Ġtruly
Ġhoping
Ġsacrif
Ġappreciate
Ġdiscover
Ġcott
Ġrooms
##ba
##athan
ĠUp
##uce
Ġtie
Ġsisters
Ġbenefit
##ception
ĠSur
ĠKong
ĠPortug
Ġdrove
Ġclient
Ġhandsome
Ġfeatured
Ġmyst
Ġcommission
ĠAss
Ġfancy
ĠLife
Father
##boy
##ricane
ĠJones
Ġsuffering
Ġargument
ĠNorm
ĠJohnny
Ġsenior
Ġbeer
##oof
ĠAccording
##itty
Ġmaintain
##lla
Ġpeak
ĠTay
##osphere
Ġsuppl
Ġconduct
##KING
"),
Ġaunt
##nic
##adel
##ounding
ĠJimmy
ĠGra
should
Ġordinary
five
Ġlit
ĠDor
Ġcompared
Ġclever
ĠEmperor
Ġestim
Ġshock
Paul
Ġapple
Last
Ġwo
Ġappeal
Ġdistinct
##iser
##emies
Ġrecognize
##mes
Ġborrow
500
ĠMem
##ustration
Ġsurvive
Little
Ġfate
ĠSocial
##fall
Ġmail
##asm
ĠElizabeth
Ge
##iat
##olk
ĠEastern
##asts
Ġrepeated
Ġproperly
Ġ1974
Bill
comm
Ġdescend
ĠMen
Ġbehavior
##bridge
##era
Ġ1973
##ements
Ġadministr
Ġcourage
Ġinqu
ĠHan
Ġlin
ĠCO
ĠChris
ĠMat
ĠRecords
##LA
ĠLiber
Ġlimit
Ġdeliver
##arrass
Ġrestaurant
##inging
##aire
##obb
##iy
##sect
##oln
Ġok
Ġcheap
##place
##quarters
##ERS
ĠMiddle
Ġ300
##gle
##ealous
##hole
Ġcreature
Ġearned
ĠAlan
ĠJersey
Four
Ġcontest
ĠConn
Ġ01
Ġwebsite
rd
##aya
Ġens
Ġunique
##isy
Ġ45
ĠHind
##ague
Ġexcellent
Ġapparently
##ocolate
Ġnoted
##down
##IST
Em
Ġrum
ĠBank
ĠFair
night
Ġbatt
##anging
Ġagreement
##venge
Ġindividuals
##onn
Ġequipment
##wide
##imal
##iration
ĠTime
Ġburning
ĠFestival
ĠPhilipp
##low
Ġsigns
ĠVen
Ġreports
ĠHAVE
Ġpushed
##omach
ĠMarg
Ġconsult
also
ad
##HL
Ġsaving
Ġchampion
##wich
##unting
ĠShow
Ġcircumstances
ĠCa
Ġholds
##sters
Ġalarm
Ġsomewhat
Ġpartners
##achus
##arant
Ġexact
Ġcommitted
Ġofficially
Ġgoodness
Ġconstant
Ġbrings
Ġpatients
##gs
ĠHome
Ġobvious
Ġgovernor
ĠMonday
##izations
Ġcas
Ġbuddy
Ġbastard
ĠHu
Ġlisted
ĠTy
##una
hmm
##ika
Ġsoftware
Ġrot
##atherine
##bow
##olt
Ġnuclear
##otic
ĠBarb
ĠJr
##ACK
##heart
Ġexperiment
##ading
ĠRon
ĠKenn
Ġreject
Ġintended
##ented
Their
Ġcheek
Ġimportance
##gian
##arks
Ġconference
Ġ1969
##oked
Ġexplained
ĠAlthough
Ġpretend
##Åį
ĠSteve
Ġmeal
ĠAsian
Ġadditional
Ġbabies
ĠOx
Ġmoves
Ġtrail
ĠHoly
ĠMaria
##ometimes
Ġadvance
Ġ1968
Big
##while
##ront
##etts
##stone
Ġexchange
ĠKen
Ġ1975
ĠMod
Ġdesk
Ġlaunched
##osal
Ġwoods
ĠLI
##pered
Ġslept
##Ã´
##zo
##iral
Ġeaten
ĠBlue
Ġdepends
Ġwithd
##ĠĠĠ
Ġnominated
##umph
27
##gend
Ġassistant
ĠService
Ġperman
Ġ1971
Ġroot
based
Ġweb
Ġwrest
ĠBern
Ġkeys
ĠPakistan
Ġstole
ĠDet
##addy
Ġsolve
ĠRom
Pres
##lers
Ġtracks
##BS
##aren
##retty
Ġscript
##aze
Ġ1977
26
ĠAv
Ġcommit
##evin
Ġdarkness
##otal
Ġhorrible
ĠTem
ĠNavy
Ġshel
Ġclim
ĠGeorgia
per
Ġteachers
Ġhistorical
##hess
ĠBrother
Ġclaimed
##aling
Ġgoods
Both
ĠTurk
Ġho
Ġpale
ĠTele
ĠBus
ĠAtlantic
Ġpump
ĠAndrew
Ġ1930
Ġcommonly
ĠCivil
Ġswimming
Ġneighborhood
known
##inking
Ġreaction
##Ã©e
##erer
David
##asp
Ġdescribe
Ġoverall
##ati
Ġowe
##estic
Ġatm
Ġactions
Ġclosely
ĠPacific
Ġtoil
##incoln
Ġwinner
Ġbedroom
ĠPL
ĠDef
##obe
Ġaccomp
##aura
Ġeleph
Ġdefin
Ġcompeted
##inity
ĠDar
Ġprime
Ġfriendly
##standing
Ġphotograph
##sell
Ġmyth
Ġsitu
Ġ1940
ĠBerlin
Gl
##olen
ĠHung
ĠCy
Ġallows
Ġwished
##writer
ĠBull
ĠAdm
Ġancest
##unts
,--
##unes
Ġexplos
Ġcorresp
ĠPrize
##atics
Ġsymp
Ġproved
ĠFrancisco
Ġembarrass
Ġlift
Ġbasketball
Ġspite
Ġindustrial
##achusetts
ĠVan
Ġholiday
Ġsettlement
Ġretire
Ġ1964
Saint
Ġalcoh
##mpt
##ching
Ġcock
ĠGil
##water
Ġremaining
Ġcorpor
Ġromantic
want
Ġdies
ĠBoth
##anches
Ma
##omy
Ġgotten
Ġcurious
ĠHarr
Ġsplend
Ġdram
##chestra
Ġfishing
##anes
##iley
##Ã§
Ġaside
Ġaccompl
Ġmarked
40
ĠArthur
Ġinsurance
Ġinvestigation
Fin
##ami
Ġanalysis
Ġcomposed
Ġwing
Ġconqu
##uy
##ouri
Ġridiculous
Ġfrightened
'?
##reck
Ġpuzz
##oops
Ġmerely
Ġbathroom
##burgh
Ġvalley
Ġtender
mom
ĠWITH
CHAPTER
##wing
##cles
Ġsteel
ĠNether
Ġfalls
##EM
ĠDi
##you
Ġemergency
ĠSant
Ġdevil
Ġdesper
Ġnearby
Ġgods
##iques
##ropriate
##osis
##TS
Ġgal
Ġsending
##aska
##Ã³n
Ġlonely
##UM
Ġtools
Ġnurse
âĻ«
##wick
Ġbones
ĠOnly
##gues
##ierce
ĠHea
Ġsimpl
ĠWater
Ġstronger
Geor
Ġtort
Ġnut
ĠRaj
Ġexamples
Ġmaterials
##omi
Ġsets
Ġcritical
Ġstomach
ĠUh
ĠTok
Ġprote
Ġapplication
ĠBoard
##AB
##rich
ĠInt
Ġmonster
Ġwore
Ġbeneath
Ġreward
##irmed
ĠBav
Ġdecor
Ġefforts
ĠOpen
Anything
##ogue
##otted
only
Ġcaptured
Comm
ĠUN
##unning
ĠAbout
##onsense
Ġhired
Ġpregnant
Ġjun
ĠNob
Ġacid
Ġestate
Five
ĠCAN
ĠIntern
##ruce
ĠTa
Ġours
ĠFilm
ĠBattle
Ġmethods
Ġshared
ĠGall
##ordon
Ġsweetie
over
Ġpride
Ġprotest
Ġenemies
Ġbutt
Ġairport
Shall
Ġexercise
##itors
Ġmile
Ġsurely
ĠKorean
##vant
Ġmood
ĠCub
##esp
ĠSel
Ġ1967
down
ĠLeon
Ġdump
Ġlands
ĠPen
Ġuniform
Ġsalt
Ġ33
Ġ(,
Ġattacks
Ġcopies
Ġenjoyed
Ġdefeat
Life
Ġtalent
Ġtoys
Ġshook
Ġapply
Ġliterature
ĠDirector
ĠTimes
Too
##force
Ġadopted
more
ĠBible
Ġbrilliant
##aser
##asters
Ġugly
##rav
Ġnumerous
Sim
Ġta
##bsolutely
Ġcolors
Captain
Ġsoil
every
Ġdealing
Ġinhabitants
Ġsurgery
Ġrand
Ġphr
##apping
Ġapplied
ĠBrook
ĠOffice
##onent
Ġrug
Ġoblig
Ġauthorities
--"
##agement
Ġskills
Ġproced
ĠDav
ĠOver
Ġsorts
##ifying
Ġagric
##olitan
Ġrings
ĠJon
Ġdevice
Ġorganized
Ġgained
Ġseats
Ġdistributed
Ġjoint
Ġfolk
##itable
Ġreform
Ġtheme
Ġmayor
Ġfactory
Ġburst
##ithm
Ġspo
ĠSimon
##ription
Ġdelay
28
Ġthrown
ĠRepresent
ĠDON
ĠScottish
ĠMichigan
ĠDaniel
ĠNight
Ġsam
Ġyard
ĠTommy
Ġsale
Exactly
Ġvehicle
ĠAssembly
Ġconcl
##rogen
Ġfortune
##EF
##UCK
##ppy
ĠKat
ĠAlice
Ġcomplain
Ġdetail
##iri
Boy
Ġmyster
ĠArts
Ġunusual
##ultural
Ġticket
Ġtrains
Ġcomplicated
OH
any
Ġtip
ĠAny
Ġ181
Ġtear
ĠDNA
Ġannual
ĠSon
##stance
ĠAri
Ġeffective
##ori
Ġblocks
##ructed
Ġinstant
##alo
Ġhousehold
Ġprize
ĠMassachusetts
cont
Ġconce
Ġ1945
Frank
Ġscientists
Ġdemocr
ĠAdam
Ġaid
ĠNetherlands
say
Ġincident
Ġdraft
##oster
ĠArgent
##eh
Ġburned
Ġinitial
##icing
ĠSup
ĠGer
##ateful
ĠViet
Ġbullet
##athered
Ġpity
ĠOb
##gging
ĠNet
Ġopera
Ġdisappear
ĠOlympic
Ġdoctors
##ivered
ĠBefore
maybe
01
Eng
Ġplot
Ġelev
Ġharder
Ġparish
ĠNic
Ġteen
##oti
Bring
Ġstranger
Ap
ind
##OUT
Ġobserved
ĠSarah
ĠDuke
##phia
Ġsixth
Ġelections
Ġpermission
Time
Ġbride
Ġconsists
Ġattitude
Ġsuffer
ĠWHAT
##ington
Ġhearts
Ġfuel
Ġwarning
Ġcultural
##ige
##rane
ĠBea
Ġlegend
Ġbadly
little
##owing
##umes
Ġdish
Ġpow
ĠLew
Ġunable
##rot
Ġcruel
Ġcandidate
Ġrandom
##Äĩ
Somebody
Yep
Ġhast
Ġhills
Ġpupp
ĠProt
Ġadvanced
Ġroads
General
##ollowing
Ġsubsequ
##inem
ĠEve
ĠOhio
Ġcreating
ĠBab
##engers
Ġspare
Ġstruggle
ĠBad
Ġgre
##uties
Ġwhenever
Ġnights
Im
Ġislands
Ġstress
Ġowners
Ġassume
##eness
ĠMir
ĠKn
Ġconfess
Jo
ĠRa
Ġbalance
ĠAB
ĠSC
Ġriding
Ġpointed
Ġbelongs
##aph
Ġbits
Ġangle
##cript
Ġhonour
Ġacts
Ġexplan
Ġlesson
Ġjealous
Ġidentity
Ġleads
Ġseventy
##âĻª
ĠWilliams
ĠChampionships
Ġpages
ĠLeg
##orney
##EST
looking
Whe
##itter
Ġjew
Ġvolume
##utation
three
Cong
##unte
ĠLes
Ġvisited
WHAT
##adelphia
Bar
ĠMid
##uma
Ġbuying
Ġballs
ĠRoss
ĠDanny
ĠHead
Ġarmed
##opp
Ġvia
ĠAustria
Ġcapable
Ġphoto
##isms
Ġstairs
##erent
Ġcharges
ĠBroad
##omething
##OB
Ġwaves
Ġeager
##perial
ĠWork
Ġoperating
Ġimpress
Ġyards
##ici
##cha
##apped
Ġsmooth
Ġruled
Ġdebt
ĠEnter
Ġspending
##aughters
hi
Ġcrash
ĠClass
ĠStr
Ġsquared
Ġmud
##abet
ĠHong
Ġapproximately
Ġpants
ĠNations
Ġtropical
ĠForest
Ġconver
Mart
Michael
##ilton
Ġrevealed
four
Ġwounded
ĠAlso
Ġaffected
ĠOcean
##rem
Ġmeters
Ġwand
Ġrecommend
Ġtrained
Ġinterpret
ĠBon
Ġmoral
ĠChairman
ĠUs
Ġquietly
Ġwaters
##aughing
Ġcapacity
##âĢĶ
##ervative
##ygen
ĠGi
Ġpainted
##esome
ĠKar
Ġelder
##ureau
Ġregions
ĠNews
ĠVol
Ġconclud
ĠVictoria
ĠGen
Ġintroduce
Ġcutting
##ursday
Ġwhist
Ġdespite
Ġtab
Ġexpert
Ġlaunch
Ġcooking
##ART
Ġcreation
Ġtalks
##40
Ġfart
Ġdistribution
Ġphilosophy
##ii
##kel
ĠEach
Ġstudying
Ġmurdered
Ġbone
ĠAsh
##otte
Ġvoices
Ġmarks
_.
ha
Ġshake
Ġgrey
Ġinterrupt
called
room
ĠLine
ĠFound
##onscious
Ġreference
Ġdozen
Ġglobal
sur
Ġlecture
Ġhockey
Ġchocolate
Ġ180
Ġinterests
Ġprogramme
Ġmouse
Ġaccur
MAN
Ġera
ĠRevolution
Ġguests
Ġacad
Ġfuneral
Ġhealthy
Ġlistened
Ġexciting
##aned
Ġsubs
Ġbaseball
##cus
##iture
ĠSar
Eh
##ardo
##icky
Ġdeserve
Ġreflect
Ġmunicipal
about
##anting
Ġalgor
Ġrelief
ĠTake
Ġgraduated
##ands
##aved
##aa
Ġcrap
Ġped
Ġstolen
Ġcert
Ġanswers
Ġsources
##uable
##har
Ġguarant
##UL
##othy
##leg
##ensity
##rovers
Ġ1966
Ġcrossed
ĠFR
Ġarts
ĠGolden
Ġtrem
Ġfond
Ġunp
Ġsmiled
ĠUP
Ġgray
Ġalbums
ĠALL
##raine
ĠArk
Ġcenturies
Ġgenus
##OTH
##usting
##inder
##ondisse
Ġmillions
##uild
##rete
ĠOper
##mony
##ingham
ĠBudd
ĠAlexander
ĠCross
ĠOffic
##orders
Ġgrandfather
Ġfeather
Ġheadquarters
Ġsecure
##iner
##erences
ĠFord
ĠÂ£
##Ã¦
##eper
Ġ1963
##ARD
ĠĠĠĠĠĠĠĠĠĠĠĠĠĠĠĠĠĠĠĠĠĠĠĠĠ
Ġvast
##irds
Ġfunctions
Ġdistricts
ĠHolly
Ġnuts
Ġbetray
ĠIslands
ĠPoland
ĠTownship
Ġwitch
Ġrhy
Ġshopping
ĠSanta
ĠTed
ĠBre
##OD
Ġcollea
##adesh
Te
##CA
Ġsucceeded
##IV
##icking
Ġmerch
##irus
##sen
Besides
Red
wow
Ġdude
ĠSub
Ġunb
Ġatmosphere
##utor
ĠMarsh
Jim
Six
Ġsites
Ġsquad
Ben
back
##heme
Ġracing
Ġprisoners
Ġinjury
##thony
could
##sk
##iar
Ġjumped
Ġshoulders
Ill
ĠSwedish
sm
Ġbul
Ġhi
##eline
Ġextended
##ederation
Ġentrance
Ġstir
ĠHealth
##obby
Ġfriendship
##SE
Ġstones
ĠWat
their
Ġ1965
Ġpilot
##PP
Ġbanks
ĠColumbia
ĠMissouri
Ġwidely
ĠBrazilian
Ġmirror
Ġsan
##irk
##pton
Ġcris
ĠPlease
ĠLincoln
Ġsang
Ġaffair
them
Ġinterf
Brother
##anz
Ġlion
Ġassign
Ġfactor
ĠMo
Ġfacts
ĠSa
Ġbranches
ĠAnother
Ġprovides
ĠEp
##berry
Ġfra
ĠRos
Ġ1948
Ġcorrespond
Ġthrill
ĠMeg
Ġconcer
Ġpersons
##REA
Ġtunn
Ġfans
Ġbitter
Ġglasses
Ġgrade
Ġchecked
Ġitems
Ġanger
Ġnick
ĠTam
ĠWed
Ġgrace
Ġillust
##ecess
Ġalleg
ĠInc
Ġarranged
ĠSong
Ġslide
Ġsufficient
Ġselect
Ġfigured
##eable
ĠFederal
ĠPolice
asked
##olm
##ordan
Ġurban
Ġedition
ĠOxford
Ġwound
ĠSure
Ġpoly
Ġconfused
ĠDisney
head
Ġprojects
Ġvictims
Ġexecutive
ĠWait
Ġinspect
ĠBC
##UD
ĠFe
ĠEst
Ġputs
##amps
Ġevolution
Ġdecisions
know
##azed
Ġdiscussion
Ġsurrounded
##uesday
Ġindu
Ġchildhood
Ġdistingu
Rich
##ropolitan
Ġconfidence
ĠMexican
Ġknees
Ġremove
Ġcovers
Also
ĠTaylor
##fred
Ġreviews
##akh
##uv
Ġgathered
ĠWalk
##umin
ĠDaddy
Grand
Ġplastic
Ġstarring
Ġpiss
##ipper
##ographer
##Ã¡n
Ġrib
Ġcou
Ġpractical
Ġinstruct
##chers
Ġtow
ĠFC
ĠFire
Ġinjured
Ġknocked
ĠJerry
ĠARE
Ġdemonstr
Ġescaped
ĠIra
##orne
Ġprofession
ĠNothing
Ġloyal
Ġrising
Ġnoble
Ġissued
Ġconstitution
Ġintelligence
Aw
##fle
ĠBor
ĠBall
Ġviews
##80
Ġnorthwest
Ġindependence
ĠAndy
##uled
29
##uate
Ġawards
##antry
Ġheaded
Ġsupper
##bra
##onents
Ġrush
ĠTop
##elia
Were
Ġcommunication
Ġsubjects
Ġreduced
Ġsmiling
Ġsurre
Ġdepth
##oscow
##rison
Ġterrif
Ġaffairs
Ġpossibility
Ġtries
THAT
after
##ghan
##rive
ĠPope
ĠFel
Ġmodels
;/
##atically
##ules
##case
##ulpt
ĠSupreme
Old
Ġtoy
Ġfairy
Ġcompar
Ġ34
Â°
##BI
##ierre
Without
Music
Ġsooner
Ġ+
ĠDam
Ġservant
Ġsumm
ĠCoast
Us
##ui
Ġ1920
##enly
ĠDun
Ġdifficulty
##leton
ĠSystem
Dear
Ġgranted
Ġletting
Ġcommunities
Ġbeating
Ġprepare
ĠJews
Ġing
Ġbegun
##lle
ĠRab
Ġ1956
Ġclaims
##don
Ġec
##etime
Ġbreast
ĠPhiladelphia
##erable
##iped
##tical
Ġ1962
Ġdiagn
Ġsed
Ġdrown
ĠÂ¶
##itage
ĠTell
ĠDave
ĠBrad
Ġdawn
Probably
##opher
ĠGET
Ġcharged
ĠSpec
Ġreturning
##onym
##OOD
rel
##do
Ġcollabor
Ġparliament
Char
Ġadministration
ĠRadio
##arted
##osity
195
NO
##nesday
##aus
##IG
##adies
ĠCD
Sw
Ġmoments
ĠPolish
house
##emon
Ġprovinc
Ġsecretary
LL
Ġsoup
ĠOUT
Ġ75
Ġ1958
Ġreplace
Ġillness
Ġnecessarily
Ġheavily
ĠBavaria
ĠInternet
ĠCz
those
##foot
ĠWin
##osaur
Ġdumb
##oa
Ġsust
Ġceremony
##ifer
ĠGreg
Ġbesides
Ġbon
ĠSO
##illing
Ġlung
ĠPers
##ifts
ĠOw
ĠMatthew
Aren
Ġfiction
ĠAM
ĠAlp
Pat
##bec
Ġawake
James
ĠScience
Ġashamed
Ġtorn
Ġdea
##enses
##acon
ĠNever
Ġcontem
Ġchairman
Ġastron
WE
Ġ1939
Int
Ġpup
##anges
Ġslave
##mann
Ġdefense
Ġconfirmed
Ġpoetry
Ġunlike
##ucker
Ġtap
Ġdriven
Ġcustomers
Cor
##30
Ġforb
ĠBBC
##hatt
##ienced
Ġfestival
##tery
Ġending
##itled
##iders
Ġformal
Ġseparated
ĠĠĠĠĠĠĠĠĠĠĠĠĠĠĠĠĠĠĠĠĠĠĠĠĠĠĠĠĠĠĠĠĠ
ĠWalter
class
##com
##Ã¢
Ġfox
ĠPart
Ġsav
Ġpersonally
Ġsteam
Ġtheatre
Ġcontext
ĠGuard
Ġpersu
Ġoutl
Ġpresidential
##**
ĠEducation
##intend
Ġdefined
Ġfoolish
SH
##box
Ġstrict
Ġmassive
Ġcats
##rix
##agger
##izz
Ġshortly
Ġtreasure
ĠPublic
Ġ182
Ġdeck
us
Ġalcohol
##hh
Ġnest
Ġcops
##ratulations
##KS
##allel
Ġregist
##rows
##uct
##LES
##urches
ĠWas
ĠWinter
Ġappropriate
Ġ1961
Ġ1947
hello
##Ã£
Ġgy
##outheast
ĠSusan
Ġsplendid
Ġdaughters
Ġsympt
Ġsolo
Ġmachines
##rons
ĠAk
##ugg
Forget
ĠKentucky
ĠNO
Ġ1957
Ġalternative
##hus
##inced
Ġsorrow
Ġbass
##bing
##rene
Ġjournalist
Ġexclaimed
##fish
Ġpor
Ġchamber
ĠAtt
Ġassociation
ĠJess
##everal
Ġoccas
great
##TA
ĠBow
Ġflash
ĠTeam
##EO
##eare
Ġboats
Ġextent
Ġnic
Ġdeeply
Alex
Mon
##mo
Ġleaf
Ġminds
Ġideal
Ġspiritual
Ġopposed
Ġvotes
ĠMayor
Ġyo
Ġlover
Mmm
ĠWilson
Ant
Ġpoem
Ġiniti
Ġlifted
ĠKhan
other
Ġfasc
Ġgrateful
Ġrivers
Ġ179
ĠConstitution
Ġscheme
Ġcolumn
31
##inton
Ġ400
Ġtickets
ĠAD
ĠPict
ĠGro
Ġsock
Ġpron
Ġimplement
Rec
Ġmama
Ġpitch
Ġwondered
Ġexisting
/&
Rep
##hire
Ġepisodes
Ġreckon
Until
Ġdipl
##orted
Ġimpression
Ġ1944
Ġprinciple
##ubble
Ġclubs
Ġengineer
Ġidentified
##nesota
Ġinspired
##bell
ĠCard
Ġuser
ĠCorpor
Ġoxygen
Ġsnake
##ippi
Ġlap
##iva
##ersonal
work
Ġcombined
Ġpir
Ġpul
ĠStone
Ġdating
Ġworn
Ġcomputers
Ġneut
Ġliterally
Ġinner
Ġstim
Ġinvented
##EP
Ġencoura
Ġjury
##iki
##AKE
Ġgor
Ġshift
ĠEric
Cont
ĠSav
Ġalph
##MS
Ġcontrovers
Ġthrowing
Ġcrisis
Ġvel
ĠâĻ«
Ġabsor
Ġthir
Ġenorm
Ġimages
Ġvari
Ġprisoner
##mouth
Ġdates
Ġpassage
ĠAirport
Ġcombination
ĠTokyo
Want
Check
Ġanxious
ĠLieutenant
Ġscholars
##rim
ĠMoscow
Ġ42
ĠStation
Ġregional
##erick
##via
Ġevident
Ġstraw
Ġengineering
Happy
tell
##western
##greg
ĠReally
ĠJustice
Ġconvinced
ALL
Ġhurts
ĠHans
Ġincredible
Pre
Ġrear
Ġshower
Ġpositions
Ġstops
Jul
ĠHay
Ġnarr
Ġreply
Black
Har
Long
Ġcrop
ĠPR
Ġattached
Ġorganizations
Ġtests
Ġvideos
Ġnaturally
Ġinsect
Ġprincipal
Ġcooper
Ġhm
##atoes
ĠJos
Ġrescue
Ġviolent
Ġ37
Ġhorror
ĠTechn
ĠChap
Ġsculpt
Ġpersonality
Ġtransferred
Ġadministrative
Ġnaked
ĠSher
um
Ġtransm
Ġmusician
Ġgrav
Ġoccupied
Ġkilomet
##atures
Ġrice
Ġsyn
Ġnort
ĠBridge
Ġstable
Ġ1952
ĠSteven
Ġprecise
Ġmystery
Ġunha
##---
##ques
Rel
##ti
##usive
Ġ1949
Ġstrip
Ġacquired
Ġsatisfied
Ġfrequently
Its
Ġ1942
Talk
##specially
Ġpie
Ġsevere
Ġgreatly
##prise
Ġhunt
Ġpicking
music
ĠBrian
ĠRoger
Ġbeings
ĠPop
Ġrope
Ġprosec
Ġbowl
Ġpunishment
##rum
##alling
##abad
Ġbold
ĠIraq
ĠSn
ĠWild
Ġprecious
Ġoperated
Ġillegal
Ġhoped
##iah
ĠCastle
##aga
##ordinary
ĠĠĠĠĠĠĠĠĠĠĠĠĠ
William
Son
des
Ġpour
Ġinher
ĠMot
Ġkinda
ĠMinnesota
Aha
Par
ĠFle
##agers
Ġmonkey
##irit
Ġdiscip
Ġpurple
Ġinitially
##uj
##emet
Ġvisual
ĠBal
ĠUt
Ġproperties
Poor
Ġtechnical
##FL
Ġtank
##ertainly
Ġtypical
##iÄĩ
Ġmere
##andal
Ġbike
##sex
Ġprepar
Ġarrive
##aith
##oons
##lesh
ĠAli
ĠSeries
Foot
Robert
ÂĴ
##icit
##ifferent
##oration
##acked
ĠBetty
ĠHospital
Ġarticles
Ġregarded
35
##hoot
ĠCentre
ĠMargaret
Ġmal
Ġdownstairs
Ġerror
Ġstrate
Ġpasses
Ġtesting
Ġadventure
##otes
ĠAustrian
Ġcontrolled
##nold
Ġlately
##rait
Ġvice
##akers
Charl
Ġstrategy
##lie
##acles
Ġswall
Ġadmitted
ĠLouisiana
Ġfever
Ġrestrict
Ten
Ġcausing
Ġrode
Each
Ġbond
Ġguide
##velopment
ĠGreece
Ġexplanation
Ġwicked
Ġment
ĠEle
ĠNa
Ġ1954
Ġofficials
##mont
##jan
##pected
##lah
Ġrevenge
##stal
Ġnowhere
##alais
play
comp
##ungle
Ġ38
Ġvaluable
Ġwishes
ĠOt
Ġasks
Ġwins
ĠPas
Ġ1941
Ġdigital
Ġloan
Ġdescription
Ġbacter
Ġhug
##uster
Ġexpecting
Ġimmig
##uther
Ġages
Stand
Mark
Ġtool
##onto
Ġpromoted
##unno
King
Work
##itched
Ġdiet
Ġintention
Daddy
##ania
Ġhes
Ġequation
Ġ1959
ĠIndians
##ddie
##END
##lly
ĠNap
Ġdece
Ġpermanent
Ġphen
International
Run
##hedral
ĠCop
ĠBart
Ġworship
Ġdiscovery
Ġcore
Ġreign
ĠSpring
Ġannoy
##neath
ĠThursday
Ġpulling
##usal
Ġmemories
Ġnations
Ġconstitu
wait
##dney
##ype
##pir
Ġfulf
Ġcreatures
ĠCL
ĠLo
Ġthrone
Ġdisturb
Ġvillages
##resents
turn
##met
Ġacted
long
##ester
ĠSab
Ġrapidly
Ġlt
##chi
Ġportion
Ġdefinition
##ds
##aman
ĠLi
ĠRus
Ġ1946
Ġcampus
Ġgarage
ĠDown
Ġraces
ĠColor
Honey
Ġneat
ĠKy
Ġbron
Ġdeveloping
Ġabandoned
##icians
Ġeld
ĠForm
Ġexha
Ġaccused
].
Ġprayer
Ġholes
min
Ġhousing
Ġessentially
Ġresistance
ĠFoundation
GR
##fit
Ġsurvey
ĠBah
ĠJUST
##ensions
Ġphotos
Ġintellect
ĠWhe
Ann
##iography
Ġbang
Ġfed
Ġnap
ĠMississ
Ġthorough
ĠHit
Ġsheet
Ġcommander
Ġinternal
ĠCur
Ġarchitecture
ĠCzech
##60
Ġdecre
Ġassault
##cules
Ġanaly
##aks
Show
wanna
##aro
##rose
ĠLabour
Ġbelt
Ġbreathing
##vi
Ġvolunte
ĠHERE
##III
Ġfaint
Ġadapt
ĠJacob
ĠStephen
Ġliquid
##bar
ĠMuslim
Cle
Ġouter
Ow
col
##nel
##orf
##chief
Ġrecon
Ġreputation
Total
##gers
ĠSid
Ġeighteen
Ġdomestic
Ġalongside
##mphas
Ġcomposer
ĠTest
##olas
Ġdisg
##INE
Ġtast
Ġooh
Ġrefers
ĠOrder
##zes
##agle
Ġskill
##scape
Ġphrase
Ġstroke
##akesp
Ġlessons
Ġtiss
Ġbump
arr
.[
rep
Ġdragon
Ġmaximum
##rior
Ġabroad
Ġcycle
Goodbye
Ġprotected
Ġstepped
Ġkissed
##glas
George
ĠEnd
Ġversions
##==
ĠGame
##rett
##ardens
Ġbags
##ragon
Better
##Ã£o
##Å¡
ĠVill
Ġflows
ĠMarie
Ġexped
ĠIndiana
ĠLewis
ĠBat
Ġwhoa
Ġbrush
Ġpipe
ĠCON
##OUGH
ĠTurkey
Ġcraw
ĠRoy
Com
Lou
Ġwra
ĠHoll
Ġsubt
Ġdedicated
Ġfence
Ġnonsense
Ġpassengers
Ġleadership
Ġcoc
Ġmessages
Ġabsolute
##teenth
Ġmobile
Ġestimated
ĠAle
Ġscarce
Down
Ġelimin
ĠConference
.--
##BA
ĠSoph
##ternal
Ġbenefits
.âĢĻ
Ġproport
##ibilities
Ġobst
Ġreduce
Ġstores
ĠHonor
##lar
ĠRIGHT
Ġgenius
Ġboots
##IND
ĠPot
Ġopposition
Such
##adows
Ġnotable
ĠPost
##ubs
im
ĠÎ
Ġisol
Ġdelivered
Ġrepeat
Ġelephant
Ġnickn
Ġfiles
Ġbreathe
45
##vard
##olis
ĠChannel
Ġgrandmother
Ġtoilet
32
##rin
Ġfacilities
##theless
##bage
Ġoption
ĠTuesday
Ġcave
ĠOur
Ġwooden
##rong
Ġappearances
Ġzone
ĠVery
Ġexperienced
Ġwhispered
##note
ĠTurn
Ġlasted
Ġconfident
under
ĠRh
Ġupd
Ġathlet
Comp
##cho
ĠLau
Ġrural
##anchester
##roc
Ġappointment
Ġske
Ġdat
Ġrelation
Ġsought
Ġcritics
##emetery
Must
Ob
##WE
Ġ150
Ġ||
Ġhoriz
ĠHeaven
##akespeare
Hen
##VD
Ġengin
Ġstab
Ġentry
Ġsemi
these
Ġfounder
Ġyoungest
Ġdocuments
##||||
IN
Ġhits
ĠBul
Ġlargely
Ġidentify
Ġelectricity
ĠHell
take
ĠBrand
Ġsixteen
Find
##utiful
ĠHard
ĠNi
Ġcarriage
Ġfleet
Ġwheels
Ġsurvived
Ġsequence
Absolutely
ĠIce
ĠHal
Ġwanting
Ġclin
##tainment
##endment
Ġrepresents
Ġbehavi
Ġgalax
##uter
##oli
Ġoffers
Ġpurposes
Ġrelatively
Ġexists
Ġsingles
Norm
Ġrein
Ġtrap
Ġutter
None
##rome
Ġshoe
ĠKennedy
Ġbark
ĠVice
Ġheading
##ggie
Ġfellows
ĠTai
ĠJay
Ġusers
Ġindic
inc
ĠLIKE
Ġinsult
Ġengines
Ġenvironmental
Ġdepos
Ġ1955
ĠBeth
Ġdetect
##ribly
Ġfab
##ogs
Step
Ġobtained
Ġsession
Ġmig
##ogy
Ġlanded
erm
Ġlatest
bet
made
Ġpossession
##lon
##oogle
Ġsouthwest
Doesn
ĠCab
Ġmargin
Ġthreatened
Phil
##adi
##amma
Laughter
Ġcattle
Ġamongst
Ġspons
Ġworldwide
##hips
Ġinvolve
Ġsna
ĠRel
##fly
Ġtooth
Ġslipped
Ġconfirm
Ġtypically
Ġdivorce
##irts
##rying
Ġcrimes
Ġexpressed
Ġexperiences
ĠRegion
ĠPlan
ĠMu
ĠRailway
Ġholy
ĠHor
ĠInf
Ġfourteen
Ġnegoti
ĠTour
Ġrabbit
ey
##itals
Doctor
Ġdollar
Ġclouds
Ġacademic
Ġreprodu
Quick
ĠPy
##orious
ĠSara
Ġagency
##ogan
##icity
Ġslip
Ġfoss
Ġfaced
ĠRo
Ġinches
Ġruined
Ġfake
ĠBalt
Ġexplore
ĠHas
Ġcontrast
ĠAnton
ĠWednesday
##Ä±
ĠGive
##umbling
Ġruin
Ġ1943
Ġsweetheart
Ġ65
##ATH
ĠGrant
Ġspirits
Ġtale
Ġreaching
##osl
##70
Ġfo
Ġven
##ancer
ĠArm
Ġequals
Ġcapture
Death
##nda
##itated
Ġselection
ĠExp
ĠPrem
##pent
ĠDer
ĠGermans
res
##iel
##herry
Ġfocused
Ġconducted
Ġmeetings
Ġdelicious
##EAH
##lock
ĠKa
Ġdistant
##shit
Ġawesome
ĠMiller
Ġtent
Ġmath
##uting
Ġfactors
##ienna
##lahoma
Ġhated
ĠJam
ĠStop
Ġdifferences
Ġrival
Ġ48
Hang
##die
Ġserves
##annah
Ġuseless
##EAD
dis
gl
Ġloving
ĠTs
##endar
Ġmerged
Ġtoast
ĠBeach
ĠMississippi
Ġconven
ĠCommon
##uki
ĠAR
Ġsup
Ġmighty
Ġdebate
Ġfantastic
Ġdow
ĠRyan
Ġcanton
Career
##bach
##romise
Ġtennis
Ġemp
##endy
Ġ1953
Ġannounce
Ġinstitution
Ġemphas
##otta
Ġphase
Ġbands
";
ĠClark
DO
Ġtherap
Ġpardon
ĠAlbert
Sch
Ġbent
ĠHockey
ĠFree
##iko
Ask
Ġprimarily
Tomorrow
Geography
ĠRepresentatives
Ġbot
Ġpushing
ĠBh
ĠBand
Ġpartly
Ġfrag
Ġinch
Ġslaves
Pol
Ġwoke
Ġbend
##cknow
##umble
Ġproviding
##organ
ĠSix
Ġsoap
ĠNord
Ġwherever
Ġsubm
Lord
ĠWel
Ġrefuse
Ġbarrel
##oody
##iveness
tw
##itement
Ġbid
Ġflesh
ĠJason
Ġpresents
Dec
Super
##oust
ĠIV
Ġstadium
ĠWeb
##udge
Ġaccounts
Ġrolled
Ġmamm
ĠWy
Mary
##idering
Ġprofit
Ġnewspapers
LAUGH
##ieur
Ġunderneath
Ġincorpor
Ġencourage
Ġchapter
Sub
Ġdrinks
Ġcookie
Ġsacred
##imental
ĠKevin
##izza
Ġfrank
Ġinteract
##onde
Ġgrant
form
ĠBishop
##bie
ĠAL
Ġblew
Had
##bre
##rack
Ġdamaged
Ġunhappy
Ġbeast
Ġreasonable
Yet
##real
Ġpenal
##isk
Ġchop
Ġ41
Ġreceiving
mommy
Ġresidents
##eanwhile
ĠVietnam
##TING
##olves
ĠBaby
##olve
Ġsurrounding
been
Ġmovements
ĠPoint
Ġfuckin
ĠFrancis
##orage
##arin
Ġinput
ĠDie
Ġassess
ĠHollywood
Ġwreck
ĠElect
Ġtempt
Ġparticipated
Ġpaintings
Ġmysterious
Ġduties
ĠTen
Ġchalleng
Ġinstruments
Illustration
Ġcricket
Ġstrateg
##shine
##inction
âĢĺ
part
##ashi
ĠSydney
Ġ1938
Congratulations
##CO
##ansion
ĠHistory
first
Ġconclusion
Ġenormous
##part
##LING
Ġoverl
ĠBarry
ĠTurkish
Ġretirement
Ġtunnel
Ġsymptoms
Ġpip
Ġdisaster
Ġdecent
Ġformat
Ġroots
ĠCir
Ġstandards
Ġprobability
Ġrequires
Ġstaring
such
##lause
Ġunex
Ġcares
Ġboxes
Ġadults
##zing
Ġvon
Ġscare
Ġphenomen
##pher
Ġknee
Ġclassic
before
##apore
##INK
##ORE
ĠPeace
Ġwarn
Da
Hon
##ridge
Ġaer
Ġgreet
##utt
Ġ39
Ġkidna
ĠPhilip
Ġimmediate
Ġextraordinary
Ġdreadful
##rected
ĠJordan
ĠEth
Ġintent
##onsieur
ĠWANT
Ġundert
Ġgosh
Ġscenes
ST
Ġjudgment
Ġemotional
Ġsacrifice
Ġinstinct
Ġwinds
##arc
ĠOnce
Ġdisag
Ġassigned
ĠCarter
##).
##acement
ĠMoon
Ġcontained
Ġrolling
Calais
Later
ĠSometimes
Ġseed
âĢİ
##ocated
Ġpec
Ġtaxes
Ġlicense
ĠOklahoma
Ġalgorithm
Ġeval
60
Men
Ġdign
##ovie
Ġremote
##hesis
##iversary
Ġadding
##CC
##orous
ĠWOR
way
Ġsample
##inds
Ġincl
##lessly
Ġapologize
Ġkitt
ĠBud
Ġune
Ġairpl
##uits
Ġcoordin
Ġopens
##ologists
Ġvisitors
Ġwriters
ĠAff
##ighed
Ġcomic
##asha
Ġstrongly
really
ĠCreek
Ġlanding
Ġtitles
Ġdetermine
Aah
##abel
Ġ1934
six
##idel
ĠChuck
##onsin
Ġjoining
ĠDavis
34
Ġoffering
Ġstructures
##bourne
Ġtub
##ashes
ĠSU
Ġsmoking
Ġmedium
##keeper
ĠAvenue
Ġ64
Ġconstantly
Ġparallel
Ġcod
ĠSpecial
##igen
Ġresear
Ġetern
Ġaston
Ġlied
Ġservants
Ġbeaten
##esar
Ġcann
Ġagents
Ġprices
Ġinvestment
ĠPhilippines
sec
Ġintense
##egas
);
Ġbay
ĠPic
##thm
Ġtwin
Ġassass
Ġreturns
door
##master
##OY
##VID
Ġtheore
Ġwolf
Ġmask
ĠTit
Ġhistoric
Ġscreaming
##ondissement
ĠBase
Ġ1951
Ġcelebrate
ĠMm
Ġsector
"...
Ġdepending
ĠUSA
##uddenly
Ġinstructions
again
##istol
ĠMorgan
Ġachieved
ĠHug
Ġnewly
ĠColorado
ĠRoll
Ġanimated
##isconsin
ĠNetwork
ĠBurn
Ġargue
ĠMaybe
Ġstarred
Ġpredict
Ġfrequency
##formation
Ġarrival
##bits
##pective
ĠTenn
Ġgoin
Ġchurches
Ġmidnight
Footnote
Sl
##allas
ĠField
Ġtrunk
##geon
ĠGOT
ĠOtt
Trans
ĠTheatre
Ġrecover
##encer
##uese
Ġdivide
Ġ1936
##erg
##gger
Ġswing
Ġequival
##rell
##odge
Ġcurtain
Always
Ġwrites
Ġclassical
Ġseventh
san
Ġlaughter
Ġfootballer
ĠMoo
ĠKr
ĠStory
Ġbarely
car
Ġdirt
Ġitem
ĠGordon
Ġ1933
Ġrailroad
Twenty
lea
##lets
##elson
Ġfacing
##OOK
Sy
Ġwashing
ĠHuman
Ġcounties
Ġshouted
ĠMP
ĠHIM
ĠWars
Ġcourts
Ġenthus
Ġproducing
Ġprominent
Ġpref
Ġclothing
ĠSenator
##ubbles
che
ĠCape
##ntario
Ġstrings
##anguage
Art
Ġexception
Ġearliest
Ġaltogether
rec
Ġcollected
ĠCorps
36
##vor
##oyd
ĠSA
ĠMaine
ĠWolf
Ġtribe
Ġimproved
33
ĠSay
##asses
Ġapproved
##essee
Ġmob
##agne
ĠAnthony
Ġdrift
ĠPalace
Ġdismiss
even
Ġalien
Ġemployed
Ġroughly
Ġjacket
Ġwis
##ARS
ĠAfghan
Ġsoftly
ĠIndepend
ĠAnna
Ġallowing
Ġattempted
Second
West
Uncle
ĠReddy
Ġregarding
Ġpy
##ags
Ġgrows
Unless
Ġemployees
ĠDeath
##orters
##inks
##encing
ĠCorporation
##gon
Ġairl
##uration
<mask>
