{
  "version": "1.0",
  "truncation": null,
  "padding": null,
  "added_tokens": [
    {
      "id": 0,
      "content": "<pad>",
      "single_word": false,
      "lstrip": false,
      "rstrip": false,
      "normalized": false,
      "special": true
    },
    {
      "id": 1,
      "content": "<s>",
      "single_word": false,
      "lstrip": false,
      "rstrip": false,
      "normalized": false,
      "special": true
    },
    {
      "id": 2,
      "content": "</s>",
      "single_word": false,
      "lstrip": false,
      "rstrip": false,
      "normalized": false,
      "special": true
    },
    {
      "id": 3,
      "content": "<unk>",
      "single_word": false,
      "lstrip": false,
      "rstrip": false,
      "normalized": false,
      "special": true
    },
    {
      "id": 2999,
      "content": "<mask>",
      "single_word": false,
      "lstrip": true,
      "rstrip": false,
      "normalized": false,
      "special": true
    }

  ],
  "normalizer": null,
  "pre_tokenizer": {
    "type": "ByteLevel",
    "add_prefix_space": false,
    "trim_offsets": true,
    "use_regex": true
  },
  "post_processor": {
    "type": "RobertaProcessing",
    "sep": [
      "</s>",
      2
    ],
    "cls": [
      "<s>",
      1
    ],
    "trim_offsets": true,
    "add_prefix_space": false
  },
  "decoder": {
    "type": "ByteLevel",
    "add_prefix_space": true,
    "trim_offsets": true,
    "use_regex": true
  },
  "model": {
    "type": "BPE",
    "dropout": null,
    "unk_token": null,
    "continuing_subword_prefix": null,
    "end_of_word_suffix": null,
    "fuse_unk": false,
    "byte_fallback": false,
    "ignore_merges": false,
    "vocab": {
      "<pad>": 0,
      "<s>": 1,
      "</s>": 2,
      "<unk>": 3,
      "!": 4,
      "\"": 5,
      "#": 6,
      "$": 7,
      "%": 8,
      "&": 9,
      "'": 10,
      "(": 11,
      ")": 12,
      "*": 13,
      "+": 14,
      ",": 15,
      "-": 16,
      ".": 17,
      "/": 18,
      "0": 19,
      "1": 20,
      "2": 21,
      "3": 22,
      "4": 23,
      "5": 24,
      "6": 25,
      "7": 26,
      "8": 27,
      "9": 28,
      ":": 29,
      ";": 30,
      "<": 31,
      "=": 32,
      ">": 33,
      "?": 34,
      "@": 35,
      "A": 36,
      "B": 37,
      "C": 38,
      "D": 39,
      "E": 40,
      "F": 41,
      "G": 42,
      "H": 43,
      "I": 44,
      "J": 45,
      "K": 46,
      "L": 47,
      "M": 48,
      "N": 49,
      "O": 50,
      "P": 51,
      "Q": 52,
      "R": 53,
      "S": 54,
      "T": 55,
      "U": 56,
      "V": 57,
      "W": 58,
      "X": 59,
      "Y": 60,
      "Z": 61,
      "[": 62,
      "\\": 63,
      "]": 64,
      "^": 65,
      "_": 66,
      "`": 67,
      "a": 68,
      "b": 69,
      "c": 70,
      "d": 71,
      "e": 72,
      "f": 73,
      "g": 74,
      "h": 75,
      "i": 76,
      "j": 77,
      "k": 78,
      "l": 79,
      "m": 80,
      "n": 81,
      "o": 82,
      "p": 83,
      "q": 84,
      "r": 85,
      "s": 86,
      "t": 87,
      "u": 88,
      "v": 89,
      "w": 90,
      "x": 91,
      "y": 92,
      "z": 93,
      "{": 94,
      "|": 95,
      "}": 96,
      "~": 97,
      "¡": 98,
      "¢": 99,
      "£": 100,
      "¤": 101,
      "¥": 102,
      "¦": 103,
      "§": 104,
      "¨": 105,
      "©": 106,
      "ª": 107,
      "«": 108,
      "¬": 109,
      "®": 110,
      "¯": 111,
      "°": 112,
      "±": 113,
      "²": 114,
      "³": 115,
      "´": 116,
      "µ": 117,
      "¶": 118,
      "·": 119,
      "¸": 120,
      "¹": 121,
      "º": 122,
      "»": 123,
      "¼": 124,
      "½": 125,
      "¾": 126,
      "¿": 127,
      "Â": 128,
      "Ã": 129,
      "Ä": 130,
      "Å": 131,
      "Æ": 132,
      "Ç": 133,
      "È": 134,
      "É": 135,
      "Ê": 136,
      "Ë": 137,
      "Ì": 138,
      "Í": 139,
      "Î": 140,
      "Ï": 141,
      "Ð": 142,
      "Ñ": 143,
      "Ò": 144,
      "Ó": 145,
      "Ô": 146,
      "Õ": 147,
      "Ö": 148,
      "×": 149,
      "Ø": 150,
      "Ù": 151,
      "Ú": 152,
      "Û": 153,
      "Ü": 154,
      "Ý": 155,
      "Þ": 156,
      "à": 157,
      "á": 158,
      "â": 159,
      "ã": 160,
      "ä": 161,
      "å": 162,
      "æ": 163,
      "ç": 164,
      "è": 165,
      "é": 166,
      "ê": 167,
      "ë": 168,
      "ì": 169,
      "í": 170,
      "î": 171,
      "ï": 172,
      "ð": 173,
      "ĉ": 174,
      "Č": 175,
      "Ġ": 176,
      "ġ": 177,
      "Ģ": 178,
      "ģ": 179,
      "Ĥ": 180,
      "ĥ": 181,
      "Ħ": 182,
      "ħ": 183,
      "Ĩ": 184,
      "ĩ": 185,
      "Ī": 186,
      "ī": 187,
      "Ĭ": 188,
      "ĭ": 189,
      "Į": 190,
      "į": 191,
      "İ": 192,
      "ı": 193,
      "Ĳ": 194,
      "ĳ": 195,
      "Ĵ": 196,
      "ĵ": 197,
      "Ķ": 198,
      "ķ": 199,
      "ĸ": 200,
      "Ĺ": 201,
      "ĺ": 202,
      "Ļ": 203,
      "ļ": 204,
      "Ľ": 205,
      "ľ": 206,
      "Ŀ": 207,
      "ŀ": 208,
      "Ł": 209,
      "ł": 210,
      "Ń": 211,
      "Ġt": 212,
      "he": 213,
      "Ġa": 214,
      "in": 215,
      "Ġthe": 216,
      "re": 217,
      "Ġw": 218,
      "ou": 219,
      "Ġs": 220,
      "on": 221,
      "er": 222,
      "ha": 223,
      "nd": 224,
      "is": 225,
      "it": 226,
      "Ġb": 227,
      "Ġo": 228,
      "Ġc": 229,
      "Ġm": 230,
      "Ġf": 231,
      "ing": 232,
      "or": 233,
      "ed": 234,
      "ll": 235,
      "an": 236,
      "Ġd": 237,
      "en": 238,
      "Ġto": 239,
      "es": 240,
      "Ġp": 241,
      "Ġy": 242,
      "Ġof": 243,
      "ar": 244,
      "Ġin": 245,
      "at": 246,
      "Ġyou": 247,
      "Ġand": 248,
      "Ġl": 249,
      "hat": 250,
      "as": 251,
      "Ġg": 252,
      "om": 253,
      "Ġn": 254,
      "ĠI": 255,
      "ic": 256,
      "ow": 257,
      "ve": 258,
      "le": 259,
      "ot": 260,
      "al": 261,
      "Ġh": 262,
      "Ġhe": 263,
      "et": 264,
      "us": 265,
      "Ġha": 266,
      "'s": 267,
      "ay": 268,
      "Ġth": 269,
      "Ġit": 270,
      "Ġbe": 271,
      "Ġis": 272,
      "Ġthat": 273,
      "Ġon": 274,
      "ion": 275,
      "id": 276,
      "Ġe": 277,
      "gh": 278,
      "ld": 279,
      "ent": 280,
      "Ġre": 281,
      "Ġwas": 282,
      "ut": 283,
      "im": 284,
      "ac": 285,
      "Ġwe": 286,
      "ver": 287,
      "am": 288,
      "The": 289,
      "Ġfor": 290,
      "ĠS": 291,
      "ly": 292,
      "..": 293,
      "st": 294,
      "ri": 295,
      "ro": 296,
      "ad": 297,
      "se": 298,
      "ir": 299,
      "ke": 300,
      "Ġst": 301,
      "Ġ.": 302,
      "oo": 303,
      "'t": 304,
      "ght": 305,
      "ĠA": 306,
      "out": 307,
      "ĠC": 308,
      "ith": 309,
      "Ġme": 310,
      "ĠM": 311,
      "Ġk": 312,
      "Ġu": 313,
      "all": 314,
      "Ġan": 315,
      "Ġwith": 316,
      "ur": 317,
      "Ġdo": 318,
      "Ġas": 319,
      "ec": 320,
      "her": 321,
      "ill": 322,
      "ter": 323,
      "if": 324,
      "ĠĠ": 325,
      "ĠH": 326,
      "Ġwh": 327,
      "ch": 328,
      "ome": 329,
      "ce": 330,
      "Ġ1": 331,
      "ĠB": 332,
      "Ġare": 333,
      "il": 334,
      "Ġhave": 335,
      "Ġnot": 336,
      "Ġat": 337,
      "and": 338,
      "Ġthis": 339,
      "ould": 340,
      "ust": 341,
      "Ġse": 342,
      "Ġgo": 343,
      "ant": 344,
      "ĠT": 345,
      "You": 346,
      "Ġli": 347,
      "ation": 348,
      "Ġkn": 349,
      "op": 350,
      "ĠP": 351,
      "ea": 352,
      "ain": 353,
      "un": 354,
      "ĠW": 355,
      "ge": 356,
      "ol": 357,
      "th": 358,
      "ell": 359,
      "ul": 360,
      "rom": 361,
      "Ġhis": 362,
      "Ġ,": 363,
      "ore": 364,
      "Ġknow": 365,
      "Ġ\"": 366,
      "Ġj": 367,
      "Ġr": 368,
      "...": 369,
      "ĠD": 370,
      "our": 371,
      "Ġne": 372,
      "pp": 373,
      "ĠG": 374,
      "ct": 375,
      "el": 376,
      "Ġcan": 377,
      "um": 378,
      "Ġ?": 379,
      "ist": 380,
      "Ġso": 381,
      "Ġyour": 382,
      "Ġ2": 383,
      "Ġall": 384,
      "Ġthey": 385,
      "em": 386,
      "est": 387,
      "Ġmy": 388,
      "Ġal": 389,
      "ĠThe": 390,
      "ĠL": 391,
      "ĠR": 392,
      "Ġab": 393,
      "art": 394,
      "ers": 395,
      "ĠF": 396,
      "Ġby": 397,
      "Ġfrom": 398,
      "ess": 399,
      "Ġwhat": 400,
      "ĠN": 401,
      "os": 402,
      "Ġsh": 403,
      "ab": 404,
      "Ġher": 405,
      "nt": 406,
      "Ġor": 407,
      "Ġone": 408,
      "Ġwhe": 409,
      "Ġcon": 410,
      "ie": 411,
      "ĠJ": 412,
      "ight": 413,
      "ig": 414,
      "Ġup": 415,
      "one": 416,
      "red": 417,
      "Ġthere": 418,
      "han": 419,
      "'re": 420,
      "Ġhad": 421,
      "ally": 422,
      "qu": 423,
      "Ġsu": 424,
      "âĢ": 425,
      "ry": 426,
      "Ġcom": 427,
      "ra": 428,
      "Ġout": 429,
      "Ġbut": 430,
      "ack": 431,
      "Ġhim": 432,
      "Ġwor": 433,
      "ood": 434,
      "ate": 435,
      "ook": 436,
      "very": 437,
      "Ġpl": 438,
      "res": 439,
      "Ġde": 440,
      "ive": 441,
      "Ġlike": 442,
      "Ġ(": 443,
      "Ġus": 444,
      "ake": 445,
      "Ġshe": 446,
      "'m": 447,
      "od": 448,
      "ame": 449,
      "ong": 450,
      "ĠE": 451,
      "ink": 452,
      "Ġpro": 453,
      "Ġsa": 454,
      "It": 455,
      "Ġ19": 456,
      "Ġabout": 457,
      "Ġget": 458,
      "ĠO": 459,
      "Ġv": 460,
      "Ġex": 461,
      "ind": 462,
      "Ġwere": 463,
      "ast": 464,
      "ound": 465,
      "ort": 466,
      "ard": 467,
      "Ġdon": 468,
      "ck": 469,
      "ity": 470,
      "Ġjust": 471,
      "And": 472,
      "right": 473,
      "ber": 474,
      "Ġsp": 475,
      "ear": 476,
      "ich": 477,
      "He": 478,
      "Ġ20": 479,
      "ies": 480,
      "Ġdid": 481,
      "ect": 482,
      "Ġwho": 483,
      "Ġhere": 484,
      "ak": 485,
      "ep": 486,
      "Ġno": 487,
      "eah": 488,
      "ap": 489,
      "ime": 490,
      "Ġthem": 491,
      "Ġwant": 492,
      "ine": 493,
      "'ll": 494,
      "Ġman": 495,
      "ud": 496,
      "Ġif": 497,
      "Ġwould": 498,
      "Ġthink": 499,
      "Ġ'": 500,
      "ous": 501,
      "ven": 502,
      "Ġwill": 503,
      "What": 504,
      "Ġsome": 505,
      "hing": 506,
      "own": 507,
      "ag": 508,
      "Ġint": 509,
      "ĠK": 510,
      "ost": 511,
      "ice": 512,
      "itt": 513,
      "Ġany": 514,
      "ment": 515,
      "ĠĠĠĠ": 516,
      "Ġright": 517,
      "ide": 518,
      "Ġhas": 519,
      "hi": 520,
      "ough": 521,
      "Ġgot": 522,
      "use": 523,
      "ĠHe": 524,
      "Ġsee": 525,
      "ther": 526,
      "Ġtr": 527,
      "Ġwhich": 528,
      "Ġwhen": 529,
      "ure": 530,
      "Ġar": 531,
      "Ġag": 532,
      "Ġsay": 533,
      "are": 534,
      "Ġtw": 535,
      "end": 536,
      "iv": 537,
      "We": 538,
      "Ġbeen": 539,
      "ian": 540,
      "way": 541,
      "Ġtime": 542,
      "--": 543,
      "ace": 544,
      "ĠIt": 545,
      "ia": 546,
      "Ġsaid": 547,
      "ove": 548,
      "'ve": 549,
      "Ġpe": 550,
      "ff": 551,
      "Ġbec": 552,
      "ick": 553,
      "ĠU": 554,
      "Ġnow": 555,
      "Ġcl": 556,
      "so": 557,
      "ose": 558,
      "ause": 559,
      "Ġlook": 560,
      "lf": 561,
      "ople": 562,
      "na": 563,
      "ish": 564,
      "Ġle": 565,
      "reat": 566,
      "Ġmore": 567,
      "Ġtheir": 568,
      "ary": 569,
      "Ġgoing": 570,
      "other": 571,
      "Yeah": 572,
      "Ġthen": 573,
      "ree": 574,
      "age": 575,
      "Ġcould": 576,
      "So": 577,
      "No": 578,
      "ue": 579,
      "Ġother": 580,
      "Ġ=": 581,
      "Ġback": 582,
      "Ġover": 583,
      "ond": 584,
      "Ġoff": 585,
      "ite": 586,
      "irst": 587,
      "ĠSt": 588,
      "his": 589,
      "act": 590,
      "But": 591,
      "Ġpeople": 592,
      "ew": 593,
      "ble": 594,
      "Ġqu": 595,
      "Ġgr": 596,
      "orn": 597,
      "Ġro": 598,
      "ings": 599,
      "ass": 600,
      "Ġwork": 601,
      "Oh": 602,
      "Ġvery": 603,
      "per": 604,
      "Ġtwo": 605,
      "ount": 606,
      "00": 607,
      "That": 608,
      "fter": 609,
      "pt": 610,
      "ord": 611,
      "Ġgood": 612,
      "Ġbr": 613,
      "Ġtoo": 614,
      "pl": 615,
      "og": 616,
      "ub": 617,
      "ere": 618,
      "omet": 619,
      "ci": 620,
      "Ġen": 621,
      "Ġfirst": 622,
      "ans": 623,
      "ase": 624,
      "ittle": 625,
      "kay": 626,
      "erm": 627,
      "Ġinto": 628,
      "mer": 629,
      "ated": 630,
      "ire": 631,
      "ov": 632,
      "ions": 633,
      "hed": 634,
      "oll": 635,
      "alk": 636,
      "oy": 637,
      "Ġdown": 638,
      "the": 639,
      "hy": 640,
      "Ġhow": 641,
      "ade": 642,
      "Ġthan": 643,
      "Ġyear": 644,
      "Ġun": 645,
      "Ġpart": 646,
      "Ġway": 647,
      "Ġpr": 648,
      "Ġour": 649,
      "Ġam": 650,
      "we": 651,
      "Ġcomp": 652,
      "iz": 653,
      "ought": 654,
      "Ġcall": 655,
      "Ġlittle": 656,
      "Ġcome": 657,
      "Ġbl": 658,
      "ĠIn": 659,
      "Ġplay": 660,
      "Ġalso": 661,
      "Ġim": 662,
      "Ġonly": 663,
      "ĠV": 664,
      "ater": 665,
      "nder": 666,
      "cc": 667,
      "Ġwhere": 668,
      "ach": 669,
      "ance": 670,
      "Ġevery": 671,
      "ne": 672,
      "Ġagain": 673,
      "ife": 674,
      "Well": 675,
      "ng": 676,
      "urn": 677,
      "Ġad": 678,
      "har": 679,
      "wn": 680,
      "Ġsomet": 681,
      "oc": 682,
      "ĠY": 683,
      "ru": 684,
      "Ġday": 685,
      "Ġneed": 686,
      "Ġbet": 687,
      "Ġ201": 688,
      "ty": 689,
      "iss": 690,
      "Ġfe": 691,
      "here": 692,
      "uch": 693,
      ".\"": 694,
      "ress": 695,
      "av": 696,
      "Ġact": 697,
      "Ġmake": 698,
      "Ġwell": 699,
      "amp": 700,
      "ho": 701,
      "fore": 702,
      "Ġtake": 703,
      "ence": 704,
      "Ġafter": 705,
      "Ġgu": 706,
      "self": 707,
      "In": 708,
      "ory": 709,
      "oh": 710,
      "able": 711,
      "ang": 712,
      "Ġbecause": 713,
      "ark": 714,
      "Ġcont": 715,
      "Ġsc": 716,
      "ip": 717,
      "ical": 718,
      "au": 719,
      "Ġdis": 720,
      "Ġte": 721,
      "ign": 722,
      "thing": 723,
      "int": 724,
      "Ġlet": 725,
      "Ġreally": 726,
      "orm": 727,
      "Ġshould": 728,
      "uck": 729,
      "Ġpre": 730,
      "ict": 731,
      "Ġtell": 732,
      "ool": 733,
      "Ġhapp": 734,
      "ather": 735,
      "Ġwr": 736,
      "ob": 737,
      "cl": 738,
      "ens": 739,
      "Ġthr": 740,
      "onna": 741,
      "Ġfl": 742,
      "ft": 743,
      "ull": 744,
      "ied": 745,
      "Ġapp": 746,
      "Ġunder": 747,
      "ial": 748,
      "Ġthese": 749,
      "Ġmuch": 750,
      "Ġdoes": 751,
      "ult": 752,
      "Ġsomething": 753,
      "This": 754,
      "Ġnew": 755,
      "ile": 756,
      "Ġres": 757,
      "Ġput": 758,
      "ody": 759,
      "Ġgonna": 760,
      "Ġpo": 761,
      "Ġper": 762,
      "Ġmean": 763,
      "Ġmade": 764,
      "They": 765,
      "hen": 766,
      "les": 767,
      "ons": 768,
      "iff": 769,
      "Ġlong": 770,
      "'d": 771,
      "be": 772,
      "ved": 773,
      "Ġser": 774,
      "ĠUn": 775,
      "old": 776,
      "ving": 777,
      "Ġtalk": 778,
      "land": 779,
      "Ġnever": 780,
      "Yes": 781,
      "ations": 782,
      "She": 783,
      "te": 784,
      "Ġbefore": 785,
      "Ġer": 786,
      "Ġeven": 787,
      "Ġmay": 788,
      "ks": 789,
      "du": 790,
      "ily": 791,
      "ates": 792,
      "ĠCh": 793,
      "ock": 794,
      "Ġits": 795,
      "ps": 796,
      "ouse": 797,
      "Ġcar": 798,
      "ail": 799,
      "Ġbu": 800,
      "ting": 801,
      "Ġdidn": 802,
      "Ġrem": 803,
      "ĠâĢ": 804,
      "Ġcomm": 805,
      "Ġ3": 806,
      "port": 807,
      "Ġke": 808,
      "ady": 809,
      "There": 810,
      "Ġsm": 811,
      "vers": 812,
      "Ġyears": 813,
      "ath": 814,
      "ition": 815,
      "ious": 816,
      "you": 817,
      "ember": 818,
      "ors": 819,
      "ise": 820,
      "ix": 821,
      "ren": 822,
      "Ġhand": 823,
      "ward": 824,
      "ually": 825,
      "âĢĿ": 826,
      "ited": 827,
      "Ġrec": 828,
      "Ġhel": 829,
      "vel": 830,
      "Ġmany": 831,
      "Ġthrough": 832,
      "ried": 833,
      "Ġ200": 834,
      "If": 835,
      "Ġold": 836,
      "Ġsec": 837,
      "aw": 838,
      "ful": 839,
      "get": 840,
      "ran": 841,
      "Ġch": 842,
      "Ġthing": 843,
      "Ġmost": 844,
      "Ġstart": 845,
      "Ġchan": 846,
      "Ġthree": 847,
      "day": 848,
      "Ġgreat": 849,
      "Ġdiff": 850,
      "pe": 851,
      "ince": 852,
      "igh": 853,
      "Ġlife": 854,
      "Ġthings": 855,
      "ave": 856,
      "Ġthought": 857,
      "Ġfound": 858,
      "How": 859,
      "Ġthose": 860,
      "Ġbel": 861,
      "âĻ": 862,
      "Ġstill": 863,
      "Ġsha": 864,
      "ves": 865,
      "Ġaway": 866,
      "what": 867,
      "oss": 868,
      "Ġdes": 869,
      "Ġused": 870,
      "Ġfind": 871,
      "tain": 872,
      "oot": 873,
      "``": 874,
      "Ġ''": 875,
      "Ġlove": 876,
      "ever": 877,
      "Ġmust": 878,
      "Ġhome": 879,
      "hes": 880,
      "ĠYou": 881,
      "Ġlast": 882,
      "riend": 883,
      "Ġhelp": 884,
      "Ġdoing": 885,
      "Ġi": 886,
      "ee": 887,
      "Ġco": 888,
      "imes": 889,
      "Ġask": 890,
      "ents": 891,
      "Ġown": 892,
      "Ġshow": 893,
      "Ġcr": 894,
      "hild": 895,
      "Ġlea": 896,
      "meric": 897,
      "lease": 898,
      "Ġwent": 899,
      "Ġgive": 900,
      "Ġ!": 901,
      "up": 902,
      "Ġcame": 903,
      "xt": 904,
      "Ġmin": 905,
      "ational": 906,
      "oney": 907,
      "Ġend": 908,
      "âĢĻ": 909,
      "irl": 910,
      "âĻª": 911,
      "ened": 912,
      "Ġbeing": 913,
      "Ġatt": 914,
      "Ġwon": 915,
      "\".": 916,
      "Ġname": 917,
      "tern": 918,
      "Ġcour": 919,
      "gin": 920,
      "ction": 921,
      "ĠMr": 922,
      "ĠShe": 923,
      "Ġcount": 924,
      "ced": 925,
      "Ġcalled": 926,
      "chool": 927,
      "my": 928,
      "ny": 929,
      "Ġmov": 930,
      "Ġear": 931,
      "ait": 932,
      "gan": 933,
      "Ġfam": 934,
      "atch": 935,
      "Do": 936,
      "ĠĠĠĠĠĠĠĠ": 937,
      "als": 938,
      "man": 939,
      "Ġ18": 940,
      "body": 941,
      "Ġsame": 942,
      "Now": 943,
      "ways": 944,
      "Ġchild": 945,
      "IN": 946,
      "Ġdec": 947,
      "Ġcare": 948,
      "ont": 949,
      "ces": 950,
      "Ġsuch": 951,
      "ning": 952,
      "li": 953,
      "oth": 954,
      "Ġkind": 955,
      "ĠMar": 956,
      "Why": 957,
      "Ġfeel": 958,
      "ident": 959,
      "Ġtry": 960,
      "Ġbig": 961,
      "ug": 962,
      "ĠAmeric": 963,
      "Ġhead": 964,
      "Ġlot": 965,
      "Ġnight": 966,
      "aking": 967,
      "Ġworld": 968,
      "any": 969,
      "Ġsupp": 970,
      "Ġwhy": 971,
      "ild": 972,
      "air": 973,
      "Ġplace": 974,
      "ham": 975,
      "Ġpol": 976,
      "form": 977,
      "erson": 978,
      "Ġdiffere": 979,
      "ER": 980,
      "side": 981,
      "Ġwom": 982,
      "Ġaround": 983,
      "Ġfin": 984,
      "ĠBr": 985,
      "Ġhar": 986,
      "Ġfriend": 987,
      "Ġnum": 988,
      "ute": 989,
      "Ġmar": 990,
      "Ġkill": 991,
      "ĠAr": 992,
      "ss": 993,
      "Let": 994,
      "ating": 995,
      "uring": 996,
      ").": 997,
      "gr": 998,
      "Ġuse": 999,
      "ased": 1000,
      "ower": 1001,
      "Ġind": 1002,
      "Ġacc": 1003,
      "outh": 1004,
      "Don": 1005,
      "ubl": 1006,
      "Ġmight": 1007,
      "Ġop": 1008,
      "ah": 1009,
      "und": 1010,
      "Ġreg": 1011,
      "Ġanother": 1012,
      "\",": 1013,
      "Ġ4": 1014,
      "Ġset": 1015,
      "Ġsl": 1016,
      "Ġturn": 1017,
      "Ġche": 1018,
      "orry": 1019,
      "Ġele": 1020,
      "pect": 1021,
      "ener": 1022,
      "ween": 1023,
      "Ġhouse": 1024,
      "Ġalways": 1025,
      "ts": 1026,
      "Come": 1027,
      "ics": 1028,
      "Ġrel": 1029,
      "ys": 1030,
      "Ġfour": 1031,
      "Ġac": 1032,
      "clud": 1033,
      "ible": 1034,
      "Ġanything": 1035,
      "Ġgirl": 1036,
      "St": 1037,
      "Ġleft": 1038,
      "),": 1039,
      "All": 1040,
      "Ġbetter": 1041,
      "uh": 1042,
      "Ġdone": 1043,
      "that": 1044,
      "Ġbit": 1045,
      "mb": 1046,
      "Ġsure": 1047,
      "Ġpres": 1048,
      "vent": 1049,
      "led": 1050,
      "Ġ199": 1051,
      "Ġsur": 1052,
      "ason": 1053,
      "ness": 1054,
      "az": 1055,
      "ular": 1056,
      "ph": 1057,
      "ple": 1058,
      "Ġkeep": 1059,
      "Ġboy": 1060,
      "Ġ5": 1061,
      "Ġel": 1062,
      "Ġsy": 1063,
      "gg": 1064,
      ",\"": 1065,
      "Ġrun": 1066,
      "der": 1067,
      "ĠAnd": 1068,
      "ib": 1069,
      "aught": 1070,
      "Okay": 1071,
      "ual": 1072,
      "Ġmon": 1073,
      "Ġform": 1074,
      "Ġreal": 1075,
      "Ġbetween": 1076,
      "My": 1077,
      "||": 1078,
      "Ġbelie": 1079,
      "ollow": 1080,
      "ott": 1081,
      "Ġtold": 1082,
      "io": 1083,
      "Ġknown": 1084,
      "Ġsecond": 1085,
      "ĠThey": 1086,
      "ered": 1087,
      "ird": 1088,
      "ished": 1089,
      "ters": 1090,
      "ale": 1091,
      "ars": 1092,
      "Ġunt": 1093,
      "yes": 1094,
      "Ġschool": 1095,
      "Ġchar": 1096,
      "Ġword": 1097,
      "HE": 1098,
      "Ġstud": 1099,
      "Ġmoney": 1100,
      "Ġdist": 1101,
      "Ġever": 1102,
      "ĠNew": 1103,
      "ject": 1104,
      "Ġent": 1105,
      "Ġgl": 1106,
      "row": 1107,
      "Ġob": 1108,
      "hip": 1109,
      "Hey": 1110,
      "ner": 1111,
      "Ġdifferent": 1112,
      "Ġret": 1113,
      "Ġwhile": 1114,
      "Ġmat": 1115,
      "ork": 1116,
      "Is": 1117,
      "ret": 1118,
      "but": 1119,
      "Ġmom": 1120,
      "Ġperson": 1121,
      "Ġbo": 1122,
      "ĠAl": 1123,
      "oun": 1124,
      "Ġbus": 1125,
      "ĠThis": 1126,
      "orth": 1127,
      "ric": 1128,
      "akes": 1129,
      "Ġinclud": 1130,
      "no": 1131,
      "Ġpoint": 1132,
      "Than": 1133,
      "Ġsub": 1134,
      "ye": 1135,
      "Ġcons": 1136,
      "Ġokay": 1137,
      "Ġdr": 1138,
      "Not": 1139,
      "Ġmus": 1140,
      "Ġcourse": 1141,
      "AN": 1142,
      "ĠWhat": 1143,
      "OU": 1144,
      "Ġspec": 1145,
      "Ġstr": 1146,
      "Ġuntil": 1147,
      "ĠUnited": 1148,
      "Ġerm": 1149,
      "Ġass": 1150,
      "Ġinv": 1151,
      "ative": 1152,
      "olog": 1153,
      "Ġbook": 1154,
      "cy": 1155,
      "Ġuh": 1156,
      "Ġtook": 1157,
      "ĠĠĠ": 1158,
      "ling": 1159,
      "ĠAn": 1160,
      "Ġmet": 1161,
      "its": 1162,
      "Ġnext": 1163,
      "When": 1164,
      "ins": 1165,
      "ton": 1166,
      "Ġmen": 1167,
      "Ġstop": 1168,
      "une": 1169,
      "Ġcent": 1170,
      "Ġsw": 1171,
      "stand": 1172,
      "Ġbest": 1173,
      "Ġwar": 1174,
      "Ġinst": 1175,
      "Ġboth": 1176,
      "Ġseem": 1177,
      "ision": 1178,
      "Ġfar": 1179,
      "Ġeach": 1180,
      "Ġsing": 1181,
      "Ġnothing": 1182,
      "Ġfun": 1183,
      "aj": 1184,
      "Ġdep": 1185,
      "Ġwee": 1186,
      "ier": 1187,
      "ĠGod": 1188,
      "Ġdef": 1189,
      "Ġcle": 1190,
      "vern": 1191,
      "Ġbre": 1192,
      "ities": 1193,
      "Ġcha": 1194,
      "Ġwater": 1195,
      "ames": 1196,
      "cept": 1197,
      "ired": 1198,
      "where": 1199,
      "Ġnumber": 1200,
      "ures": 1201,
      "ope": 1202,
      "Ġfollow": 1203,
      "Ġpass": 1204,
      "Ġfather": 1205,
      "Ġsaw": 1206,
      "ĠAmerican": 1207,
      "ĠAs": 1208,
      "ĠNo": 1209,
      "ohn": 1210,
      "Ġmother": 1211,
      "Ġlater": 1212,
      "ĠâĢľ": 1213,
      "ivers": 1214,
      "Ġdoesn": 1215,
      "cer": 1216,
      "ms": 1217,
      "to": 1218,
      "âĢľ": 1219,
      "Ġfamily": 1220,
      "ax": 1221,
      "Ġ-": 1222,
      "Ġph": 1223,
      "rew": 1224,
      "Ġlist": 1225,
      "eak": 1226,
      "Ġteam": 1227,
      "ream": 1228,
      "ank": 1229,
      "ung": 1230,
      "ok": 1231,
      "Ġprodu": 1232,
      "ross": 1233,
      "Ġlar": 1234,
      "Ġ198": 1235,
      "eg": 1236,
      "br": 1237,
      "Ġcity": 1238,
      "Ġyeah": 1239,
      "osed": 1240,
      "Ġinc": 1241,
      "Ġ6": 1242,
      "Ġenough": 1243,
      "ING": 1244,
      "iness": 1245,
      "On": 1246,
      "Ġactually": 1247,
      "19": 1248,
      "ister": 1249,
      "Just": 1250,
      "Ġelse": 1251,
      "Ġagainst": 1252,
      "mber": 1253,
      "less": 1254,
      "Ġsmall": 1255,
      "Ġwait": 1256,
      "Ġdied": 1257,
      "ctor": 1258,
      "ote": 1259,
      "Ġ--": 1260,
      "Ġcap": 1261,
      "Ġseen": 1262,
      "Ġhard": 1263,
      "ines": 1264,
      "Ġproble": 1265,
      "let": 1266,
      "rist": 1267,
      "uth": 1268,
      "Ġhigh": 1269,
      "Ġpop": 1270,
      "Ġtoget": 1271,
      "Ġtogether": 1272,
      "Ġyoung": 1273,
      "Ġimp": 1274,
      "ĠEng": 1275,
      "ublic": 1276,
      "iet": 1277,
      "Ã©": 1278,
      "Ġwithout": 1279,
      "of": 1280,
      "ex": 1281,
      "Who": 1282,
      "ific": 1283,
      "Ġdire": 1284,
      "omm": 1285,
      "ably": 1286,
      "Ġplan": 1287,
      "Ġwanted": 1288,
      "ger": 1289,
      "Ġbecame": 1290,
      "Ġref": 1291,
      "Ġsorry": 1292,
      "Ġadd": 1293,
      "ĠStates": 1294,
      "Ġfact": 1295,
      "Ġfive": 1296,
      "Where": 1297,
      "Ġfew": 1298,
      "Ġyes": 1299,
      "Ġhear": 1300,
      "att": 1301,
      "Ġid": 1302,
      "ged": 1303,
      "Ġrep": 1304,
      "ash": 1305,
      "Ġem": 1306,
      "Ġeverything": 1307,
      "Ġmind": 1308,
      "Ġcoming": 1309,
      "Ġrest": 1310,
      "20": 1311,
      "Look": 1312,
      "Then": 1313,
      "Ġroom": 1314,
      "Ġbad": 1315,
      "Ġonce": 1316,
      "Ġloc": 1317,
      "Ġsince": 1318,
      "Ġsix": 1319,
      "Ġ197": 1320,
      "ĠSp": 1321,
      "ina": 1322,
      "Ġunderstand": 1323,
      "uff": 1324,
      "Ġstand": 1325,
      "Ġsign": 1326,
      "Ġsim": 1327,
      "ral": 1328,
      "Ġsk": 1329,
      "Ġlight": 1330,
      "Ġlive": 1331,
      "aid": 1332,
      "Ġstay": 1333,
      "Ġread": 1334,
      "ball": 1335,
      "ield": 1336,
      "uss": 1337,
      "Ġleave": 1338,
      "ets": 1339,
      "Ġborn": 1340,
      "Ġsays": 1341,
      "ĠBut": 1342,
      "uc": 1343,
      "Ġ7": 1344,
      "Ġfr": 1345,
      "AT": 1346,
      "ury": 1347,
      "ned": 1348,
      "eb": 1349,
      "Ġcoll": 1350,
      "ense": 1351,
      "erest": 1352,
      "ĠInd": 1353,
      "oup": 1354,
      "Ġtra": 1355,
      "Ġbelieve": 1356,
      "Ġtimes": 1357,
      "Ġside": 1358,
      "Ġduring": 1359,
      "Ġlooking": 1360,
      "me": 1361,
      "Are": 1362,
      "ecause": 1363,
      "Ġchildren": 1364,
      "Ġev": 1365,
      "Ġheart": 1366,
      "ten": 1367,
      "Ġquite": 1368,
      "stem": 1369,
      "Ġpret": 1370,
      "ĠIs": 1371,
      "orning": 1372,
      "Ġimport": 1373,
      "Ġdisc": 1374,
      "Ġson": 1375,
      "Ġhum": 1376,
      "Ġtri": 1377,
      "Ġtoday": 1378,
      "aut": 1379,
      "000": 1380,
      "Ġsit": 1381,
      "Ġquest": 1382,
      "ows": 1383,
      "ON": 1384,
      "Ġinter": 1385,
      "rop": 1386,
      "Ġexp": 1387,
      "ared": 1388,
      "Ġtrans": 1389,
      "Ġkid": 1390,
      "Ġdays": 1391,
      "anna": 1392,
      "Ġhappened": 1393,
      "Ġmeet": 1394,
      "Ġopen": 1395,
      "Ġ8": 1396,
      "ised": 1397,
      "Ġ;": 1398,
      "Right": 1399,
      "Ġlead": 1400,
      "Ġmove": 1401,
      "ital": 1402,
      "Ġconf": 1403,
      "Ġplease": 1404,
      "âĢĵ": 1405,
      "Ġface": 1406,
      "Uh": 1407,
      "Ġgener": 1408,
      "Ġnear": 1409,
      "Ġeyes": 1410,
      "Ġtown": 1411,
      "Ġgetting": 1412,
      "app": 1413,
      "Ġnice": 1414,
      "iew": 1415,
      "ĠTh": 1416,
      "Ġisn": 1417,
      "As": 1418,
      "Ġext": 1419,
      "Ġthough": 1420,
      "ined": 1421,
      "dy": 1422,
      "aby": 1423,
      "ready": 1424,
      "ither": 1425,
      "Ġmusic": 1426,
      "ertain": 1427,
      "ments": 1428,
      "Ġart": 1429,
      "?\"": 1430,
      "ey": 1431,
      "Ġwhole": 1432,
      "ike": 1433,
      "Ġcol": 1434,
      "Ġdri": 1435,
      "Ġsort": 1436,
      "Ġed": 1437,
      "Ġland": 1438,
      "For": 1439,
      "Ġhour": 1440,
      "Ġbro": 1441,
      "leep": 1442,
      "ĠJohn": 1443,
      "ists": 1444,
      "Ġposs": 1445,
      "ik": 1446,
      "okay": 1447,
      "ants": 1448,
      "Ġinterest": 1449,
      "Th": 1450,
      "Ġwoman": 1451,
      "Thank": 1452,
      "aster": 1453,
      "cted": 1454,
      "Ġheard": 1455,
      "by": 1456,
      "ober": 1457,
      "ĠZ": 1458,
      "Ġbuild": 1459,
      "sel": 1460,
      "Ġyet": 1461,
      "son": 1462,
      "Ġeas": 1463,
      "Mm": 1464,
      "ery": 1465,
      "Ġplayed": 1466,
      "Ġri": 1467,
      "Ġ[": 1468,
      "Ġjob": 1469,
      "ef": 1470,
      "ĠPr": 1471,
      "yeah": 1472,
      "Ġstate": 1473,
      "Ġair": 1474,
      "Ġhalf": 1475,
      "Ġfoot": 1476,
      "Ġremember": 1477,
      "Ġmorning": 1478,
      "Ġhimself": 1479,
      "Ġstarted": 1480,
      "ues": 1481,
      "Ġfil": 1482,
      "reen": 1483,
      "ech": 1484,
      "Ġ196": 1485,
      "Ġ10": 1486,
      "ĠCl": 1487,
      "ize": 1488,
      "do": 1489,
      "AR": 1490,
      "ĠFr": 1491,
      "Ġmed": 1492,
      "Ġwalk": 1493,
      "Ġknew": 1494,
      "ution": 1495,
      "hm": 1496,
      "ched": 1497,
      "Ġhaving": 1498,
      "ism": 1499,
      "Ġ9": 1500,
      "Ġrecord": 1501,
      "Ġdra": 1502,
      "Ġtalking": 1503,
      "dd": 1504,
      "Good": 1505,
      "Ġsystem": 1506,
      "iversity": 1507,
      "Ġhold": 1508,
      "ries": 1509,
      "Ġmain": 1510,
      "ized": 1511,
      "ĠJan": 1512,
      "ives": 1513,
      "ta": 1514,
      "ev": 1515,
      "Ġmod": 1516,
      "ted": 1517,
      "Ġdeath": 1518,
      "Ġsir": 1519,
      "Ġcur": 1520,
      "Ġalready": 1521,
      "Ġpay": 1522,
      "ison": 1523,
      "ats": 1524,
      "Ġimportant": 1525,
      "Al": 1526,
      "Did": 1527,
      "Ġwrong": 1528,
      "Can": 1529,
      "Ġsoon": 1530,
      "Ġsong": 1531,
      "most": 1532,
      "ĠWe": 1533,
      "Ġalong": 1534,
      "Ġmil": 1535,
      "ĠGr": 1536,
      "Ġsaying": 1537,
      "sh": 1538,
      "Ġgi": 1539,
      "ĠMay": 1540,
      "Ġpower": 1541,
      "Ġreturn": 1542,
      "Ġidea": 1543,
      "Go": 1544,
      "ĠQ": 1545,
      "ains": 1546,
      "sp": 1547,
      "Ġmonth": 1548,
      "not": 1549,
      "Ġans": 1550,
      "ump": 1551,
      "Ġdoor": 1552,
      "Ġdead": 1553,
      "Ġgave": 1554,
      "Ġmiss": 1555,
      "Ġupon": 1556,
      "Ġcountry": 1557,
      "Ġbrother": 1558,
      "ead": 1559,
      "velop": 1560,
      "ided": 1561,
      "ages": 1562,
      "now": 1563,
      "ĠHow": 1564,
      "ering": 1565,
      "Ġprom": 1566,
      "Ġprob": 1567,
      "Ġgovern": 1568,
      "Ġwin": 1569,
      "Ġfull": 1570,
      "Ġhur": 1571,
      "Ġmeans": 1572,
      "Ġty": 1573,
      "ĠâĢĵ": 1574,
      "ĠGerm": 1575,
      "ĠâĻª": 1576,
      "Ġeff": 1577,
      "Ġeat": 1578,
      "Ġprov": 1579,
      "Ġcase": 1580,
      "Ġtrying": 1581,
      "ility": 1582,
      "ature": 1583,
      "Ġgame": 1584,
      "Âł": 1585,
      "Ġround": 1586,
      "ĠCount": 1587,
      "ĠSo": 1588,
      "ĠThere": 1589,
      "aughter": 1590,
      "Ġasked": 1591,
      "idd": 1592,
      "cial": 1593,
      "eter": 1594,
      "LL": 1595,
      "Ġwife": 1596,
      "Ġjo": 1597,
      "Ġsound": 1598,
      "wards": 1599,
      "ically": 1600,
      "Ġinf": 1601,
      "ony": 1602,
      "Ġgone": 1603,
      "Ġarea": 1604,
      "Ġlaw": 1605,
      "OR": 1606,
      "Ġbusiness": 1607,
      "ĠChrist": 1608,
      "gt": 1609,
      "Er": 1610,
      "med": 1611,
      "Your": 1612,
      "Ġmatter": 1613,
      "ĠKing": 1614,
      "Ġbegan": 1615,
      "ying": 1616,
      "cess": 1617,
      "Ġexpl": 1618,
      "lish": 1619,
      "Ġbring": 1620,
      "Ġdel": 1621,
      "Ġpretty": 1622,
      "iver": 1623,
      "ately": 1624,
      "ĠAt": 1625,
      "Ġfore": 1626,
      "nce": 1627,
      "Ġhands": 1628,
      "Ġtop": 1629,
      "arr": 1630,
      "Ġlear": 1631,
      "Ġequ": 1632,
      "Ġwind": 1633,
      "cle": 1634,
      "ĠTHE": 1635,
      "Get": 1636,
      "Ġsent": 1637,
      "rict": 1638,
      "amed": 1639,
      "Ġhappen": 1640,
      "Ġguy": 1641,
      "ĠSc": 1642,
      "leased": 1643,
      "Ġstory": 1644,
      "Ġcreat": 1645,
      "ural": 1646,
      ".âĢĿ": 1647,
      "pr": 1648,
      "uro": 1649,
      "Ġshall": 1650,
      "born": 1651,
      "Ġlost": 1652,
      "eed": 1653,
      "Ġcontin": 1654,
      "Ġserv": 1655,
      "Ġable": 1656,
      "Ġmovie": 1657,
      "orrow": 1658,
      "Ġfuck": 1659,
      "iter": 1660,
      "An": 1661,
      "Ġless": 1662,
      "enn": 1663,
      "Ġcertain": 1664,
      "ially": 1665,
      "Ġbeaut": 1666,
      "Ġmill": 1667,
      "ES": 1668,
      "Ġoffic": 1669,
      "ured": 1670,
      "aken": 1671,
      "Ġbaby": 1672,
      "Ġpartic": 1673,
      "Ġchange": 1674,
      "Ġpolit": 1675,
      "ept": 1676,
      "ection": 1677,
      "Ġspeak": 1678,
      "orld": 1679,
      "gy": 1680,
      "Ġproblem": 1681,
      "Ġoften": 1682,
      "Ġwond": 1683,
      "Ġmaking": 1684,
      "Ġhist": 1685,
      "Ġgoes": 1686,
      "Ġclass": 1687,
      "Ġpri": 1688,
      "ional": 1689,
      "May": 1690,
      "cri": 1691,
      "Ġfell": 1692,
      "che": 1693,
      "Ġleg": 1694,
      "pped": 1695,
      "Ġ17": 1696,
      "Ġbas": 1697,
      "Ġfriends": 1698,
      "At": 1699,
      "ĠCar": 1700,
      "Ġwanna": 1701,
      "Ġlooked": 1702,
      "Ġmoment": 1703,
      "Ġsomeone": 1704,
      "Ġ15": 1705,
      "ĠAll": 1706,
      "Ġwasn": 1707,
      "Ġfight": 1708,
      "Ġwatch": 1709,
      "One": 1710,
      "undred": 1711,
      "ator": 1712,
      "Ġpain": 1713,
      "ĠBl": 1714,
      "erv": 1715,
      "Ġ195": 1716,
      "Ġ194": 1717,
      "ĠOh": 1718,
      "Here": 1719,
      "ĠBrit": 1720,
      "Ġbody": 1721,
      "ides": 1722,
      "ush": 1723,
      "Ġfine": 1724,
      "ently": 1725,
      "Ġwomen": 1726,
      "EN": 1727,
      "Ġyourself": 1728,
      "well": 1729,
      "arch": 1730,
      "ges": 1731,
      "Ġage": 1732,
      "Ġdevelop": 1733,
      "arent": 1734,
      "Ġcomes": 1735,
      "rap": 1736,
      "ster": 1737,
      "Ġhat": 1738,
      "Ġexper": 1739,
      "used": 1740,
      "Ġgroup": 1741,
      "ract": 1742,
      "Ġline": 1743,
      "Ġpat": 1744,
      "Ġweek": 1745,
      "Ġguys": 1746,
      "Ġmark": 1747,
      "Ġpar": 1748,
      "fess": 1749,
      "aces": 1750,
      "Ġsleep": 1751,
      "Ġvis": 1752,
      "ane": 1753,
      "how": 1754,
      "uary": 1755,
      "iec": 1756,
      "Ġshort": 1757,
      "Ġpos": 1758,
      "ole": 1759,
      "Ġbed": 1760,
      "Ġclose": 1761,
      "eth": 1762,
      "ained": 1763,
      "Ġprobably": 1764,
      "mp": 1765,
      "Ġlarge": 1766,
      "To": 1767,
      "Ġago": 1768,
      "eal": 1769,
      "ern": 1770,
      "ĠThat": 1771,
      "con": 1772,
      "Ġterm": 1773,
      "artment": 1774,
      "Ġgiven": 1775,
      "ello": 1776,
      "Ġworking": 1777,
      "Ġprot": 1778,
      "Ġbreak": 1779,
      "ices": 1780,
      "Ġdet": 1781,
      "ĠCan": 1782,
      "iam": 1783,
      "Ġ...": 1784,
      "Ġtrue": 1785,
      "uly": 1786,
      "Ġfire": 1787,
      "ley": 1788,
      "rigin": 1789,
      "enty": 1790,
      "gue": 1791,
      "ĠHis": 1792,
      "ai": 1793,
      "ention": 1794,
      "Because": 1795,
      "ĠCounty": 1796,
      "Ġes": 1797,
      "apan": 1798,
      "Ġwouldn": 1799,
      "!\"": 1800,
      "Ġeight": 1801,
      "Ġhundred": 1802,
      "ality": 1803,
      "Ġbecome": 1804,
      "ĠFor": 1805,
      "Ġter": 1806,
      "Ġorder": 1807,
      "Ġcut": 1808,
      "Ġfall": 1809,
      "Ġca": 1810,
      "bum": 1811,
      "ety": 1812,
      "Ġearly": 1813,
      "oon": 1814,
      "wer": 1815,
      "ĠCon": 1816,
      "Ġdeal": 1817,
      "ches": 1818,
      "Ġpick": 1819,
      "els": 1820,
      "ulation": 1821,
      "elt": 1822,
      "Ġsol": 1823,
      "urch": 1824,
      "Ġhope": 1825,
      "hind": 1826,
      "Ġhaven": 1827,
      ",âĢĿ": 1828,
      "ama": 1829,
      "aper": 1830,
      "Ġrece": 1831,
      "ĠYes": 1832,
      "come": 1833,
      "ilt": 1834,
      "rest": 1835,
      "ajor": 1836,
      "mm": 1837,
      "ouble": 1838,
      "Ġcor": 1839,
      "Ġalmost": 1840,
      "sy": 1841,
      "Ġaw": 1842,
      "utes": 1843,
      "Ġdiv": 1844,
      "ĠUniversity": 1845,
      "Ġstre": 1846,
      "Ġleast": 1847,
      "Ġpur": 1848,
      "Ġins": 1849,
      "Ġbegin": 1850,
      "Ġorgan": 1851,
      "Ġquestion": 1852,
      "Ġten": 1853,
      "ief": 1854,
      "Ġvo": 1855,
      "ians": 1856,
      "ron": 1857,
      "rol": 1858,
      "iful": 1859,
      "ped": 1860,
      "ĠYork": 1861,
      "Ġaff": 1862,
      "Ġcomple": 1863,
      "Ġblack": 1864,
      "ĠAp": 1865,
      "Ġocc": 1866,
      "Ġmyself": 1867,
      "ĠOn": 1868,
      "gram": 1869,
      "ril": 1870,
      "Ġwhite": 1871,
      "Ġadv": 1872,
      "ĠPro": 1873,
      "Ġoper": 1874,
      "Ġpublic": 1875,
      "ample": 1876,
      "ived": 1877,
      "ĠWorld": 1878,
      "Ġcommun": 1879,
      "raz": 1880,
      "oud": 1881,
      "hamp": 1882,
      "Ġran": 1883,
      "Ġsqu": 1884,
      "Ġready": 1885,
      "Ġmarried": 1886,
      "alth": 1887,
      "Ġlate": 1888,
      "ĠJapan": 1889,
      "Ġ_": 1890,
      "Ġvar": 1891,
      "Ġconst": 1892,
      "Ġopp": 1893,
      "Ġmaybe": 1894,
      "Ġhor": 1895,
      "Ġdad": 1896,
      "Ġfree": 1897,
      "umb": 1898,
      "rent": 1899,
      "Ġ16": 1900,
      "ully": 1901,
      "Ġreason": 1902,
      "ium": 1903,
      "Ġswe": 1904,
      "iting": 1905,
      "ugust": 1906,
      "angu": 1907,
      "Ġalone": 1908,
      "osp": 1909,
      "co": 1910,
      "Ġkilled": 1911,
      "Ġpresent": 1912,
      "cent": 1913,
      "Ġoh": 1914,
      "ler": 1915,
      "Ġgovernment": 1916,
      "Ġguess": 1917,
      "ards": 1918,
      "Mr": 1919,
      "ĠPar": 1920,
      "ĠJanuary": 1921,
      "Ġcompany": 1922,
      "Ġ|": 1923,
      "ccess": 1924,
      "head": 1925,
      "ese": 1926,
      "Ġest": 1927,
      "ert": 1928,
      "Ġblood": 1929,
      "ene": 1930,
      "oke": 1931,
      "Every": 1932,
      "Ġhappy": 1933,
      "Please": 1934,
      "huh": 1935,
      "Ġalbum": 1936,
      "Ġ12": 1937,
      "Ġreleased": 1938,
      "Ġred": 1939,
      "Ġbrought": 1940,
      "Ġbehind": 1941,
      "Ġsat": 1942,
      "Ġorigin": 1943,
      "selves": 1944,
      "vious": 1945,
      "Ġsever": 1946,
      "Ġwords": 1947,
      "bed": 1948,
      "men": 1949,
      "Ġtele": 1950,
      "Ġhon": 1951,
      "ĠAust": 1952,
      "Ġdrink": 1953,
      "ĠMan": 1954,
      "ney": 1955,
      "ĠWar": 1956,
      "ox": 1957,
      "Ġhell": 1958,
      "IS": 1959,
      "Ġmakes": 1960,
      "ology": 1961,
      "for": 1962,
      "ĠYeah": 1963,
      "omp": 1964,
      "eor": 1965,
      "Ġ193": 1966,
      "Ġclear": 1967,
      "Ġtre": 1968,
      "RE": 1969,
      "ĠEnglish": 1970,
      "eng": 1971,
      "ring": 1972,
      "Ġtaken": 1973,
      "Ġseveral": 1974,
      "ones": 1975,
      "Ġseries": 1976,
      "Ġexc": 1977,
      "ĠFrance": 1978,
      "haps": 1979,
      "augh": 1980,
      "Ġfood": 1981,
      "Ġfront": 1982,
      "ĠYOU": 1983,
      "can": 1984,
      "ient": 1985,
      "fe": 1986,
      "rench": 1987,
      "ĠEuro": 1988,
      "ĠMarch": 1989,
      "ement": 1990,
      "Ġdog": 1991,
      "cha": 1992,
      "Ġmag": 1993,
      "ude": 1994,
      "unt": 1995,
      "Ġanim": 1996,
      "atic": 1997,
      "TH": 1998,
      "band": 1999,
      "ĠSouth": 2000,
      "bs": 2001,
      "Ġhuman": 2002,
      "Ġpast": 2003,
      "Ġtaking": 2004,
      "Ġhot": 2005,
      "Some": 2006,
      "bit": 2007,
      "aced": 2008,
      "Ġval": 2009,
      "Ġ$": 2010,
      "ĠMin": 2011,
      "ĠDec": 2012,
      "Sh": 2013,
      "Ġsupport": 2014,
      "ĠMiss": 2015,
      "Ġstuff": 2016,
      "oor": 2017,
      "eptember": 2018,
      "Ġseason": 2019,
      "Ġstrong": 2020,
      "ior": 2021,
      "ctober": 2022,
      "Ġann": 2023,
      "ĠFran": 2024,
      "ĠComm": 2025,
      "Ġband": 2026,
      "Ġ]": 2027,
      "ĠAugust": 2028,
      "Ġpict": 2029,
      "Ġeither": 2030,
      "Ġball": 2031,
      "Ġdem": 2032,
      "Ġ&": 2033,
      "ĠTr": 2034,
      "oint": 2035,
      "Ġbar": 2036,
      "Ġstat": 2037,
      "there": 2038,
      "Ġsold": 2039,
      "Ġresp": 2040,
      "ele": 2041,
      "Ġeng": 2042,
      "Ġcharac": 2043,
      "Ġadm": 2044,
      "wo": 2045,
      "Ġtrain": 2046,
      "Ġdaughter": 2047,
      "ots": 2048,
      "Ġpiec": 2049,
      "ĠĠĠĠĠĠĠĠĠĠĠĠĠĠĠĠ": 2050,
      "Ġrather": 2051,
      "Ġfig": 2052,
      "Ġexample": 2053,
      "Ġthinking": 2054,
      "Ġattack": 2055,
      "ĠJune": 2056,
      "Ġallow": 2057,
      "ider": 2058,
      "Be": 2059,
      "ĠWill": 2060,
      "cient": 2061,
      "Ġminutes": 2062,
      "Ġquick": 2063,
      "lt": 2064,
      "aim": 2065,
      "hern": 2066,
      "ĠMrs": 2067,
      "Ġlooks": 2068,
      "ience": 2069,
      "iving": 2070,
      "Ġcouldn": 2071,
      "Ġprogram": 2072,
      "Ġreport": 2073,
      "Ġothers": 2074,
      "ĠBritish": 2075,
      "Ġroad": 2076,
      "Ġparty": 2077,
      "hich": 2078,
      "Ġinform": 2079,
      "Ġtou": 2080,
      "Ġcou": 2081,
      "Ġlisten": 2082,
      "ze": 2083,
      "Ġwithin": 2084,
      "over": 2085,
      "ming": 2086,
      "Ġtem": 2087,
      "Ġheld": 2088,
      "Ġliving": 2089,
      "Ġbeautiful": 2090,
      "ape": 2091,
      "Ġsuccess": 2092,
      "resent": 2093,
      "ency": 2094,
      "Ġdesign": 2095,
      "oe": 2096,
      "Ġnamed": 2097,
      "oman": 2098,
      "ament": 2099,
      "Ġgrow": 2100,
      "ĠEurope": 2101,
      "Ġwants": 2102,
      "itting": 2103,
      "Ġmillion": 2104,
      "Ġresult": 2105,
      "Ġminute": 2106,
      "ĠSeptember": 2107,
      "Ġnational": 2108,
      "Ġnorth": 2109,
      "Ġperform": 2110,
      "ode": 2111,
      "itten": 2112,
      "Ġinside": 2113,
      "ories": 2114,
      "Ġstru": 2115,
      "Ġap": 2116,
      "Ġspecial": 2117,
      "ĠTH": 2118,
      "ored": 2119,
      "ĠOctober": 2120,
      "actly": 2121,
      "ĠSh": 2122,
      "Ex": 2123,
      "ĠCol": 2124,
      "Ġlangu": 2125,
      "Ġnec": 2126,
      "ege": 2127,
      "ĠApril": 2128,
      "ĠAd": 2129,
      "ovember": 2130,
      "AS": 2131,
      "ĠBe": 2132,
      "aul": 2133,
      "Ġmember": 2134,
      "ĠJuly": 2135,
      "ousand": 2136,
      "ĠPres": 2137,
      "Ġsum": 2138,
      "fully": 2139,
      "Ġturned": 2140,
      "Ġmess": 2141,
      "Ġrepl": 2142,
      "Ġwonder": 2143,
      "Ġsingle": 2144,
      "ma": 2145,
      "Ġve": 2146,
      "oad": 2147,
      "Ġvill": 2148,
      "oub": 2149,
      "Ġformer": 2150,
      "ĠNational": 2151,
      "ĠNorth": 2152,
      "Ġlived": 2153,
      "Ġrock": 2154,
      "Ġdear": 2155,
      "range": 2156,
      "Ġsil": 2157,
      "Ġappear": 2158,
      "unk": 2159,
      "Ġincluding": 2160,
      "Maybe": 2161,
      "Ġking": 2162,
      "Ġelect": 2163,
      "II": 2164,
      "ĠPl": 2165,
      "anger": 2166,
      "Ġthank": 2167,
      "Ġ11": 2168,
      "Ġtest": 2169,
      "ĠGo": 2170,
      "ald": 2171,
      "ĠChar": 2172,
      "Or": 2173,
      "ĠBar": 2174,
      "ĠSw": 2175,
      "unch": 2176,
      "Ġdie": 2177,
      "Ah": 2178,
      "fort": 2179,
      "key": 2180,
      "Ġexpect": 2181,
      "Ġdream": 2182,
      "fect": 2183,
      "par": 2184,
      "usband": 2185,
      "----": 2186,
      "ruary": 2187,
      "ounds": 2188,
      "ales": 2189,
      "ebruary": 2190,
      "Ġship": 2191,
      "ued": 2192,
      "Hello": 2193,
      "Ġcamp": 2194,
      "que": 2195,
      "ĠDecember": 2196,
      "Ġcommon": 2197,
      "ĠWhen": 2198,
      "Ġfelt": 2199,
      "Ġplaying": 2200,
      "idge": 2201,
      "read": 2202,
      "Ġhit": 2203,
      "Ġthird": 2204,
      "Ġvoice": 2205,
      "With": 2206,
      "vision": 2207,
      "Ġusing": 2208,
      "Ġmonths": 2209,
      "Ġacross": 2210,
      "ĠPh": 2211,
      "bo": 2212,
      "Ġoutside": 2213,
      "Ġfootball": 2214,
      "een": 2215,
      "ended": 2216,
      "Have": 2217,
      "ternational": 2218,
      "ask": 2219,
      "ĠNovember": 2220,
      "Ġsometimes": 2221,
      "ĠFrench": 2222,
      "Ġdark": 2223,
      "ĠX": 2224,
      "Ġmemb": 2225,
      "aur": 2226,
      "Ġworked": 2227,
      "echn": 2228,
      "Ġcheck": 2229,
      "go": 2230,
      "Ġpossible": 2231,
      "Ġz": 2232,
      "iddle": 2233,
      "though": 2234,
      "After": 2235,
      "cil": 2236,
      "Ġhours": 2237,
      "ached": 2238,
      "Ġeffect": 2239,
      "Ġthousand": 2240,
      "ĠCal": 2241,
      "Ġamong": 2242,
      "Ġrev": 2243,
      "aint": 2244,
      "Ġhair": 2245,
      "Ġfilm": 2246,
      "Ġrequ": 2247,
      "Ġdest": 2248,
      "itch": 2249,
      "Ġfif": 2250,
      "Ch": 2251,
      "Ġgun": 2252,
      "Ġcareer": 2253,
      "Ġcop": 2254,
      "ĠDo": 2255,
      "overed": 2256,
      "Ġclub": 2257,
      "Ġmajor": 2258,
      "Ġfre": 2259,
      "Ġfollowing": 2260,
      "Ġill": 2261,
      "Ġhusband": 2262,
      "Ġpoor": 2263,
      "irth": 2264,
      "Ġsun": 2265,
      "like": 2266,
      "Ġdam": 2267,
      "ata": 2268,
      "Ġprofess": 2269,
      "âĢĶ": 2270,
      "ĠFl": 2271,
      "oved": 2272,
      "Ġappro": 2273,
      "Ġ13": 2274,
      "Ġforg": 2275,
      "Ġtried": 2276,
      "Ġwish": 2277,
      "Re": 2278,
      "ĠFebruary": 2279,
      "eared": 2280,
      "Ġstra": 2281,
      "rodu": 2282,
      "Ġtot": 2283,
      "Ġaf": 2284,
      "Ġ14": 2285,
      "cing": 2286,
      "Ġsend": 2287,
      "Ġtom": 2288,
      "ĠCity": 2289,
      "ean": 2290,
      "more": 2291,
      "Ġcir": 2292,
      "look": 2293,
      "Ġlevel": 2294,
      "Ġmoved": 2295,
      "sc": 2296,
      "Ġgotta": 2297,
      "Ġseven": 2298,
      "Ġhistory": 2299,
      "Ġbuilt": 2300,
      "airs": 2301,
      "Any": 2302,
      "Ġbox": 2303,
      "gest": 2304,
      "hile": 2305,
      "Ġgrand": 2306,
      "Ġpolice": 2307,
      "Ġ2010": 2308,
      "uthor": 2309,
      "attle": 2310,
      "Ġparticular": 2311,
      "ipp": 2312,
      "ĠHer": 2313,
      "Ġsn": 2314,
      "Ġfeet": 2315,
      "de": 2316,
      "ĠTO": 2317,
      "ĠCha": 2318,
      "ressed": 2319,
      "oul": 2320,
      "ĠAf": 2321,
      "Ġbuilding": 2322,
      "Ġproper": 2323,
      "Ġmembers": 2324,
      "Ġusually": 2325,
      "LE": 2326,
      "Ġcre": 2327,
      "omin": 2328,
      "Ġfa": 2329,
      "Ġtill": 2330,
      "10": 2331,
      "Ġgets": 2332,
      "raid": 2333,
      "room": 2334,
      "rit": 2335,
      "Ġparent": 2336,
      "Ġra": 2337,
      "ĠHar": 2338,
      "Ġav": 2339,
      "Ġcompet": 2340,
      "Ġlay": 2341,
      "Ġcost": 2342,
      "she": 2343,
      "Ġoffice": 2344,
      "OM": 2345,
      "rog": 2346,
      "Ġdin": 2347,
      "Ġtreat": 2348,
      "Ġworry": 2349,
      "ĠOr": 2350,
      "ĠGeor": 2351,
      "Ġanyone": 2352,
      "ified": 2353,
      "Ġton": 2354,
      "Ġmur": 2355,
      "raph": 2356,
      "Ġgold": 2357,
      "uk": 2358,
      "ana": 2359,
      "Ġpull": 2360,
      "aged": 2361,
      "Ġanswer": 2362,
      "Ġchance": 2363,
      "Ġcomplete": 2364,
      "ondon": 2365,
      "Ġcontrol": 2366,
      "Ġtable": 2367,
      "Ġfield": 2368,
      "Ġpopulation": 2369,
      "Ġconcer": 2370,
      "Of": 2371,
      "Ġsweet": 2372,
      "18": 2373,
      "Ġbuy": 2374,
      "ĠLe": 2375,
      "Ġstar": 2376,
      "idence": 2377,
      "Ġknows": 2378,
      "Ġwhether": 2379,
      "Ġteac": 2380,
      "Ġstation": 2381,
      "Ġworks": 2382,
      "Ġrad": 2383,
      "Ġabs": 2384,
      "ases": 2385,
      "ien": 2386,
      "Ġbased": 2387,
      "iod": 2388,
      "por": 2389,
      "ays": 2390,
      "Ġord": 2391,
      "ĠGu": 2392,
      "Ġeasy": 2393,
      "ĠEd": 2394,
      "ino": 2395,
      "Ġprop": 2396,
      "Ġcannot": 2397,
      "work": 2398,
      "Ġwall": 2399,
      "Ġcond": 2400,
      "Ġplayer": 2401,
      "Ġ``": 2402,
      "Ġtwenty": 2403,
      "Ġwritten": 2404,
      "ĠCent": 2405,
      "ĠRep": 2406,
      "Ġstep": 2407,
      "Ġ30": 2408,
      "Ġdev": 2409,
      "ding": 2410,
      "yn": 2411,
      "ĠPresident": 2412,
      "Ġlives": 2413,
      "irty": 2414,
      "Ġste": 2415,
      "ĠAfter": 2416,
      "Ġsister": 2417,
      "Ġevent": 2418,
      "Ġdescri": 2419,
      "ĠIf": 2420,
      "ĠAb": 2421,
      "soci": 2422,
      "Ġregion": 2423,
      "Ġfav": 2424,
      "Ġlocal": 2425,
      "Ġview": 2426,
      "Ġla": 2427,
      "asure": 2428,
      "Ġseems": 2429,
      "itions": 2430,
      "com": 2431,
      "Ġphone": 2432,
      "OW": 2433,
      "Ġgeneral": 2434,
      "illy": 2435,
      "Ġpract": 2436,
      "hys": 2437,
      "ances": 2438,
      "ula": 2439,
      "Ġcouple": 2440,
      "ule": 2441,
      "21": 2442,
      "urg": 2443,
      "Ġmine": 2444,
      "Ġiss": 2445,
      "ara": 2446,
      "Ġeveryone": 2447,
      "Ġcurrent": 2448,
      "Ġvide": 2449,
      "Cl": 2450,
      "Ġdi": 2451,
      "Ġafraid": 2452,
      "iding": 2453,
      "Ġlow": 2454,
      "iron": 2455,
      "Ġsouth": 2456,
      "Ġcentury": 2457,
      "Ġprocess": 2458,
      "Ġpost": 2459,
      "Ġones": 2460,
      "Ġbird": 2461,
      "Ġfast": 2462,
      "Ġmot": 2463,
      "ising": 2464,
      "Ġwrote": 2465,
      "Ġdraw": 2466,
      "Ġdeep": 2467,
      "Ġsense": 2468,
      "bers": 2469,
      "ument": 2470,
      "Ġcold": 2471,
      "Ġwear": 2472,
      "ĠWest": 2473,
      "hampions": 2474,
      "ĠLondon": 2475,
      "Ġcal": 2476,
      "ĠLea": 2477,
      "Ġdiffic": 2478,
      "ĠDon": 2479,
      "Ġinvol": 2480,
      "Ġground": 2481,
      "Ġexactly": 2482,
      "ift": 2483,
      "Ġfair": 2484,
      "Ġseemed": 2485,
      "Ġwrite": 2486,
      "Ġtomorrow": 2487,
      "ada": 2488,
      "Ġgirls": 2489,
      "Ġcry": 2490,
      "Ġnat": 2491,
      "Take": 2492,
      "Ġsea": 2493,
      "ED": 2494,
      "IT": 2495,
      "ission": 2496,
      "Ġboys": 2497,
      "Ġlonger": 2498,
      "Ġincre": 2499,
      "ourn": 2500,
      "ky": 2501,
      "Ġbirth": 2502,
      "who": 2503,
      "CH": 2504,
      "Ġfur": 2505,
      "itive": 2506,
      "ected": 2507,
      "Erm": 2508,
      "ĠEngland": 2509,
      "unic": 2510,
      "uri": 2511,
      "Ġpaper": 2512,
      "ogn": 2513,
      "Ġdistrict": 2514,
      "Ġsuff": 2515,
      "ĠJack": 2516,
      "Ġcharacter": 2517,
      "Ġhuh": 2518,
      "Ġbott": 2519,
      "avy": 2520,
      "ization": 2521,
      "Ġsex": 2522,
      "Ġinformation": 2523,
      "ills": 2524,
      "See": 2525,
      "ging": 2526,
      "oose": 2527,
      "hel": 2528,
      "Ġchanged": 2529,
      "off": 2530,
      "Wait": 2531,
      "ording": 2532,
      "ĠItal": 2533,
      "His": 2534,
      "ribut": 2535,
      "Ġtruth": 2536,
      "Ġkids": 2537,
      "entle": 2538,
      "Ġdirect": 2539,
      "ĠAustral": 2540,
      "amb": 2541,
      "ration": 2542,
      "Ġdepartment": 2543,
      "Ġnews": 2544,
      "Ġrunning": 2545,
      "Ġ25": 2546,
      "irt": 2547,
      "Ġlik": 2548,
      "ĠOne": 2549,
      "Ġsupposed": 2550,
      "uation": 2551,
      "ouncil": 2552,
      "ination": 2553,
      "Ġwood": 2554,
      "dom": 2555,
      "Ġpress": 2556,
      "Ġcat": 2557,
      "Ġservice": 2558,
      "Ġpubl": 2559,
      "aff": 2560,
      "Ġmer": 2561,
      "Ġsomebody": 2562,
      "ĠGerman": 2563,
      "Ġfail": 2564,
      "Ġlab": 2565,
      "Ġgen": 2566,
      "ĠWell": 2567,
      "ĠMic": 2568,
      "Ġforget": 2569,
      "Ġhurt": 2570,
      "Ġeduc": 2571,
      "Ġtonight": 2572,
      "they": 2573,
      "Ġsuper": 2574,
      "Ġcross": 2575,
      "Ġtrouble": 2576,
      "Ġshot": 2577,
      "Ġperiod": 2578,
      "GH": 2579,
      "Ġdro": 2580,
      "urs": 2581,
      "ille": 2582,
      "Ġ*": 2583,
      "ĠLord": 2584,
      "Ġneeds": 2585,
      "lex": 2586,
      "ford": 2587,
      "uture": 2588,
      "22": 2589,
      "Ġreceived": 2590,
      "Ġhig": 2591,
      "Ġtree": 2592,
      "ĠUS": 2593,
      "Ġclean": 2594,
      "Ġtype": 2595,
      "ĠAmerica": 2596,
      "Ġauthor": 2597,
      "Ġtelevision": 2598,
      "Ġposition": 2599,
      "Ġ0": 2600,
      "ĠEl": 2601,
      "itary": 2602,
      "Like": 2603,
      "acy": 2604,
      "ĠThen": 2605,
      "Ġblue": 2606,
      "emy": 2607,
      "ĠDr": 2608,
      "conom": 2609,
      "owers": 2610,
      "Ġrepresent": 2611,
      "Ġple": 2612,
      "Ġluck": 2613,
      "pec": 2614,
      "ption": 2615,
      "ĠAm": 2616,
      "Ġtrad": 2617,
      "ospital": 2618,
      "Ġlady": 2619,
      "Ġsecret": 2620,
      "ĠRe": 2621,
      "Ġkept": 2622,
      "arty": 2623,
      "ĠSchool": 2624,
      "ilar": 2625,
      "ĠDan": 2626,
      "eople": 2627,
      "ĠRuss": 2628,
      "Ġcreated": 2629,
      "Ġtechn": 2630,
      "Ġentire": 2631,
      "Ġarri": 2632,
      "Ġmount": 2633,
      "Ġtit": 2634,
      "joy": 2635,
      "Ġthemselves": 2636,
      "Ġlanguage": 2637,
      "Ġtouch": 2638,
      "dden": 2639,
      "Ġserious": 2640,
      "Ġaccept": 2641,
      "Ġcos": 2642,
      "ĠEx": 2643,
      "Ġwaiting": 2644,
      "ae": 2645,
      "ror": 2646,
      "Ġconn": 2647,
      "hard": 2648,
      "Ġeverybody": 2649,
      "lu": 2650,
      "eder": 2651,
      "Ġvers": 2652,
      "fer": 2653,
      "Ġsell": 2654,
      "Ġvillage": 2655,
      "Thanks": 2656,
      "Ġwhatever": 2657,
      "ken": 2658,
      "US": 2659,
      "la": 2660,
      "uz": 2661,
      "avid": 2662,
      "ploy": 2663,
      "OK": 2664,
      "iol": 2665,
      "van": 2666,
      "ĠAfric": 2667,
      "Ġhy": 2668,
      "Ġobject": 2669,
      "Sorry": 2670,
      "Ġsurpr": 2671,
      "ĠTom": 2672,
      "Ġfucking": 2673,
      "Ġsett": 2674,
      "Ġsudden": 2675,
      "Ġstraight": 2676,
      "Ġcook": 2677,
      "ivil": 2678,
      "Ġsugg": 2679,
      "Ġsuggest": 2680,
      "ĠDe": 2681,
      "Un": 2682,
      "Ġabove": 2683,
      "ĠState": 2684,
      "inal": 2685,
      "Ġfly": 2686,
      "Ġmist": 2687,
      "Ġparents": 2688,
      "Ġspecies": 2689,
      "olution": 2690,
      "Ġperhaps": 2691,
      "ician": 2692,
      "estern": 2693,
      "with": 2694,
      "ĠPeter": 2695,
      "Ġpot": 2696,
      "Ġgreen": 2697,
      "ĠMy": 2698,
      "Ġrul": 2699,
      "ping": 2700,
      "Ar": 2701,
      "ression": 2702,
      "Ġfuture": 2703,
      "this": 2704,
      "Ġrese": 2705,
      "Ġhowever": 2706,
      "stit": 2707,
      "teen": 2708,
      "ending": 2709,
      "Ġpicture": 2710,
      "ager": 2711,
      "Ġpriv": 2712,
      "Ġlim": 2713,
      "val": 2714,
      "Ġrespect": 2715,
      "Ġcomput": 2716,
      "cience": 2717,
      "ray": 2718,
      "Ġcell": 2719,
      "Ġinstead": 2720,
      "Ġtakes": 2721,
      "Ġdecided": 2722,
      "Ġproblems": 2723,
      "Ġexist": 2724,
      "reet": 2725,
      "Ġinclude": 2726,
      "Ġfeeling": 2727,
      "Ġvol": 2728,
      "Tell": 2729,
      "ops": 2730,
      "omb": 2731,
      "ĠSha": 2732,
      "Ġshoot": 2733,
      "Ġbooks": 2734,
      "atter": 2735,
      "Ġitself": 2736,
      "roy": 2737,
      "ĠMc": 2738,
      "Ġcarry": 2739,
      "Ġpiece": 2740,
      "Ġled": 2741,
      "Ġstri": 2742,
      "ĠWh": 2743,
      "Ġperfect": 2744,
      "Ġmouth": 2745,
      "Ġang": 2746,
      "Ġfinished": 2747,
      "isten": 2748,
      "lands": 2749,
      "Ġport": 2750,
      "Ġimag": 2751,
      "Ġherself": 2752,
      "ĠSy": 2753,
      "ocr": 2754,
      "ĠPol": 2755,
      "Ġinvest": 2756,
      "Ġlearn": 2757,
      "Ġcult": 2758,
      "alt": 2759,
      "Ġchair": 2760,
      "Ġlaugh": 2761,
      "ĠNot": 2762,
      "razy": 2763,
      "IC": 2764,
      "Ġdoctor": 2765,
      "Ġpopular": 2766,
      "ivid": 2767,
      "ĠOF": 2768,
      "Ġletter": 2769,
      "eneral": 2770,
      "15": 2771,
      "Ġcho": 2772,
      "These": 2773,
      "Ġserved": 2774,
      "ĠEar": 2775,
      "Ġdue": 2776,
      "hael": 2777,
      "Ġdoll": 2778,
      "Ġfix": 2779,
      "oes": 2780,
      "Will": 2781,
      "Ġpen": 2782,
      "Ġaren": 2783,
      "Ġproject": 2784,
      "ĠHowever": 2785,
      "Ġprin": 2786,
      "Ġhappens": 2787,
      "unicip": 2788,
      "Ġdifficult": 2789,
      "lin": 2790,
      "Ġworth": 2791,
      "Ġchurch": 2792,
      "Ġtrust": 2793,
      "reg": 2794,
      "Ġearth": 2795,
      "Ġvideo": 2796,
      "AY": 2797,
      "Ġcover": 2798,
      "Stop": 2799,
      "Ġmem": 2800,
      "pes": 2801,
      "ĠHouse": 2802,
      "Ġspace": 2803,
      "ograp": 2804,
      "Ġ24": 2805,
      "amer": 2806,
      "Hi": 2807,
      "Ġfinal": 2808,
      "olute": 2809,
      "ĠPhil": 2810,
      "ĠLeague": 2811,
      "Ġnorm": 2812,
      "Ġain": 2813,
      "Ġtrack": 2814,
      "yle": 2815,
      "Ġactiv": 2816,
      "Ġhealth": 2817,
      "Ġbear": 2818,
      "Ġlad": 2819,
      "see": 2820,
      "Ġprison": 2821,
      "viously": 2822,
      "Ġesc": 2823,
      "Ġtelling": 2824,
      "Ġshit": 2825,
      "Ġhorse": 2826,
      "pha": 2827,
      "ĠAN": 2828,
      "ĠCap": 2829,
      "Ġslow": 2830,
      "Ġbri": 2831,
      "Ġanyway": 2832,
      "Ġarm": 2833,
      "17": 2834,
      "Ġrecogn": 2835,
      "Ġnine": 2836,
      "Ġeye": 2837,
      "erry": 2838,
      "Ġsafe": 2839,
      "Ġrelations": 2840,
      "Ġpresident": 2841,
      "Ġsoft": 2842,
      "Ġhang": 2843,
      "ĠTo": 2844,
      "ciety": 2845,
      "rug": 2846,
      "empt": 2847,
      "iment": 2848,
      "ears": 2849,
      "Ġgentle": 2850,
      "Ġweeks": 2851,
      "Ġ2014": 2852,
      "Ġcompl": 2853,
      "erence": 2854,
      "Ġsocial": 2855,
      "itor": 2856,
      "Ġmiddle": 2857,
      "ĠThese": 2858,
      "Ġriver": 2859,
      "ĠColl": 2860,
      "Ġdoub": 2861,
      "Ġpassed": 2862,
      "roll": 2863,
      "epend": 2864,
      "Ġfigure": 2865,
      "Ġcorn": 2866,
      "ls": 2867,
      "omes": 2868,
      "Ġspir": 2869,
      "Ġep": 2870,
      "Ġ100": 2871,
      "Ġdanger": 2872,
      "itted": 2873,
      "Ġsus": 2874,
      "line": 2875,
      "time": 2876,
      "Ġmeant": 2877,
      "ĠGermany": 2878,
      "ET": 2879,
      "Ã¡": 2880,
      "aha": 2881,
      "Ġphot": 2882,
      "AL": 2883,
      "?âĢĿ": 2884,
      "lect": 2885,
      "ashing": 2886,
      "Ġsave": 2887,
      "ival": 2888,
      "12": 2889,
      "Mar": 2890,
      "nel": 2891,
      "Ġcounty": 2892,
      "bor": 2893,
      "Ġphys": 2894,
      "Ġengine": 2895,
      "Ġjud": 2896,
      "ĠIndian": 2897,
      "Ġenjoy": 2898,
      "uel": 2899,
      "Ġgames": 2900,
      "ĠPaul": 2901,
      "Ġahead": 2902,
      "ander": 2903,
      "ĠPark": 2904,
      "Ġestab": 2905,
      "Ġcourt": 2906,
      "ris": 2907,
      "Ġfunny": 2908,
      "Ġ2018": 2909,
      "Ġmeeting": 2910,
      "Ġclot": 2911,
      "Ġevening": 2912,
      "Ġhop": 2913,
      "Ġseat": 2914,
      "Ġfamous": 2915,
      "Ġterri": 2916,
      "Ġvict": 2917,
      "Ġfurther": 2918,
      "Ġ192": 2919,
      "Ġcast": 2920,
      "ĠSec": 2921,
      "Ġgod": 2922,
      "Ġant": 2923,
      "Ġeconom": 2924,
      "king": 2925,
      "ĠJo": 2926,
      "AM": 2927,
      "cher": 2928,
      "Ġexcept": 2929,
      "Ġmis": 2930,
      "riage": 2931,
      "Ġglad": 2932,
      "ergy": 2933,
      "Ġ2011": 2934,
      "ishing": 2935,
      "ĠĠĠĠĠ": 2936,
      "ius": 2937,
      "Ġfish": 2938,
      "Ġcrazy": 2939,
      "Ġopened": 2940,
      "iforn": 2941,
      "Ġ#": 2942,
      "Ġmach": 2943,
      "Ġda": 2944,
      "Ġsick": 2945,
      "Ġide": 2946,
      "Ġcrit": 2947,
      "Ġneg": 2948,
      "ume": 2949,
      "Ġreturned": 2950,
      "ceed": 2951,
      "Ġquiet": 2952,
      "Ġfill": 2953,
      "Ġ(\"": 2954,
      "Ġaut": 2955,
      "ĠQue": 2956,
      "ĠSe": 2957,
      "field": 2958,
      "Ġstood": 2959,
      "Ġum": 2960,
      "Ġcool": 2961,
      "Ġleaving": 2962,
      "Ġgrad": 2963,
      "Ġself": 2964,
      "put": 2965,
      "Ġcapital": 2966,
      "Ġrole": 2967,
      "16": 2968,
      "oly": 2969,
      "Ġnin": 2970,
      "Ġthrow": 2971,
      "ĠWilliam": 2972,
      "hank": 2973,
      "ett": 2974,
      "ifornia": 2975,
      "light": 2976,
      "cell": 2977,
      "Ġdisapp": 2978,
      "Ġring": 2979,
      "aining": 2980,
      "Ġbeginning": 2981,
      "Ġcatch": 2982,
      "Ġdinner": 2983,
      "erve": 2984,
      "OT": 2985,
      "Ġaccount": 2986,
      "hem": 2987,
      "iers": 2988,
      "Ġbreat": 2989,
      "VE": 2990,
      "Ġmad": 2991,
      "Ġforce": 2992,
      "Ġmult": 2993,
      "Ġsubject": 2994,
      "ĠWhy": 2995,
      "Ġannoun": 2996,
      "ĠSome": 2997,
      "Ġ2013": 2998,
      "<mask>": 2999
    },
    "merges": [
      "Ġ t",
      "h e",
      "Ġ a",
      "i n",
      "Ġt he",
      "r e",
      "Ġ w",
      "o u",
      "Ġ s",
      "o n",
      "e r",
      "h a",
      "n d",
      "i s",
      "i t",
      "Ġ b",
      "Ġ o",
      "Ġ c",
      "Ġ m",
      "Ġ f",
      "in g",
      "o r",
      "e d",
      "l l",
      "a n",
      "Ġ d",
      "e n",
      "Ġt o",
      "e s",
      "Ġ p",
      "Ġ y",
      "Ġo f",
      "a r",
      "Ġ in",
      "a t",
      "Ġy ou",
      "Ġa nd",
      "Ġ l",
      "ha t",
      "a s",
      "Ġ g",
      "o m",
      "Ġ n",
      "Ġ I",
      "i c",
      "o w",
      "v e",
      "l e",
      "o t",
      "a l",
      "Ġ h",
      "Ġ he",
      "e t",
      "u s",
      "Ġ ha",
      "' s",
      "a y",
      "Ġt h",
      "Ġ it",
      "Ġb e",
      "Ġ is",
      "Ġt hat",
      "Ġ on",
      "i on",
      "i d",
      "Ġ e",
      "g h",
      "l d",
      "en t",
      "Ġ re",
      "Ġw as",
      "u t",
      "i m",
      "a c",
      "Ġw e",
      "v er",
      "a m",
      "T he",
      "Ġf or",
      "Ġ S",
      "l y",
      ". .",
      "s t",
      "r i",
      "r o",
      "a d",
      "s e",
      "i r",
      "k e",
      "Ġs t",
      "Ġ .",
      "o o",
      "' t",
      "gh t",
      "Ġ A",
      "ou t",
      "Ġ C",
      "it h",
      "Ġm e",
      "Ġ M",
      "Ġ k",
      "Ġ u",
      "a ll",
      "Ġa n",
      "Ġw ith",
      "u r",
      "Ġd o",
      "Ġa s",
      "e c",
      "he r",
      "i ll",
      "t er",
      "i f",
      "Ġ Ġ",
      "Ġ H",
      "Ġw h",
      "c h",
      "om e",
      "c e",
      "Ġ 1",
      "Ġ B",
      "Ġa re",
      "i l",
      "Ġha ve",
      "Ġn ot",
      "Ġa t",
      "a nd",
      "Ġth is",
      "ou ld",
      "us t",
      "Ġs e",
      "Ġg o",
      "an t",
      "Ġ T",
      "Y ou",
      "Ġl i",
      "at ion",
      "Ġk n",
      "o p",
      "Ġ P",
      "e a",
      "a in",
      "u n",
      "Ġ W",
      "g e",
      "o l",
      "t h",
      "e ll",
      "u l",
      "r om",
      "Ġh is",
      "Ġ ,",
      "o re",
      "Ġkn ow",
      "Ġ \"",
      "Ġ j",
      "Ġ r",
      ".. .",
      "Ġ D",
      "ou r",
      "Ġn e",
      "p p",
      "Ġ G",
      "c t",
      "e l",
      "Ġc an",
      "u m",
      "Ġ ?",
      "is t",
      "Ġs o",
      "Ġyou r",
      "Ġ 2",
      "Ġa ll",
      "Ġthe y",
      "e m",
      "es t",
      "Ġm y",
      "Ġa l",
      "Ġ The",
      "Ġ L",
      "Ġ R",
      "Ġa b",
      "ar t",
      "er s",
      "Ġ F",
      "Ġb y",
      "Ġf rom",
      "es s",
      "Ġw hat",
      "Ġ N",
      "o s",
      "Ġs h",
      "a b",
      "Ġhe r",
      "n t",
      "Ġo r",
      "Ġon e",
      "Ġw he",
      "Ġc on",
      "i e",
      "Ġ J",
      "i ght",
      "i g",
      "Ġu p",
      "on e",
      "re d",
      "Ġthe re",
      "ha n",
      "' re",
      "Ġha d",
      "all y",
      "q u",
      "Ġs u",
      "â Ģ",
      "r y",
      "Ġc om",
      "r a",
      "Ġ out",
      "Ġb ut",
      "ac k",
      "Ġh im",
      "Ġw or",
      "oo d",
      "at e",
      "oo k",
      "ver y",
      "Ġp l",
      "re s",
      "Ġd e",
      "i ve",
      "Ġli ke",
      "Ġ (",
      "Ġ us",
      "a ke",
      "Ġs he",
      "' m",
      "o d",
      "am e",
      "on g",
      "Ġ E",
      "in k",
      "Ġp ro",
      "Ġs a",
      "I t",
      "Ġ1 9",
      "Ġab out",
      "Ġg et",
      "Ġ O",
      "Ġ v",
      "Ġe x",
      "in d",
      "Ġwe re",
      "as t",
      "ou nd",
      "or t",
      "ar d",
      "Ġd on",
      "c k",
      "it y",
      "Ġj ust",
      "A nd",
      "ri ght",
      "b er",
      "Ġs p",
      "e ar",
      "ic h",
      "H e",
      "Ġ2 0",
      "i es",
      "Ġd id",
      "ec t",
      "Ġwh o",
      "Ġhe re",
      "a k",
      "e p",
      "Ġn o",
      "ea h",
      "a p",
      "im e",
      "Ġthe m",
      "Ġw ant",
      "in e",
      "' ll",
      "Ġm an",
      "u d",
      "Ġ if",
      "Ġw ould",
      "Ġth ink",
      "Ġ '",
      "ou s",
      "v en",
      "Ġw ill",
      "W hat",
      "Ġs ome",
      "h ing",
      "ow n",
      "a g",
      "Ġin t",
      "Ġ K",
      "o st",
      "ic e",
      "it t",
      "Ġan y",
      "m ent",
      "ĠĠ ĠĠ",
      "Ġ right",
      "id e",
      "Ġha s",
      "h i",
      "ou gh",
      "Ġg ot",
      "us e",
      "ĠH e",
      "Ġse e",
      "t her",
      "Ġt r",
      "Ġwh ich",
      "Ġwhe n",
      "u re",
      "Ġa r",
      "Ġa g",
      "Ġs ay",
      "a re",
      "Ġt w",
      "e nd",
      "i v",
      "W e",
      "Ġbe en",
      "i an",
      "w ay",
      "Ġt ime",
      "- -",
      "ac e",
      "ĠI t",
      "i a",
      "Ġsa id",
      "o ve",
      "' ve",
      "Ġp e",
      "f f",
      "Ġbe c",
      "ic k",
      "Ġ U",
      "Ġn ow",
      "Ġc l",
      "s o",
      "o se",
      "a use",
      "Ġl ook",
      "l f",
      "op le",
      "n a",
      "is h",
      "Ġl e",
      "re at",
      "Ġm ore",
      "Ġthe ir",
      "ar y",
      "Ġgo ing",
      "ot her",
      "Y eah",
      "Ġthe n",
      "re e",
      "a ge",
      "Ġc ould",
      "S o",
      "N o",
      "u e",
      "Ġo ther",
      "Ġ =",
      "Ġb ack",
      "Ġo ver",
      "on d",
      "Ġof f",
      "it e",
      "ir st",
      "ĠS t",
      "h is",
      "ac t",
      "B ut",
      "Ġpe ople",
      "e w",
      "b le",
      "Ġ qu",
      "Ġg r",
      "or n",
      "Ġ ro",
      "ing s",
      "as s",
      "Ġwor k",
      "O h",
      "Ġ very",
      "p er",
      "Ġtw o",
      "ou nt",
      "0 0",
      "T hat",
      "f ter",
      "p t",
      "or d",
      "Ġg ood",
      "Ġb r",
      "Ġto o",
      "p l",
      "o g",
      "u b",
      "e re",
      "om et",
      "c i",
      "Ġ en",
      "Ġf irst",
      "an s",
      "as e",
      "itt le",
      "k ay",
      "er m",
      "Ġint o",
      "m er",
      "at ed",
      "i re",
      "o v",
      "ion s",
      "he d",
      "o ll",
      "al k",
      "o y",
      "Ġd own",
      "t he",
      "h y",
      "Ġh ow",
      "ad e",
      "Ġt han",
      "Ġy ear",
      "Ġu n",
      "Ġp art",
      "Ġw ay",
      "Ġp r",
      "Ġ our",
      "Ġa m",
      "w e",
      "Ġcom p",
      "i z",
      "ou ght",
      "Ġc all",
      "Ġl ittle",
      "Ġc ome",
      "Ġb l",
      "ĠI n",
      "Ġpl ay",
      "Ġal so",
      "Ġ im",
      "Ġon ly",
      "Ġ V",
      "at er",
      "nd er",
      "c c",
      "Ġwhe re",
      "ac h",
      "an ce",
      "Ġe very",
      "n e",
      "Ġag ain",
      "if e",
      "W ell",
      "n g",
      "ur n",
      "Ġa d",
      "ha r",
      "w n",
      "Ġs omet",
      "o c",
      "Ġ Y",
      "r u",
      "Ġd ay",
      "Ġne ed",
      "Ġb et",
      "Ġ20 1",
      "t y",
      "is s",
      "Ġf e",
      "he re",
      "u ch",
      ". \"",
      "res s",
      "a v",
      "Ġa ct",
      "Ġm ake",
      "Ġwe ll",
      "am p",
      "h o",
      "f ore",
      "Ġt ake",
      "en ce",
      "Ġa fter",
      "Ġg u",
      "se lf",
      "I n",
      "or y",
      "o h",
      "ab le",
      "an g",
      "Ġbec ause",
      "ar k",
      "Ġcon t",
      "Ġs c",
      "i p",
      "ic al",
      "a u",
      "Ġd is",
      "Ġt e",
      "ig n",
      "th ing",
      "in t",
      "Ġl et",
      "Ġre ally",
      "or m",
      "Ġsh ould",
      "u ck",
      "Ġp re",
      "ic t",
      "Ġt ell",
      "oo l",
      "Ġha pp",
      "at her",
      "Ġw r",
      "o b",
      "c l",
      "en s",
      "Ġth r",
      "on na",
      "Ġf l",
      "f t",
      "u ll",
      "i ed",
      "Ġa pp",
      "Ġu nder",
      "i al",
      "Ġthe se",
      "Ġm uch",
      "Ġdo es",
      "ul t",
      "Ġsomet hing",
      "T his",
      "Ġne w",
      "i le",
      "Ġre s",
      "Ġp ut",
      "od y",
      "Ġg onna",
      "Ġp o",
      "Ġp er",
      "Ġme an",
      "Ġm ade",
      "The y",
      "he n",
      "l es",
      "on s",
      "if f",
      "Ġl ong",
      "' d",
      "b e",
      "v ed",
      "Ġs er",
      "ĠU n",
      "o ld",
      "v ing",
      "Ġt alk",
      "l and",
      "Ġne ver",
      "Y es",
      "ation s",
      "S he",
      "t e",
      "Ġbe fore",
      "Ġ er",
      "Ġe ven",
      "Ġm ay",
      "k s",
      "d u",
      "i ly",
      "at es",
      "ĠC h",
      "o ck",
      "Ġit s",
      "p s",
      "ou se",
      "Ġc ar",
      "a il",
      "Ġb u",
      "t ing",
      "Ġdid n",
      "Ġre m",
      "Ġ âĢ",
      "Ġcom m",
      "Ġ 3",
      "p ort",
      "Ġ ke",
      "ad y",
      "The re",
      "Ġs m",
      "ver s",
      "Ġyear s",
      "at h",
      "it ion",
      "i ous",
      "y ou",
      "em ber",
      "or s",
      "is e",
      "i x",
      "re n",
      "Ġha nd",
      "w ard",
      "u ally",
      "âĢ Ŀ",
      "it ed",
      "Ġre c",
      "Ġhe l",
      "ve l",
      "Ġman y",
      "Ġthr ough",
      "ri ed",
      "Ġ20 0",
      "I f",
      "Ġo ld",
      "Ġs ec",
      "a w",
      "f ul",
      "g et",
      "r an",
      "Ġc h",
      "Ġth ing",
      "Ġm ost",
      "Ġst art",
      "Ġc han",
      "Ġth ree",
      "d ay",
      "Ġg reat",
      "Ġd iff",
      "p e",
      "in ce",
      "i gh",
      "Ġl ife",
      "Ġth ings",
      "a ve",
      "Ġth ought",
      "Ġf ound",
      "H ow",
      "Ġth ose",
      "Ġbe l",
      "â Ļ",
      "Ġst ill",
      "Ġs ha",
      "v es",
      "Ġa way",
      "w hat",
      "os s",
      "Ġd es",
      "Ġus ed",
      "Ġf ind",
      "t ain",
      "o ot",
      "` `",
      "Ġ' '",
      "Ġl ove",
      "e ver",
      "Ġm ust",
      "Ġh ome",
      "he s",
      "Ġ You",
      "Ġl ast",
      "ri end",
      "Ġhel p",
      "Ġdo ing",
      "Ġ i",
      "e e",
      "Ġc o",
      "im es",
      "Ġas k",
      "ent s",
      "Ġo wn",
      "Ġsh ow",
      "Ġc r",
      "hi ld",
      "Ġl ea",
      "mer ic",
      "le ase",
      "Ġw ent",
      "Ġg ive",
      "Ġ !",
      "u p",
      "Ġc ame",
      "x t",
      "Ġm in",
      "ation al",
      "one y",
      "Ġe nd",
      "âĢ Ļ",
      "ir l",
      "âĻ ª",
      "en ed",
      "Ġbe ing",
      "Ġat t",
      "Ġw on",
      "\" .",
      "Ġn ame",
      "ter n",
      "Ġc our",
      "g in",
      "ct ion",
      "ĠM r",
      "ĠS he",
      "Ġc ount",
      "c ed",
      "Ġcall ed",
      "ch ool",
      "m y",
      "n y",
      "Ġm ov",
      "Ġe ar",
      "a it",
      "g an",
      "Ġf am",
      "at ch",
      "D o",
      "ĠĠĠĠ ĠĠĠĠ",
      "al s",
      "m an",
      "Ġ1 8",
      "b ody",
      "Ġs ame",
      "N ow",
      "way s",
      "Ġc hild",
      "I N",
      "Ġd ec",
      "Ġc are",
      "on t",
      "c es",
      "Ġsu ch",
      "n ing",
      "l i",
      "ot h",
      "Ġk ind",
      "ĠM ar",
      "W hy",
      "Ġfe el",
      "id ent",
      "Ġt ry",
      "Ġb ig",
      "u g",
      "ĠA meric",
      "Ġhe ad",
      "Ġl ot",
      "Ġn ight",
      "ak ing",
      "Ġwor ld",
      "an y",
      "Ġsu pp",
      "Ġwh y",
      "i ld",
      "a ir",
      "Ġpl ace",
      "ha m",
      "Ġp ol",
      "f orm",
      "ers on",
      "Ġdiff ere",
      "E R",
      "s ide",
      "Ġw om",
      "Ġar ound",
      "Ġf in",
      "ĠB r",
      "Ġha r",
      "Ġf riend",
      "Ġn um",
      "ut e",
      "Ġm ar",
      "Ġk ill",
      "ĠA r",
      "s s",
      "L et",
      "at ing",
      "ur ing",
      ") .",
      "g r",
      "Ġus e",
      "as ed",
      "ow er",
      "Ġin d",
      "Ġa cc",
      "out h",
      "D on",
      "ub l",
      "Ġm ight",
      "Ġo p",
      "a h",
      "u nd",
      "Ġre g",
      "Ġan other",
      "\" ,",
      "Ġ 4",
      "Ġs et",
      "Ġs l",
      "Ġt urn",
      "Ġc he",
      "or ry",
      "Ġe le",
      "p ect",
      "en er",
      "we en",
      "Ġh ouse",
      "Ġal ways",
      "t s",
      "C ome",
      "ic s",
      "Ġre l",
      "y s",
      "Ġf our",
      "Ġa c",
      "cl ud",
      "i ble",
      "Ġany thing",
      "Ġg irl",
      "S t",
      "Ġle ft",
      ") ,",
      "A ll",
      "Ġbet ter",
      "u h",
      "Ġd one",
      "t hat",
      "Ġb it",
      "m b",
      "Ġsu re",
      "Ġp res",
      "v ent",
      "l ed",
      "Ġ19 9",
      "Ġs ur",
      "as on",
      "n ess",
      "a z",
      "ul ar",
      "p h",
      "p le",
      "Ġke ep",
      "Ġb oy",
      "Ġ 5",
      "Ġe l",
      "Ġs y",
      "g g",
      ", \"",
      "Ġr un",
      "d er",
      "ĠA nd",
      "i b",
      "au ght",
      "O kay",
      "u al",
      "Ġm on",
      "Ġfor m",
      "Ġre al",
      "Ġbet ween",
      "M y",
      "| |",
      "Ġbel ie",
      "oll ow",
      "ot t",
      "Ġto ld",
      "i o",
      "Ġknow n",
      "Ġsec ond",
      "ĠThe y",
      "e red",
      "ir d",
      "is hed",
      "ter s",
      "a le",
      "ar s",
      "Ġu nt",
      "y es",
      "Ġs chool",
      "Ġc har",
      "Ġwor d",
      "H E",
      "Ġst ud",
      "Ġm oney",
      "Ġd ist",
      "Ġe ver",
      "ĠN ew",
      "j ect",
      "Ġ ent",
      "Ġg l",
      "r ow",
      "Ġo b",
      "hi p",
      "He y",
      "n er",
      "Ġdiffere nt",
      "Ġre t",
      "Ġwh ile",
      "Ġm at",
      "or k",
      "I s",
      "re t",
      "b ut",
      "Ġm om",
      "Ġp erson",
      "Ġb o",
      "ĠA l",
      "ou n",
      "Ġb us",
      "ĠT his",
      "or th",
      "r ic",
      "ak es",
      "Ġin clud",
      "n o",
      "Ġpo int",
      "T han",
      "Ġsu b",
      "y e",
      "Ġcon s",
      "Ġo kay",
      "Ġd r",
      "N ot",
      "Ġm us",
      "Ġcour se",
      "A N",
      "ĠW hat",
      "O U",
      "Ġsp ec",
      "Ġst r",
      "Ġunt il",
      "ĠUn ited",
      "Ġ erm",
      "Ġas s",
      "Ġin v",
      "at ive",
      "ol og",
      "Ġb ook",
      "c y",
      "Ġu h",
      "Ġtoo k",
      "ĠĠ Ġ",
      "l ing",
      "ĠA n",
      "Ġm et",
      "it s",
      "Ġne xt",
      "W hen",
      "in s",
      "t on",
      "Ġm en",
      "Ġst op",
      "un e",
      "Ġc ent",
      "Ġs w",
      "st and",
      "Ġb est",
      "Ġw ar",
      "Ġin st",
      "Ġb oth",
      "Ġse em",
      "is ion",
      "Ġf ar",
      "Ġe ach",
      "Ġs ing",
      "Ġnot hing",
      "Ġf un",
      "a j",
      "Ġde p",
      "Ġwe e",
      "i er",
      "ĠG od",
      "Ġde f",
      "Ġc le",
      "ver n",
      "Ġb re",
      "it ies",
      "Ġc ha",
      "Ġw ater",
      "am es",
      "ce pt",
      "i red",
      "w here",
      "Ġnum ber",
      "u res",
      "op e",
      "Ġf ollow",
      "Ġp ass",
      "Ġf ather",
      "Ġsa w",
      "ĠAmeric an",
      "ĠA s",
      "ĠN o",
      "oh n",
      "Ġm other",
      "Ġl ater",
      "ĠâĢ ľ",
      "i vers",
      "Ġdoes n",
      "c er",
      "m s",
      "t o",
      "âĢ ľ",
      "Ġfam ily",
      "a x",
      "Ġ -",
      "Ġp h",
      "re w",
      "Ġl ist",
      "ea k",
      "Ġte am",
      "re am",
      "an k",
      "un g",
      "o k",
      "Ġpro du",
      "ro ss",
      "Ġl ar",
      "Ġ19 8",
      "e g",
      "b r",
      "Ġc ity",
      "Ġy eah",
      "os ed",
      "Ġin c",
      "Ġ 6",
      "Ġen ough",
      "IN G",
      "in ess",
      "O n",
      "Ġact ually",
      "1 9",
      "is ter",
      "J ust",
      "Ġel se",
      "Ġagain st",
      "m ber",
      "l ess",
      "Ġsm all",
      "Ġw ait",
      "Ġd ied",
      "ct or",
      "ot e",
      "Ġ --",
      "Ġc ap",
      "Ġse en",
      "Ġhar d",
      "in es",
      "Ġpro ble",
      "le t",
      "r ist",
      "ut h",
      "Ġh igh",
      "Ġp op",
      "Ġto get",
      "Ġtoget her",
      "Ġyou ng",
      "Ġim p",
      "ĠE ng",
      "ubl ic",
      "i et",
      "Ã ©",
      "Ġwith out",
      "o f",
      "e x",
      "W ho",
      "if ic",
      "Ġd ire",
      "om m",
      "ab ly",
      "Ġpl an",
      "Ġwant ed",
      "g er",
      "Ġbec ame",
      "Ġre f",
      "Ġs orry",
      "Ġad d",
      "ĠSt ates",
      "Ġf act",
      "Ġf ive",
      "W here",
      "Ġf ew",
      "Ġy es",
      "Ġhe ar",
      "at t",
      "Ġ id",
      "g ed",
      "Ġre p",
      "as h",
      "Ġe m",
      "Ġevery thing",
      "Ġm ind",
      "Ġcom ing",
      "Ġre st",
      "2 0",
      "L ook",
      "The n",
      "Ġro om",
      "Ġb ad",
      "Ġon ce",
      "Ġl oc",
      "Ġs ince",
      "Ġs ix",
      "Ġ19 7",
      "ĠS p",
      "in a",
      "Ġunder stand",
      "u ff",
      "Ġst and",
      "Ġs ign",
      "Ġs im",
      "r al",
      "Ġs k",
      "Ġli ght",
      "Ġli ve",
      "a id",
      "Ġst ay",
      "Ġre ad",
      "b all",
      "ie ld",
      "us s",
      "Ġlea ve",
      "et s",
      "Ġb orn",
      "Ġsay s",
      "ĠB ut",
      "u c",
      "Ġ 7",
      "Ġf r",
      "A T",
      "ur y",
      "n ed",
      "e b",
      "Ġc oll",
      "en se",
      "ere st",
      "ĠI nd",
      "ou p",
      "Ġt ra",
      "Ġbelie ve",
      "Ġt imes",
      "Ġs ide",
      "Ġd uring",
      "Ġlook ing",
      "m e",
      "A re",
      "ec ause",
      "Ġchild ren",
      "Ġe v",
      "Ġhe art",
      "t en",
      "Ġqu ite",
      "st em",
      "Ġpre t",
      "ĠI s",
      "orn ing",
      "Ġim port",
      "Ġdis c",
      "Ġs on",
      "Ġh um",
      "Ġt ri",
      "Ġto day",
      "a ut",
      "00 0",
      "Ġs it",
      "Ġqu est",
      "ow s",
      "O N",
      "Ġin ter",
      "ro p",
      "Ġex p",
      "a red",
      "Ġtr ans",
      "Ġk id",
      "Ġday s",
      "an na",
      "Ġhapp ened",
      "Ġme et",
      "Ġop en",
      "Ġ 8",
      "is ed",
      "Ġ ;",
      "R ight",
      "Ġle ad",
      "Ġm ove",
      "it al",
      "Ġcon f",
      "Ġp lease",
      "âĢ ĵ",
      "Ġf ace",
      "U h",
      "Ġg ener",
      "Ġne ar",
      "Ġe yes",
      "Ġto wn",
      "Ġget ting",
      "a pp",
      "Ġn ice",
      "ie w",
      "ĠT h",
      "Ġis n",
      "A s",
      "Ġex t",
      "Ġth ough",
      "in ed",
      "d y",
      "ab y",
      "re ady",
      "it her",
      "Ġmus ic",
      "er tain",
      "ment s",
      "Ġar t",
      "? \"",
      "e y",
      "Ġwho le",
      "i ke",
      "Ġc ol",
      "Ġd ri",
      "Ġs ort",
      "Ġ ed",
      "Ġl and",
      "F or",
      "Ġh our",
      "Ġb ro",
      "le ep",
      "ĠJ ohn",
      "ist s",
      "Ġp oss",
      "i k",
      "o kay",
      "ant s",
      "Ġint erest",
      "T h",
      "Ġwom an",
      "Than k",
      "as ter",
      "ct ed",
      "Ġhe ard",
      "b y",
      "o ber",
      "Ġ Z",
      "Ġbu ild",
      "se l",
      "Ġy et",
      "s on",
      "Ġe as",
      "M m",
      "er y",
      "Ġplay ed",
      "Ġ ri",
      "Ġ [",
      "Ġj ob",
      "e f",
      "ĠP r",
      "y eah",
      "Ġst ate",
      "Ġa ir",
      "Ġha lf",
      "Ġf oot",
      "Ġrem ember",
      "Ġm orning",
      "Ġhim self",
      "Ġstart ed",
      "u es",
      "Ġf il",
      "re en",
      "ec h",
      "Ġ19 6",
      "Ġ1 0",
      "ĠC l",
      "iz e",
      "d o",
      "A R",
      "ĠF r",
      "Ġm ed",
      "Ġw alk",
      "Ġkn ew",
      "ut ion",
      "h m",
      "c hed",
      "Ġha ving",
      "is m",
      "Ġ 9",
      "Ġrec ord",
      "Ġd ra",
      "Ġtalk ing",
      "d d",
      "G ood",
      "Ġsy stem",
      "ivers ity",
      "Ġh old",
      "ri es",
      "Ġm ain",
      "iz ed",
      "ĠJ an",
      "iv es",
      "t a",
      "e v",
      "Ġm od",
      "t ed",
      "Ġde ath",
      "Ġs ir",
      "Ġc ur",
      "Ġal ready",
      "Ġp ay",
      "is on",
      "at s",
      "Ġimport ant",
      "A l",
      "D id",
      "Ġwr ong",
      "C an",
      "Ġso on",
      "Ġs ong",
      "m ost",
      "ĠW e",
      "Ġal ong",
      "Ġm il",
      "ĠG r",
      "Ġsay ing",
      "s h",
      "Ġg i",
      "ĠM ay",
      "Ġp ower",
      "Ġret urn",
      "Ġid ea",
      "G o",
      "Ġ Q",
      "ain s",
      "s p",
      "Ġmon th",
      "n ot",
      "Ġan s",
      "um p",
      "Ġdo or",
      "Ġde ad",
      "Ġg ave",
      "Ġm iss",
      "Ġup on",
      "Ġcount ry",
      "Ġbr other",
      "e ad",
      "vel op",
      "id ed",
      "ag es",
      "n ow",
      "ĠH ow",
      "er ing",
      "Ġp rom",
      "Ġpro b",
      "Ġgo vern",
      "Ġw in",
      "Ġf ull",
      "Ġh ur",
      "Ġme ans",
      "Ġt y",
      "ĠâĢ ĵ",
      "ĠG erm",
      "Ġ âĻª",
      "Ġe ff",
      "Ġe at",
      "Ġpro v",
      "Ġc ase",
      "Ġtry ing",
      "il ity",
      "at ure",
      "Ġg ame",
      "Â ł",
      "Ġr ound",
      "ĠC ount",
      "ĠS o",
      "ĠThe re",
      "aught er",
      "Ġask ed",
      "id d",
      "ci al",
      "et er",
      "L L",
      "Ġw ife",
      "Ġj o",
      "Ġs ound",
      "ward s",
      "ic ally",
      "Ġin f",
      "on y",
      "Ġg one",
      "Ġare a",
      "Ġl aw",
      "O R",
      "Ġbus iness",
      "ĠCh rist",
      "g t",
      "E r",
      "m ed",
      "You r",
      "Ġmat ter",
      "ĠK ing",
      "Ġbe gan",
      "y ing",
      "c ess",
      "Ġex pl",
      "l ish",
      "Ġbr ing",
      "Ġd el",
      "Ġpret ty",
      "i ver",
      "ate ly",
      "ĠA t",
      "Ġf ore",
      "n ce",
      "Ġhand s",
      "Ġto p",
      "ar r",
      "Ġl ear",
      "Ġe qu",
      "Ġw ind",
      "c le",
      "ĠT HE",
      "G et",
      "Ġs ent",
      "r ict",
      "am ed",
      "Ġhapp en",
      "Ġgu y",
      "ĠS c",
      "le ased",
      "Ġst ory",
      "Ġc reat",
      "ur al",
      ". âĢĿ",
      "p r",
      "u ro",
      "Ġsha ll",
      "b orn",
      "Ġl ost",
      "e ed",
      "Ġcont in",
      "Ġser v",
      "Ġab le",
      "Ġmov ie",
      "or row",
      "Ġf uck",
      "it er",
      "A n",
      "Ġl ess",
      "en n",
      "Ġc ertain",
      "i ally",
      "Ġbe aut",
      "Ġm ill",
      "E S",
      "Ġoff ic",
      "u red",
      "ak en",
      "Ġb aby",
      "Ġpart ic",
      "Ġchan ge",
      "Ġpol it",
      "ep t",
      "ect ion",
      "Ġsp eak",
      "or ld",
      "g y",
      "Ġproble m",
      "Ġof ten",
      "Ġw ond",
      "Ġm aking",
      "Ġhis t",
      "Ġgo es",
      "Ġcl ass",
      "Ġp ri",
      "ion al",
      "M ay",
      "c ri",
      "Ġf ell",
      "c he",
      "Ġle g",
      "pp ed",
      "Ġ1 7",
      "Ġb as",
      "Ġfriend s",
      "A t",
      "ĠC ar",
      "Ġw anna",
      "Ġlook ed",
      "Ġmom ent",
      "Ġsome one",
      "Ġ1 5",
      "ĠA ll",
      "Ġwas n",
      "Ġf ight",
      "Ġw atch",
      "O ne",
      "und red",
      "at or",
      "Ġp ain",
      "ĠB l",
      "er v",
      "Ġ19 5",
      "Ġ19 4",
      "ĠO h",
      "He re",
      "ĠBr it",
      "Ġb ody",
      "id es",
      "us h",
      "Ġf ine",
      "ent ly",
      "Ġwom en",
      "E N",
      "Ġyour self",
      "w ell",
      "ar ch",
      "g es",
      "Ġa ge",
      "Ġde velop",
      "are nt",
      "Ġcom es",
      "ra p",
      "st er",
      "Ġ hat",
      "Ġex per",
      "us ed",
      "Ġgr oup",
      "r act",
      "Ġl ine",
      "Ġp at",
      "Ġwee k",
      "Ġgu ys",
      "Ġm ark",
      "Ġp ar",
      "f ess",
      "ac es",
      "Ġs leep",
      "Ġv is",
      "an e",
      "h ow",
      "u ary",
      "i ec",
      "Ġsh ort",
      "Ġp os",
      "o le",
      "Ġb ed",
      "Ġcl ose",
      "et h",
      "ain ed",
      "Ġprob ably",
      "m p",
      "Ġlar ge",
      "T o",
      "Ġag o",
      "e al",
      "er n",
      "ĠT hat",
      "c on",
      "Ġt erm",
      "art ment",
      "Ġgi ven",
      "ell o",
      "Ġwork ing",
      "Ġpr ot",
      "Ġbre ak",
      "ic es",
      "Ġd et",
      "ĠC an",
      "i am",
      "Ġ ...",
      "Ġtr ue",
      "u ly",
      "Ġf ire",
      "le y",
      "ri gin",
      "ent y",
      "g ue",
      "ĠH is",
      "a i",
      "ent ion",
      "B ecause",
      "ĠCount y",
      "Ġ es",
      "ap an",
      "Ġwould n",
      "! \"",
      "Ġe ight",
      "Ġh undred",
      "al ity",
      "Ġbec ome",
      "ĠF or",
      "Ġt er",
      "Ġor der",
      "Ġc ut",
      "Ġf all",
      "Ġc a",
      "b um",
      "et y",
      "Ġear ly",
      "o on",
      "w er",
      "ĠC on",
      "Ġde al",
      "c hes",
      "Ġp ick",
      "el s",
      "ul ation",
      "el t",
      "Ġs ol",
      "ur ch",
      "Ġh ope",
      "h ind",
      "Ġha ven",
      ", âĢĿ",
      "am a",
      "ap er",
      "Ġre ce",
      "ĠY es",
      "c ome",
      "il t",
      "re st",
      "aj or",
      "m m",
      "ou ble",
      "Ġc or",
      "Ġal most",
      "s y",
      "Ġa w",
      "ut es",
      "Ġd iv",
      "ĠUn iversity",
      "Ġst re",
      "Ġle ast",
      "Ġp ur",
      "Ġin s",
      "Ġbe gin",
      "Ġor gan",
      "Ġquest ion",
      "Ġt en",
      "ie f",
      "Ġv o",
      "ian s",
      "r on",
      "ro l",
      "if ul",
      "p ed",
      "ĠY ork",
      "Ġa ff",
      "Ġcomp le",
      "Ġbl ack",
      "ĠA p",
      "Ġo cc",
      "Ġmy self",
      "ĠO n",
      "gr am",
      "ri l",
      "Ġwh ite",
      "Ġad v",
      "ĠP ro",
      "Ġo per",
      "Ġp ublic",
      "amp le",
      "iv ed",
      "ĠW orld",
      "Ġcomm un",
      "ra z",
      "ou d",
      "ham p",
      "Ġr an",
      "Ġs qu",
      "Ġre ady",
      "Ġmar ried",
      "al th",
      "Ġl ate",
      "ĠJ apan",
      "Ġ _",
      "Ġv ar",
      "Ġcon st",
      "Ġo pp",
      "Ġmay be",
      "Ġh or",
      "Ġd ad",
      "Ġf ree",
      "um b",
      "re nt",
      "Ġ1 6",
      "ull y",
      "Ġre ason",
      "i um",
      "Ġs we",
      "it ing",
      "ug ust",
      "ang u",
      "Ġal one",
      "os p",
      "c o",
      "Ġkill ed",
      "Ġpres ent",
      "c ent",
      "Ġo h",
      "l er",
      "Ġgovern ment",
      "Ġgu ess",
      "ard s",
      "M r",
      "ĠP ar",
      "ĠJan uary",
      "Ġcomp any",
      "Ġ |",
      "cc ess",
      "he ad",
      "es e",
      "Ġ est",
      "er t",
      "Ġbl ood",
      "en e",
      "o ke",
      "E very",
      "Ġhapp y",
      "P lease",
      "h uh",
      "Ġal bum",
      "Ġ1 2",
      "Ġre leased",
      "Ġre d",
      "Ġbr ought",
      "Ġbe hind",
      "Ġs at",
      "Ġo rigin",
      "sel ves",
      "v ious",
      "Ġse ver",
      "Ġword s",
      "b ed",
      "m en",
      "Ġte le",
      "Ġh on",
      "ĠA ust",
      "Ġdr ink",
      "ĠM an",
      "ne y",
      "ĠW ar",
      "o x",
      "Ġhe ll",
      "I S",
      "Ġm akes",
      "olog y",
      "f or",
      "Ġ Yeah",
      "om p",
      "e or",
      "Ġ19 3",
      "Ġcle ar",
      "Ġt re",
      "R E",
      "ĠEng lish",
      "en g",
      "r ing",
      "Ġt aken",
      "Ġsever al",
      "on es",
      "Ġser ies",
      "Ġex c",
      "ĠFr ance",
      "ha ps",
      "au gh",
      "Ġf ood",
      "Ġfr ont",
      "ĠY OU",
      "c an",
      "i ent",
      "f e",
      "ren ch",
      "ĠE uro",
      "ĠMar ch",
      "em ent",
      "Ġdo g",
      "c ha",
      "Ġm ag",
      "ud e",
      "un t",
      "Ġan im",
      "at ic",
      "T H",
      "b and",
      "ĠS outh",
      "b s",
      "Ġhum an",
      "Ġp ast",
      "Ġt aking",
      "Ġh ot",
      "S ome",
      "b it",
      "ac ed",
      "Ġv al",
      "Ġ $",
      "ĠM in",
      "ĠD ec",
      "S h",
      "Ġsupp ort",
      "ĠM iss",
      "Ġst uff",
      "o or",
      "ept ember",
      "Ġse ason",
      "Ġstr ong",
      "i or",
      "ct ober",
      "Ġan n",
      "ĠF ran",
      "ĠC omm",
      "Ġb and",
      "Ġ ]",
      "ĠA ugust",
      "Ġp ict",
      "Ġe ither",
      "Ġb all",
      "Ġd em",
      "Ġ &",
      "ĠT r",
      "o int",
      "Ġb ar",
      "Ġst at",
      "the re",
      "Ġso ld",
      "Ġres p",
      "e le",
      "Ġen g",
      "Ġchar ac",
      "Ġad m",
      "w o",
      "Ġtr ain",
      "Ġd aughter",
      "ot s",
      "Ġp iec",
      "ĠĠĠĠĠĠĠĠ ĠĠĠĠĠĠĠĠ",
      "Ġr ather",
      "Ġf ig",
      "Ġex ample",
      "Ġthink ing",
      "Ġatt ack",
      "ĠJ une",
      "Ġall ow",
      "id er",
      "B e",
      "ĠW ill",
      "ci ent",
      "Ġmin utes",
      "Ġqu ick",
      "l t",
      "a im",
      "her n",
      "ĠMr s",
      "Ġlook s",
      "i ence",
      "iv ing",
      "Ġcould n",
      "Ġpro gram",
      "Ġre port",
      "Ġother s",
      "ĠBrit ish",
      "Ġro ad",
      "Ġpart y",
      "h ich",
      "Ġin form",
      "Ġt ou",
      "Ġc ou",
      "Ġlist en",
      "z e",
      "Ġwith in",
      "o ver",
      "m ing",
      "Ġt em",
      "Ġhe ld",
      "Ġli ving",
      "Ġbeaut iful",
      "ap e",
      "Ġsu ccess",
      "res ent",
      "en cy",
      "Ġdes ign",
      "o e",
      "Ġn amed",
      "om an",
      "am ent",
      "Ġgr ow",
      "ĠEuro pe",
      "Ġwant s",
      "itt ing",
      "Ġmill ion",
      "Ġres ult",
      "Ġmin ute",
      "ĠS eptember",
      "Ġn ational",
      "Ġn orth",
      "Ġper form",
      "od e",
      "itt en",
      "Ġin side",
      "or ies",
      "Ġst ru",
      "Ġa p",
      "Ġspec ial",
      "ĠT H",
      "ore d",
      "ĠO ctober",
      "act ly",
      "ĠS h",
      "E x",
      "ĠC ol",
      "Ġl angu",
      "Ġn ec",
      "e ge",
      "ĠAp ril",
      "ĠA d",
      "ove mber",
      "A S",
      "ĠB e",
      "a ul",
      "Ġme mber",
      "ĠJ uly",
      "ous and",
      "ĠP res",
      "Ġs um",
      "f ully",
      "Ġturn ed",
      "Ġm ess",
      "Ġre pl",
      "Ġwond er",
      "Ġsing le",
      "m a",
      "Ġ ve",
      "o ad",
      "Ġv ill",
      "ou b",
      "Ġfor mer",
      "ĠN ational",
      "ĠN orth",
      "Ġli ved",
      "Ġro ck",
      "Ġde ar",
      "ran ge",
      "Ġs il",
      "Ġapp ear",
      "un k",
      "Ġinclud ing",
      "May be",
      "Ġk ing",
      "Ġele ct",
      "I I",
      "ĠP l",
      "ang er",
      "Ġthan k",
      "Ġ1 1",
      "Ġt est",
      "ĠG o",
      "al d",
      "ĠC har",
      "O r",
      "ĠB ar",
      "ĠS w",
      "un ch",
      "Ġd ie",
      "A h",
      "f ort",
      "ke y",
      "Ġex pect",
      "Ġd ream",
      "f ect",
      "p ar",
      "us band",
      "-- --",
      "ru ary",
      "ound s",
      "al es",
      "eb ruary",
      "Ġsh ip",
      "u ed",
      "H ello",
      "Ġc amp",
      "qu e",
      "ĠDec ember",
      "Ġcomm on",
      "ĠW hen",
      "Ġf elt",
      "Ġplay ing",
      "id ge",
      "re ad",
      "Ġh it",
      "Ġth ird",
      "Ġvo ice",
      "W ith",
      "v ision",
      "Ġus ing",
      "Ġmonth s",
      "Ġac ross",
      "ĠP h",
      "b o",
      "Ġout side",
      "Ġfoot ball",
      "e en",
      "end ed",
      "H ave",
      "tern ational",
      "as k",
      "ĠN ovember",
      "Ġsomet imes",
      "ĠF rench",
      "Ġd ark",
      "Ġ X",
      "Ġme mb",
      "a ur",
      "Ġwork ed",
      "ech n",
      "Ġche ck",
      "g o",
      "Ġposs ible",
      "Ġ z",
      "idd le",
      "th ough",
      "A fter",
      "c il",
      "Ġhour s",
      "ac hed",
      "Ġeff ect",
      "Ġth ousand",
      "ĠC al",
      "Ġam ong",
      "Ġre v",
      "ain t",
      "Ġha ir",
      "Ġfil m",
      "Ġre qu",
      "Ġd est",
      "it ch",
      "Ġf if",
      "C h",
      "Ġg un",
      "Ġcare er",
      "Ġc op",
      "ĠD o",
      "ove red",
      "Ġcl ub",
      "Ġm ajor",
      "Ġf re",
      "Ġfollow ing",
      "Ġ ill",
      "Ġh usband",
      "Ġpo or",
      "ir th",
      "Ġs un",
      "li ke",
      "Ġd am",
      "at a",
      "Ġpro fess",
      "âĢ Ķ",
      "ĠF l",
      "ov ed",
      "Ġapp ro",
      "Ġ1 3",
      "Ġfor g",
      "Ġt ried",
      "Ġw ish",
      "R e",
      "ĠF ebruary",
      "ea red",
      "Ġst ra",
      "ro du",
      "Ġto t",
      "Ġa f",
      "Ġ1 4",
      "c ing",
      "Ġse nd",
      "Ġto m",
      "ĠC ity",
      "e an",
      "m ore",
      "Ġc ir",
      "l ook",
      "Ġle vel",
      "Ġmov ed",
      "s c",
      "Ġgot ta",
      "Ġse ven",
      "Ġhist ory",
      "Ġbu ilt",
      "air s",
      "A ny",
      "Ġbo x",
      "g est",
      "hi le",
      "Ġgr and",
      "Ġpol ice",
      "Ġ201 0",
      "uth or",
      "att le",
      "Ġpartic ular",
      "i pp",
      "ĠH er",
      "Ġs n",
      "Ġfe et",
      "d e",
      "ĠT O",
      "ĠC ha",
      "ress ed",
      "ou l",
      "ĠA f",
      "Ġbuild ing",
      "Ġpro per",
      "Ġmemb ers",
      "Ġus ually",
      "L E",
      "Ġc re",
      "om in",
      "Ġf a",
      "Ġt ill",
      "1 0",
      "Ġget s",
      "ra id",
      "ro om",
      "r it",
      "Ġp arent",
      "Ġr a",
      "ĠH ar",
      "Ġa v",
      "Ġcomp et",
      "Ġl ay",
      "Ġc ost",
      "s he",
      "Ġoff ice",
      "O M",
      "ro g",
      "Ġd in",
      "Ġt reat",
      "Ġwor ry",
      "ĠO r",
      "ĠG eor",
      "Ġany one",
      "if ied",
      "Ġt on",
      "Ġm ur",
      "ra ph",
      "Ġgo ld",
      "u k",
      "an a",
      "Ġp ull",
      "ag ed",
      "Ġans wer",
      "Ġchan ce",
      "Ġcomple te",
      "ond on",
      "Ġcont rol",
      "Ġt able",
      "Ġf ield",
      "Ġpop ulation",
      "Ġcon cer",
      "O f",
      "Ġswe et",
      "1 8",
      "Ġbu y",
      "ĠL e",
      "Ġst ar",
      "id ence",
      "Ġknow s",
      "Ġwhe ther",
      "Ġte ac",
      "Ġst ation",
      "Ġwork s",
      "Ġr ad",
      "Ġab s",
      "as es",
      "i en",
      "Ġb ased",
      "i od",
      "p or",
      "ay s",
      "Ġor d",
      "ĠG u",
      "Ġeas y",
      "ĠE d",
      "in o",
      "Ġpro p",
      "Ġcan not",
      "w ork",
      "Ġw all",
      "Ġcon d",
      "Ġplay er",
      "Ġ ``",
      "Ġtw enty",
      "Ġwr itten",
      "ĠC ent",
      "ĠR ep",
      "Ġst ep",
      "Ġ3 0",
      "Ġde v",
      "d ing",
      "y n",
      "ĠPres ident",
      "Ġli ves",
      "ir ty",
      "Ġst e",
      "ĠA fter",
      "Ġs ister",
      "Ġe vent",
      "Ġdes cri",
      "ĠI f",
      "ĠA b",
      "so ci",
      "Ġreg ion",
      "Ġf av",
      "Ġloc al",
      "Ġv iew",
      "Ġl a",
      "as ure",
      "Ġseem s",
      "it ions",
      "c om",
      "Ġph one",
      "O W",
      "Ġgener al",
      "ill y",
      "Ġpr act",
      "hy s",
      "an ces",
      "ul a",
      "Ġcou ple",
      "u le",
      "2 1",
      "ur g",
      "Ġm ine",
      "Ġis s",
      "ar a",
      "Ġevery one",
      "Ġcur rent",
      "Ġv ide",
      "C l",
      "Ġd i",
      "Ġaf raid",
      "id ing",
      "Ġl ow",
      "ir on",
      "Ġs outh",
      "Ġcent ury",
      "Ġpro cess",
      "Ġp ost",
      "Ġon es",
      "Ġb ird",
      "Ġf ast",
      "Ġm ot",
      "is ing",
      "Ġwr ote",
      "Ġdra w",
      "Ġde ep",
      "Ġs ense",
      "b ers",
      "um ent",
      "Ġc old",
      "Ġwe ar",
      "ĠW est",
      "hamp ions",
      "ĠL ondon",
      "Ġc al",
      "ĠL ea",
      "Ġdiff ic",
      "ĠD on",
      "Ġinv ol",
      "Ġgr ound",
      "Ġex actly",
      "if t",
      "Ġf air",
      "Ġseem ed",
      "Ġwr ite",
      "Ġtom orrow",
      "ad a",
      "Ġgirl s",
      "Ġc ry",
      "Ġn at",
      "T ake",
      "Ġse a",
      "E D",
      "I T",
      "iss ion",
      "Ġboy s",
      "Ġlong er",
      "Ġinc re",
      "our n",
      "k y",
      "Ġb irth",
      "w ho",
      "C H",
      "Ġf ur",
      "it ive",
      "ect ed",
      "Er m",
      "ĠEng land",
      "un ic",
      "u ri",
      "Ġp aper",
      "og n",
      "Ġdist rict",
      "Ġsu ff",
      "ĠJ ack",
      "Ġcharac ter",
      "Ġh uh",
      "Ġb ott",
      "av y",
      "iz ation",
      "Ġse x",
      "Ġinform ation",
      "ill s",
      "S ee",
      "g ing",
      "oo se",
      "he l",
      "Ġchan ged",
      "o ff",
      "W ait",
      "ord ing",
      "ĠIt al",
      "H is",
      "ri but",
      "Ġtr uth",
      "Ġkid s",
      "ent le",
      "Ġdire ct",
      "ĠAust ral",
      "am b",
      "r ation",
      "Ġdep artment",
      "Ġnew s",
      "Ġrun ning",
      "Ġ2 5",
      "ir t",
      "Ġli k",
      "ĠO ne",
      "Ġsupp osed",
      "u ation",
      "oun cil",
      "in ation",
      "Ġw ood",
      "d om",
      "Ġp ress",
      "Ġc at",
      "Ġserv ice",
      "Ġp ubl",
      "a ff",
      "Ġm er",
      "Ġsome body",
      "ĠGerm an",
      "Ġf ail",
      "Ġl ab",
      "Ġg en",
      "ĠW ell",
      "ĠM ic",
      "Ġfor get",
      "Ġhur t",
      "Ġed uc",
      "Ġton ight",
      "the y",
      "Ġsu per",
      "Ġc ross",
      "Ġtr ouble",
      "Ġsh ot",
      "Ġper iod",
      "G H",
      "Ġd ro",
      "ur s",
      "ill e",
      "Ġ *",
      "ĠL ord",
      "Ġneed s",
      "le x",
      "f ord",
      "ut ure",
      "2 2",
      "Ġrece ived",
      "Ġh ig",
      "Ġt ree",
      "ĠU S",
      "Ġcle an",
      "Ġty pe",
      "ĠAmeric a",
      "Ġa uthor",
      "Ġtele vision",
      "Ġpos ition",
      "Ġ 0",
      "ĠE l",
      "it ary",
      "L ike",
      "ac y",
      "ĠThe n",
      "Ġbl ue",
      "em y",
      "ĠD r",
      "con om",
      "ow ers",
      "Ġrep resent",
      "Ġp le",
      "Ġl uck",
      "p ec",
      "pt ion",
      "ĠA m",
      "Ġtr ad",
      "osp ital",
      "Ġl ady",
      "Ġsec ret",
      "ĠR e",
      "Ġke pt",
      "art y",
      "ĠS chool",
      "il ar",
      "ĠD an",
      "e ople",
      "ĠR uss",
      "Ġcreat ed",
      "Ġt echn",
      "Ġent ire",
      "Ġar ri",
      "Ġm ount",
      "Ġt it",
      "j oy",
      "Ġthem selves",
      "Ġlangu age",
      "Ġtou ch",
      "dd en",
      "Ġser ious",
      "Ġac cept",
      "Ġc os",
      "ĠE x",
      "Ġwait ing",
      "a e",
      "r or",
      "Ġcon n",
      "har d",
      "Ġevery body",
      "l u",
      "ed er",
      "Ġ vers",
      "f er",
      "Ġse ll",
      "Ġvill age",
      "Than ks",
      "Ġwhat ever",
      "k en",
      "U S",
      "l a",
      "u z",
      "av id",
      "pl oy",
      "O K",
      "i ol",
      "v an",
      "ĠAf ric",
      "Ġh y",
      "Ġob ject",
      "S orry",
      "Ġsur pr",
      "ĠT om",
      "Ġfuck ing",
      "Ġset t",
      "Ġsu dden",
      "Ġstra ight",
      "Ġc ook",
      "iv il",
      "Ġsu gg",
      "Ġsugg est",
      "ĠD e",
      "U n",
      "Ġab ove",
      "ĠSt ate",
      "in al",
      "Ġf ly",
      "Ġm ist",
      "Ġparent s",
      "Ġspec ies",
      "ol ution",
      "Ġper haps",
      "ic ian",
      "es tern",
      "w ith",
      "ĠP eter",
      "Ġp ot",
      "Ġg reen",
      "ĠM y",
      "Ġr ul",
      "p ing",
      "A r",
      "ress ion",
      "Ġf uture",
      "th is",
      "Ġre se",
      "Ġhow ever",
      "st it",
      "te en",
      "end ing",
      "Ġpict ure",
      "ag er",
      "Ġpri v",
      "Ġl im",
      "v al",
      "Ġres pect",
      "Ġcomp ut",
      "ci ence",
      "r ay",
      "Ġc ell",
      "Ġinst ead",
      "Ġt akes",
      "Ġdec ided",
      "Ġproble ms",
      "Ġex ist",
      "re et",
      "Ġinclud e",
      "Ġfeel ing",
      "Ġv ol",
      "T ell",
      "op s",
      "om b",
      "ĠS ha",
      "Ġsh oot",
      "Ġbook s",
      "at ter",
      "Ġit self",
      "ro y",
      "ĠM c",
      "Ġcar ry",
      "Ġpiec e",
      "Ġl ed",
      "Ġst ri",
      "ĠW h",
      "Ġper fect",
      "Ġm outh",
      "Ġan g",
      "Ġfin ished",
      "ist en",
      "land s",
      "Ġp ort",
      "Ġim ag",
      "Ġher self",
      "ĠS y",
      "oc r",
      "ĠP ol",
      "Ġinv est",
      "Ġlear n",
      "Ġc ult",
      "al t",
      "Ġcha ir",
      "Ġl augh",
      "ĠN ot",
      "raz y",
      "I C",
      "Ġdo ctor",
      "Ġpop ular",
      "iv id",
      "ĠO F",
      "Ġlet ter",
      "ener al",
      "1 5",
      "Ġc ho",
      "The se",
      "Ġser ved",
      "ĠE ar",
      "Ġd ue",
      "ha el",
      "Ġdo ll",
      "Ġf ix",
      "o es",
      "W ill",
      "Ġp en",
      "Ġare n",
      "Ġpro ject",
      "ĠHow ever",
      "Ġpr in",
      "Ġhapp ens",
      "unic ip",
      "Ġdiffic ult",
      "l in",
      "Ġwor th",
      "Ġch urch",
      "Ġtr ust",
      "re g",
      "Ġear th",
      "Ġvide o",
      "A Y",
      "Ġco ver",
      "St op",
      "Ġme m",
      "p es",
      "ĠH ouse",
      "Ġsp ace",
      "og rap",
      "Ġ2 4",
      "am er",
      "H i",
      "Ġfin al",
      "ol ute",
      "ĠPh il",
      "ĠLea gue",
      "Ġn orm",
      "Ġa in",
      "Ġtr ack",
      "y le",
      "Ġact iv",
      "Ġhe alth",
      "Ġbe ar",
      "Ġl ad",
      "se e",
      "Ġpr ison",
      "vious ly",
      "Ġes c",
      "Ġtell ing",
      "Ġsh it",
      "Ġhor se",
      "p ha",
      "ĠA N",
      "ĠC ap",
      "Ġsl ow",
      "Ġb ri",
      "Ġany way",
      "Ġar m",
      "1 7",
      "Ġrec ogn",
      "Ġn ine",
      "Ġe ye",
      "er ry",
      "Ġsa fe",
      "Ġrel ations",
      "Ġpres ident",
      "Ġso ft",
      "Ġha ng",
      "ĠT o",
      "ci ety",
      "ru g",
      "em pt",
      "im ent",
      "ear s",
      "Ġg entle",
      "Ġwee ks",
      "Ġ201 4",
      "Ġcom pl",
      "ere nce",
      "Ġso cial",
      "it or",
      "Ġm iddle",
      "ĠThe se",
      "Ġri ver",
      "ĠC oll",
      "Ġd oub",
      "Ġpass ed",
      "ro ll",
      "ep end",
      "Ġfig ure",
      "Ġc orn",
      "l s",
      "om es",
      "Ġsp ir",
      "Ġe p",
      "Ġ1 00",
      "Ġd anger",
      "itt ed",
      "Ġs us",
      "l ine",
      "t ime",
      "Ġme ant",
      "ĠGerm any",
      "E T",
      "Ã ¡",
      "a ha",
      "Ġph ot",
      "A L",
      "? âĢĿ",
      "le ct",
      "as hing",
      "Ġsa ve",
      "iv al",
      "1 2",
      "M ar",
      "n el",
      "Ġcount y",
      "b or",
      "Ġp hys",
      "Ġeng ine",
      "Ġj ud",
      "ĠInd ian",
      "Ġen joy",
      "u el",
      "Ġg ames",
      "ĠP aul",
      "Ġa head",
      "and er",
      "ĠP ark",
      "Ġest ab",
      "Ġcour t",
      "r is",
      "Ġfun ny",
      "Ġ201 8",
      "Ġmeet ing",
      "Ġcl ot",
      "Ġeven ing",
      "Ġh op",
      "Ġse at",
      "Ġfam ous",
      "Ġter ri",
      "Ġv ict",
      "Ġfur ther",
      "Ġ19 2",
      "Ġc ast",
      "ĠS ec",
      "Ġgo d",
      "Ġan t",
      "Ġe conom",
      "k ing",
      "ĠJ o",
      "A M",
      "c her",
      "Ġex cept",
      "Ġm is",
      "ri age",
      "Ġgl ad",
      "er gy",
      "Ġ201 1",
      "is hing",
      "ĠĠĠĠ Ġ",
      "i us",
      "Ġf ish",
      "Ġc razy",
      "Ġop ened",
      "if orn",
      "Ġ #",
      "Ġm ach",
      "Ġd a",
      "Ġs ick",
      "Ġ ide",
      "Ġcr it",
      "Ġne g",
      "um e",
      "Ġreturn ed",
      "ce ed",
      "Ġqu iet",
      "Ġf ill",
      "Ġ( \"",
      "Ġa ut",
      "ĠQ ue",
      "ĠS e",
      "f ield",
      "Ġst ood",
      "Ġu m",
      "Ġc ool",
      "Ġlea ving",
      "Ġgr ad",
      "Ġse lf",
      "p ut",
      "Ġcap ital",
      "Ġro le",
      "1 6",
      "o ly",
      "Ġn in",
      "Ġthr ow",
      "ĠWill iam",
      "han k",
      "et t",
      "iforn ia",
      "l ight",
      "ce ll",
      "Ġdis app",
      "Ġr ing",
      "ain ing",
      "Ġbegin ning",
      "Ġc atch",
      "Ġdin ner",
      "er ve",
      "O T",
      "Ġacc ount",
      "he m",
      "i ers",
      "Ġb reat",
      "V E",
      "Ġm ad",
      "Ġfor ce",
      "Ġm ult",
      "Ġsub ject",
      "ĠW hy",
      "Ġann oun",
      "ĠS ome",
      "Ġ201 3"
    ]
  }
}