<pad>
<s>
</s>
<unk>
!
"
#
$
%
&
'
(
)
*
+
,
-
.
/
0
1
2
3
4
5
6
7
8
9
:
;
<
=
>
?
@
A
B
C
D
E
F
G
H
I
J
K
L
M
N
O
P
Q
R
S
T
U
V
W
X
Y
Z
[
\
]
^
_
`
a
b
c
d
e
f
g
h
i
j
k
l
m
n
o
p
q
r
s
t
u
v
w
x
y
z
{
|
}
~
¡
¢
£
¤
¥
¦
§
¨
©
ª
«
¬
®
¯
°
±
²
³
´
µ
¶
·
¸
¹
º
»
¼
½
¾
¿
Â
Ã
Ä
Å
Æ
Ç
È
É
Ê
Ë
Ì
Í
Î
Ï
Ð
Ñ
Ò
Ó
Ô
Õ
Ö
×
Ø
Ù
Ú
Û
Ü
Ý
Þ
à
á
â
ã
ä
å
æ
ç
è
é
ê
ë
ì
í
î
ï
ð
ĉ
Č
Ġ
ġ
Ģ
ģ
Ĥ
ĥ
Ħ
ħ
Ĩ
ĩ
Ī
ī
Ĭ
ĭ
Į
į
İ
ı
Ĳ
ĳ
Ĵ
ĵ
Ķ
ķ
ĸ
Ĺ
ĺ
Ļ
ļ
Ľ
ľ
Ŀ
ŀ
Ł
ł
Ń
##h
##i
##n
##b
##o
##e
##p
##r
##t
##s
##c
##a
##g
##d
##m
##Ä
##Ł
##Ã
##§
##l
##y
##V
##u
##P
##I
##S
##T
##O
##L
##H
##w
##f
##Z
##¬
##z
##q
##Å
##«
##x
##v
##N
##K
##M
##Y
##A
##C
##U
##J
##k
##¨
##R
##D
##F
##)
##"
##.
##Ê
##¹
##W
##¼
##E
##Q
##8
##4
##å
##°
##é
##ĳ
##´
##B
##!
##j
##2
##0
##1
##G
##(
##Ļ
##º
##ĥ
##â
##Ģ
##Ķ
##³
##ł
##ª
##©
##Ń
##¤
##9
##¡
##'
##6
##Ð
##µ
##Ñ
##¸
##½
##+
##-
##ľ
##»
##¾
##²
##X
##Î
##5
##7
##Ĥ
##±
##Ī
##æ
##ĺ
##İ
##Â
##ģ
##3
##à
##É
##Ë
##Ľ
##;
##Ŀ
##¿
##¢
##%
##Į
##¶
##¦
##ĵ
##?
##ã
##Ĩ
##Ĺ
##Ø
##Ù
##Ĭ
##ħ
##į
##¥
##ĸ
##£
##ĩ
##Ħ
##[
##ç
##ļ
##ı
##ī
##ì
##ä
##&
##Ç
##*
##Õ
##Æ
##ŀ
##Ï
###
##~
##@
##ķ
##ĭ
##á
##·
##Ĳ
##,
##:
##è
##Ĵ
##í
##ê
##/
##×
##¯
##}
##{
##®
##È
##|
##ë
##=
##>
##Û
##]
##_
##^
##ï
##Ú
##\
##`
##<
##Ġ
##Ó
##$
##Ì
##ð
##Ý
##ġ
##Ò
##Í
##Ô
##Ö
##Ü
##Þ
Ġt
##he
Ġa
##in
Ġthe
##re
Ġw
##ou
Ġs
##on
##er
##at
##nd
##is
##it
Ġb
Ġo
Ġc
Ġm
##an
Ġf
##ing
##or
Ġh
##ed
##ll
Ġd
##en
Ġto
##es
Ġth
##ar
Ġp
Ġy
Ġof
##as
Ġin
Ġyou
Ġand
Ġl
Ġg
##om
Ġn
ĠI
##ic
##ow
##ve
##al
##ot
##et
Ġhe
##le
##us
's
##ay
Ġit
Ġbe
Ġis
Ġthat
Ġon
##ion
##id
Ġe
##ad
##gh
##ld
##ut
Ġre
##ent
Ġwas
##im
##ac
Ġwe
##ver
##am
Ġwh
Ġfor
ĠS
##ly
##ri
##ro
ĠT
##st
##ir
Ġ.
##ke
Ġst
Ġha
##se
't
##oo
##ght
ĠA
##out
ĠC
##ith
Ġme
##all
ĠM
Ġk
Ġu
Ġan
Ġwith
##ur
##ec
Ġdo
Ġas
##her
##ill
##ch
##ter
##if
ĠH
##ome
Ġ1
##ce
ĠB
The
##hat
Ġare
##il
Ġhave
Ġnot
Ġat
Ġthis
##ould
##ust
Ġse
##ant
##ra
Ġgo
Ġli
##ation
Ġkn
##op
ĠP
##ea
##ĠĠ
##un
ĠW
##..
##ol
##ge
##ell
##our
##ul
Ġhis
##rom
Ġ,
Ġsh
Ġknow
##ore
Ġ"
Ġj
ĠD
Ġne
##ain
##pp
##el
ĠG
##ct
##and
##art
Ġcan
...
##um
You
Ġ?
##ist
Ġso
Ġyour
Ġ2
Ġall
Ġthey
Ġmy
##est
Ġal
ĠThe
##em
ĠL
ĠR
Ġab
##ers
ĠF
Ġby
Ġfrom
##ess
Ġwhat
Ġr
ĠN
##os
##th
Ġher
##ight
Ġor
Ġone
##nt
Ġwhe
Ġcon
##ie
ĠJ
Ġup
Ġch
##ig
##ard
Ġthere
##ab
##red
're
Ġhad
##ally
Ġsu
Ġcom
##ry
Ġdon
##qu
##ate
##ack
Ġout
Ġbut
Ġhim
Ġwor
##ood
##ook
Ġpl
##very
##ake
##res
##ive
Ġde
Ġlike
Ġ(
Ġus
##ame
Ġshe
'm
##od
##ong
ĠE
##ink
Ġpro
##ast
It
Ġ19
Ġabout
Ġget
ĠO
Ġv
Ġsa
Ġex
Ġwere
##ound
##ort
##ind
##ich
##one
##ap
##ck
##ity
Ġjust
And
##ber
Ġsp
##ear
##right
He
Ġ20
##ak
##ies
##ect
Ġdid
##ep
Ġwho
Ġhere
Ġno
##eah
##ime
##ine
Ġthem
Ġwant
'll
Ġman
Ġif
Ġwould
##ud
Ġthink
Ġ'
##ous
##ven
Ġwill
What
Ġsome
##hing
Ġint
ĠK
##own
##ost
##itt
##ice
Ġany
##ment
##ag
Ġright
##ide
Ġhas
ĠY
##ough
Ġgot
##ther
##use
ĠHe
Ġsee
Ġwhich
Ġwhen
##ure
Ġar
Ġsay
##iv
Ġag
##end
##ip
Ġtw
We
##ian
##ia
Ġbeen
Ġtime
##are
##way
ĠIt
##ace
Ġsaid
##ove
've
Ġpe
Ġbec
##ff
ĠU
##ick
Ġnow
Ġcl
Th
Ġtr
##ose
##ish
##ĠĠĠĠ
##ause
Ġlook
##ople
##na
Ġle
##reat
##âĢ
Ġmore
##ary
Ġtheir
Ġgoing
Ġthen
##ree
Ġcould
So
âĢ
##other
No
##ue
Ġother
Ġ=
Ġback
Ġover
##ond
Ġoff
##so
##ite
##irst
ĠSt
##age
##ank
##ere
But
##ew
Ġpeople
Ġqu
##orn
##ang
##ble
Ġro
ĠCh
##act
Ġthing
##ass
Ġwork
Oh
Ġvery
Ġtwo
##ount
##pl
That
##fter
##ase
##ire
Ġgood
##pt
##ord
##per
Yeah
Ġtoo
##og
##sel
##ub
##omet
Ġen
##ans
##ated
Ġfirst
##ance
##ittle
##erm
##kay
Ġinto
##mer
##ov
##ions
##ade
##alk
##oll
##hed
##oy
Ġdown
Ġhow
##hy
Ġyear
Ġun
Ġpart
Ġway
##ial
Ġgr
Ġbr
##oc
Ġpr
##iz
Ġour
##ild
Ġam
Ġcall
##ought
Ġlittle
##ach
##ne
Ġcome
Ġbl
ĠIn
Ġsc
Ġplay
Ġalso
Ġim
Ġonly
ĠV
##ater
##nder
Ġwhere
Ġevery
##cc
Ġagain
##here
##ife
Well
##av
##urn
##wn
Ġad
Ġsomet
Ġday
Ġneed
Ġbet
##ru
Ġ201
##uch
##ty
##iss
Ġfe
##ress
Ġact
."
Ġmake
##ark
Ġwell
Ġtake
##ence
Ġafter
##ile
##fore
Ġgu
In
##00
##self
##ng
##ory
Ġbecause
Ġcont
##we
##au
Ġthan
##able
##ical
Ġcomp
Ġdis
Ġte
##ign
Ġlet
##thing
Ġreally
##orm
Ġshould
##uck
Ġpre
##ict
Ġtell
##ool
Ġhapp
##hen
##ob
##ather
Ġwr
##int
##les
##ens
Ġthr
##ied
##onna
##ull
##ft
Ġapp
Ġunder
Ġthese
Ġmuch
Ġdoes
Ġfl
##ult
Ġsomething
This
Ġnew
ĠTh
Ġres
Ġput
##old
##ody
Ġgonna
Ġpo
Ġper
Ġmean
Ġmade
They
##ons
and
##--
##iff
Ġlong
'd
the
##ious
##ath
Ġser
ĠUn
##ving
##amp
##ved
--
Ġtalk
Ġnever
Ġinc
##land
Yes
##ations
She
Ġbefore
##ock
Ġer
##ates
Ġeven
Ġmay
##ting
##du
##ily
Ġits
Ġcar
##ouse
Ġbu
Ġdidn
Ġrem
##ady
ĠâĢ
Ġcomm
##ee
Ġ3
Ġke
There
Ġsm
##ave
Ġrec
##vers
Ġyears
##ho
##port
##ition
##ember
##anc
##ors
##ren
##ise
##ix
Ġhand
##ually
##ward
##lp
##aw
##ited
Ġmany
Ġthrough
##ried
Ġ200
##mp
If
Ġold
Ġsec
##air
##ful
##ail
you
##vel
##be
##igh
Ġmost
Ġstart
Ġthree
Ġgreat
Ġdiff
##ince
th
Ġlife
Ġthings
##get
Ġthought
Ġfound
How
Ġhelp
Ġthose
Ġbel
Ġstill
##âĢĿ
##oss
Ġaway
##ever
##ves
Ġdes
Ġused
Ġfind
##ings
##oot
##tain
Ġask
Ġ''
Ġlove
##irl
Ġmust
Ġhome
##hes
Ġlast
##riend
Ġdoing
Ġi
Ġco
##imes
##day
Ġcr
##oh
Ġra
##ents
Ġown
Ġshow
what
Ġlea
##meric
##ational
##ny
##lease
Ġwent
Ġgive
Ġ!
Ġcame
##xt
Ġmin
##oney
Ġend
##Ļª
##ened
Ġbeing
Ġatt
##gin
##tern
Ġwon
Ġname
ĠMr
##ction
ĠShe
Ġcount
##ange
Ġcalled
##ont
##chool
##atch
##pe
Ġmov
##ait
##ah
##gan
Ġfam
".
##oth
Do
Ġ18
Ġsame
Now
##als
Ġchild
##ways
Ġdec
##ars
Ġcare
##ph
Ġsuch
##body
ĠYou
Ġcour
##ning
##te
Ġkind
Why
##aking
Ġfeel
##ib
Ġtry
Ġbig
##ident
##ug
ĠAmeric
Ġtra
Ġhead
Ġlot
Ġnight
âĢĻ
##oup
##IN
Ġworld
Ġsupp
Ġwhy
Ġplace
Ġsl
Ġpol
##ased
##my
##ĠĠĠĠĠĠĠĠ
##erson
##ci
##up
Ġdiffere
##any
##ss
Ġwom
Ġaround
##ER
Ġfin
Ġfriend
ĠMar
Ġnum
##ute
Ġkill
##ced
##ating
Ġgirl
##outh
Let
##side
ĠĠĠ
##form
##uring
Ġuse
##ower
Ġind
Ġacc
##ubl
ĠBr
Ġmight
Ġreg
Ġop
``
##man
Ġanother
Ġmar
##und
Ġrel
Ġ4
##hip
Don
Ġset
Ġturn
Ġche
##arly
##ork
##orry
Ġele
##pect
##ween
Ġhouse
Ġalways
##lud
Come
##ener
##ics
##arl
##ys
Ġfour
",
Ġac
##ible
Ġanything
Ġleft
##ier
Ġbetter
Ġdone
All
##az
Ġbit
Ġsure
##mb
Ġpres
##led
##vent
Ġ199
Ġsur
##ason
Ġstr
##ness
that
##io
St
Ġkeep
ĠAr
Ġboy
##ual
Ġ5
##ek
Ġel
ĠFr
##gg
Ġsy
Ġrun
ĠAnd
##aught
,"
Okay
##ott
Ġform
Ġmon
Ġreal
Ġbetween
My
##ike
Ġbelie
##ollow
ĠAl
Ġtold
Ġknown
##ret
Ġsecond
ĠThey
##ird
).
##ered
##ntil
##ished
##ters
##gr
##uh
##akes
##arm
Ġschool
##ins
Ġword
Ġstud
##der
Ġmoney
Ġdist
##row
Ġever
Ġgl
ĠNew
##ject
Ġent
##ale
##ner
Ġob
Hey
Ġdifferent
Ġret
Ġwhile
Ġmat
oh
Ġmom
Ġperson
Ġey
##orth
Ġbo
Is
##oun
Ġbus
ĠThis
Ġph
Ġinclud
Ġpoint
##ric
),
ĠTH
ĠSh
Ġsub
Thank
Ġcons
Ġokay
##ts
Ġmus
Ġcourse
Not
ĠWhat
Ġspec
Ġuntil
ĠUnited
Ġerm
Ġdr
##OU
Ġass
Ġinv
##ative
##olog
##eak
Ġbook
##enc
Ġuh
Ġtook
ĠAn
Ġmet
Ġnext
amp
When
##ok
Ġmen
Ġstop
Ġcent
Ġsw
Ġbest
##ash
##aj
##une
Ġinst
Ġboth
##eg
Ġseem
##ision
Ġeach
Ġsing
Ġnothing
##ames
Ġfun
Ġdep
ĠGod
##iet
Ġdef
Ġcle
##vern
Ġbre
##ities
##its
Ġwater
##ired
##cept
Ġnumber
##ures
##stand
Ġfollow
##ular
Ġpass
Ġfather
##ope
Ġsaw
ĠAmerican
ĠAs
##rib
Ġhard
||
##ohn
##ane
##ivers
Ġmother
Ġlater
ĠâĢľ
##rand
Ġdoesn
ĠNo
Ġfamily
Ġ-
Ġimp
Ġlist
##rew
Ġteam
##ream
##ung
Ġprodu
##ax
Ġlar
##ton
Ġ198
Ġfr
##blem
##ets
âĢľ
##ross
Ġcity
##alf
##ery
Ġyeah
##osed
Ġ6
Ġenough
Ġchar
##iness
##ING
Ġactually
##att
On
##ister
Just
Ġelse
Ġagainst
##uth
##ctor
##mber
Ġsmall
Ġwait
Ġdied
##eb
##ines
Ġ--
Ġcap
Ġseen
##rist
##ote
##AN
Ġproblem
Ġhigh
Ġpop
##ling
Ġtoget
Ġtogether
in
Ġyoung
it
ĠEng
##ublic
Ġwithout
##ined
##ern
Who
##omm
##ific
Ġdire
Ġwanted
Ġbecame
Ġref
Ġsorry
Ġadd
ĠStates
Ġfact
Ġfive
##ably
Where
##rop
##Ã©
Ġfew
Ġyes
##uc
Ġdisc
##ared
##less
Ġid
Ġrep
##inc
Ġeverything
Ġmind
Ġcoming
##ik
Ġhear
Ġrest
##ution
Look
Then
Ġroom
Ġbad
Ġonce
Ġloc
Ġsince
Ġsix
Ġweek
##ral
ĠSp
##ha
Ġ197
Ġunderstand
Ġstand
Ġsign
##ey
Ġsim
Ġsk
Ġlight
Ġlive
##uff
Ġstay
Ġread
##ield
##uss
Ġleave
Ġborn
Ġsays
ĠBut
Ġ7
##ury
Ġheart
Ġcoll
##ertain
##erest
ĠInd
##ina
Ġbelieve
Ġtimes
Ġside
Ġduring
Ġlooking
##ism
Are
##ecause
Ġchildren
âĻª
Ġev
##ense
##AT
Ġquite
Ġpret
ĠIs
##stem
##orning
19
Ġimport
Ġson
##anna
Ġhum
##oon
Ġtoday
##ball
Ġsit
Ġâ
Ġquest
##ows
Ġinter
Ġcompl
Ġexp
##ants
Ġtrans
ĠĠ
Ġkid
Ġdays
Ġhappened
Ġmeet
Ġopen
##son
##ised
Ġ8
Ġ;
##aid
Right
Ġlead
Ġmove
##ten
Ġwar
##ital
Ġconf
Ġplease
Ġfar
Ġface
##ead
Uh
##ger
Ġgener
##leep
Ġeyes
âĢĵ
Ġtown
Ġgetting
Ġgroup
Ġnice
##ef
##iew
##ON
Ġisn
Ġext
##aby
Ġthough
##ither
Ġbeh
Ġmusic
##ries
##ments
Ġart
Ġwhole
?"
Ġcol
##ech
##aut
Ġsort
Ġed
Ġland
Ġdra
Ch
Ġhour
Ġbro
As
ĠJohn
For
##ete
##ists
Ġposs
Ġdri
okay
Ġinterest
Ġwoman
##aster
##cted
##dy
##ober
Ġheard
Ġplan
ĠZ
Sh
Ġbuild
Ġyet
Ġeas
##iam
Mm
Ġplayed
##ient
##ready
Ġ[
Ġjob
##by
yeah
ĠCl
Ġstate
Ġem
Ġair
Ġfoot
ĠPr
Ġremember
##ize
Ġmorning
Ġhalf
Ġfil
Ġhimself
Ġstarted
##dd
##ues
Ġ196
##ump
##reen
Ġ10
##ats
Ġmed
Ġwalk
Ġknew
Ġhaving
Ġ9
Ġrecord
##ev
##ized
Ġtalking
Ġsystem
##iversity
Good
Ġhold
Ġmain
##ives
##iver
Ġmod
Ġdeath
Ġsir
Ġcur
##ert
Ġalready
Ġpay
##ison
Ġconc
Ġimportant
Did
Ġwrong
##amed
Ġsoon
Ġsong
##ta
ĠWe
##ched
##enn
Ġalong
Ġmil
Ġsaying
Can
##AR
##app
ĠMay
Ġpower
Ġreturn
Ġidea
Ġgi
ĠQ
Ġgave
Al
Ġmonth
Ġans
Ġdoor
Ġdead
Go
Ġmiss
##ex
Ġupon
##ided
000
Ġcountry
Ġbrother
ĠAt
##aps
##velop
no
Ġri
ĠHow
##ipp
Ġprom
Ġprob
Ġgovern
##ering
Ġty
Ġfull
Ġhur
Ġmeans
ĠâĢĵ
ĠGerm
ĠâĻª
Ġeff
Ġprov
Ġcase
Ġwin
Ġeat
Ġtrying
##ility
##ature
Ġgame
##ages
##oice
Ġround
Ġdel
ĠCount
##idd
ĠThere
Ġasked
##aughter
ĠOh
##sh
Ġtop
Ġwife
Ġsound
Ġjo
##wards
##ically
##most
Ġinf
##nce
##ying
Ġgone
Ġarea
Ġlaw
Âł
##ony
Ġins
Ġbusiness
ĠChrist
##eed
Ġspeak
Er
st
Your
##lish
Ġmatter
ĠKing
Ġbegan
##urch
Ġexpl
Ġbring
##ience
##OR
Ġpretty
Ġtri
##ES
gt
##ately
##EN
Ġfore
Ġlear
Ġequ
##leased
Ġwind
Ġhands
he
Ġthank
##ted
Get
Ġsent
##anu
##aken
##ially
##rict
Ġhappen
Ġguy
##ection
Ġstory
Ġcreat
##ural
Ġ`
##ned
##ello
##ush
##ces
Ġshall
Ġlost
##eth
Ġcontin
Ġable
Ġmovie
.âĢĿ
Ġserv
##uro
##orrow
Ġfuck
Ġchang
Ġless
##iter
##ept
Ġcertain
An
##eal
ĠSc
..
##ring
Ġbeaut
Ġmill
##eter
Ġoffic
Ġpain
##ured
##gy
Ġpri
Ġbaby
##ai
Ġpartic
Ġchange
Ġpolit
##orld
Ġoften
Ġwond
Ġmaking
##ole
Ġhist
ĠTHE
Ġgoes
Ġclass
At
##ional
May
Ġfell
Ġleg
Ġ17
Ġbas
Ġfriends
##LL
##erv
Ġwanna
Ġlooked
Ġmoment
Ġsomeone
Ġ15
ĠAll
##ple
Ġwasn
##ract
Ġwatch
Ġfight
##undred
##ator
ĠBl
##rap
One
Ġ195
Ġ194
##cle
##ye
Here
ĠBrit
##arent
Ġbody
##ides
Ġfine
##ron
##arch
Ġwomen
##med
Ġyourself
Ġage
Ġexc
Ġdevelop
Ġ202
Ġcomes
Ġexper
Ġnear
##arth
ĠĠĠĠĠ
do
Ġline
Ġpat
Ġguys
Ġmark
##fess
##aces
Ġ...
##rigin
Ġsleep
Ġvis
ĠYork
##iec
Ġpos
Ġbed
Ġclose
##me
Ġprobably
Ġca
Ġlarge
Ġsn
Ġago
##ster
To
Ġshort
##used
ĠThat
!"
but
##ention
Ġterm
##gue
##artment
Ġgiven
Ġworking
##where
Ġbreak
Ġprot
##ices
Ġdet
Ġtrue
##uly
Ġ|
Ġfire
##ape
##ley
##utes
##enty
ĠHis
ĠCounty
Because
Ġwouldn
Ġes
##apan
Ġeight
Ġhundred
Ġbecome
to
Ġorder
Ġfall
Ġcut
ĠCan
ĠFor
Ġpresent
##ama
Ġter
Ġearly
##aper
##bum
##wer
Ġdeal
##ged
Ġpick
##ality
##ulation
##ps
Ġsol
ĠCon
##elt
Ġhope
##els
Ġhaven
##rol
Ġrece
ĠYes
##ilt
##bs
##ajor
##ox
,âĢĿ
##anuary
Ġalmost
Ġ12
Ġaw
Ġdiv
ĠUniversity
Ġstre
Ġleast
##ians
Ġcor
Ġbegin
Ġfilm
Ġorgan
##ief
Ġquestion
Ġten
##ouble
ĠOn
born
##br
Ġocc
##iful
##ards
ĠGr
Ġaff
Ġblack
ĠAp
##ining
##omp
Ġmyself
##oud
Ġwhite
##ril
Ġadv
ĠPro
Ġoper
Ġpublic
##ains
##ived
##ample
ĠWorld
##gram
Ġcommun
##raz
is
Ġconst
Ġsqu
Ġready
Ġmarried
Ġlate
ĠJapan
##oke
Ġ_
##iously
##ium
Ġopp
Ġvar
##sy
Ġmaybe
##rest
Ġhor
Ġdad
Ġfree
Ġ16
##ully
Ġreason
##ugust
Ġswe
##iting
##angu
Ġalone
Ġoh
##ann
##ccess
##osp
Ġkilled
Ġgovernment
Ġguess
##ese
ĠJanuary
Ġcompany
##ler
##rent
##alth
Mr
Ġred
Ġest
Ġblood
Every
Ġhappy
##ene
Please
Ġalbum
##oor
Ġreleased
Wh
Ġbrought
Ġbehind
huh
##eng
Ġsat
Ġorigin
Ġsever
##selves
ĠĠĠĠ
Ġpar
Ġwords
##pr
Ġhon
ĠWar
ĠAust
Ġdrink
##ney
Ġarm
Ġtele
##augh
Ġhell
##umb
Ġmakes
##ology
ĠYeah
Ġ193
of
Ġtre
ĠEnglish
Ġtaken
ĠSouth
Ġbar
Ġnews
Ġseveral
Ġseries
##eor
ĠFrance
##ently
Ġgra
Ġfood
Ġfront
ĠYOU
ĠMarch
##ones
##haps
##ped
##rench
##ement
ĠEuro
Ġdog
Ġval
Ġmag
Ġanim
Ġstat
##ks
Ġhuman
Ġpast
Ġtaking
Ġhot
Ġann
Some
##aced
Ġ$
##eptember
ĠDec
Ġsupport
ĠMiss
Ġstuff
##ior
##urs
Ġseason
Ġstrong
##ctober
ĠMin
ĠComm
Ġband
##ude
Ġ]
ĠAugust
Ġpict
##unt
Ġeither
Ġball
##lex
##band
Ġdem
ĠWh
##IS
Ġ&
##oint
##ots
##ales
##ances
##atic
Ġsold
Ġeng
Ġresp
Ġcharac
##aim
Ġadm
ĠPh
Ġdaughter
Ġpiec
Ġrather
Ġfig
Ġexample
Ġthinking
Ġattack
##ider
##ches
there
ĠJune
##oe
##ma
Ġallow
##wo
ĠWill
Ġap
##hern
Ġminutes
Ġquick
ĠMrs
Ġlooks
##iving
Ġcouldn
Ġprogram
we
Ġreport
Ġothers
ĠBritish
Ġroad
Ġparty
Ġinform
Be
##ety
Ġtou
Ġlisten
Ġwithin
##ald
Ġliving
Ġtem
Ġheld
##arr
Ġbeautiful
##ency
##oman
##men
Ġsuccess
Ġdesign
Ġnamed
##resent
##head
Ġnational
##aring
##ained
##oad
Ġgrow
ĠEurope
Ġwants
##itting
Ġmillion
Ġresult
Ġminute
ĠSeptember
##ode
Ġnorth
Ġperform
##itten
##aul
Ġinside
Ġbra
##ories
Ġstru
ĠCol
ĠBe
Ġspecial
##ored
ĠOctober
##actly
##ege
##isc
ĠNorth
Ġlangu
Ġnec
ĠAd
Ġstra
ĠTr
ĠApril
Ah
##ovember
##ounc
Ġmember
Ex
Ġ11
ĠJuly
##ousand
##oub
ĠPres
Ġsum
Ġrepl
Or
##ze
Ġturned
Ġmess
Ġwonder
Ġve
Ġsingle
ĠNational
##fully
Ġvill
##airs
##anger
Ġformer
##ĠĠĠĠĠĠĠĠĠĠĠĠĠĠĠĠ
Ġlived
Ġrock
ĠPl
##fe
Ġsil
Ġappear
##cial
Ġincluding
Maybe
Ġking
Ġelect
ĠSw
Ġtest
##unch
ĠGo
where
##unk
Ġdie
##pped
Ġexpect
##amb
##itch
Ġdream
##ara
##fect
##con
##usband
##ruary
Ġship
##ounds
##ebruary
##ued
Hello
Ġcamp
ĠDecember
Ġcommon
##over
ĠCar
ĠWhen
ĠSo
##oul
Ġfelt
")
Ġplaying
##key
##idge
Ġthird
Ġdear
With
Ġvoice
##AS
##ternational
##not
##ana
##fort
Ġusing
Ġmonths
Ġrev
##que
Ġacross
##hm
##echn
Ġoutside
Ġfootball
Have
ĠNovember
ĠFl
Ġsometimes
ĠFrench
Ġdark
ĠX
Ġmemb
wh
ĠCal
Ġworked
Ġz
##ended
Ġcheck
ĠBar
Ġpossible
After
Ġhours
Ġeffect
##ached
Ġthousand
Ġamong
Ġhit
ĠOr
Ġhair
##vision
Ġrequ
Ġdest
Ġfif
Ġ192
##ele
Ġgun
##pec
Ġforg
Ġcareer
Ġcop
Ġproc
##overed
Ġclub
Ġdesc
Ġmajor
##irth
Ġfollowing
Ġill
Ġhusband
##iddle
Ġpoor
Ġfre
ĠMan
Ġsun
##ata
Ġdam
ĠDo
Ġprofess
##oved
Ġ13
Ġappro
Ġtried
Ġwish
Ġtot
##che
ĠFebruary
##ays
Ġtom
sh
##ND
##rodu
Ġaf
Ġla
Re
##read
Ġ14
##lf
Ġsend
ĠCity
20
##eared
##though
Ġcir
Ġlevel
Ġmoved
Ġgotta
Ġseven
Ġhistory
##ases
Ġbuilt
Ġbox
Any
ĠHer
Ġpolice
Ġ2010
##uthor
##attle
##ED
##gest
Ġfeet
Ġgrand
ĠTO
##ressed
ĠAf
##aint
Ġbuilding
Ġproper
Ġmembers
Ġusually
Ġcre
##----
Ġtill
ĠPar
##work
##omin
Ġgets
##itions
Ġfa
Ġparent
Ġav
Ġcoup
Ġcost
Ġoffice
Ġcal
##rit
##onight
Ġstar
##ean
Ġtreat
Ġworry
##rog
ĠGeor
Ġanyone
##ified
Ġmur
Ġgold
##OM
Ġpull
ĠEd
##yn
Ġanswer
Ġchance
##raid
Ġcomplete
##ondon
Ġcontrol
Ġfield
Ġpopulation
Of
Ġsweet
Ġworks
Ġbuy
or
##idence
Ġabs
Ġknows
Ġwhether
Ġstation
Ġteac
##ham
Ġrad
##een
Ġcond
##ET
ĠGu
Ġbased
Ġlay
##iod
Ġord
ĠAb
##iol
Ġdev
##urg
##ino
Ġeasy
well
Ġcannot
Ġprop
Ġwall
Ġplayer
Ġ``
Ġtwenty
Ġwritten
ĠCent
ĠRep
Ġstep
Ġ30
##of
ĠLe
ĠPresident
##uk
Ġlives
Ġste
##irty
##por
Ġsecret
ĠAfter
Ġsister
##ges
##eople
ĠIf
Ġevent
Ġregion
Ġfav
let
##come
Ġlocal
Ġview
##asure
Ġseems
##ae
##iding
Ġphone
##hys
##IT
##illy
Ġgeneral
Ġpract
##par
##soci
Ġmine
Ġiss
##ule
Ġeveryone
##omb
Ġcurrent
Ġcouple
Ġvide
##OW
Ġafraid
Ġclear
Ġsouth
Ġlow
ĠEl
Ġcentury
Ġprocess
Ġpost
Ġones
Ġbird
##ising
Ġfast
##ding
Ġwrote
ĠLea
look
so
Ġmot
Ġdraw
Ġdeep
ĠWest
ĠDon
##ument
ĠHar
Ġcold
##ampions
ĠLondon
##ula
##ift
##EA
Ġdiffic
Ġinvol
Ġground
Ġexactly
Ġfair
Ġseemed
Ġwrite
Ġtomorrow
Ġtable
Ġgirls
##ada
Ġcry
al
Take
Ġsea
##ourn
##ission
Ġboys
Ġlonger
Ġincre
Ġsense
##itive
Ġbirth
##iron
Erm
##ected
##mm
##ogn
Ġdin
ĠEngland
##unic
Ġpaper
Ġdistrict
Ġsuff
ĠJack
Ġcharacter
##uri
Ġhuh
##ask
Ġbott
##ization
Ġsex
Ġinformation
##ills
See
Ġpur
##oose
Ġchanged
##oard
##ording
ĠItal
Wait
who
His
Ġfur
Ġtruth
Ġkids
Ġdirect
##entle
##erc
##aur
ĠAustral
Ġdepartment
##sc
Ġcompet
##ration
##hel
Ġrunning
Ġ25
Ġlik
ĠOne
Ġsupposed
##ani
##uation
##ouncil
##ination
##irt
Ġwood
TH
Ġpress
Ġpubl
âĢĶ
Ġservice
Ġran
Ġsomebody
Ġcat
ĠGerman
Ġfail
##avy
Ġlab
Ġgen
ĠWell
Ġdeb
Ġforget
Cl
Ġhurt
Ġeduc
Ġtonight
Ġsuper
Ġcross
Ġnat
Ġshot
she
Ġperiod
##conom
##GH
##ille
##OT
Ġ*
##dom
##erry
ĠLord
Ġneeds
Ġtrouble
##uture
##ael
Ġreceived
Ġhig
Ġtree
ĠUS
##ops
Ġtype
Ġclean
ĠAmerica
Ġauthor
Ġ191
Ġtelevision
##to
Ġposition
Ġ0
they
##itary
Like
ĠThen
##emy
Ġblue
##acy
can
ĠDr
##more
##aff
##ption
##owers
##let
Ġrepresent
Ġluck
##ospital
Ġtrad
Ġlady
Ġtechn
Ġple
Ġkept
ĠSchool
##arty
##alt
##room
ĠRuss
Ġcreated
##cer
ĠAm
##aged
Ġentire
##ford
Ġmount
Ġarri
for
Ġtit
Ġtouch
Ġthemselves
Ġlanguage
##dden
Ġconn
Ġaccept
Ġcos
##II
ĠEx
Ġwaiting
##joy
##ror
##oes
Ġbank
ĠRe
Ġeverybody
##eder
Ġvers
Ġsell
Ġvillage
Ġear
Thanks
Ġwhatever
##LE
##uz
##avid
##ploy
ch
##oming
ĠAfric
Ġhy
Ġ100
Ġobject
Sorry
Ġsurpr
##ky
Ġfucking
here
Ġsudden
##ivil
Ġstraight
Ġcook
Ġsugg
Ġsuggest
Un
Ġabove
ĠState
##lu
##IC
##irm
Ġfly
cl
Ġmist
Ġparents
Ġspecies
##olution
##ician
Ġperhaps
##estern
ĠPeter
Ġgreen
ĠMy
Ġrul
##fer
Ġpot
##ager
##bers
##ression
Ġfuture
ĠTom
Ġrese
Ġhowever
##omes
ĠDe
##stit
Ġpicture
Ġpriv
Ġlim
Ġrespect
Ġcomput
Ġbooks
Ġcell
##teen
##ping
##ending
Ġinstead
Ġtakes
##inal
Ġdecided
Ġproblems
Ġexist
Ġinclude
on
##reet
##atter
Ġfeeling
Ġvol
##tle
Tell
Ġshoot
Ġitself
ĠMc
Ġcarry
Ġcirc
Ġpiece
Ġled
##roy
Ġstri
Ġperfect
Ġmouth
Ġang
Ġfinished
Ġlaugh
Ġport
ĠPol
##ocr
Ġimag
Ġherself
ĠSy
Ġinvest
##hem
Ġlearn
##bit
Ġcult
Ġdro
br
##isten
##razy
Ġdoctor
##ivid
##lands
ĠOF
Ġletter
##eneral
##ences
These
Ġserved
Ġdue
##ilar
Ġdoll
Ġfix
Ġaren
Ġproject
ĠNot
this
Will
ĠHowever
##pecially
##ental
Ġhappens
##unicip
yes
Ġdifficult
Ġworth
Ġchurch
Ġtrust
Ġdi
Ġvideo
Ġcover
Ġmem
ĠEm
Stop
ĠHouse
Ġspace
Ġ24
Ġant
##ran
Ġfinal
##ampionship
##ien
##AY
Ġearth
##olute
ĠPhil
Hi
Ġpopular
##ograp
ĠLeague
Ġnorm
Ġain
##amm
##line
Ġtrack
##amer
Ġactiv
Ġhealth
Ġlad
Ġprison
##ray
##viously
Ġtelling
Ġshit
how
##ival
Ġhorse
Ġesc
Ġslow
Ġanyway
Ġrecogn
##itor
Ġnine
Ġsoft
Ġsafe
Ġrelations
Ġdoub
Ġpresident
ĠTo
##rill
##RE
ĠCap
Ġgentle
Ar
Ġweeks
Ġ2014
Ġsocial
##erence
##lin
##ken
##uted
Ġfear
ĠThese
Ġmiddle
Ġ21
Ġriver
ĠColl
##raph
Ġpassed
##epend
Ġhang
Ġfigure
Ġcorn
##rug
Ġviol
Ġep
Ġspir
##ichael
Ġdanger
##itted
##ades
Ġmeant
ĠGermany
##val
re
Ġphot
##ashing
Ġsave
##cl
##US
Ġcounty
##eep
ĠPaul
##Ã¡
Ġphys
Ġengine
Ġjud
?âĢĿ
ĠIndian
Ġenjoy
Ġgames
##ius
Ġahead
##gel
as
ĠPark
##empt
##iers
##ander
Ġestab
Ġcourt
Ġfunny
Ġtrain
Ġ2018
Ġmeeting
Ġprinc
Ġevening
Ġhop
Ġseat
Ġfamous
Ġtyp
Ġclot
Ġgod
Ġvict
##oom
em
Ġfurther
Ġcast
ĠSec
with
##bor
##bed
Ġeconom
ll
##oly
Ġappl
Ġsus
Ġexcept
##riage
##ishing
Ġ2011
Ġfish
##van
Ġmach
Ġener
##rible
Ġglad
Ġcrazy
Ġopened
##iforn
Ġ#
Ġda
Ġneg
Ġsick
Ġide
Ġcrit
##yle
Ġreturned
##ceed
##ume
Ġquiet
Ġfill
Ġ("
Ġaut
ĠQue
Ġleaving
Ġstood
Ġum
Ġcool
##roll
Ġself
Ġcapital
Ġrole
Ġthrow
ĠWilliam
##ris
Ġnin
##ifornia
Mar
##erve
##oph
##oura
Ġdisapp
Ġring
Ġcatch
Ġbeginning
18
##ires
Ġdinner
Ġaccount
Ġbreat
Ġmad
Ġforce
Ġmult
Ġsubject
ĠWhy
ĠSome
Ġ2013
Give
##reg
Ġhospital
Ġfeat
ĠSe
like
up
Ġwhom
Ġburn
Ġfloor
Ġcommune
##now
Ġclaim
Ġagre
Ġx
Ġchair
Ġpolitical
##cient
Ġ2017
##rey
ĠRiver
Ġmass
Ġcomb
Ġclos
##itz
##TER
##uge
##lect
##medi
Ġeye
Ġnon
Ġparts
Ġsitting
ĠHigh
Ġshut
Ġgiving
Ġforward
Ġnecess
Ġcommunity
Ġident
lt
ĠSm
Ġrespons
Ġintrodu
##ellow
Ġmention
Ġoriginal
Ġdrive
Ġcause
Ġstick
Ġ2020
Ġreached
Ġtotal
Ġinteresting
Ġstudents
ĠSam
Ġcountries
##reme
##ID
be
Ġmater
Ġbeat
##co
Ġquestions
Ġfem
Ġkey
Ġbag
ĠEast
##af
##ica
##hood
ĠRoman
##ging
Ġsepar
Ġsoci
Ġrelig
Ġ)
ĠGood
Ġfing
Ġobs
ĠCalifornia
##iny
Ġplaces
ĠGeorge
not
By
Ġproduct
Ġindivid
##imate
##ication
ĠMus
Ġmatch
##ili
Ġyours
##ply
Ġquickly
Ġhoney
Ġ22
Ġlose
##inist
Ġneigh
##field
Ġstage
Ġhung
##ears
Ġamount
##raft
ĠMary
##AC
##esus
ĠSu
Somet
##ocked
are
ĠRed
Ġappeared
##uel
Ġstudy
Ġpen
Ġparticular
##ffic
Ġstore
Ġ2012
Ġinn
Ġbear
Even
##ounced
Ġhost
Ġwhose
200
Ġtowards
ĠRepublic
Ġmarket
##cent
Ġkiss
Ġsimilar
##inite
Ġpark
Ġalive
ĠIN
Ġmis
ĠIndia
Ġtravel
Ġsimple
Ġpal
Ġmid
Ġ2015
##iety
Ġjump
ĠJapanese
Ġmoving
##olly
Ġenergy
Ġwindow
Ġsuppose
Ġgrad
##het
Ġroll
Ġdeg
##uty
Ġ2008
Ġlocated
Ġcried
ĠGl
Ġpublished
##ico
Ġcolor
##upid
##cher
God
##iled
From
Ġanymore
ĠQu
Ġfollowed
##arden
Ġnatural
##ming
ĠBy
Ġ()
Ġconsider
##oyal
Ġpolic
Ġindust
##ruction
Ġcaught
ĠGovern
##ites
Ġwide
ĠGreat
ĠCor
ĠLou
Ġris
Nothing
ĠJust
Ġvisit
ĠParty
Ġenc
##orts
Really
10
##rian
##aven
Ġways
##mas
##ext
Ġ2016
Ġneeded
##rab
now
Ġexperience
Ġbelong
Ġcertainly
##anch
ĠMed
##anks
Ġrace
Ġbill
##ensive
Ġteacher
Ġmunicip
Ġben
Ġver
Ġsituation
ĠJo
##ÃŃ
Listen
ĠMe
Ġsad
Ġlie
Ġperm
##Ã¶
Ġdress
##ids
Ġterms
##wered
Ġprep
Ġalright
##nes
##uses
Ġanybody
Ġ2007
Ġfinally
##wood
Ġfac
Ġallowed
ĠII
##asons
##go
Ġstopped
##iment
##ett
Ġmiles
Ġearl
ĠIT
Ġ23
Bl
Ġdiscuss
Ġconcern
Ġstrange
Ġshop
Ġprotect
##cuse
##ago
all
ĠMad
Ġ2009
one
##omen
Ġstreet
##bert
Ġemploy
Ġequal
##Ã¼
##inary
Ġarch
Ġshows
Ġexam
##ship
ĠRich
##istic
Ġ2006
##sych
ĠÂ
Ġfool
ĠBro
Ġserious
##udd
Ġanimals
##anish
##ero
##itional
##orthern
ĠWith
##pper
##AL
##ights
an
Ġespecially
Ġboard
.,
ĠCup
Ġwriting
##ils
Ġinflu
##resh
##urity
did
Ġvalue
##ensus
Ġpeace
Ġbroad
Ġisland
Ġsurv
##inct
Ġinvolved
Ġmilitary
ĠCo
##UT
Ġmaterial
Ġice
##iling
##ari
Ġpaid
Ġquar
ĠDavid
Ġbull
Ġrid
Ġdance
ĠAir
ex
ĠJames
ĠBen
Ġemb
Ġmodern
Ġvarious
Ġconv
Ġdestroy
Ġplays
##ram
Ġfarm
Ġspent
##ortun
ĠAre
ĠPer
ĠMart
Ġwild
Ġfort
Ġwarm
Ġpack
Ġbought
Our
##yl
##iction
##ength
ĠSer
Ġsoul
##ustom
Ġ2019
OK
Ġtax
ĠChar
.'
Ġjoined
Sp
##VE
Ġegg
##ocks
Ġasking
Ġproduced
ĠNow
Ġnet
Ġprofessional
00
##gar
Ġdrug
Ġremain
##olutely
Ġhate
##iced
Ġaction
Ġlargest
##outhern
ĠWho
Ġdate
ĠSan
##ala
Ġdescrib
Ġmix
Ġenv
Ġ50
Ġet
Ġrelationship
##rel
##cell
Ġfavor
ĠChurch
Ġwat
Ġcand
Ġalthough
Ġrefer
##pen
Ġseeing
##well
Ġattempt
Ġbase
Ġanswered
##cious
Ġwest
Ġ190
Ġglass
Ġcivil
Ġsummer
ĠHey
##ibility
##edy
Ġconside
Ġimmedi
Ġconsidered
ĠMor
ĠDad
Ġofficial
ĠDem
##AP
Ġ26
Ġgives
ĠJim
Me
Ġwear
ĠTV
Ġcoff
##obert
Ġeast
ĠEn
Ġbroke
Ġsomewhere
Ġgrew
Two
Ġ:
ĠGrand
##reek
Ġarms
##ify
##hod
was
Ġdevelopment
Tr
Ġloved
Ġstanding
##ancy
Ġsour
Ġplant
Ġdata
ĠSch
##itude
Ġpoints
Ġcard
##ography
Ġnumbers
Which
Ġtitle
Ġareas
Ġpolitician
##istrict
##ises
Ġ28
Ġsize
Ġunc
Ġhous
ĠGeneral
Ġnature
Ġtend
Ġcompan
Ġhat
which
##asing
##vious
ĠEuropean
Ġpersonal
Ġstruct
Ġtired
##ners
##ential
Ġ27
Ġmaster
ĠSoc
Ġaud
Ġpers
Ġrob
Ġdig
Ġgas
##icle
ĠLet
Ġarmy
Ġpurp
Would
ĠFrank
##ique
Ġsal
##ourt
Ġprim
##ament
Ġclothes
##ators
Pro
##uts
##asc
ĠAg
!âĢĿ
Ab
Ġfund
Ġfunction
Ġincluded
##rif
##terday
Ġstars
Ġmer
##irgin
Ġcomputer
##cast
Ġstupid
##ability
##ether
##face
Ġcollege
Ġbrain
##lymp
##bour
Ġadded
Ġmommy
##ounded
Ġeducation
Â´
Ġheavy
Does
##iber
##friend
##istory
##ya
Ġshare
Um
Ġcompletely
Ġresearch
see
Ġaver
##rect
ĠCouncil
Ġcommand
ĠBel
Ġprivate
##ka
Ġsimply
Ġimm
Ġspirit
##ville
Ġboat
##chen
Ġdrop
##olic
##ularly
ĠPal
ĠWhere
Qu
ĠLa
ĠEarth
##EL
Ġnearly
##icated
Ġtrees
ĠMinister
Ġsearch
##ograph
Ġdirected
Ġindeed
##ki
##AM
Pl
Sure
201
##noon
Ġmodel
##ena
Ġextra
##oid
Ġcontract
Ġimpro
Ġscient
Very
Ġcaused
##board
Ġdaddy
##off
##gress
Ġnames
right
Ġevidence
Ġdoubt
Ġthanks
Ġtea
##hest
Ġdifference
Her
Ġexplain
ĠSte
ĠBlack
Ġelection
ĠMon
##ston
##antic
##astic
ĠParis
Ġtick
Ġcontinued
Ġpray
Ġtalked
##iday
##antly
ĠOkay
Ġavail
ĠHen
##wise
ĠAustralia
Ġaward
##osing
Per
##omas
##chie
##ological
Ġsens
Ġdecl
ĠSir
Ġtour
Ġwed
Ġbow
##ruct
Ġrail
ĠMex
##istics
##burg
ĠOlymp
##ails
##ively
Ġbroken
Ġappoint
Ġforest
Ġrain
ĠDep
ĠOK
Ġhistor
ĠĠĠĠĠĠĠĠĠĠĠĠĠĠĠĠĠ
##tered
Ġindepend
Ġbud
ĠComp
Ġpromise
Ġwel
ĠSen
Ġsounds
##ashington
Ġgroups
Ġradio
Ġwatching
##ij
Ġlo
Ġnobody
Ġattention
Ġassoci
##ously
Ġcomfort
Ġfoc
Ġhelped
Ġwonderful
Ġarr
Ġsuddenly
Ġbur
##anced
Fr
Ġur
Ġbattle
##ledge
Ġliter
Ġfle
Ġpath
Ġcharge
##light
##ux
##iles
ĠChampionship
Ġarrest
##uke
Ġcup
ĠAc
Ġpercent
Ġrich
Ġ2000
Ġmarry
Ġreach
Ġshouldn
##ushed
ĠTur
Ġarg
##raw
Ġversion
Ġdoc
##rie
##useum
##action
Ġthirty
##azing
##inese
##ibly
##ords
Ġrights
##unn
Ġinj
Ġmeaning
Ġspend
Ġestabl
ĠSim
##aker
Ġdefe
Ġsand
ĠMont
##ground
##illa
Ġbottom
Ġsight
##tt
ĠUnion
Ġblow
ĠBer
##nown
##iot
##de
Ġfifty
ĠAnt
Ġshowed
ĠReg
ĠCome
##aste
##ests
Ġhappening
Ġfit
Ġinterested
ĠĠĠĠĠĠ
ĠStreet
ĠMichael
##FF
Ġfinish
##ittee
##OS
Ġthreat
Ġlength
Ġannounced
Ġclosed
Ġredu
Ġopportun
Ġlog
##ERE
ĠCollege
Man
ĠDan
ĠChina
Ġpounds
Ġformed
##usion
Ġafternoon
Ġnor
##elebr
##ples
Ġfat
Ġfounded
15
Ġweap
ĠHall
Ġchoice
##ables
##ida
Ġdise
##aves
ĠChristian
Excuse
Ġcalling
##elve
Ġden
Ġhigher
Ġ29
Ġbelow
ĠPat
##ironment
ĠPort
Ġbri
ĠCr
pl
##Ã³
ĠWH
Ġinit
Ġtraining
Ġspeed
Ġdirector
Ġbirthday
Ġnormal
Ġweren
Ġmarriage
Ġnovel
##berg
Ġstreng
##amn
##oring
##osition
ĠON
Am
âĢĿ
ĠGreen
ĠInternational
##aly
Ġactor
ĠNor
ĠDistrict
Ġmurder
aha
##king
John
##icks
##ubb
Ġtemper
##view
##ilities
##isf
Br
Ġmethod
Ġstarting
##osh
##ript
ĠJew
Ġfellow
Ġhall
##oted
##inn
Ġ2005
##apers
##ification
##asion
Ġbright
##atives
Ġspoke
Ġscience
Ġstories
ĠPenn
mm
ĠÃ
Ġ189
come
12
##ria
##urb
Ġcarried
##cul
Ġaccident
##str
Ġdeveloped
Ġlower
Ġmanage
Ġsite
Ġlovely
Ġended
Ġcenter
ĠPri
##upp
Ġoffer
##ession
##ols
Ġworse
Ġchanges
ĠWashington
Ġdeterm
Ġcoffee
Ġpsych
##za
##aries
##alley
ĠIts
Ġavailable
Ġexec
ĠYour
##set
##arily
Ġsociety
ĠMal
ĠChristmas
Ġleader
Ġassist
Ġhuge
ĠCanada
##IM
##LD
Ġlif
##arp
Ġstates
Ġdecision
##ees
Ġfeed
ĠArmy
Ġsnow
Ġregard
Ġearlier
Ġaverage
Ġtext
Ġmachine
Ġputting
Ġpun
ĠAlex
Ġschools
Ġcapt
Was
Ġmilk
Ġund
##ams
Ġyesterday
##iest
Ġmessage
Ġbusy
Ġlines
##ipped
Ġrout
Ġhol
ĠKh
ĠQueen
Ġbes
Ġspread
ĠOld
People
Ġcustom
Ġplus
Ġmultip
Ġepis
##OO
Ġmovies
why
Only
Ġmovement
ĠAfrica
Ġagree
##arliam
##sequ
Ġsongs
year
ĠChe
Ġcreate
ĠAND
Ġnose
Ġlearned
ĠTex
17
Ġride
##initely
##olf
##ummer
##rag
##IGH
Dad
Ġcases
##ossible
Ġpage
##for
Ġ40
Ġcondu
Ġinternational
First
ĠSl
Ġcareful
Ġhero
Ġestablished
Ġmor
Ġoccur
Ġhonest
Sir
ĠMark
Ġ2004
Ġgarden
Ġaccess
CH
##bon
Ġcelebr
Sc
Ġcy
Ġleaves
##arliament
Ġbath
##ips
Ġyellow
Ġdemand
##uit
Ġhun
Ġsuit
ĠBE
##ccording
Ġ..
##oday
ĠAward
Ġrule
##vania
Ġlegs
Ġstyle
Ġliked
Ġjoin
Ġfaith
##hib
##acing
Ġsquare
##ems
##ims
Ġsinger
##lor
ĠLouis
##la
##rat
Ġpred
##ournal
##oves
Ġterrible
Ġnone
Ġinvestig
Ġneck
Ġcensus
##ension
Ġevents
Ġproduction
Ġkit
Ġbi
Ġscared
Ġfault
ĠItalian
hm
##ette
Ġcorner
Ġmunicipality
ĠFranc
ĠCaptain
Ġprincip
##sey
Ġought
Ġstone
Ġcontact
ĠWhite
##ita
Ġdistrib
Ġdry
##emember
Ġsmell
##ms
##apt
##imb
ĠSat
Ġwa
Ġeating
if
Ġchem
Ġanimal
ĠRob
Ġprof
##onel
ar
ĠChinese
##aign
##ini
ĠIsland
Ġideas
Ġtherefore
##order
ĠME
##icked
ĠOf
##ederal
##cy
##rupt
##syl
##etic
ĠKore
Mhm
##nie
ĠĠĠĠĠĠĠĠĠ
Ġfol
##elp
Ġimmediately
##uzz
11
##fast
WH
##ilies
Ġflowers
ĠFrom
Ġcow
Ġskin
Ġsky
Ġhey
THE
Ġ186
##NA
ĠBill
##cean
am
Ġcred
Ġlikely
Ġ2021
ĠVirgin
Ġbell
Ġtall
##itation
##oses
##hab
##ELL
##lected
Ġsigned
Ġwelcome
##sylvania
##icago
Ġraised
##otten
Ġlying
Ġpieces
Ġolder
Ġdistance
Ġwit
##phone
##ipe
16
Ġmostly
Ġbelieved
##erved
Ġfrog
##agn
##icro
ĠCong
##aug
Ġbenef
Ġir
Ġtheory
ve
Ġcamer
##the
ĠMa
Ġnecessary
##ancing
ĠRussian
Ġspecific
go
Ġchief
Ġharm
##asant
Ġsevent
ĠMil
Ġacqu
Ġdiscovered
##night
ĠRes
Ġdisp
ĠâĢĺ
Ġcoast
Ġcontinue
##gain
##CH
##razil
##ns
Ġservices
##urt
##mpire
ĠTexas
Ġarrived
Ġdepend
##ware
Ġbey
##vert
Ġstorm
Ġconvers
##annel
Never
ĠCharl
mhm
ĠSwed
Ġcrime
ĠPrince
Ġwalked
Ġtruck
Ġut
Ġelected
##utch
Ġsuccessful
Ġbeyond
Ġspl
Ġrepe
ĠJesus
##vey
Ġscene
ĠST
Ġru
Ġaged
##atory
ĠRec
##using
Ġindividual
ĠSund
ĠĠĠĠĠĠĠ
Ġimagine
##stairs
sp
Ġgar
Ġfighting
ĠCourt
Ġweak
Ġmountain
Ġ1990
ĠTe
##iant
Ġintell
Ġofficer
ĠPennsylvania
Ġspot
Ġreb
Ġcovered
Could
Ġmoon
ĠScott
Ġfirm
Ġreview
Ġ2001
Dr
ĠRobert
Ġchall
##ateg
Ġpractice
ĠAct
Ġgoal
Ġ31
Ġcollect
Ġenvironment
Ġaddress
##house
Ġattract
Ġreading
don
Ġcab
Ġparticip
Ġess
Ġcrow
ĠIS
Ġprice
....
ĠArt
Ġapart
Ġreve
Ġtells
##...
ĠDuring
Ġformula
Ġble
ĠDemocr
##arling
Ġphil
Ġspeaking
Ġboss
Ġfresh
Ġholding
ĠRichard
##uments
Ġwedding
##kin
Ġdouble
##UR
Ġwalking
Ġdescribed
##isted
Ġrelease
##ulf
ĠCharles
Ġfourth
##west
Ġpurpose
Ġemer
Ġprint
Ġrules
ĠKingdom
ĠSal
Ġadminist
Ġissue
Ġfemale
##iana
##aching
Ġpictures
Ġ188
Ġangry
ĠMount
Ġpig
##hew
;&
Ġtail
ĠJul
##ora
Ġtar
Ġforces
Ġshown
ĠSpanish
##itiz
Ġsettle
##ients
Ġrange
Ġtwice
Gu
##rs
Ġpositive
Ġoil
Ġreplied
Ġenemy
##pping
Ġ1980
Ġregular
Ġtro
his
ĠHenry
##IR
ĠDel
good
##ura
##atin
##lt
Ġslight
Ġpan
Ġbehav
##Ã¤
##anda
ĠLaw
Ġtrade
##AD
Ġlots
ĠBrazil
Ġsurface
##ores
##itar
Ġstrength
##mon
Ġ2003
##rial
Ġnetwork
Ġsle
Ġdangerous
Ġrate
##pty
13
Ġbound
Ġaccording
##alled
Ġchick
##ictor
Ġachie
##oop
##yer
##oz
Ġdirection
Ġswim
Put
bl
Ġlink
Ġsoldiers
Ġsatisf
##sec
Ġhide
Ġloss
##enth
##KE
Ġeasily
##how
ĠBob
##50
##âĢĻ
Ġmemory
Ġletters
##ourage
Wow
##izing
Ġcalls
ĠSov
##icate
Ġknowledge
ĠGold
##ashion
##road
##lam
Ġrecorded
Ġpressure
de
##isters
Ġdesp
ĠBrown
14
Ġsac
Ġcoun
Ġproperty
Ġnotice
time
##ademy
Ġ2002
ĠTHAT
Ġmissing
Ġmir
ĠSoviet
##rely
ĠMac
Ġstudent
##ket
##ker
##oseph
Ġtwelve
Ġspe
Ġcru
Ġnewsp
Ġyouth
Ġder
Ġhasn
Ġrose
##ulations
##iring
ĠDay
Ġload
cause
##aine
##ours
Ġ2022
##isions
Ġchoose
Ġfrequ
Ġproud
Ġancient
Ġteams
ĠItaly
Ġplaced
ĠChicago
Ġcars
ĠAnne
##aled
Everything
Ġthinks
Ġbridge
Ġentered
Ġhar
ĠRoyal
##iation
Ġhors
ĠTown
##ona
Ġcoach
##sp
Ġhonor
Ġplayers
##ota
Ġsignific
would
Ġdollars
Ġcomplet
##adian
ĠCH
##aped
Ġ00
##abor
ĠNe
##vell
Ad
Ġkitchen
ĠOl
Ġanywhere
Ġextreme
Ġspring
Ġmistake
Ġcampaign
Ġdropped
##play
uh
ĠHere
Those
##idden
Ġintern
##oms
Ġflat
##BC
Got
Ġforgot
Fuck
##back
Ġsecurity
Ġ187
Ġdegree
Che
Bye
Since
##ENT
Ġopin
Ġweight
##uf
Ġbrown
Ġthroughout
Ġcondition
Ġdisease
Ġlunch
YOU
ĠCath
Ġpainting
History
Keep
Ġcaptain
##igned
30
##UN
Ġbigger
##gn
ĠDO
Ġbirds
Ġwhis
ĠFirst
Ġincludes
Ġleading
##gypt
day
Ġqual
##ano
Ġwee
because
##eless
ĠCarol
Ġpolicy
Ġtaught
Ġsett
Ġbab
Americ
##semb
ĠPre
Ġabsolutely
Ġunless
##zen
##itect
Ġbeg
Ġdamn
Ġgradu
Ġopportunity
Ġwriter
Great
Ġfamilies
ĠPeople
Ġcentral
Ġhouses
Ġsystems
##utions
##stitute
Hold
ĠAssoci
ĠThank
Ġsurprise
##father
Ġblock
ĠPrinc
Ġcorrect
Ġmagaz
##ato
Ġguard
ĠPe
Ġstudied
Ġstaff
Ġeventually
Ġpet
##arah
##cing
Ġrom
##istan
Ġsurr
ĠDiv
Ġcontrib
Ġshoes
##ube
Ġmum
ĠJoe
##iverse
Ġrisk
##yr
ĠFred
ĠIll
##anta
##hold
Ġcities
##ompl
##rain
Ġforty
Ġhel
Ġge
##den
Ġprovince
Ġobviously
Ġnote
Ġgrowing
Ġprince
Ġmedical
##VER
Ġworried
Ġ1970
Ġsmaller
Ġconstit
##esty
Ġpatient
##arsh
##otion
##ca
ĠWil
Ġbecomes
Ġmm
##roat
##shire
Ġescape
Ġpock
Ġvan
Ġdriving
##iqu
##asy
Ġuses
Ġmurd
'.
En
Ġteach
Ġmagn
##fl
ĠDes
Tom
Ġthou
##umber
Con
##lear
##ses
Ġforced
##estival
Ġremained
199
ĠSing
Ġlaid
Ġcancer
Ġtrip
Ġmanager
Ġruns
##ares
Ġenter
Ġhighest
Ġslowly
Lea
Ġresults
Ġstudio
ĠCarl
ĠBay
Ġoccup
Ġtypes
at
Ġbreath
Le
##under
_,
Ġpush
##Ã¨
Ġban
Ġprovide
Ġscreen
##imin
ĠMany
##tained
just
Ġagreed
##ruit
##ls
Ġsmile
Ġbrothers
pro
Ġmentioned
Ġimpossible
Ġparticularly
Ġpicked
Ġamazing
Ġchap
my
ĠSmith
Ġlucky
Ġkinds
when
Alright
Ġopening
Ġgrass
##edom
##elling
##odes
##gent
Ġthus
##EC
Se
##mit
Ġweird
Ġinterview
##kins
##icles
Ġexpected
Pr
Ġactress
Ġnomin
Ġheaven
##aches
ĠEr
Ġcurrently
ĠScot
Ġsaved
##och
Ġplans
Ġartist
ĠJer
##oken
##rael
##isl
Ġvote
Ġuniversity
##ications
##da
Ġwearing
Ġsen
##bered
Ġforth
Ġplanet
##aniel
Ġappre
Ġlaws
Ġinvent
Something
Ġbomb
##ulous
Ġhungry
##ashed
Ooh
##ucky
##like
Ġbread
Ġcode
New
Mom
##--------
Ġpleasure
Ġheat
Ġplane
Ġaddition
Ġperformance
Ġuncle
Ġhole
##lement
Ġelectric
Ġcompetition
Ġnation
##ION
##gged
Ġlarger
##arn
##arry
Miss
##aked
Ġmission
Ġleaders
Ġminus
Ġindustry
##eff
Ġshout
Ġbreakfast
Ġhill
Ġwinter
Ġrough
Ġconcept
ĠEgypt
Ġdesigned
##istry
##adow
Ġgenerally
ĠLittle
Ġreported
Act
Ġblind
ĠCentral
Ġstarts
Ġpoet
##enny
##chan
##astern
Ġshape
Ġrelated
Ġsusp
Ġtoward
Ġfinger
Ġstuck
Ġstructure
ĠRock
ĠIr
ĠMag
ĠFather
Ġcompanies
Ġ1999
Ġbrief
##arrow
Ġprevent
Ġlikes
ĠThomas
Ġsmart
Ġhurry
Ġweather
Ġtape
ĠLee
##rough
Ġma
##iano
##ighs
Ġcitiz
##Ļ«
##gen
Ġsides
Ġgreatest
Ġlearning
Ġamb
Ġstrugg
Ġdefinitely
ĠAcademy
Ġya
##cend
Ġfeatures
Ġhotel
ĠMom
Ġperformed
##ishes
Ġfright
Ġbal
Ġtransl
Three
ĠVirginia
Ġculture
Ġrap
Ġaware
##fessor
Ġcentre
con
Ġhorses
##eck
Ġforms
Ġren
Ġpair
Ġiron
##ansas
Ġforeign
Ġsch
ĠAtl
Ġnegative
ĠAh
Ġplants
Ġissues
Ġspeech
##RO
##icious
Ġremark
##lo
##IGHT
Ġpowerful
Huh
##ola
Ġevil
Ġvac
Ġretired
ĠCont
Ġsilver
##ican
ĠRoad
Ġfilled
Ġjudge
Ġsection
ĠGreek
Ġsource
Ġcrew
##oma
Ġprec
ĠBoy
Ġgreater
##gu
ĠBet
Ġduty
Ġthick
##mph
##rad
Ġcomplex
Ġinstr
Ġphilos
ĠMost
Ġcrowd
##utive
##hered
Ġsinging
##uten
Ġcalm
Ġorders
Ġconditions
Ġbless
Ġhandle
##osite
Ġdescri
##elle
Ġbasket
Ġempty
##||
ĠFil
Ġturns
##gl
##arts
by
##enge
##icient
Say
Ġlack
Ġcrack
ĠMexico
Ġrank
ĠDid
ĠBur
Once
ĠAfrican
Ġbloody
##icine
Ġteeth
Ġquarter
##host
Ġheads
Ġserve
Ġoffered
Ġsteal
Ġreasons
##imately
ĠFore
ĠHill
##asty
Ġedge
ĠFox
##urry
Ġbeauty
Ġoriginally
Ġwitness
##ourney
ĠSecret
Ġstandard
Ġincrease
Ġrealize
old
ĠMartin
un
##aving
Ġjoy
##va
ĠCongress
##anged
Ġbiggest
##ste
Ġopt
Ġourselves
ĠWestern
Ġsem
Ġneither
ĠFlor
##oned
##stood
Ġbecoming
##ockey
Ġmale
Ġbasically
##usic
##ros
##odies
ĠSunday
Ġcontain
Ġ1960
Ġneighbor
Ġsake
ĠHi
Ġ1998
Ġtarget
Ġmissed
Ġcharacters
Ġmeasure
Ġordered
Ġdivided
ĠAustralian
##hi
Ġsymb
Before
ĠCom
Ġgrown
Ġbitch
##anted
ĠSuper
Ġhardly
Ġsuspect
##urday
Ġladies
Other
ĠProv
Ġmut
##ening
Ġmedia
clock
ĠSun
Ġ1996
Ġseparate
##peror
ĠSpain
Ġtransfer
ĠMet
Ġdogs
Ġjournal
ĠVictor
Ġresponsible
ĠApp
##rick
Ġcere
ĠMother
ĠFin
Ġdecide
Ġign
ĠMaster
ĠTwo
ĠWood
ĠCanadian
Ġdare
Ġkilling
Ġreplaced
Ġeggs
Ġtight
Ġnorthern
##ooth
Ġstatistics
##fortun
##aud
##ault
Ġadult
Ġactive
Ġtotally
Ġvot
Ġacting
Ġremind
##rees
Ġgay
Ġmechan
Ġforever
Perhaps
ĠAssociation
Ġlegal
er
Ġprevious
Ġconnect
ĠLos
Ġcommer
Ġdirectly
##craft
ĠRussia
##ado
##aded
ĠTor
##ali
man
##CK
Ġox
ĠRome
##ois
Ġdocument
her
##time
##vere
Ġunit
Ġpromised
Ġphysical
Ġlies
ĠAnge
##aret
Ġcouncil
##umn
Ġcritic
##ked
ĠPet
Ġwaste
Ġterrit
Ġgentlemen
Ġwine
Ġwilling
##eds
Mrs
##mark
ĠSea
Ġprove
##ishop
Ġturning
ĠCatholic
##mond
Ġcuri
Ġarchitect
Ġclearly
Ġnoise
out
Ġfailed
##ias
Ġmeat
Ġcopy
ĠSH
##yan
ĠIre
##wr
Ġorganization
Ġsilly
Ġju
Ġwake
ĠLuc
Ġsaf
##isher
Ġdelight
ĠGet
ĠJud
Ġlawyer
Ġcamera
Ġflight
from
ĠConf
Ġsuc
Ġonto
Ġresour
##lder
Ġinstit
Ġzero
Ġseconds
Ġtaste
Ġimage
Ġtransport
##olit
Ġcontent
Ġscream
##aughed
Ġears
Ġappointed
##inter
Ġmotor
Ġflying
ĠTra
Ġinfluence
have
ĠBig
##EE
ĠRev
ĠIsrael
Ind
Ġappreci
Ġsurprised
Ġbother
Ġproduce
##elcome
##iger
Ġtechnology
Ġintroduced
Isn
##cience
Ġcandid
##elly
##ban
Ġkick
Ġlock
Ġroof
Ġpulled
Ġexcl
##abeth
##uan
##ender
##rated
"?
##rid
ĠCat
Ġdivision
ĠMaj
Ġconcerned
sc
##iance
##ima
Ġplat
##uman
Ġpattern
Ġkeeping
##ctions
put
Ġreligious
Ġbuildings
Ġlibr
Ġindependent
Ġsouthern
ĠMel
Help
Ġsucceed
##RI
Ġwet
Ġeasier
##lig
##arently
Ġepisode
Nice
Ġdestroyed
##osen
Ġlanguages
ĠHam
##ancial
Ġprepared
Ġ1995
Cos
##mar
ĠLady
##inois
.)
Ġloud
Ġopinion
Ġasleep
Most
ĠMill
ĠCenter
##nces
Ġsports
said
##atre
Ġadop
Ġ1994
ĠCompany
Ġdrunk
Bet
Ġcrying
##agon
Ġpit
Ġmeas
##bye
Remember
Ġlistening
##idents
##ennis
##orter
Ġrecently
Fine
Ġremem
Ġdemon
##TH
Ġquality
Ġanal
ĠGovernment
##ushing
##azz
Ġpalace
##ardon
ĠAngeles
Ġpil
##oking
ĠSand
Ġinsp
ĠFlorida
Ġteaching
Ġlaughing
##rate
##uals
Ġlaughed
##tering
Ġactual
About
##ga
Ġveh
During
Ġleague
ĠChief
##elled
Ġodd
Ġninete
Ġcloud
ĠEll
ĠLake
ĠBecause
Ġmetal
##ella
Ġjourney
Ġswear
Over
Ġ60
ĠTheir
##utenant
Ok
Ġdying
##kend
Ġworst
Ġthrew
##ua
ĠBest
##anny
Ġmagic
le
Ġmanaged
Ġmainly
se
##oles
Ġrecords
Ġmaid
Nobody
Ġknock
Ġtrial
##isco
ĠArab
ĠRay
##achel
Ġfixed
Ġsleeping
ĠDa
Ġappears
km
Ġpossibly
ĠUK
##ropical
ĠServ
Ġdreams
Ha
##rer
Ġpound
Ġsteps
##rier
Ġsequ
Tw
##vis
Ġplanning
##uries
Ġpure
Ġresist
##ios
Ġadvant
Ġwatched
ĠSaint
alright
ĠGovernor
##ooper
ĠWomen
##oured
Ġast
Ph
ĠDutch
Ġstream
ĠDick
Ġusual
##icide
Ġbrand
ĠDepartment
Ġawful
##bur
Ġnuc
Ġscore
Ġshowing
##cellent
int
Ġeth
Ġdrew
Ġprovided
Ġplain
two
Ġhadn
Ġ1992
##onse
Ġdamage
Ġfashion
##ctors
ĠBritain
##AU
Ġbuck
App
Today
Ġpartner
##LY
ĠBu
ĠHaw
Ġ1997
Ġburied
##urance
Ġends
AND
##alent
Ġrow
ĠOther
American
##zz
Ġtrib
ĠDen
ĠFOR
ĠSil
Ġcoat
Ġknowing
Ġcircum
##enced
##itzer
ĠEmpire
##esse
ĠCast
Ġmanner
Ġgro
##ANT
had
##oices
Ġyounger
Ġstayed
Ġfeels
De
Gr
ĠGO
Ġspoken
ĠYoung
Ġeverywhere
Ġexpression
##iable
Ġofficers
Ġfeelings
Ġappearance
Ġdebut
Ġconstruction
bye
Ġowned
Ġfingers
##orough
Ġremains
Ġconversation
en
Ġwalls
Ġdom
Ġstudies
Ġgift
##rig
Ġmagazine
##put
##change
##ocol
Ġassum
198
ĠRad
Ġnoticed
Ġmel
##oving
Ġdrag
Ġpocket
ĠMatt
Ġrequired
Ġexpress
##imum
Ġchamp
Ġanx
ĠDev
##heast
ĠClub
ĠAN
then
Ġeconomic
##ouch
ĠGeorg
Make
Ġprem
Ġguns
Ġsmoke
##ogether
Ġtong
Ġlocation
Ġstock
Ġash
Ġdirty
Ġbutter
Ġ1993
Ġsect
Ġalt
Ġreact
##ounce
Ġduck
Ġrat
Ġupset
Ġtroops
ĠSummer
Ġce
Ġcous
ĠMur
ĠIllinois
ĠAng
Ġpapers
Ġloves
##lection
ĠStan
Ġoccasion
Ġwinning
Sometimes
Ġcart
##orial
Ġscrew
##anche
##can
Ġrequire
##ingu
Ġlosing
##lyn
ĠPak
Ġprefer
##ournament
ĠFar
##ih
Ġflow
Ġrequest
ĠJane
##OME
Ġstret
Ġdrama
Ġcollection
Ġreality
Ġopposite
ĠTw
##ties
ĠStud
Another
ĠParliament
Ġoperation
Ġreligion
Leave
ĠRog
Ġrestaur
ĠIreland
Ġwheel
##sembly
##mn
##ache
ĠAunt
Ġthee
Shut
ĠAmericans
Ġminor
Ġbye
Ġautom
##appy
Ġimprove
Think
ĠGroup
More
Ġunits
ĠAnn
##owa
ĠKent
##duc
ĠGames
ĠHon
Ġbottle
El
ab
Ġprogress
##apa
Ġcake
Ġmusical
##lict
##iven
Ġmicro
Ġcompleted
##yp
##resp
Ġrub
Ġfinding
Ġcells
Ġinnoc
Ġtrick
Ġintellig
ĠMajor
##ulty
Ġdriver
Actually
Ġrelative
##reak
Ġgall
...?
Stay
Ġexcuse
ĠMass
ĠVer
Ġtreatment
ĠCamp
Ġfavorite
Ġtraditional
ĠLook
Ġability
Ġraise
##cel
Ġhelping
##bo
ĠSqu
ĠPrime
##arian
Ġeffort
Ġfought
Ġscr
##aria
Ġhumans
Ġfavour
me
##emic
Ġexerc
Ġjoke
##onder
Everyone
Anyway
ĠRail
ĠDivision
Ġfile
Ġcash
Ġjack
Ġgiant
Ġdrugs
Ġ1991
ĠTim
Ġmatches
ĠScotland
Ġthousands
Ġweekend
Ġthoughts
Ġbasis
Ġadvice
Ġtiny
##stitution
##20
Ġlights
Ġflag
ĠEvery
Ġgate
##aval
Ġstruck
Ġfro
Ġthy
Ġwebs
##onds
Next
##Äģ
Ġguitar
ĠRight
##igg
Ġstatement
Ġaffect
##ila
Ġadj
Ġflower
##ira
Cause
Ġbast
Ġchemical
Ġuseful
##ILL
##oos
ĠHa
Didn
Ġwestern
Ġspr
Ġjobs
25
##CE
ĠPrincess
Ġphilosop
##obile
Ne
##osa
Ġdepart
Ġships
##UST
ĠHA
Ġaltern
hand
off
Ġ185
Ġforgotten
Ġmatters
ĠOff
##uing
##acle
##vest
Ġtim
Ġnerv
Ġsafety
50
law
ĠCons
ĠGe
##RA
Ġpurs
Ġetc
Ġye
While
RE
your
Ġattend
Ġcloser
ĠSus
ĠGre
Ġsword
##add
Ġfreedom
Ġfinancial
##eral
##ja
Ġflo
##thur
ĠMusic
##igan
ĠOlympics
##ildren
II
Ġbodies
ĠCam
ĠSaturday
##hile
Ġeffects
._
##erman
Ġawarded
ĠDire
Ġninety
Ġfal
ĠDoctor
Damn
##rary
##egr
##lim
##ST
ĠHel
Ġreceive
##aimed
Ġpresence
##lying
Ġmotion
##inger
##urse
ĠWal
Ġfocus
Ġsplit
##kes
##ootball
##isa
Ġrise
##stead
ĠRose
ĠJoseph
Ġgolden
Ġdeclared
ĠLatin
ĠMike
Ġgentleman
Ġaccepted
Many
However
ĠMax
ĠBas
##ailed
Ġnative
##stances
##olved
Ġminister
Ġbringing
Ġearn
ĠDemocratic
Ġselected
Ġthin
Ġlect
ĠWind
Sm
Ġbare
Ġtemperature
Ġdressed
ĠInstitute
##yo
Ġtears
##ilty
Ġgri
Ġhearing
Ġcredit
Ġgraph
##IF
Ġborder
some
Ġsignal
Ġresponse
##izabeth
##onic
##iliar
Ġdarling
Ġcream
Ġbranch
ĠMajesty
Ġweapons
Everybody
Ġentirely
##iro
Ġrecomm
Ġafford
Ġinhab
ĠCommittee
Ġbroadcast
Ġsail
ĠBell
Ġmate
Ġrecent
<mask>
