{
  "version": "1.0",
  "truncation": null,
  "padding": null,
  "added_tokens": [
    {
      "id": 0,
      "content": "<pad>",
      "single_word": false,
      "lstrip": false,
      "rstrip": false,
      "normalized": false,
      "special": true
    },
    {
      "id": 1,
      "content": "<s>",
      "single_word": false,
      "lstrip": false,
      "rstrip": false,
      "normalized": false,
      "special": true
    },
    {
      "id": 2,
      "content": "</s>",
      "single_word": false,
      "lstrip": false,
      "rstrip": false,
      "normalized": false,
      "special": true
    },
    {
      "id": 3,
      "content": "<unk>",
      "single_word": false,
      "lstrip": false,
      "rstrip": false,
      "normalized": false,
      "special": true
    },
    {
      "id": 5999,
      "content": "<mask>",
      "single_word": false,
      "lstrip": true,
      "rstrip": false,
      "normalized": false,
      "special": true
    }
  ],
  "normalizer": null,
  "pre_tokenizer": {
    "type": "ByteLevel",
    "add_prefix_space": false,
    "trim_offsets": true,
    "use_regex": true
  },
  "post_processor": {
    "type": "RobertaProcessing",
    "sep": [
      "</s>",
      2
    ],
    "cls": [
      "<s>",
      1
    ],
    "trim_offsets": true,
    "add_prefix_space": false
  },
  "decoder": {
    "type": "ByteLevel",
    "add_prefix_space": true,
    "trim_offsets": true,
    "use_regex": true
  },
  "model": {
    "type": "BPE",
    "dropout": null,
    "unk_token": null,
    "continuing_subword_prefix": null,
    "end_of_word_suffix": null,
    "fuse_unk": false,
    "byte_fallback": false,
    "ignore_merges": false,
    "vocab": {
      "<pad>": 0,
      "<s>": 1,
      "</s>": 2,
      "<unk>": 3,
      "!": 4,
      "\"": 5,
      "#": 6,
      "$": 7,
      "%": 8,
      "&": 9,
      "'": 10,
      "(": 11,
      ")": 12,
      "*": 13,
      "+": 14,
      ",": 15,
      "-": 16,
      ".": 17,
      "/": 18,
      "0": 19,
      "1": 20,
      "2": 21,
      "3": 22,
      "4": 23,
      "5": 24,
      "6": 25,
      "7": 26,
      "8": 27,
      "9": 28,
      ":": 29,
      ";": 30,
      "<": 31,
      "=": 32,
      ">": 33,
      "?": 34,
      "@": 35,
      "A": 36,
      "B": 37,
      "C": 38,
      "D": 39,
      "E": 40,
      "F": 41,
      "G": 42,
      "H": 43,
      "I": 44,
      "J": 45,
      "K": 46,
      "L": 47,
      "M": 48,
      "N": 49,
      "O": 50,
      "P": 51,
      "Q": 52,
      "R": 53,
      "S": 54,
      "T": 55,
      "U": 56,
      "V": 57,
      "W": 58,
      "X": 59,
      "Y": 60,
      "Z": 61,
      "[": 62,
      "\\": 63,
      "]": 64,
      "^": 65,
      "_": 66,
      "`": 67,
      "a": 68,
      "b": 69,
      "c": 70,
      "d": 71,
      "e": 72,
      "f": 73,
      "g": 74,
      "h": 75,
      "i": 76,
      "j": 77,
      "k": 78,
      "l": 79,
      "m": 80,
      "n": 81,
      "o": 82,
      "p": 83,
      "q": 84,
      "r": 85,
      "s": 86,
      "t": 87,
      "u": 88,
      "v": 89,
      "w": 90,
      "x": 91,
      "y": 92,
      "z": 93,
      "{": 94,
      "|": 95,
      "}": 96,
      "~": 97,
      "¡": 98,
      "¢": 99,
      "£": 100,
      "¤": 101,
      "¥": 102,
      "¦": 103,
      "§": 104,
      "¨": 105,
      "©": 106,
      "ª": 107,
      "«": 108,
      "¬": 109,
      "®": 110,
      "¯": 111,
      "°": 112,
      "±": 113,
      "²": 114,
      "³": 115,
      "´": 116,
      "µ": 117,
      "¶": 118,
      "·": 119,
      "¸": 120,
      "¹": 121,
      "º": 122,
      "»": 123,
      "¼": 124,
      "½": 125,
      "¾": 126,
      "¿": 127,
      "Â": 128,
      "Ã": 129,
      "Ä": 130,
      "Å": 131,
      "Æ": 132,
      "Ç": 133,
      "È": 134,
      "É": 135,
      "Ê": 136,
      "Ë": 137,
      "Ì": 138,
      "Í": 139,
      "Î": 140,
      "Ï": 141,
      "Ð": 142,
      "Ñ": 143,
      "Ò": 144,
      "Ó": 145,
      "Ô": 146,
      "Õ": 147,
      "Ö": 148,
      "×": 149,
      "Ø": 150,
      "Ù": 151,
      "Ú": 152,
      "Û": 153,
      "Ü": 154,
      "Ý": 155,
      "Þ": 156,
      "à": 157,
      "á": 158,
      "â": 159,
      "ã": 160,
      "ä": 161,
      "å": 162,
      "æ": 163,
      "ç": 164,
      "è": 165,
      "é": 166,
      "ê": 167,
      "ë": 168,
      "ì": 169,
      "í": 170,
      "î": 171,
      "ï": 172,
      "ð": 173,
      "ĉ": 174,
      "Č": 175,
      "Ġ": 176,
      "ġ": 177,
      "Ģ": 178,
      "ģ": 179,
      "Ĥ": 180,
      "ĥ": 181,
      "Ħ": 182,
      "ħ": 183,
      "Ĩ": 184,
      "ĩ": 185,
      "Ī": 186,
      "ī": 187,
      "Ĭ": 188,
      "ĭ": 189,
      "Į": 190,
      "į": 191,
      "İ": 192,
      "ı": 193,
      "Ĳ": 194,
      "ĳ": 195,
      "Ĵ": 196,
      "ĵ": 197,
      "Ķ": 198,
      "ķ": 199,
      "ĸ": 200,
      "Ĺ": 201,
      "ĺ": 202,
      "Ļ": 203,
      "ļ": 204,
      "Ľ": 205,
      "ľ": 206,
      "Ŀ": 207,
      "ŀ": 208,
      "Ł": 209,
      "ł": 210,
      "Ń": 211,
      "Ġt": 212,
      "he": 213,
      "Ġa": 214,
      "in": 215,
      "Ġthe": 216,
      "re": 217,
      "Ġw": 218,
      "ou": 219,
      "Ġs": 220,
      "on": 221,
      "er": 222,
      "ha": 223,
      "nd": 224,
      "is": 225,
      "it": 226,
      "Ġb": 227,
      "Ġo": 228,
      "Ġc": 229,
      "Ġm": 230,
      "Ġf": 231,
      "ing": 232,
      "or": 233,
      "ed": 234,
      "ll": 235,
      "an": 236,
      "Ġd": 237,
      "en": 238,
      "Ġto": 239,
      "es": 240,
      "Ġp": 241,
      "Ġy": 242,
      "Ġof": 243,
      "ar": 244,
      "Ġin": 245,
      "at": 246,
      "Ġyou": 247,
      "Ġand": 248,
      "Ġl": 249,
      "hat": 250,
      "as": 251,
      "Ġg": 252,
      "om": 253,
      "Ġn": 254,
      "ĠI": 255,
      "ic": 256,
      "ow": 257,
      "ve": 258,
      "le": 259,
      "ot": 260,
      "al": 261,
      "Ġh": 262,
      "Ġhe": 263,
      "et": 264,
      "us": 265,
      "Ġha": 266,
      "'s": 267,
      "ay": 268,
      "Ġth": 269,
      "Ġit": 270,
      "Ġbe": 271,
      "Ġis": 272,
      "Ġthat": 273,
      "Ġon": 274,
      "ion": 275,
      "id": 276,
      "Ġe": 277,
      "gh": 278,
      "ld": 279,
      "ent": 280,
      "Ġre": 281,
      "Ġwas": 282,
      "ut": 283,
      "im": 284,
      "ac": 285,
      "Ġwe": 286,
      "ver": 287,
      "am": 288,
      "The": 289,
      "Ġfor": 290,
      "ĠS": 291,
      "ly": 292,
      "..": 293,
      "st": 294,
      "ri": 295,
      "ro": 296,
      "ad": 297,
      "se": 298,
      "ir": 299,
      "ke": 300,
      "Ġst": 301,
      "Ġ.": 302,
      "oo": 303,
      "'t": 304,
      "ght": 305,
      "ĠA": 306,
      "out": 307,
      "ĠC": 308,
      "ith": 309,
      "Ġme": 310,
      "ĠM": 311,
      "Ġk": 312,
      "Ġu": 313,
      "all": 314,
      "Ġan": 315,
      "Ġwith": 316,
      "ur": 317,
      "Ġdo": 318,
      "Ġas": 319,
      "ec": 320,
      "her": 321,
      "ill": 322,
      "ter": 323,
      "if": 324,
      "ĠĠ": 325,
      "ĠH": 326,
      "Ġwh": 327,
      "ch": 328,
      "ome": 329,
      "ce": 330,
      "Ġ1": 331,
      "ĠB": 332,
      "Ġare": 333,
      "il": 334,
      "Ġhave": 335,
      "Ġnot": 336,
      "Ġat": 337,
      "and": 338,
      "Ġthis": 339,
      "ould": 340,
      "ust": 341,
      "Ġse": 342,
      "Ġgo": 343,
      "ant": 344,
      "ĠT": 345,
      "You": 346,
      "Ġli": 347,
      "ation": 348,
      "Ġkn": 349,
      "op": 350,
      "ĠP": 351,
      "ea": 352,
      "ain": 353,
      "un": 354,
      "ĠW": 355,
      "ge": 356,
      "ol": 357,
      "th": 358,
      "ell": 359,
      "ul": 360,
      "rom": 361,
      "Ġhis": 362,
      "Ġ,": 363,
      "ore": 364,
      "Ġknow": 365,
      "Ġ\"": 366,
      "Ġj": 367,
      "Ġr": 368,
      "...": 369,
      "ĠD": 370,
      "our": 371,
      "Ġne": 372,
      "pp": 373,
      "ĠG": 374,
      "ct": 375,
      "el": 376,
      "Ġcan": 377,
      "um": 378,
      "Ġ?": 379,
      "ist": 380,
      "Ġso": 381,
      "Ġyour": 382,
      "Ġ2": 383,
      "Ġall": 384,
      "Ġthey": 385,
      "em": 386,
      "est": 387,
      "Ġmy": 388,
      "Ġal": 389,
      "ĠThe": 390,
      "ĠL": 391,
      "ĠR": 392,
      "Ġab": 393,
      "art": 394,
      "ers": 395,
      "ĠF": 396,
      "Ġby": 397,
      "Ġfrom": 398,
      "ess": 399,
      "Ġwhat": 400,
      "ĠN": 401,
      "os": 402,
      "Ġsh": 403,
      "ab": 404,
      "Ġher": 405,
      "nt": 406,
      "Ġor": 407,
      "Ġone": 408,
      "Ġwhe": 409,
      "Ġcon": 410,
      "ie": 411,
      "ĠJ": 412,
      "ight": 413,
      "ig": 414,
      "Ġup": 415,
      "one": 416,
      "red": 417,
      "Ġthere": 418,
      "han": 419,
      "'re": 420,
      "Ġhad": 421,
      "ally": 422,
      "qu": 423,
      "Ġsu": 424,
      "âĢ": 425,
      "ry": 426,
      "Ġcom": 427,
      "ra": 428,
      "Ġout": 429,
      "Ġbut": 430,
      "ack": 431,
      "Ġhim": 432,
      "Ġwor": 433,
      "ood": 434,
      "ate": 435,
      "ook": 436,
      "very": 437,
      "Ġpl": 438,
      "res": 439,
      "Ġde": 440,
      "ive": 441,
      "Ġlike": 442,
      "Ġ(": 443,
      "Ġus": 444,
      "ake": 445,
      "Ġshe": 446,
      "'m": 447,
      "od": 448,
      "ame": 449,
      "ong": 450,
      "ĠE": 451,
      "ink": 452,
      "Ġpro": 453,
      "Ġsa": 454,
      "It": 455,
      "Ġ19": 456,
      "Ġabout": 457,
      "Ġget": 458,
      "ĠO": 459,
      "Ġv": 460,
      "Ġex": 461,
      "ind": 462,
      "Ġwere": 463,
      "ast": 464,
      "ound": 465,
      "ort": 466,
      "ard": 467,
      "Ġdon": 468,
      "ck": 469,
      "ity": 470,
      "Ġjust": 471,
      "And": 472,
      "right": 473,
      "ber": 474,
      "Ġsp": 475,
      "ear": 476,
      "ich": 477,
      "He": 478,
      "Ġ20": 479,
      "ies": 480,
      "Ġdid": 481,
      "ect": 482,
      "Ġwho": 483,
      "Ġhere": 484,
      "ak": 485,
      "ep": 486,
      "Ġno": 487,
      "eah": 488,
      "ap": 489,
      "ime": 490,
      "Ġthem": 491,
      "Ġwant": 492,
      "ine": 493,
      "'ll": 494,
      "Ġman": 495,
      "ud": 496,
      "Ġif": 497,
      "Ġwould": 498,
      "Ġthink": 499,
      "Ġ'": 500,
      "ous": 501,
      "ven": 502,
      "Ġwill": 503,
      "What": 504,
      "Ġsome": 505,
      "hing": 506,
      "own": 507,
      "ag": 508,
      "Ġint": 509,
      "ĠK": 510,
      "ost": 511,
      "ice": 512,
      "itt": 513,
      "Ġany": 514,
      "ment": 515,
      "ĠĠĠĠ": 516,
      "Ġright": 517,
      "ide": 518,
      "Ġhas": 519,
      "hi": 520,
      "ough": 521,
      "Ġgot": 522,
      "use": 523,
      "ĠHe": 524,
      "Ġsee": 525,
      "ther": 526,
      "Ġtr": 527,
      "Ġwhich": 528,
      "Ġwhen": 529,
      "ure": 530,
      "Ġar": 531,
      "Ġag": 532,
      "Ġsay": 533,
      "are": 534,
      "Ġtw": 535,
      "end": 536,
      "iv": 537,
      "We": 538,
      "Ġbeen": 539,
      "ian": 540,
      "way": 541,
      "Ġtime": 542,
      "--": 543,
      "ace": 544,
      "ĠIt": 545,
      "ia": 546,
      "Ġsaid": 547,
      "ove": 548,
      "'ve": 549,
      "Ġpe": 550,
      "ff": 551,
      "Ġbec": 552,
      "ick": 553,
      "ĠU": 554,
      "Ġnow": 555,
      "Ġcl": 556,
      "so": 557,
      "ose": 558,
      "ause": 559,
      "Ġlook": 560,
      "lf": 561,
      "ople": 562,
      "na": 563,
      "ish": 564,
      "Ġle": 565,
      "reat": 566,
      "Ġmore": 567,
      "Ġtheir": 568,
      "ary": 569,
      "Ġgoing": 570,
      "other": 571,
      "Yeah": 572,
      "Ġthen": 573,
      "ree": 574,
      "age": 575,
      "Ġcould": 576,
      "So": 577,
      "No": 578,
      "ue": 579,
      "Ġother": 580,
      "Ġ=": 581,
      "Ġback": 582,
      "Ġover": 583,
      "ond": 584,
      "Ġoff": 585,
      "ite": 586,
      "irst": 587,
      "ĠSt": 588,
      "his": 589,
      "act": 590,
      "But": 591,
      "Ġpeople": 592,
      "ew": 593,
      "ble": 594,
      "Ġqu": 595,
      "Ġgr": 596,
      "orn": 597,
      "Ġro": 598,
      "ings": 599,
      "ass": 600,
      "Ġwork": 601,
      "Oh": 602,
      "Ġvery": 603,
      "per": 604,
      "Ġtwo": 605,
      "ount": 606,
      "00": 607,
      "That": 608,
      "fter": 609,
      "pt": 610,
      "ord": 611,
      "Ġgood": 612,
      "Ġbr": 613,
      "Ġtoo": 614,
      "pl": 615,
      "og": 616,
      "ub": 617,
      "ere": 618,
      "omet": 619,
      "ci": 620,
      "Ġen": 621,
      "Ġfirst": 622,
      "ans": 623,
      "ase": 624,
      "ittle": 625,
      "kay": 626,
      "erm": 627,
      "Ġinto": 628,
      "mer": 629,
      "ated": 630,
      "ire": 631,
      "ov": 632,
      "ions": 633,
      "hed": 634,
      "oll": 635,
      "alk": 636,
      "oy": 637,
      "Ġdown": 638,
      "the": 639,
      "hy": 640,
      "Ġhow": 641,
      "ade": 642,
      "Ġthan": 643,
      "Ġyear": 644,
      "Ġun": 645,
      "Ġpart": 646,
      "Ġway": 647,
      "Ġpr": 648,
      "Ġour": 649,
      "Ġam": 650,
      "we": 651,
      "Ġcomp": 652,
      "iz": 653,
      "ought": 654,
      "Ġcall": 655,
      "Ġlittle": 656,
      "Ġcome": 657,
      "Ġbl": 658,
      "ĠIn": 659,
      "Ġplay": 660,
      "Ġalso": 661,
      "Ġim": 662,
      "Ġonly": 663,
      "ĠV": 664,
      "ater": 665,
      "nder": 666,
      "cc": 667,
      "Ġwhere": 668,
      "ach": 669,
      "ance": 670,
      "Ġevery": 671,
      "ne": 672,
      "Ġagain": 673,
      "ife": 674,
      "Well": 675,
      "ng": 676,
      "urn": 677,
      "Ġad": 678,
      "har": 679,
      "wn": 680,
      "Ġsomet": 681,
      "oc": 682,
      "ĠY": 683,
      "ru": 684,
      "Ġday": 685,
      "Ġneed": 686,
      "Ġbet": 687,
      "Ġ201": 688,
      "ty": 689,
      "iss": 690,
      "Ġfe": 691,
      "here": 692,
      "uch": 693,
      ".\"": 694,
      "ress": 695,
      "av": 696,
      "Ġact": 697,
      "Ġmake": 698,
      "Ġwell": 699,
      "amp": 700,
      "ho": 701,
      "fore": 702,
      "Ġtake": 703,
      "ence": 704,
      "Ġafter": 705,
      "Ġgu": 706,
      "self": 707,
      "In": 708,
      "ory": 709,
      "oh": 710,
      "able": 711,
      "ang": 712,
      "Ġbecause": 713,
      "ark": 714,
      "Ġcont": 715,
      "Ġsc": 716,
      "ip": 717,
      "ical": 718,
      "au": 719,
      "Ġdis": 720,
      "Ġte": 721,
      "ign": 722,
      "thing": 723,
      "int": 724,
      "Ġlet": 725,
      "Ġreally": 726,
      "orm": 727,
      "Ġshould": 728,
      "uck": 729,
      "Ġpre": 730,
      "ict": 731,
      "Ġtell": 732,
      "ool": 733,
      "Ġhapp": 734,
      "ather": 735,
      "Ġwr": 736,
      "ob": 737,
      "cl": 738,
      "ens": 739,
      "Ġthr": 740,
      "onna": 741,
      "Ġfl": 742,
      "ft": 743,
      "ull": 744,
      "ied": 745,
      "Ġapp": 746,
      "Ġunder": 747,
      "ial": 748,
      "Ġthese": 749,
      "Ġmuch": 750,
      "Ġdoes": 751,
      "ult": 752,
      "Ġsomething": 753,
      "This": 754,
      "Ġnew": 755,
      "ile": 756,
      "Ġres": 757,
      "Ġput": 758,
      "ody": 759,
      "Ġgonna": 760,
      "Ġpo": 761,
      "Ġper": 762,
      "Ġmean": 763,
      "Ġmade": 764,
      "They": 765,
      "hen": 766,
      "les": 767,
      "ons": 768,
      "iff": 769,
      "Ġlong": 770,
      "'d": 771,
      "be": 772,
      "ved": 773,
      "Ġser": 774,
      "ĠUn": 775,
      "old": 776,
      "ving": 777,
      "Ġtalk": 778,
      "land": 779,
      "Ġnever": 780,
      "Yes": 781,
      "ations": 782,
      "She": 783,
      "te": 784,
      "Ġbefore": 785,
      "Ġer": 786,
      "Ġeven": 787,
      "Ġmay": 788,
      "ks": 789,
      "du": 790,
      "ily": 791,
      "ates": 792,
      "ĠCh": 793,
      "ock": 794,
      "Ġits": 795,
      "ps": 796,
      "ouse": 797,
      "Ġcar": 798,
      "ail": 799,
      "Ġbu": 800,
      "ting": 801,
      "Ġdidn": 802,
      "Ġrem": 803,
      "ĠâĢ": 804,
      "Ġcomm": 805,
      "Ġ3": 806,
      "port": 807,
      "Ġke": 808,
      "ady": 809,
      "There": 810,
      "Ġsm": 811,
      "vers": 812,
      "Ġyears": 813,
      "ath": 814,
      "ition": 815,
      "ious": 816,
      "you": 817,
      "ember": 818,
      "ors": 819,
      "ise": 820,
      "ix": 821,
      "ren": 822,
      "Ġhand": 823,
      "ward": 824,
      "ually": 825,
      "âĢĿ": 826,
      "ited": 827,
      "Ġrec": 828,
      "Ġhel": 829,
      "vel": 830,
      "Ġmany": 831,
      "Ġthrough": 832,
      "ried": 833,
      "Ġ200": 834,
      "If": 835,
      "Ġold": 836,
      "Ġsec": 837,
      "aw": 838,
      "ful": 839,
      "get": 840,
      "ran": 841,
      "Ġch": 842,
      "Ġthing": 843,
      "Ġmost": 844,
      "Ġstart": 845,
      "Ġchan": 846,
      "Ġthree": 847,
      "day": 848,
      "Ġgreat": 849,
      "Ġdiff": 850,
      "pe": 851,
      "ince": 852,
      "igh": 853,
      "Ġlife": 854,
      "Ġthings": 855,
      "ave": 856,
      "Ġthought": 857,
      "Ġfound": 858,
      "How": 859,
      "Ġthose": 860,
      "Ġbel": 861,
      "âĻ": 862,
      "Ġstill": 863,
      "Ġsha": 864,
      "ves": 865,
      "Ġaway": 866,
      "what": 867,
      "oss": 868,
      "Ġdes": 869,
      "Ġused": 870,
      "Ġfind": 871,
      "tain": 872,
      "oot": 873,
      "``": 874,
      "Ġ''": 875,
      "Ġlove": 876,
      "ever": 877,
      "Ġmust": 878,
      "Ġhome": 879,
      "hes": 880,
      "ĠYou": 881,
      "Ġlast": 882,
      "riend": 883,
      "Ġhelp": 884,
      "Ġdoing": 885,
      "Ġi": 886,
      "ee": 887,
      "Ġco": 888,
      "imes": 889,
      "Ġask": 890,
      "ents": 891,
      "Ġown": 892,
      "Ġshow": 893,
      "Ġcr": 894,
      "hild": 895,
      "Ġlea": 896,
      "meric": 897,
      "lease": 898,
      "Ġwent": 899,
      "Ġgive": 900,
      "Ġ!": 901,
      "up": 902,
      "Ġcame": 903,
      "xt": 904,
      "Ġmin": 905,
      "ational": 906,
      "oney": 907,
      "Ġend": 908,
      "âĢĻ": 909,
      "irl": 910,
      "âĻª": 911,
      "ened": 912,
      "Ġbeing": 913,
      "Ġatt": 914,
      "Ġwon": 915,
      "\".": 916,
      "Ġname": 917,
      "tern": 918,
      "Ġcour": 919,
      "gin": 920,
      "ction": 921,
      "ĠMr": 922,
      "ĠShe": 923,
      "Ġcount": 924,
      "ced": 925,
      "Ġcalled": 926,
      "chool": 927,
      "my": 928,
      "ny": 929,
      "Ġmov": 930,
      "Ġear": 931,
      "ait": 932,
      "gan": 933,
      "Ġfam": 934,
      "atch": 935,
      "Do": 936,
      "ĠĠĠĠĠĠĠĠ": 937,
      "als": 938,
      "man": 939,
      "Ġ18": 940,
      "body": 941,
      "Ġsame": 942,
      "Now": 943,
      "ways": 944,
      "Ġchild": 945,
      "IN": 946,
      "Ġdec": 947,
      "Ġcare": 948,
      "ont": 949,
      "ces": 950,
      "Ġsuch": 951,
      "ning": 952,
      "li": 953,
      "oth": 954,
      "Ġkind": 955,
      "ĠMar": 956,
      "Why": 957,
      "Ġfeel": 958,
      "ident": 959,
      "Ġtry": 960,
      "Ġbig": 961,
      "ug": 962,
      "ĠAmeric": 963,
      "Ġhead": 964,
      "Ġlot": 965,
      "Ġnight": 966,
      "aking": 967,
      "Ġworld": 968,
      "any": 969,
      "Ġsupp": 970,
      "Ġwhy": 971,
      "ild": 972,
      "air": 973,
      "Ġplace": 974,
      "ham": 975,
      "Ġpol": 976,
      "form": 977,
      "erson": 978,
      "Ġdiffere": 979,
      "ER": 980,
      "side": 981,
      "Ġwom": 982,
      "Ġaround": 983,
      "Ġfin": 984,
      "ĠBr": 985,
      "Ġhar": 986,
      "Ġfriend": 987,
      "Ġnum": 988,
      "ute": 989,
      "Ġmar": 990,
      "Ġkill": 991,
      "ĠAr": 992,
      "ss": 993,
      "Let": 994,
      "ating": 995,
      "uring": 996,
      ").": 997,
      "gr": 998,
      "Ġuse": 999,
      "ased": 1000,
      "ower": 1001,
      "Ġind": 1002,
      "Ġacc": 1003,
      "outh": 1004,
      "Don": 1005,
      "ubl": 1006,
      "Ġmight": 1007,
      "Ġop": 1008,
      "ah": 1009,
      "und": 1010,
      "Ġreg": 1011,
      "Ġanother": 1012,
      "\",": 1013,
      "Ġ4": 1014,
      "Ġset": 1015,
      "Ġsl": 1016,
      "Ġturn": 1017,
      "Ġche": 1018,
      "orry": 1019,
      "Ġele": 1020,
      "pect": 1021,
      "ener": 1022,
      "ween": 1023,
      "Ġhouse": 1024,
      "Ġalways": 1025,
      "ts": 1026,
      "Come": 1027,
      "ics": 1028,
      "Ġrel": 1029,
      "ys": 1030,
      "Ġfour": 1031,
      "Ġac": 1032,
      "clud": 1033,
      "ible": 1034,
      "Ġanything": 1035,
      "Ġgirl": 1036,
      "St": 1037,
      "Ġleft": 1038,
      "),": 1039,
      "All": 1040,
      "Ġbetter": 1041,
      "uh": 1042,
      "Ġdone": 1043,
      "that": 1044,
      "Ġbit": 1045,
      "mb": 1046,
      "Ġsure": 1047,
      "Ġpres": 1048,
      "vent": 1049,
      "led": 1050,
      "Ġ199": 1051,
      "Ġsur": 1052,
      "ason": 1053,
      "ness": 1054,
      "az": 1055,
      "ular": 1056,
      "ph": 1057,
      "ple": 1058,
      "Ġkeep": 1059,
      "Ġboy": 1060,
      "Ġ5": 1061,
      "Ġel": 1062,
      "Ġsy": 1063,
      "gg": 1064,
      ",\"": 1065,
      "Ġrun": 1066,
      "der": 1067,
      "ĠAnd": 1068,
      "ib": 1069,
      "aught": 1070,
      "Okay": 1071,
      "ual": 1072,
      "Ġmon": 1073,
      "Ġform": 1074,
      "Ġreal": 1075,
      "Ġbetween": 1076,
      "My": 1077,
      "||": 1078,
      "Ġbelie": 1079,
      "ollow": 1080,
      "ott": 1081,
      "Ġtold": 1082,
      "io": 1083,
      "Ġknown": 1084,
      "Ġsecond": 1085,
      "ĠThey": 1086,
      "ered": 1087,
      "ird": 1088,
      "ished": 1089,
      "ters": 1090,
      "ale": 1091,
      "ars": 1092,
      "Ġunt": 1093,
      "yes": 1094,
      "Ġschool": 1095,
      "Ġchar": 1096,
      "Ġword": 1097,
      "HE": 1098,
      "Ġstud": 1099,
      "Ġmoney": 1100,
      "Ġdist": 1101,
      "Ġever": 1102,
      "ĠNew": 1103,
      "ject": 1104,
      "Ġent": 1105,
      "Ġgl": 1106,
      "row": 1107,
      "Ġob": 1108,
      "hip": 1109,
      "Hey": 1110,
      "ner": 1111,
      "Ġdifferent": 1112,
      "Ġret": 1113,
      "Ġwhile": 1114,
      "Ġmat": 1115,
      "ork": 1116,
      "Is": 1117,
      "ret": 1118,
      "but": 1119,
      "Ġmom": 1120,
      "Ġperson": 1121,
      "Ġbo": 1122,
      "ĠAl": 1123,
      "oun": 1124,
      "Ġbus": 1125,
      "ĠThis": 1126,
      "orth": 1127,
      "ric": 1128,
      "akes": 1129,
      "Ġinclud": 1130,
      "no": 1131,
      "Ġpoint": 1132,
      "Than": 1133,
      "Ġsub": 1134,
      "ye": 1135,
      "Ġcons": 1136,
      "Ġokay": 1137,
      "Ġdr": 1138,
      "Not": 1139,
      "Ġmus": 1140,
      "Ġcourse": 1141,
      "AN": 1142,
      "ĠWhat": 1143,
      "OU": 1144,
      "Ġspec": 1145,
      "Ġstr": 1146,
      "Ġuntil": 1147,
      "ĠUnited": 1148,
      "Ġerm": 1149,
      "Ġass": 1150,
      "Ġinv": 1151,
      "ative": 1152,
      "olog": 1153,
      "Ġbook": 1154,
      "cy": 1155,
      "Ġuh": 1156,
      "Ġtook": 1157,
      "ĠĠĠ": 1158,
      "ling": 1159,
      "ĠAn": 1160,
      "Ġmet": 1161,
      "its": 1162,
      "Ġnext": 1163,
      "When": 1164,
      "ins": 1165,
      "ton": 1166,
      "Ġmen": 1167,
      "Ġstop": 1168,
      "une": 1169,
      "Ġcent": 1170,
      "Ġsw": 1171,
      "stand": 1172,
      "Ġbest": 1173,
      "Ġwar": 1174,
      "Ġinst": 1175,
      "Ġboth": 1176,
      "Ġseem": 1177,
      "ision": 1178,
      "Ġfar": 1179,
      "Ġeach": 1180,
      "Ġsing": 1181,
      "Ġnothing": 1182,
      "Ġfun": 1183,
      "aj": 1184,
      "Ġdep": 1185,
      "Ġwee": 1186,
      "ier": 1187,
      "ĠGod": 1188,
      "Ġdef": 1189,
      "Ġcle": 1190,
      "vern": 1191,
      "Ġbre": 1192,
      "ities": 1193,
      "Ġcha": 1194,
      "Ġwater": 1195,
      "ames": 1196,
      "cept": 1197,
      "ired": 1198,
      "where": 1199,
      "Ġnumber": 1200,
      "ures": 1201,
      "ope": 1202,
      "Ġfollow": 1203,
      "Ġpass": 1204,
      "Ġfather": 1205,
      "Ġsaw": 1206,
      "ĠAmerican": 1207,
      "ĠAs": 1208,
      "ĠNo": 1209,
      "ohn": 1210,
      "Ġmother": 1211,
      "Ġlater": 1212,
      "ĠâĢľ": 1213,
      "ivers": 1214,
      "Ġdoesn": 1215,
      "cer": 1216,
      "ms": 1217,
      "to": 1218,
      "âĢľ": 1219,
      "Ġfamily": 1220,
      "ax": 1221,
      "Ġ-": 1222,
      "Ġph": 1223,
      "rew": 1224,
      "Ġlist": 1225,
      "eak": 1226,
      "Ġteam": 1227,
      "ream": 1228,
      "ank": 1229,
      "ung": 1230,
      "ok": 1231,
      "Ġprodu": 1232,
      "ross": 1233,
      "Ġlar": 1234,
      "Ġ198": 1235,
      "eg": 1236,
      "br": 1237,
      "Ġcity": 1238,
      "Ġyeah": 1239,
      "osed": 1240,
      "Ġinc": 1241,
      "Ġ6": 1242,
      "Ġenough": 1243,
      "ING": 1244,
      "iness": 1245,
      "On": 1246,
      "Ġactually": 1247,
      "19": 1248,
      "ister": 1249,
      "Just": 1250,
      "Ġelse": 1251,
      "Ġagainst": 1252,
      "mber": 1253,
      "less": 1254,
      "Ġsmall": 1255,
      "Ġwait": 1256,
      "Ġdied": 1257,
      "ctor": 1258,
      "ote": 1259,
      "Ġ--": 1260,
      "Ġcap": 1261,
      "Ġseen": 1262,
      "Ġhard": 1263,
      "ines": 1264,
      "Ġproble": 1265,
      "let": 1266,
      "rist": 1267,
      "uth": 1268,
      "Ġhigh": 1269,
      "Ġpop": 1270,
      "Ġtoget": 1271,
      "Ġtogether": 1272,
      "Ġyoung": 1273,
      "Ġimp": 1274,
      "ĠEng": 1275,
      "ublic": 1276,
      "iet": 1277,
      "Ã©": 1278,
      "Ġwithout": 1279,
      "of": 1280,
      "ex": 1281,
      "Who": 1282,
      "ific": 1283,
      "Ġdire": 1284,
      "omm": 1285,
      "ably": 1286,
      "Ġplan": 1287,
      "Ġwanted": 1288,
      "ger": 1289,
      "Ġbecame": 1290,
      "Ġref": 1291,
      "Ġsorry": 1292,
      "Ġadd": 1293,
      "ĠStates": 1294,
      "Ġfact": 1295,
      "Ġfive": 1296,
      "Where": 1297,
      "Ġfew": 1298,
      "Ġyes": 1299,
      "Ġhear": 1300,
      "att": 1301,
      "Ġid": 1302,
      "ged": 1303,
      "Ġrep": 1304,
      "ash": 1305,
      "Ġem": 1306,
      "Ġeverything": 1307,
      "Ġmind": 1308,
      "Ġcoming": 1309,
      "Ġrest": 1310,
      "20": 1311,
      "Look": 1312,
      "Then": 1313,
      "Ġroom": 1314,
      "Ġbad": 1315,
      "Ġonce": 1316,
      "Ġloc": 1317,
      "Ġsince": 1318,
      "Ġsix": 1319,
      "Ġ197": 1320,
      "ĠSp": 1321,
      "ina": 1322,
      "Ġunderstand": 1323,
      "uff": 1324,
      "Ġstand": 1325,
      "Ġsign": 1326,
      "Ġsim": 1327,
      "ral": 1328,
      "Ġsk": 1329,
      "Ġlight": 1330,
      "Ġlive": 1331,
      "aid": 1332,
      "Ġstay": 1333,
      "Ġread": 1334,
      "ball": 1335,
      "ield": 1336,
      "uss": 1337,
      "Ġleave": 1338,
      "ets": 1339,
      "Ġborn": 1340,
      "Ġsays": 1341,
      "ĠBut": 1342,
      "uc": 1343,
      "Ġ7": 1344,
      "Ġfr": 1345,
      "AT": 1346,
      "ury": 1347,
      "ned": 1348,
      "eb": 1349,
      "Ġcoll": 1350,
      "ense": 1351,
      "erest": 1352,
      "ĠInd": 1353,
      "oup": 1354,
      "Ġtra": 1355,
      "Ġbelieve": 1356,
      "Ġtimes": 1357,
      "Ġside": 1358,
      "Ġduring": 1359,
      "Ġlooking": 1360,
      "me": 1361,
      "Are": 1362,
      "ecause": 1363,
      "Ġchildren": 1364,
      "Ġev": 1365,
      "Ġheart": 1366,
      "ten": 1367,
      "Ġquite": 1368,
      "stem": 1369,
      "Ġpret": 1370,
      "ĠIs": 1371,
      "orning": 1372,
      "Ġimport": 1373,
      "Ġdisc": 1374,
      "Ġson": 1375,
      "Ġhum": 1376,
      "Ġtri": 1377,
      "Ġtoday": 1378,
      "aut": 1379,
      "000": 1380,
      "Ġsit": 1381,
      "Ġquest": 1382,
      "ows": 1383,
      "ON": 1384,
      "Ġinter": 1385,
      "rop": 1386,
      "Ġexp": 1387,
      "ared": 1388,
      "Ġtrans": 1389,
      "Ġkid": 1390,
      "Ġdays": 1391,
      "anna": 1392,
      "Ġhappened": 1393,
      "Ġmeet": 1394,
      "Ġopen": 1395,
      "Ġ8": 1396,
      "ised": 1397,
      "Ġ;": 1398,
      "Right": 1399,
      "Ġlead": 1400,
      "Ġmove": 1401,
      "ital": 1402,
      "Ġconf": 1403,
      "Ġplease": 1404,
      "âĢĵ": 1405,
      "Ġface": 1406,
      "Uh": 1407,
      "Ġgener": 1408,
      "Ġnear": 1409,
      "Ġeyes": 1410,
      "Ġtown": 1411,
      "Ġgetting": 1412,
      "app": 1413,
      "Ġnice": 1414,
      "iew": 1415,
      "ĠTh": 1416,
      "Ġisn": 1417,
      "As": 1418,
      "Ġext": 1419,
      "Ġthough": 1420,
      "ined": 1421,
      "dy": 1422,
      "aby": 1423,
      "ready": 1424,
      "ither": 1425,
      "Ġmusic": 1426,
      "ertain": 1427,
      "ments": 1428,
      "Ġart": 1429,
      "?\"": 1430,
      "ey": 1431,
      "Ġwhole": 1432,
      "ike": 1433,
      "Ġcol": 1434,
      "Ġdri": 1435,
      "Ġsort": 1436,
      "Ġed": 1437,
      "Ġland": 1438,
      "For": 1439,
      "Ġhour": 1440,
      "Ġbro": 1441,
      "leep": 1442,
      "ĠJohn": 1443,
      "ists": 1444,
      "Ġposs": 1445,
      "ik": 1446,
      "okay": 1447,
      "ants": 1448,
      "Ġinterest": 1449,
      "Th": 1450,
      "Ġwoman": 1451,
      "Thank": 1452,
      "aster": 1453,
      "cted": 1454,
      "Ġheard": 1455,
      "by": 1456,
      "ober": 1457,
      "ĠZ": 1458,
      "Ġbuild": 1459,
      "sel": 1460,
      "Ġyet": 1461,
      "son": 1462,
      "Ġeas": 1463,
      "Mm": 1464,
      "ery": 1465,
      "Ġplayed": 1466,
      "Ġri": 1467,
      "Ġ[": 1468,
      "Ġjob": 1469,
      "ef": 1470,
      "ĠPr": 1471,
      "yeah": 1472,
      "Ġstate": 1473,
      "Ġair": 1474,
      "Ġhalf": 1475,
      "Ġfoot": 1476,
      "Ġremember": 1477,
      "Ġmorning": 1478,
      "Ġhimself": 1479,
      "Ġstarted": 1480,
      "ues": 1481,
      "Ġfil": 1482,
      "reen": 1483,
      "ech": 1484,
      "Ġ196": 1485,
      "Ġ10": 1486,
      "ĠCl": 1487,
      "ize": 1488,
      "do": 1489,
      "AR": 1490,
      "ĠFr": 1491,
      "Ġmed": 1492,
      "Ġwalk": 1493,
      "Ġknew": 1494,
      "ution": 1495,
      "hm": 1496,
      "ched": 1497,
      "Ġhaving": 1498,
      "ism": 1499,
      "Ġ9": 1500,
      "Ġrecord": 1501,
      "Ġdra": 1502,
      "Ġtalking": 1503,
      "dd": 1504,
      "Good": 1505,
      "Ġsystem": 1506,
      "iversity": 1507,
      "Ġhold": 1508,
      "ries": 1509,
      "Ġmain": 1510,
      "ized": 1511,
      "ĠJan": 1512,
      "ives": 1513,
      "ta": 1514,
      "ev": 1515,
      "Ġmod": 1516,
      "ted": 1517,
      "Ġdeath": 1518,
      "Ġsir": 1519,
      "Ġcur": 1520,
      "Ġalready": 1521,
      "Ġpay": 1522,
      "ison": 1523,
      "ats": 1524,
      "Ġimportant": 1525,
      "Al": 1526,
      "Did": 1527,
      "Ġwrong": 1528,
      "Can": 1529,
      "Ġsoon": 1530,
      "Ġsong": 1531,
      "most": 1532,
      "ĠWe": 1533,
      "Ġalong": 1534,
      "Ġmil": 1535,
      "ĠGr": 1536,
      "Ġsaying": 1537,
      "sh": 1538,
      "Ġgi": 1539,
      "ĠMay": 1540,
      "Ġpower": 1541,
      "Ġreturn": 1542,
      "Ġidea": 1543,
      "Go": 1544,
      "ĠQ": 1545,
      "ains": 1546,
      "sp": 1547,
      "Ġmonth": 1548,
      "not": 1549,
      "Ġans": 1550,
      "ump": 1551,
      "Ġdoor": 1552,
      "Ġdead": 1553,
      "Ġgave": 1554,
      "Ġmiss": 1555,
      "Ġupon": 1556,
      "Ġcountry": 1557,
      "Ġbrother": 1558,
      "ead": 1559,
      "velop": 1560,
      "ided": 1561,
      "ages": 1562,
      "now": 1563,
      "ĠHow": 1564,
      "ering": 1565,
      "Ġprom": 1566,
      "Ġprob": 1567,
      "Ġgovern": 1568,
      "Ġwin": 1569,
      "Ġfull": 1570,
      "Ġhur": 1571,
      "Ġmeans": 1572,
      "Ġty": 1573,
      "ĠâĢĵ": 1574,
      "ĠGerm": 1575,
      "ĠâĻª": 1576,
      "Ġeff": 1577,
      "Ġeat": 1578,
      "Ġprov": 1579,
      "Ġcase": 1580,
      "Ġtrying": 1581,
      "ility": 1582,
      "ature": 1583,
      "Ġgame": 1584,
      "Âł": 1585,
      "Ġround": 1586,
      "ĠCount": 1587,
      "ĠSo": 1588,
      "ĠThere": 1589,
      "aughter": 1590,
      "Ġasked": 1591,
      "idd": 1592,
      "cial": 1593,
      "eter": 1594,
      "LL": 1595,
      "Ġwife": 1596,
      "Ġjo": 1597,
      "Ġsound": 1598,
      "wards": 1599,
      "ically": 1600,
      "Ġinf": 1601,
      "ony": 1602,
      "Ġgone": 1603,
      "Ġarea": 1604,
      "Ġlaw": 1605,
      "OR": 1606,
      "Ġbusiness": 1607,
      "ĠChrist": 1608,
      "gt": 1609,
      "Er": 1610,
      "med": 1611,
      "Your": 1612,
      "Ġmatter": 1613,
      "ĠKing": 1614,
      "Ġbegan": 1615,
      "ying": 1616,
      "cess": 1617,
      "Ġexpl": 1618,
      "lish": 1619,
      "Ġbring": 1620,
      "Ġdel": 1621,
      "Ġpretty": 1622,
      "iver": 1623,
      "ately": 1624,
      "ĠAt": 1625,
      "Ġfore": 1626,
      "nce": 1627,
      "Ġhands": 1628,
      "Ġtop": 1629,
      "arr": 1630,
      "Ġlear": 1631,
      "Ġequ": 1632,
      "Ġwind": 1633,
      "cle": 1634,
      "ĠTHE": 1635,
      "Get": 1636,
      "Ġsent": 1637,
      "rict": 1638,
      "amed": 1639,
      "Ġhappen": 1640,
      "Ġguy": 1641,
      "ĠSc": 1642,
      "leased": 1643,
      "Ġstory": 1644,
      "Ġcreat": 1645,
      "ural": 1646,
      ".âĢĿ": 1647,
      "pr": 1648,
      "uro": 1649,
      "Ġshall": 1650,
      "born": 1651,
      "Ġlost": 1652,
      "eed": 1653,
      "Ġcontin": 1654,
      "Ġserv": 1655,
      "Ġable": 1656,
      "Ġmovie": 1657,
      "orrow": 1658,
      "Ġfuck": 1659,
      "iter": 1660,
      "An": 1661,
      "Ġless": 1662,
      "enn": 1663,
      "Ġcertain": 1664,
      "ially": 1665,
      "Ġbeaut": 1666,
      "Ġmill": 1667,
      "ES": 1668,
      "Ġoffic": 1669,
      "ured": 1670,
      "aken": 1671,
      "Ġbaby": 1672,
      "Ġpartic": 1673,
      "Ġchange": 1674,
      "Ġpolit": 1675,
      "ept": 1676,
      "ection": 1677,
      "Ġspeak": 1678,
      "orld": 1679,
      "gy": 1680,
      "Ġproblem": 1681,
      "Ġoften": 1682,
      "Ġwond": 1683,
      "Ġmaking": 1684,
      "Ġhist": 1685,
      "Ġgoes": 1686,
      "Ġclass": 1687,
      "Ġpri": 1688,
      "ional": 1689,
      "May": 1690,
      "cri": 1691,
      "Ġfell": 1692,
      "che": 1693,
      "Ġleg": 1694,
      "pped": 1695,
      "Ġ17": 1696,
      "Ġbas": 1697,
      "Ġfriends": 1698,
      "At": 1699,
      "ĠCar": 1700,
      "Ġwanna": 1701,
      "Ġlooked": 1702,
      "Ġmoment": 1703,
      "Ġsomeone": 1704,
      "Ġ15": 1705,
      "ĠAll": 1706,
      "Ġwasn": 1707,
      "Ġfight": 1708,
      "Ġwatch": 1709,
      "One": 1710,
      "undred": 1711,
      "ator": 1712,
      "Ġpain": 1713,
      "ĠBl": 1714,
      "erv": 1715,
      "Ġ195": 1716,
      "Ġ194": 1717,
      "ĠOh": 1718,
      "Here": 1719,
      "ĠBrit": 1720,
      "Ġbody": 1721,
      "ides": 1722,
      "ush": 1723,
      "Ġfine": 1724,
      "ently": 1725,
      "Ġwomen": 1726,
      "EN": 1727,
      "Ġyourself": 1728,
      "well": 1729,
      "arch": 1730,
      "ges": 1731,
      "Ġage": 1732,
      "Ġdevelop": 1733,
      "arent": 1734,
      "Ġcomes": 1735,
      "rap": 1736,
      "ster": 1737,
      "Ġhat": 1738,
      "Ġexper": 1739,
      "used": 1740,
      "Ġgroup": 1741,
      "ract": 1742,
      "Ġline": 1743,
      "Ġpat": 1744,
      "Ġweek": 1745,
      "Ġguys": 1746,
      "Ġmark": 1747,
      "Ġpar": 1748,
      "fess": 1749,
      "aces": 1750,
      "Ġsleep": 1751,
      "Ġvis": 1752,
      "ane": 1753,
      "how": 1754,
      "uary": 1755,
      "iec": 1756,
      "Ġshort": 1757,
      "Ġpos": 1758,
      "ole": 1759,
      "Ġbed": 1760,
      "Ġclose": 1761,
      "eth": 1762,
      "ained": 1763,
      "Ġprobably": 1764,
      "mp": 1765,
      "Ġlarge": 1766,
      "To": 1767,
      "Ġago": 1768,
      "eal": 1769,
      "ern": 1770,
      "ĠThat": 1771,
      "con": 1772,
      "Ġterm": 1773,
      "artment": 1774,
      "Ġgiven": 1775,
      "ello": 1776,
      "Ġworking": 1777,
      "Ġprot": 1778,
      "Ġbreak": 1779,
      "ices": 1780,
      "Ġdet": 1781,
      "ĠCan": 1782,
      "iam": 1783,
      "Ġ...": 1784,
      "Ġtrue": 1785,
      "uly": 1786,
      "Ġfire": 1787,
      "ley": 1788,
      "rigin": 1789,
      "enty": 1790,
      "gue": 1791,
      "ĠHis": 1792,
      "ai": 1793,
      "ention": 1794,
      "Because": 1795,
      "ĠCounty": 1796,
      "Ġes": 1797,
      "apan": 1798,
      "Ġwouldn": 1799,
      "!\"": 1800,
      "Ġeight": 1801,
      "Ġhundred": 1802,
      "ality": 1803,
      "Ġbecome": 1804,
      "ĠFor": 1805,
      "Ġter": 1806,
      "Ġorder": 1807,
      "Ġcut": 1808,
      "Ġfall": 1809,
      "Ġca": 1810,
      "bum": 1811,
      "ety": 1812,
      "Ġearly": 1813,
      "oon": 1814,
      "wer": 1815,
      "ĠCon": 1816,
      "Ġdeal": 1817,
      "ches": 1818,
      "Ġpick": 1819,
      "els": 1820,
      "ulation": 1821,
      "elt": 1822,
      "Ġsol": 1823,
      "urch": 1824,
      "Ġhope": 1825,
      "hind": 1826,
      "Ġhaven": 1827,
      ",âĢĿ": 1828,
      "ama": 1829,
      "aper": 1830,
      "Ġrece": 1831,
      "ĠYes": 1832,
      "come": 1833,
      "ilt": 1834,
      "rest": 1835,
      "ajor": 1836,
      "mm": 1837,
      "ouble": 1838,
      "Ġcor": 1839,
      "Ġalmost": 1840,
      "sy": 1841,
      "Ġaw": 1842,
      "utes": 1843,
      "Ġdiv": 1844,
      "ĠUniversity": 1845,
      "Ġstre": 1846,
      "Ġleast": 1847,
      "Ġpur": 1848,
      "Ġins": 1849,
      "Ġbegin": 1850,
      "Ġorgan": 1851,
      "Ġquestion": 1852,
      "Ġten": 1853,
      "ief": 1854,
      "Ġvo": 1855,
      "ians": 1856,
      "ron": 1857,
      "rol": 1858,
      "iful": 1859,
      "ped": 1860,
      "ĠYork": 1861,
      "Ġaff": 1862,
      "Ġcomple": 1863,
      "Ġblack": 1864,
      "ĠAp": 1865,
      "Ġocc": 1866,
      "Ġmyself": 1867,
      "ĠOn": 1868,
      "gram": 1869,
      "ril": 1870,
      "Ġwhite": 1871,
      "Ġadv": 1872,
      "ĠPro": 1873,
      "Ġoper": 1874,
      "Ġpublic": 1875,
      "ample": 1876,
      "ived": 1877,
      "ĠWorld": 1878,
      "Ġcommun": 1879,
      "raz": 1880,
      "oud": 1881,
      "hamp": 1882,
      "Ġran": 1883,
      "Ġsqu": 1884,
      "Ġready": 1885,
      "Ġmarried": 1886,
      "alth": 1887,
      "Ġlate": 1888,
      "ĠJapan": 1889,
      "Ġ_": 1890,
      "Ġvar": 1891,
      "Ġconst": 1892,
      "Ġopp": 1893,
      "Ġmaybe": 1894,
      "Ġhor": 1895,
      "Ġdad": 1896,
      "Ġfree": 1897,
      "umb": 1898,
      "rent": 1899,
      "Ġ16": 1900,
      "ully": 1901,
      "Ġreason": 1902,
      "ium": 1903,
      "Ġswe": 1904,
      "iting": 1905,
      "ugust": 1906,
      "angu": 1907,
      "Ġalone": 1908,
      "osp": 1909,
      "co": 1910,
      "Ġkilled": 1911,
      "Ġpresent": 1912,
      "cent": 1913,
      "Ġoh": 1914,
      "ler": 1915,
      "Ġgovernment": 1916,
      "Ġguess": 1917,
      "ards": 1918,
      "Mr": 1919,
      "ĠPar": 1920,
      "ĠJanuary": 1921,
      "Ġcompany": 1922,
      "Ġ|": 1923,
      "ccess": 1924,
      "head": 1925,
      "ese": 1926,
      "Ġest": 1927,
      "ert": 1928,
      "Ġblood": 1929,
      "ene": 1930,
      "oke": 1931,
      "Every": 1932,
      "Ġhappy": 1933,
      "Please": 1934,
      "huh": 1935,
      "Ġalbum": 1936,
      "Ġ12": 1937,
      "Ġreleased": 1938,
      "Ġred": 1939,
      "Ġbrought": 1940,
      "Ġbehind": 1941,
      "Ġsat": 1942,
      "Ġorigin": 1943,
      "selves": 1944,
      "vious": 1945,
      "Ġsever": 1946,
      "Ġwords": 1947,
      "bed": 1948,
      "men": 1949,
      "Ġtele": 1950,
      "Ġhon": 1951,
      "ĠAust": 1952,
      "Ġdrink": 1953,
      "ĠMan": 1954,
      "ney": 1955,
      "ĠWar": 1956,
      "ox": 1957,
      "Ġhell": 1958,
      "IS": 1959,
      "Ġmakes": 1960,
      "ology": 1961,
      "for": 1962,
      "ĠYeah": 1963,
      "omp": 1964,
      "eor": 1965,
      "Ġ193": 1966,
      "Ġclear": 1967,
      "Ġtre": 1968,
      "RE": 1969,
      "ĠEnglish": 1970,
      "eng": 1971,
      "ring": 1972,
      "Ġtaken": 1973,
      "Ġseveral": 1974,
      "ones": 1975,
      "Ġseries": 1976,
      "Ġexc": 1977,
      "ĠFrance": 1978,
      "haps": 1979,
      "augh": 1980,
      "Ġfood": 1981,
      "Ġfront": 1982,
      "ĠYOU": 1983,
      "can": 1984,
      "ient": 1985,
      "fe": 1986,
      "rench": 1987,
      "ĠEuro": 1988,
      "ĠMarch": 1989,
      "ement": 1990,
      "Ġdog": 1991,
      "cha": 1992,
      "Ġmag": 1993,
      "ude": 1994,
      "unt": 1995,
      "Ġanim": 1996,
      "atic": 1997,
      "TH": 1998,
      "band": 1999,
      "ĠSouth": 2000,
      "bs": 2001,
      "Ġhuman": 2002,
      "Ġpast": 2003,
      "Ġtaking": 2004,
      "Ġhot": 2005,
      "Some": 2006,
      "bit": 2007,
      "aced": 2008,
      "Ġval": 2009,
      "Ġ$": 2010,
      "ĠMin": 2011,
      "ĠDec": 2012,
      "Sh": 2013,
      "Ġsupport": 2014,
      "ĠMiss": 2015,
      "Ġstuff": 2016,
      "oor": 2017,
      "eptember": 2018,
      "Ġseason": 2019,
      "Ġstrong": 2020,
      "ior": 2021,
      "ctober": 2022,
      "Ġann": 2023,
      "ĠFran": 2024,
      "ĠComm": 2025,
      "Ġband": 2026,
      "Ġ]": 2027,
      "ĠAugust": 2028,
      "Ġpict": 2029,
      "Ġeither": 2030,
      "Ġball": 2031,
      "Ġdem": 2032,
      "Ġ&": 2033,
      "ĠTr": 2034,
      "oint": 2035,
      "Ġbar": 2036,
      "Ġstat": 2037,
      "there": 2038,
      "Ġsold": 2039,
      "Ġresp": 2040,
      "ele": 2041,
      "Ġeng": 2042,
      "Ġcharac": 2043,
      "Ġadm": 2044,
      "wo": 2045,
      "Ġtrain": 2046,
      "Ġdaughter": 2047,
      "ots": 2048,
      "Ġpiec": 2049,
      "ĠĠĠĠĠĠĠĠĠĠĠĠĠĠĠĠ": 2050,
      "Ġrather": 2051,
      "Ġfig": 2052,
      "Ġexample": 2053,
      "Ġthinking": 2054,
      "Ġattack": 2055,
      "ĠJune": 2056,
      "Ġallow": 2057,
      "ider": 2058,
      "Be": 2059,
      "ĠWill": 2060,
      "cient": 2061,
      "Ġminutes": 2062,
      "Ġquick": 2063,
      "lt": 2064,
      "aim": 2065,
      "hern": 2066,
      "ĠMrs": 2067,
      "Ġlooks": 2068,
      "ience": 2069,
      "iving": 2070,
      "Ġcouldn": 2071,
      "Ġprogram": 2072,
      "Ġreport": 2073,
      "Ġothers": 2074,
      "ĠBritish": 2075,
      "Ġroad": 2076,
      "Ġparty": 2077,
      "hich": 2078,
      "Ġinform": 2079,
      "Ġtou": 2080,
      "Ġcou": 2081,
      "Ġlisten": 2082,
      "ze": 2083,
      "Ġwithin": 2084,
      "over": 2085,
      "ming": 2086,
      "Ġtem": 2087,
      "Ġheld": 2088,
      "Ġliving": 2089,
      "Ġbeautiful": 2090,
      "ape": 2091,
      "Ġsuccess": 2092,
      "resent": 2093,
      "ency": 2094,
      "Ġdesign": 2095,
      "oe": 2096,
      "Ġnamed": 2097,
      "oman": 2098,
      "ament": 2099,
      "Ġgrow": 2100,
      "ĠEurope": 2101,
      "Ġwants": 2102,
      "itting": 2103,
      "Ġmillion": 2104,
      "Ġresult": 2105,
      "Ġminute": 2106,
      "ĠSeptember": 2107,
      "Ġnational": 2108,
      "Ġnorth": 2109,
      "Ġperform": 2110,
      "ode": 2111,
      "itten": 2112,
      "Ġinside": 2113,
      "ories": 2114,
      "Ġstru": 2115,
      "Ġap": 2116,
      "Ġspecial": 2117,
      "ĠTH": 2118,
      "ored": 2119,
      "ĠOctober": 2120,
      "actly": 2121,
      "ĠSh": 2122,
      "Ex": 2123,
      "ĠCol": 2124,
      "Ġlangu": 2125,
      "Ġnec": 2126,
      "ege": 2127,
      "ĠApril": 2128,
      "ĠAd": 2129,
      "ovember": 2130,
      "AS": 2131,
      "ĠBe": 2132,
      "aul": 2133,
      "Ġmember": 2134,
      "ĠJuly": 2135,
      "ousand": 2136,
      "ĠPres": 2137,
      "Ġsum": 2138,
      "fully": 2139,
      "Ġturned": 2140,
      "Ġmess": 2141,
      "Ġrepl": 2142,
      "Ġwonder": 2143,
      "Ġsingle": 2144,
      "ma": 2145,
      "Ġve": 2146,
      "oad": 2147,
      "Ġvill": 2148,
      "oub": 2149,
      "Ġformer": 2150,
      "ĠNational": 2151,
      "ĠNorth": 2152,
      "Ġlived": 2153,
      "Ġrock": 2154,
      "Ġdear": 2155,
      "range": 2156,
      "Ġsil": 2157,
      "Ġappear": 2158,
      "unk": 2159,
      "Ġincluding": 2160,
      "Maybe": 2161,
      "Ġking": 2162,
      "Ġelect": 2163,
      "II": 2164,
      "ĠPl": 2165,
      "anger": 2166,
      "Ġthank": 2167,
      "Ġ11": 2168,
      "Ġtest": 2169,
      "ĠGo": 2170,
      "ald": 2171,
      "ĠChar": 2172,
      "Or": 2173,
      "ĠBar": 2174,
      "ĠSw": 2175,
      "unch": 2176,
      "Ġdie": 2177,
      "Ah": 2178,
      "fort": 2179,
      "key": 2180,
      "Ġexpect": 2181,
      "Ġdream": 2182,
      "fect": 2183,
      "par": 2184,
      "usband": 2185,
      "----": 2186,
      "ruary": 2187,
      "ounds": 2188,
      "ales": 2189,
      "ebruary": 2190,
      "Ġship": 2191,
      "ued": 2192,
      "Hello": 2193,
      "Ġcamp": 2194,
      "que": 2195,
      "ĠDecember": 2196,
      "Ġcommon": 2197,
      "ĠWhen": 2198,
      "Ġfelt": 2199,
      "Ġplaying": 2200,
      "idge": 2201,
      "read": 2202,
      "Ġhit": 2203,
      "Ġthird": 2204,
      "Ġvoice": 2205,
      "With": 2206,
      "vision": 2207,
      "Ġusing": 2208,
      "Ġmonths": 2209,
      "Ġacross": 2210,
      "ĠPh": 2211,
      "bo": 2212,
      "Ġoutside": 2213,
      "Ġfootball": 2214,
      "een": 2215,
      "ended": 2216,
      "Have": 2217,
      "ternational": 2218,
      "ask": 2219,
      "ĠNovember": 2220,
      "Ġsometimes": 2221,
      "ĠFrench": 2222,
      "Ġdark": 2223,
      "ĠX": 2224,
      "Ġmemb": 2225,
      "aur": 2226,
      "Ġworked": 2227,
      "echn": 2228,
      "Ġcheck": 2229,
      "go": 2230,
      "Ġpossible": 2231,
      "Ġz": 2232,
      "iddle": 2233,
      "though": 2234,
      "After": 2235,
      "cil": 2236,
      "Ġhours": 2237,
      "ached": 2238,
      "Ġeffect": 2239,
      "Ġthousand": 2240,
      "ĠCal": 2241,
      "Ġamong": 2242,
      "Ġrev": 2243,
      "aint": 2244,
      "Ġhair": 2245,
      "Ġfilm": 2246,
      "Ġrequ": 2247,
      "Ġdest": 2248,
      "itch": 2249,
      "Ġfif": 2250,
      "Ch": 2251,
      "Ġgun": 2252,
      "Ġcareer": 2253,
      "Ġcop": 2254,
      "ĠDo": 2255,
      "overed": 2256,
      "Ġclub": 2257,
      "Ġmajor": 2258,
      "Ġfre": 2259,
      "Ġfollowing": 2260,
      "Ġill": 2261,
      "Ġhusband": 2262,
      "Ġpoor": 2263,
      "irth": 2264,
      "Ġsun": 2265,
      "like": 2266,
      "Ġdam": 2267,
      "ata": 2268,
      "Ġprofess": 2269,
      "âĢĶ": 2270,
      "ĠFl": 2271,
      "oved": 2272,
      "Ġappro": 2273,
      "Ġ13": 2274,
      "Ġforg": 2275,
      "Ġtried": 2276,
      "Ġwish": 2277,
      "Re": 2278,
      "ĠFebruary": 2279,
      "eared": 2280,
      "Ġstra": 2281,
      "rodu": 2282,
      "Ġtot": 2283,
      "Ġaf": 2284,
      "Ġ14": 2285,
      "cing": 2286,
      "Ġsend": 2287,
      "Ġtom": 2288,
      "ĠCity": 2289,
      "ean": 2290,
      "more": 2291,
      "Ġcir": 2292,
      "look": 2293,
      "Ġlevel": 2294,
      "Ġmoved": 2295,
      "sc": 2296,
      "Ġgotta": 2297,
      "Ġseven": 2298,
      "Ġhistory": 2299,
      "Ġbuilt": 2300,
      "airs": 2301,
      "Any": 2302,
      "Ġbox": 2303,
      "gest": 2304,
      "hile": 2305,
      "Ġgrand": 2306,
      "Ġpolice": 2307,
      "Ġ2010": 2308,
      "uthor": 2309,
      "attle": 2310,
      "Ġparticular": 2311,
      "ipp": 2312,
      "ĠHer": 2313,
      "Ġsn": 2314,
      "Ġfeet": 2315,
      "de": 2316,
      "ĠTO": 2317,
      "ĠCha": 2318,
      "ressed": 2319,
      "oul": 2320,
      "ĠAf": 2321,
      "Ġbuilding": 2322,
      "Ġproper": 2323,
      "Ġmembers": 2324,
      "Ġusually": 2325,
      "LE": 2326,
      "Ġcre": 2327,
      "omin": 2328,
      "Ġfa": 2329,
      "Ġtill": 2330,
      "10": 2331,
      "Ġgets": 2332,
      "raid": 2333,
      "room": 2334,
      "rit": 2335,
      "Ġparent": 2336,
      "Ġra": 2337,
      "ĠHar": 2338,
      "Ġav": 2339,
      "Ġcompet": 2340,
      "Ġlay": 2341,
      "Ġcost": 2342,
      "she": 2343,
      "Ġoffice": 2344,
      "OM": 2345,
      "rog": 2346,
      "Ġdin": 2347,
      "Ġtreat": 2348,
      "Ġworry": 2349,
      "ĠOr": 2350,
      "ĠGeor": 2351,
      "Ġanyone": 2352,
      "ified": 2353,
      "Ġton": 2354,
      "Ġmur": 2355,
      "raph": 2356,
      "Ġgold": 2357,
      "uk": 2358,
      "ana": 2359,
      "Ġpull": 2360,
      "aged": 2361,
      "Ġanswer": 2362,
      "Ġchance": 2363,
      "Ġcomplete": 2364,
      "ondon": 2365,
      "Ġcontrol": 2366,
      "Ġtable": 2367,
      "Ġfield": 2368,
      "Ġpopulation": 2369,
      "Ġconcer": 2370,
      "Of": 2371,
      "Ġsweet": 2372,
      "18": 2373,
      "Ġbuy": 2374,
      "ĠLe": 2375,
      "Ġstar": 2376,
      "idence": 2377,
      "Ġknows": 2378,
      "Ġwhether": 2379,
      "Ġteac": 2380,
      "Ġstation": 2381,
      "Ġworks": 2382,
      "Ġrad": 2383,
      "Ġabs": 2384,
      "ases": 2385,
      "ien": 2386,
      "Ġbased": 2387,
      "iod": 2388,
      "por": 2389,
      "ays": 2390,
      "Ġord": 2391,
      "ĠGu": 2392,
      "Ġeasy": 2393,
      "ĠEd": 2394,
      "ino": 2395,
      "Ġprop": 2396,
      "Ġcannot": 2397,
      "work": 2398,
      "Ġwall": 2399,
      "Ġcond": 2400,
      "Ġplayer": 2401,
      "Ġ``": 2402,
      "Ġtwenty": 2403,
      "Ġwritten": 2404,
      "ĠCent": 2405,
      "ĠRep": 2406,
      "Ġstep": 2407,
      "Ġ30": 2408,
      "Ġdev": 2409,
      "ding": 2410,
      "yn": 2411,
      "ĠPresident": 2412,
      "Ġlives": 2413,
      "irty": 2414,
      "Ġste": 2415,
      "ĠAfter": 2416,
      "Ġsister": 2417,
      "Ġevent": 2418,
      "Ġdescri": 2419,
      "ĠIf": 2420,
      "ĠAb": 2421,
      "soci": 2422,
      "Ġregion": 2423,
      "Ġfav": 2424,
      "Ġlocal": 2425,
      "Ġview": 2426,
      "Ġla": 2427,
      "asure": 2428,
      "Ġseems": 2429,
      "itions": 2430,
      "com": 2431,
      "Ġphone": 2432,
      "OW": 2433,
      "Ġgeneral": 2434,
      "illy": 2435,
      "Ġpract": 2436,
      "hys": 2437,
      "ances": 2438,
      "ula": 2439,
      "Ġcouple": 2440,
      "ule": 2441,
      "21": 2442,
      "urg": 2443,
      "Ġmine": 2444,
      "Ġiss": 2445,
      "ara": 2446,
      "Ġeveryone": 2447,
      "Ġcurrent": 2448,
      "Ġvide": 2449,
      "Cl": 2450,
      "Ġdi": 2451,
      "Ġafraid": 2452,
      "iding": 2453,
      "Ġlow": 2454,
      "iron": 2455,
      "Ġsouth": 2456,
      "Ġcentury": 2457,
      "Ġprocess": 2458,
      "Ġpost": 2459,
      "Ġones": 2460,
      "Ġbird": 2461,
      "Ġfast": 2462,
      "Ġmot": 2463,
      "ising": 2464,
      "Ġwrote": 2465,
      "Ġdraw": 2466,
      "Ġdeep": 2467,
      "Ġsense": 2468,
      "bers": 2469,
      "ument": 2470,
      "Ġcold": 2471,
      "Ġwear": 2472,
      "ĠWest": 2473,
      "hampions": 2474,
      "ĠLondon": 2475,
      "Ġcal": 2476,
      "ĠLea": 2477,
      "Ġdiffic": 2478,
      "ĠDon": 2479,
      "Ġinvol": 2480,
      "Ġground": 2481,
      "Ġexactly": 2482,
      "ift": 2483,
      "Ġfair": 2484,
      "Ġseemed": 2485,
      "Ġwrite": 2486,
      "Ġtomorrow": 2487,
      "ada": 2488,
      "Ġgirls": 2489,
      "Ġcry": 2490,
      "Ġnat": 2491,
      "Take": 2492,
      "Ġsea": 2493,
      "ED": 2494,
      "IT": 2495,
      "ission": 2496,
      "Ġboys": 2497,
      "Ġlonger": 2498,
      "Ġincre": 2499,
      "ourn": 2500,
      "ky": 2501,
      "Ġbirth": 2502,
      "who": 2503,
      "CH": 2504,
      "Ġfur": 2505,
      "itive": 2506,
      "ected": 2507,
      "Erm": 2508,
      "ĠEngland": 2509,
      "unic": 2510,
      "uri": 2511,
      "Ġpaper": 2512,
      "ogn": 2513,
      "Ġdistrict": 2514,
      "Ġsuff": 2515,
      "ĠJack": 2516,
      "Ġcharacter": 2517,
      "Ġhuh": 2518,
      "Ġbott": 2519,
      "avy": 2520,
      "ization": 2521,
      "Ġsex": 2522,
      "Ġinformation": 2523,
      "ills": 2524,
      "See": 2525,
      "ging": 2526,
      "oose": 2527,
      "hel": 2528,
      "Ġchanged": 2529,
      "off": 2530,
      "Wait": 2531,
      "ording": 2532,
      "ĠItal": 2533,
      "His": 2534,
      "ribut": 2535,
      "Ġtruth": 2536,
      "Ġkids": 2537,
      "entle": 2538,
      "Ġdirect": 2539,
      "ĠAustral": 2540,
      "amb": 2541,
      "ration": 2542,
      "Ġdepartment": 2543,
      "Ġnews": 2544,
      "Ġrunning": 2545,
      "Ġ25": 2546,
      "irt": 2547,
      "Ġlik": 2548,
      "ĠOne": 2549,
      "Ġsupposed": 2550,
      "uation": 2551,
      "ouncil": 2552,
      "ination": 2553,
      "Ġwood": 2554,
      "dom": 2555,
      "Ġpress": 2556,
      "Ġcat": 2557,
      "Ġservice": 2558,
      "Ġpubl": 2559,
      "aff": 2560,
      "Ġmer": 2561,
      "Ġsomebody": 2562,
      "ĠGerman": 2563,
      "Ġfail": 2564,
      "Ġlab": 2565,
      "Ġgen": 2566,
      "ĠWell": 2567,
      "ĠMic": 2568,
      "Ġforget": 2569,
      "Ġhurt": 2570,
      "Ġeduc": 2571,
      "Ġtonight": 2572,
      "they": 2573,
      "Ġsuper": 2574,
      "Ġcross": 2575,
      "Ġtrouble": 2576,
      "Ġshot": 2577,
      "Ġperiod": 2578,
      "GH": 2579,
      "Ġdro": 2580,
      "urs": 2581,
      "ille": 2582,
      "Ġ*": 2583,
      "ĠLord": 2584,
      "Ġneeds": 2585,
      "lex": 2586,
      "ford": 2587,
      "uture": 2588,
      "22": 2589,
      "Ġreceived": 2590,
      "Ġhig": 2591,
      "Ġtree": 2592,
      "ĠUS": 2593,
      "Ġclean": 2594,
      "Ġtype": 2595,
      "ĠAmerica": 2596,
      "Ġauthor": 2597,
      "Ġtelevision": 2598,
      "Ġposition": 2599,
      "Ġ0": 2600,
      "ĠEl": 2601,
      "itary": 2602,
      "Like": 2603,
      "acy": 2604,
      "ĠThen": 2605,
      "Ġblue": 2606,
      "emy": 2607,
      "ĠDr": 2608,
      "conom": 2609,
      "owers": 2610,
      "Ġrepresent": 2611,
      "Ġple": 2612,
      "Ġluck": 2613,
      "pec": 2614,
      "ption": 2615,
      "ĠAm": 2616,
      "Ġtrad": 2617,
      "ospital": 2618,
      "Ġlady": 2619,
      "Ġsecret": 2620,
      "ĠRe": 2621,
      "Ġkept": 2622,
      "arty": 2623,
      "ĠSchool": 2624,
      "ilar": 2625,
      "ĠDan": 2626,
      "eople": 2627,
      "ĠRuss": 2628,
      "Ġcreated": 2629,
      "Ġtechn": 2630,
      "Ġentire": 2631,
      "Ġarri": 2632,
      "Ġmount": 2633,
      "Ġtit": 2634,
      "joy": 2635,
      "Ġthemselves": 2636,
      "Ġlanguage": 2637,
      "Ġtouch": 2638,
      "dden": 2639,
      "Ġserious": 2640,
      "Ġaccept": 2641,
      "Ġcos": 2642,
      "ĠEx": 2643,
      "Ġwaiting": 2644,
      "ae": 2645,
      "ror": 2646,
      "Ġconn": 2647,
      "hard": 2648,
      "Ġeverybody": 2649,
      "lu": 2650,
      "eder": 2651,
      "Ġvers": 2652,
      "fer": 2653,
      "Ġsell": 2654,
      "Ġvillage": 2655,
      "Thanks": 2656,
      "Ġwhatever": 2657,
      "ken": 2658,
      "US": 2659,
      "la": 2660,
      "uz": 2661,
      "avid": 2662,
      "ploy": 2663,
      "OK": 2664,
      "iol": 2665,
      "van": 2666,
      "ĠAfric": 2667,
      "Ġhy": 2668,
      "Ġobject": 2669,
      "Sorry": 2670,
      "Ġsurpr": 2671,
      "ĠTom": 2672,
      "Ġfucking": 2673,
      "Ġsett": 2674,
      "Ġsudden": 2675,
      "Ġstraight": 2676,
      "Ġcook": 2677,
      "ivil": 2678,
      "Ġsugg": 2679,
      "Ġsuggest": 2680,
      "ĠDe": 2681,
      "Un": 2682,
      "Ġabove": 2683,
      "ĠState": 2684,
      "inal": 2685,
      "Ġfly": 2686,
      "Ġmist": 2687,
      "Ġparents": 2688,
      "Ġspecies": 2689,
      "olution": 2690,
      "Ġperhaps": 2691,
      "ician": 2692,
      "estern": 2693,
      "with": 2694,
      "ĠPeter": 2695,
      "Ġpot": 2696,
      "Ġgreen": 2697,
      "ĠMy": 2698,
      "Ġrul": 2699,
      "ping": 2700,
      "Ar": 2701,
      "ression": 2702,
      "Ġfuture": 2703,
      "this": 2704,
      "Ġrese": 2705,
      "Ġhowever": 2706,
      "stit": 2707,
      "teen": 2708,
      "ending": 2709,
      "Ġpicture": 2710,
      "ager": 2711,
      "Ġpriv": 2712,
      "Ġlim": 2713,
      "val": 2714,
      "Ġrespect": 2715,
      "Ġcomput": 2716,
      "cience": 2717,
      "ray": 2718,
      "Ġcell": 2719,
      "Ġinstead": 2720,
      "Ġtakes": 2721,
      "Ġdecided": 2722,
      "Ġproblems": 2723,
      "Ġexist": 2724,
      "reet": 2725,
      "Ġinclude": 2726,
      "Ġfeeling": 2727,
      "Ġvol": 2728,
      "Tell": 2729,
      "ops": 2730,
      "omb": 2731,
      "ĠSha": 2732,
      "Ġshoot": 2733,
      "Ġbooks": 2734,
      "atter": 2735,
      "Ġitself": 2736,
      "roy": 2737,
      "ĠMc": 2738,
      "Ġcarry": 2739,
      "Ġpiece": 2740,
      "Ġled": 2741,
      "Ġstri": 2742,
      "ĠWh": 2743,
      "Ġperfect": 2744,
      "Ġmouth": 2745,
      "Ġang": 2746,
      "Ġfinished": 2747,
      "isten": 2748,
      "lands": 2749,
      "Ġport": 2750,
      "Ġimag": 2751,
      "Ġherself": 2752,
      "ĠSy": 2753,
      "ocr": 2754,
      "ĠPol": 2755,
      "Ġinvest": 2756,
      "Ġlearn": 2757,
      "Ġcult": 2758,
      "alt": 2759,
      "Ġchair": 2760,
      "Ġlaugh": 2761,
      "ĠNot": 2762,
      "razy": 2763,
      "IC": 2764,
      "Ġdoctor": 2765,
      "Ġpopular": 2766,
      "ivid": 2767,
      "ĠOF": 2768,
      "Ġletter": 2769,
      "eneral": 2770,
      "15": 2771,
      "Ġcho": 2772,
      "These": 2773,
      "Ġserved": 2774,
      "ĠEar": 2775,
      "Ġdue": 2776,
      "hael": 2777,
      "Ġdoll": 2778,
      "Ġfix": 2779,
      "oes": 2780,
      "Will": 2781,
      "Ġpen": 2782,
      "Ġaren": 2783,
      "Ġproject": 2784,
      "ĠHowever": 2785,
      "Ġprin": 2786,
      "Ġhappens": 2787,
      "unicip": 2788,
      "Ġdifficult": 2789,
      "lin": 2790,
      "Ġworth": 2791,
      "Ġchurch": 2792,
      "Ġtrust": 2793,
      "reg": 2794,
      "Ġearth": 2795,
      "Ġvideo": 2796,
      "AY": 2797,
      "Ġcover": 2798,
      "Stop": 2799,
      "Ġmem": 2800,
      "pes": 2801,
      "ĠHouse": 2802,
      "Ġspace": 2803,
      "ograp": 2804,
      "Ġ24": 2805,
      "amer": 2806,
      "Hi": 2807,
      "Ġfinal": 2808,
      "olute": 2809,
      "ĠPhil": 2810,
      "ĠLeague": 2811,
      "Ġnorm": 2812,
      "Ġain": 2813,
      "Ġtrack": 2814,
      "yle": 2815,
      "Ġactiv": 2816,
      "Ġhealth": 2817,
      "Ġbear": 2818,
      "Ġlad": 2819,
      "see": 2820,
      "Ġprison": 2821,
      "viously": 2822,
      "Ġesc": 2823,
      "Ġtelling": 2824,
      "Ġshit": 2825,
      "Ġhorse": 2826,
      "pha": 2827,
      "ĠAN": 2828,
      "ĠCap": 2829,
      "Ġslow": 2830,
      "Ġbri": 2831,
      "Ġanyway": 2832,
      "Ġarm": 2833,
      "17": 2834,
      "Ġrecogn": 2835,
      "Ġnine": 2836,
      "Ġeye": 2837,
      "erry": 2838,
      "Ġsafe": 2839,
      "Ġrelations": 2840,
      "Ġpresident": 2841,
      "Ġsoft": 2842,
      "Ġhang": 2843,
      "ĠTo": 2844,
      "ciety": 2845,
      "rug": 2846,
      "empt": 2847,
      "iment": 2848,
      "ears": 2849,
      "Ġgentle": 2850,
      "Ġweeks": 2851,
      "Ġ2014": 2852,
      "Ġcompl": 2853,
      "erence": 2854,
      "Ġsocial": 2855,
      "itor": 2856,
      "Ġmiddle": 2857,
      "ĠThese": 2858,
      "Ġriver": 2859,
      "ĠColl": 2860,
      "Ġdoub": 2861,
      "Ġpassed": 2862,
      "roll": 2863,
      "epend": 2864,
      "Ġfigure": 2865,
      "Ġcorn": 2866,
      "ls": 2867,
      "omes": 2868,
      "Ġspir": 2869,
      "Ġep": 2870,
      "Ġ100": 2871,
      "Ġdanger": 2872,
      "itted": 2873,
      "Ġsus": 2874,
      "line": 2875,
      "time": 2876,
      "Ġmeant": 2877,
      "ĠGermany": 2878,
      "ET": 2879,
      "Ã¡": 2880,
      "aha": 2881,
      "Ġphot": 2882,
      "AL": 2883,
      "?âĢĿ": 2884,
      "lect": 2885,
      "ashing": 2886,
      "Ġsave": 2887,
      "ival": 2888,
      "12": 2889,
      "Mar": 2890,
      "nel": 2891,
      "Ġcounty": 2892,
      "bor": 2893,
      "Ġphys": 2894,
      "Ġengine": 2895,
      "Ġjud": 2896,
      "ĠIndian": 2897,
      "Ġenjoy": 2898,
      "uel": 2899,
      "Ġgames": 2900,
      "ĠPaul": 2901,
      "Ġahead": 2902,
      "ander": 2903,
      "ĠPark": 2904,
      "Ġestab": 2905,
      "Ġcourt": 2906,
      "ris": 2907,
      "Ġfunny": 2908,
      "Ġ2018": 2909,
      "Ġmeeting": 2910,
      "Ġclot": 2911,
      "Ġevening": 2912,
      "Ġhop": 2913,
      "Ġseat": 2914,
      "Ġfamous": 2915,
      "Ġterri": 2916,
      "Ġvict": 2917,
      "Ġfurther": 2918,
      "Ġ192": 2919,
      "Ġcast": 2920,
      "ĠSec": 2921,
      "Ġgod": 2922,
      "Ġant": 2923,
      "Ġeconom": 2924,
      "king": 2925,
      "ĠJo": 2926,
      "AM": 2927,
      "cher": 2928,
      "Ġexcept": 2929,
      "Ġmis": 2930,
      "riage": 2931,
      "Ġglad": 2932,
      "ergy": 2933,
      "Ġ2011": 2934,
      "ishing": 2935,
      "ĠĠĠĠĠ": 2936,
      "ius": 2937,
      "Ġfish": 2938,
      "Ġcrazy": 2939,
      "Ġopened": 2940,
      "iforn": 2941,
      "Ġ#": 2942,
      "Ġmach": 2943,
      "Ġda": 2944,
      "Ġsick": 2945,
      "Ġide": 2946,
      "Ġcrit": 2947,
      "Ġneg": 2948,
      "ume": 2949,
      "Ġreturned": 2950,
      "ceed": 2951,
      "Ġquiet": 2952,
      "Ġfill": 2953,
      "Ġ(\"": 2954,
      "Ġaut": 2955,
      "ĠQue": 2956,
      "ĠSe": 2957,
      "field": 2958,
      "Ġstood": 2959,
      "Ġum": 2960,
      "Ġcool": 2961,
      "Ġleaving": 2962,
      "Ġgrad": 2963,
      "Ġself": 2964,
      "put": 2965,
      "Ġcapital": 2966,
      "Ġrole": 2967,
      "16": 2968,
      "oly": 2969,
      "Ġnin": 2970,
      "Ġthrow": 2971,
      "ĠWilliam": 2972,
      "hank": 2973,
      "ett": 2974,
      "ifornia": 2975,
      "light": 2976,
      "cell": 2977,
      "Ġdisapp": 2978,
      "Ġring": 2979,
      "aining": 2980,
      "Ġbeginning": 2981,
      "Ġcatch": 2982,
      "Ġdinner": 2983,
      "erve": 2984,
      "OT": 2985,
      "Ġaccount": 2986,
      "hem": 2987,
      "iers": 2988,
      "Ġbreat": 2989,
      "VE": 2990,
      "Ġmad": 2991,
      "Ġforce": 2992,
      "Ġmult": 2993,
      "Ġsubject": 2994,
      "ĠWhy": 2995,
      "Ġannoun": 2996,
      "ĠSome": 2997,
      "Ġ2013": 2998,
      "Give": 2999,
      "ires": 3000,
      "Ġhospital": 3001,
      "Ġfeat": 3002,
      "Ġsimilar": 3003,
      "Ġwhom": 3004,
      "rave": 3005,
      "Ġburn": 3006,
      "Ġfloor": 3007,
      "Ġcommune": 3008,
      "Ġclaim": 3009,
      "Ġagre": 3010,
      "Ġx": 3011,
      "uge": 3012,
      "TER": 3013,
      "Ġappl": 3014,
      "Ġpolitical": 3015,
      "Ġ2017": 3016,
      "Ġ`": 3017,
      "ĠSam": 3018,
      "medi": 3019,
      "ID": 3020,
      "ĠRiver": 3021,
      "Ġcirc": 3022,
      "Ġmass": 3023,
      "ĠIN": 3024,
      "Ġclos": 3025,
      "itz": 3026,
      "rey": 3027,
      "14": 3028,
      "Ġnon": 3029,
      "Ġparts": 3030,
      "\")": 3031,
      "Ġsitting": 3032,
      "Ġshut": 3033,
      "Ġgiving": 3034,
      "Ġforward": 3035,
      "ĠHigh": 3036,
      "Ġnecess": 3037,
      "Ġcommunity": 3038,
      "Ġident": 3039,
      "ples": 3040,
      "oming": 3041,
      "Ġrespons": 3042,
      "ĠSm": 3043,
      "Ġviol": 3044,
      "night": 3045,
      "min": 3046,
      "ns": 3047,
      "Ġintrodu": 3048,
      "raft": 3049,
      "Ġcomb": 3050,
      "ellow": 3051,
      "Ġmention": 3052,
      "Ġoriginal": 3053,
      "Ġdrive": 3054,
      "Ġcause": 3055,
      "Ġstick": 3056,
      "Ġ2020": 3057,
      "Ġreached": 3058,
      "mon": 3059,
      "Ġtotal": 3060,
      "Ġinteresting": 3061,
      "Ġstudents": 3062,
      "ĠPer": 3063,
      "Ġcountries": 3064,
      "reme": 3065,
      "50": 3066,
      "Ġbeat": 3067,
      "Ġmater": 3068,
      "Ġquestions": 3069,
      "Ġbank": 3070,
      "Ġfem": 3071,
      "ĠEast": 3072,
      "was": 3073,
      "Ġbag": 3074,
      "ply": 3075,
      "Ġkey": 3076,
      "nes": 3077,
      "ĠRoman": 3078,
      "13": 3079,
      "chan": 3080,
      "ica": 3081,
      "Ġsepar": 3082,
      "ĠMus": 3083,
      "Ġrelig": 3084,
      "ĠGood": 3085,
      "Ġfing": 3086,
      "ĠCalifornia": 3087,
      "Ġplaces": 3088,
      "ĠGeorge": 3089,
      "By": 3090,
      "bl": 3091,
      "Ġproduct": 3092,
      "Ġindivid": 3093,
      "imate": 3094,
      "ication": 3095,
      "hips": 3096,
      "Ġmatch": 3097,
      "ĠSu": 3098,
      "Ġyours": 3099,
      "Ġquickly": 3100,
      "Ġhoney": 3101,
      "Ġlose": 3102,
      "Ġfear": 3103,
      "Ġneigh": 3104,
      "Ġstage": 3105,
      "Ġhung": 3106,
      "Ġamount": 3107,
      "ĠMary": 3108,
      "esus": 3109,
      "Somet": 3110,
      "ĠRed": 3111,
      "Ġappeared": 3112,
      "AC": 3113,
      "Ġstudy": 3114,
      "Ġstore": 3115,
      "Ġ2012": 3116,
      "Even": 3117,
      "pecially": 3118,
      "Ġhost": 3119,
      "Ġmarket": 3120,
      "Ġwhose": 3121,
      "mas": 3122,
      "Ġtowards": 3123,
      "ĠRepublic": 3124,
      "Ġsimple": 3125,
      "cious": 3126,
      "wood": 3127,
      "Ġkiss": 3128,
      "inite": 3129,
      "Ġpark": 3130,
      "ocked": 3131,
      "Ġalive": 3132,
      "hood": 3133,
      "ĠIndia": 3134,
      "Ġtravel": 3135,
      "Ġinn": 3136,
      "Ġmid": 3137,
      "Ġ2015": 3138,
      "Ġobs": 3139,
      "inc": 3140,
      "ĠJapanese": 3141,
      "Ġmoving": 3142,
      "Ġenergy": 3143,
      "olly": 3144,
      "Ġwindow": 3145,
      "Ġsuppose": 3146,
      "ico": 3147,
      "Ġroll": 3148,
      "Ġdeg": 3149,
      "just": 3150,
      "God": 3151,
      "Ġ2008": 3152,
      "Ġlocated": 3153,
      "uty": 3154,
      "ka": 3155,
      "Ġcried": 3156,
      "Ġpublished": 3157,
      "Ġben": 3158,
      "Ġcolor": 3159,
      "upid": 3160,
      "From": 3161,
      "ades": 3162,
      "ĠQu": 3163,
      "Ġpal": 3164,
      "Ġanymore": 3165,
      "Ġfollowed": 3166,
      "af": 3167,
      "Ġnatural": 3168,
      "Ġconsider": 3169,
      "ĠBy": 3170,
      "arden": 3171,
      "Ġpolic": 3172,
      "Ġindust": 3173,
      "ruction": 3174,
      "Ġcaught": 3175,
      "ĠGovern": 3176,
      "ĠCor": 3177,
      "Ġwide": 3178,
      "ĠGreat": 3179,
      "het": 3180,
      "Ġris": 3181,
      "ĠLou": 3182,
      "Nothing": 3183,
      "ĠEm": 3184,
      "ĠJust": 3185,
      "AP": 3186,
      "ites": 3187,
      "Ġvisit": 3188,
      "ĠParty": 3189,
      "Ġbeha": 3190,
      "ili": 3191,
      "Bl": 3192,
      "oyal": 3193,
      "ĠSan": 3194,
      "Really": 3195,
      "ĠGl": 3196,
      "Ġways": 3197,
      "ext": 3198,
      "Ġ2016": 3199,
      "Ġneeded": 3200,
      "iled": 3201,
      "Ġexperience": 3202,
      "Ġbelong": 3203,
      "Ġcertainly": 3204,
      "ÃŃ": 3205,
      "rian": 3206,
      "isc": 3207,
      "orts": 3208,
      "aven": 3209,
      "ĠMe": 3210,
      "Ã¶": 3211,
      "Ġ)": 3212,
      "ĠMed": 3213,
      "Ġrace": 3214,
      "Ġbill": 3215,
      "ensive": 3216,
      "Ġteacher": 3217,
      "Ġmunicip": 3218,
      "Ġ21": 3219,
      "Ġver": 3220,
      "did": 3221,
      "Ġsituation": 3222,
      "Ġshar": 3223,
      "iny": 3224,
      "Listen": 3225,
      "Ġlie": 3226,
      "Ġsad": 3227,
      "Ġperm": 3228,
      "Ġdress": 3229,
      "omen": 3230,
      "Ġterms": 3231,
      "uses": 3232,
      "ago": 3233,
      "inary": 3234,
      "wered": 3235,
      "30": 3236,
      "Ġalright": 3237,
      "Ġanybody": 3238,
      "Ġ2007": 3239,
      "Ġfinally": 3240,
      "road": 3241,
      "Ġfac": 3242,
      "bert": 3243,
      "Ġallowed": 3244,
      "asons": 3245,
      "istic": 3246,
      "rel": 3247,
      "ĠII": 3248,
      "Ġstopped": 3249,
      "ining": 3250,
      "Ġmiles": 3251,
      "ĠIT": 3252,
      "Ġdiscuss": 3253,
      "Ġshop": 3254,
      "fl": 3255,
      "Ġstrange": 3256,
      "face": 3257,
      "cuse": 3258,
      "Ġprotect": 3259,
      "Ġ22": 3260,
      "Tr": 3261,
      "gar": 3262,
      "irm": 3263,
      "ĠMad": 3264,
      "sha": 3265,
      "Ġ2009": 3266,
      "ĠĠĠĠĠĠ": 3267,
      "Ġstreet": 3268,
      "Ã¼": 3269,
      "Ġemploy": 3270,
      "Ġequal": 3271,
      "pper": 3272,
      "udd": 3273,
      "Ġshows": 3274,
      "Ġexam": 3275,
      "Ġvarious": 3276,
      "Ġ2006": 3277,
      "ero": 3278,
      "Ġfool": 3279,
      "Ġenc": 3280,
      "Ġanimals": 3281,
      "bye": 3282,
      "itional": 3283,
      "orthern": 3284,
      "Ġespecially": 3285,
      "Ġboard": 3286,
      "Ġwriting": 3287,
      "200": 3288,
      "hold": 3289,
      "Ġinflu": 3290,
      "ĠMon": 3291,
      "urity": 3292,
      "ki": 3293,
      "Ġvalue": 3294,
      "Man": 3295,
      "ensus": 3296,
      "Ġpeace": 3297,
      "Ġbroad": 3298,
      "Ġjump": 3299,
      "gu": 3300,
      "Ġisland": 3301,
      "Ġsurv": 3302,
      "Ġearli": 3303,
      ".,": 3304,
      "Ġinvolved": 3305,
      "inct": 3306,
      "Ġmilitary": 3307,
      "don": 3308,
      "AD": 3309,
      "Ġmaterial": 3310,
      "Ġice": 3311,
      "ya": 3312,
      "ĠBen": 3313,
      "ĠWith": 3314,
      "Ġrid": 3315,
      "Ġpaid": 3316,
      "Ġquar": 3317,
      "ĠDavid": 3318,
      "Ġ23": 3319,
      "Ġbull": 3320,
      "ĠAir": 3321,
      "Ġdance": 3322,
      "ĠÂ": 3323,
      "str": 3324,
      "ĠJames": 3325,
      "Ġemb": 3326,
      "Ġmodern": 3327,
      "Ġconv": 3328,
      "Ġdestroy": 3329,
      "Ġplays": 3330,
      "Ġspent": 3331,
      "ĠMart": 3332,
      ".'": 3333,
      "Ġwild": 3334,
      "ners": 3335,
      "ĠChampions": 3336,
      "ences": 3337,
      "Ġpack": 3338,
      "Our": 3339,
      "ĠAre": 3340,
      "Ġbought": 3341,
      "ĠSer": 3342,
      "iction": 3343,
      "ength": 3344,
      "ustom": 3345,
      "aine": 3346,
      "Ġ2019": 3347,
      "sych": 3348,
      "Ġtax": 3349,
      "hire": 3350,
      "Ġjoined": 3351,
      "Ġegg": 3352,
      "ĠCup": 3353,
      "ids": 3354,
      "Ġasking": 3355,
      "Ġproduced": 3356,
      "ĠNow": 3357,
      "elp": 3358,
      "Ġprofessional": 3359,
      "Ġsoul": 3360,
      "iced": 3361,
      "gel": 3362,
      "olutely": 3363,
      "Ġdrug": 3364,
      "Ġaction": 3365,
      "Ġlargest": 3366,
      "outhern": 3367,
      "ĠWho": 3368,
      "Ġhate": 3369,
      "Ġdate": 3370,
      "....": 3371,
      "rie": 3372,
      "iling": 3373,
      "Ġwat": 3374,
      "kn": 3375,
      "Ġmix": 3376,
      "Ġ50": 3377,
      "Ġfavor": 3378,
      "ĠChurch": 3379,
      "Ġcand": 3380,
      "Ġnet": 3381,
      "Ġalthough": 3382,
      "11": 3383,
      "Ġrefer": 3384,
      "Ġseeing": 3385,
      "Ġattempt": 3386,
      "Ġbase": 3387,
      "Ġanswered": 3388,
      "eep": 3389,
      "Ġwest": 3390,
      "house": 3391,
      "ĠCo": 3392,
      "Ġ190": 3393,
      "ffic": 3394,
      "Ġglass": 3395,
      "Ġcivil": 3396,
      "ichard": 3397,
      "Me": 3398,
      "Ġsummer": 3399,
      "UT": 3400,
      "ĠHey": 3401,
      "Ġrain": 3402,
      "ortun": 3403,
      "Ġconside": 3404,
      "Ġimmedi": 3405,
      "Ġconsidered": 3406,
      "ĠMor": 3407,
      "cast": 3408,
      "Ġofficial": 3409,
      "ĠDad": 3410,
      "ĠDem": 3411,
      "Ġ26": 3412,
      "Ġgives": 3413,
      "ĠJim": 3414,
      "ĠTV": 3415,
      "Ġcoff": 3416,
      "ibility": 3417,
      "Sp": 3418,
      "Ġfort": 3419,
      "Pl": 3420,
      "hod": 3421,
      "ship": 3422,
      "Ġeast": 3423,
      "obert": 3424,
      "Ġbroke": 3425,
      "Two": 3426,
      "ocks": 3427,
      "llen": 3428,
      "Ġsomewhere": 3429,
      "Ġgrew": 3430,
      "Ġ:": 3431,
      "ĠGrand": 3432,
      "Ġarms": 3433,
      "reek": 3434,
      "Ġban": 3435,
      "su": 3436,
      "ify": 3437,
      "Ġdevelopment": 3438,
      "Ġloved": 3439,
      "Ġstanding": 3440,
      "Ġsour": 3441,
      "board": 3442,
      "Ġplant": 3443,
      "Ġdata": 3444,
      "itude": 3445,
      "Ġpoints": 3446,
      "ography": 3447,
      "rem": 3448,
      "Ġnumbers": 3449,
      "Pro": 3450,
      "Ġcard": 3451,
      "Ġrail": 3452,
      "Which": 3453,
      "Ġenv": 3454,
      "Ġtitle": 3455,
      "ether": 3456,
      "Ġareas": 3457,
      "Ġpolitician": 3458,
      "ils": 3459,
      "istrict": 3460,
      "FF": 3461,
      "back": 3462,
      "Ġ28": 3463,
      "which": 3464,
      "ala": 3465,
      "Ġsize": 3466,
      "Ġhous": 3467,
      "oups": 3468,
      "ises": 3469,
      "ĠGeneral": 3470,
      "ancy": 3471,
      "Br": 3472,
      "Ġnature": 3473,
      "Ġtend": 3474,
      "Ġcompan": 3475,
      "ĠEuropean": 3476,
      "ĠLet": 3477,
      "ĠLu": 3478,
      "Ġpersonal": 3479,
      "Ġstruct": 3480,
      "bour": 3481,
      "Ġtired": 3482,
      "ential": 3483,
      "Ġ27": 3484,
      "Ġmaster": 3485,
      "Ġaud": 3486,
      "Ġpers": 3487,
      "Ġgas": 3488,
      "icle": 3489,
      "Ġdig": 3490,
      "Ġarmy": 3491,
      "Ġpurp": 3492,
      "Ġrob": 3493,
      "Would": 3494,
      "Ġlo": 3495,
      "!âĢĿ": 3496,
      "Ġprim": 3497,
      "ourt": 3498,
      "Ġsal": 3499,
      "Ġclothes": 3500,
      "ators": 3501,
      "lie": 3502,
      "urt": 3503,
      "ability": 3504,
      "Ab": 3505,
      "ari": 3506,
      "action": 3507,
      "Ġbrain": 3508,
      "wise": 3509,
      "Ġfund": 3510,
      "Ġfunction": 3511,
      "Ġincluded": 3512,
      "Her": 3513,
      "ram": 3514,
      "terday": 3515,
      "Qu": 3516,
      "Ġstars": 3517,
      "Per": 3518,
      "irgin": 3519,
      "Ġcomputer": 3520,
      "play": 3521,
      "Â´": 3522,
      "chen": 3523,
      "Ġstupid": 3524,
      "Ġcollege": 3525,
      "Ġadded": 3526,
      "lymp": 3527,
      "Ġmommy": 3528,
      "ounded": 3529,
      "Ġeducation": 3530,
      "Ġheavy": 3531,
      "Does": 3532,
      "istory": 3533,
      "ville": 3534,
      "Um": 3535,
      "Ġshare": 3536,
      "Ġsight": 3537,
      "Ġcompletely": 3538,
      "rect": 3539,
      "Ġresearch": 3540,
      "ĠEn": 3541,
      "Ġaver": 3542,
      "ĠCouncil": 3543,
      "Ġcommand": 3544,
      "Ġprivate": 3545,
      "tered": 3546,
      "rav": 3547,
      "view": 3548,
      "asc": 3549,
      "Ġsimply": 3550,
      "Ġspirit": 3551,
      "Ġboat": 3552,
      "olic": 3553,
      "ground": 3554,
      "ĠWhere": 3555,
      "ĠEarth": 3556,
      "Ġnearly": 3557,
      "noon": 3558,
      "icated": 3559,
      "Ġtrees": 3560,
      "ĠMinister": 3561,
      "ĠPal": 3562,
      "Ġdirected": 3563,
      "ĠLa": 3564,
      "Ġindeed": 3565,
      "ena": 3566,
      "Ġsearch": 3567,
      "gress": 3568,
      "Gr": 3569,
      "Sure": 3570,
      "Ġmodel": 3571,
      "Ġcontract": 3572,
      "Ġimpro": 3573,
      "ograph": 3574,
      "Ġscient": 3575,
      "Very": 3576,
      "Ġcaused": 3577,
      "antic": 3578,
      "Ġdaddy": 3579,
      "ĠBel": 3580,
      "Ġnames": 3581,
      "bing": 3582,
      "Ġevidence": 3583,
      "set": 3584,
      "Ġthanks": 3585,
      "Ġdoubt": 3586,
      "Ġtea": 3587,
      "Ġdifference": 3588,
      "ique": 3589,
      "ĠFrank": 3590,
      "ĠSte": 3591,
      "resh": 3592,
      "ĠParis": 3593,
      "ĠAg": 3594,
      "raw": 3595,
      "ĠBlack": 3596,
      "Ġelection": 3597,
      "RO": 3598,
      "Ġcy": 3599,
      "iber": 3600,
      "rill": 3601,
      "Ġtick": 3602,
      "Ġprep": 3603,
      "Ġcontinued": 3604,
      "Ġpray": 3605,
      "pen": 3606,
      "Ġtalked": 3607,
      "ails": 3608,
      "ĠHen": 3609,
      "iday": 3610,
      "burg": 3611,
      "ĠOkay": 3612,
      "ĠAustralia": 3613,
      "Ġaward": 3614,
      "osing": 3615,
      "omas": 3616,
      "anc": 3617,
      "Ġavail": 3618,
      "ological": 3619,
      "Ġsens": 3620,
      "sec": 3621,
      "Ġtour": 3622,
      "ĠSir": 3623,
      "Ġwed": 3624,
      "Ġbow": 3625,
      "ruct": 3626,
      "chie": 3627,
      "pro": 3628,
      "ston": 3629,
      "ords": 3630,
      "ĠMex": 3631,
      "istics": 3632,
      "ĠOlymp": 3633,
      "ively": 3634,
      "Ġbroken": 3635,
      "lo": 3636,
      "Ġappoint": 3637,
      "astic": 3638,
      "Ġforest": 3639,
      "ĠDep": 3640,
      "ĠOK": 3641,
      "Ġhistor": 3642,
      "Ġindepend": 3643,
      "Ġbud": 3644,
      "Ġpromise": 3645,
      "ĠComp": 3646,
      "Ġsounds": 3647,
      "ashington": 3648,
      "Ġgroups": 3649,
      "Ġradio": 3650,
      "ĠSen": 3651,
      "Ġwatching": 3652,
      "Ġnobody": 3653,
      "Ġwel": 3654,
      "ously": 3655,
      "Ġattention": 3656,
      "Ġassoci": 3657,
      "AND": 3658,
      "Ġimm": 3659,
      "Ġcomfort": 3660,
      "Ġhelped": 3661,
      "Ġwonderful": 3662,
      "Ġsuddenly": 3663,
      "ledge": 3664,
      "Ġbur": 3665,
      "Ġregular": 3666,
      "Ġur": 3667,
      "Ġbattle": 3668,
      "Ġfoc": 3669,
      "Ġliter": 3670,
      "amm": 3671,
      "ĠSch": 3672,
      "ĠPat": 3673,
      "Ġfle": 3674,
      "Ġcharge": 3675,
      "Ġpath": 3676,
      "Ġarrest": 3677,
      "iles": 3678,
      "nie": 3679,
      "Ġpercent": 3680,
      "oph": 3681,
      "Ġmarry": 3682,
      "ĠBE": 3683,
      "Ġshouldn": 3684,
      "ushed": 3685,
      "antly": 3686,
      "Ġ2000": 3687,
      "Ġversion": 3688,
      "azing": 3689,
      "inese": 3690,
      "useum": 3691,
      "Ġwarm": 3692,
      "Ġthirty": 3693,
      "inist": 3694,
      "Ġrights": 3695,
      "Ġmeaning": 3696,
      "illa": 3697,
      "Ġspend": 3698,
      "Ġestabl": 3699,
      "ĠSim": 3700,
      "ĠAc": 3701,
      "Ġdefe": 3702,
      "Ġsand": 3703,
      "Ġreach": 3704,
      "Ġbottom": 3705,
      "ĠUnion": 3706,
      "Ġblow": 3707,
      "Ġextra": 3708,
      "ĠAnt": 3709,
      "Ġfifty": 3710,
      "Ġshowed": 3711,
      "ĠReg": 3712,
      "ĠCome": 3713,
      "under": 3714,
      "Ġhappening": 3715,
      "Ġfit": 3716,
      "Ġinterested": 3717,
      "Ġdoc": 3718,
      "Ġrich": 3719,
      "ĠStreet": 3720,
      "ĠMichael": 3721,
      "ERE": 3722,
      "LD": 3723,
      "Ġarch": 3724,
      "Ġfinish": 3725,
      "ittee": 3726,
      "Ġthreat": 3727,
      "Ġet": 3728,
      "Ġlength": 3729,
      "ests": 3730,
      "Ġannounced": 3731,
      "Ġclosed": 3732,
      "Ġredu": 3733,
      "Ġopportun": 3734,
      "Ġlog": 3735,
      "ĠCollege": 3736,
      "cul": 3737,
      "hest": 3738,
      "icks": 3739,
      "ĠChina": 3740,
      "Ġpounds": 3741,
      "Ġformed": 3742,
      "Ġfat": 3743,
      "usion": 3744,
      "Ġafternoon": 3745,
      "Ġnor": 3746,
      "Ġfounded": 3747,
      "Ġweap": 3748,
      "lor": 3749,
      "ida": 3750,
      "ek": 3751,
      "ĠHall": 3752,
      "Ġchoice": 3753,
      "ables": 3754,
      "Ġ()": 3755,
      "Ġdise": 3756,
      "Excuse": 3757,
      "anish": 3758,
      "ĠChristian": 3759,
      "Ġcalling": 3760,
      "ĠBo": 3761,
      "Ġden": 3762,
      "ĠBer": 3763,
      "ĠPort": 3764,
      "Ġhigher": 3765,
      "THE": 3766,
      "Ġ29": 3767,
      "Ġbelow": 3768,
      "Ã³": 3769,
      "ironment": 3770,
      "ria": 3771,
      "IM": 3772,
      "John": 3773,
      "Ġinit": 3774,
      "Ġtraining": 3775,
      "elve": 3776,
      "Ġspeed": 3777,
      "Ġdirector": 3778,
      "Ġbirthday": 3779,
      "berg": 3780,
      "Ġnormal": 3781,
      "Ġweren": 3782,
      "Ġmarriage": 3783,
      "elebr": 3784,
      "aves": 3785,
      "Ġstreng": 3786,
      "iel": 3787,
      "ĠGreen": 3788,
      "aker": 3789,
      "Ġnovel": 3790,
      "ĠON": 3791,
      "osition": 3792,
      "bon": 3793,
      "Car": 3794,
      "Ġactor": 3795,
      "ĠNor": 3796,
      "ĠDistrict": 3797,
      "Ġmurder": 3798,
      "Am": 3799,
      "ST": 3800,
      "oted": 3801,
      "ibly": 3802,
      "year": 3803,
      "Ġtemper": 3804,
      "Ġtast": 3805,
      "ilities": 3806,
      "Ġdecl": 3807,
      "Ġmethod": 3808,
      "isf": 3809,
      "Ġstarting": 3810,
      "rank": 3811,
      "ĠJew": 3812,
      "Ġfellow": 3813,
      "Ġhall": 3814,
      "amn": 3815,
      "ses": 3816,
      "oring": 3817,
      "Ġ2005": 3818,
      "ification": 3819,
      "ĠCr": 3820,
      "Ġbright": 3821,
      "asion": 3822,
      "atives": 3823,
      "order": 3824,
      "za": 3825,
      "Ġscience": 3826,
      "Ġspoke": 3827,
      "apers": 3828,
      "Ġstories": 3829,
      "ĠÃ": 3830,
      "ĠPenn": 3831,
      "Ġ189": 3832,
      "Ġcarried": 3833,
      "Ġaccident": 3834,
      "Ġdeveloped": 3835,
      "ĠInternational": 3836,
      "Ġlower": 3837,
      "Ġmanage": 3838,
      "Ġsite": 3839,
      "pping": 3840,
      "Ġoffer": 3841,
      "Ġlovely": 3842,
      "Ġended": 3843,
      "Ġcenter": 3844,
      "aly": 3845,
      "alley": 3846,
      "apt": 3847,
      "Ġworse": 3848,
      "Ġchanges": 3849,
      "ĠWashington": 3850,
      "Ġdeterm": 3851,
      "Ġcoffee": 3852,
      "Ġpsych": 3853,
      "oid": 3854,
      "west": 3855,
      "aries": 3856,
      "ĠPri": 3857,
      "ĠIts": 3858,
      "Ġavailable": 3859,
      "rag": 3860,
      "Ġexec": 3861,
      "Ġlif": 3862,
      "arily": 3863,
      "ental": 3864,
      "Ġsociety": 3865,
      "ĠYour": 3866,
      "ĠChristmas": 3867,
      "Ġleader": 3868,
      "Ġhuge": 3869,
      "Ġassist": 3870,
      "ĠCanada": 3871,
      "Ġwa": 3872,
      "tr": 3873,
      "Ġstates": 3874,
      "phone": 3875,
      "ij": 3876,
      "Ġdecision": 3877,
      "Ġfeed": 3878,
      "ĠNe": 3879,
      "ĠArmy": 3880,
      "UN": 3881,
      "Ġsnow": 3882,
      "Ġinj": 3883,
      "Ġregard": 3884,
      "Ġearlier": 3885,
      "Ġaverage": 3886,
      "Ġpun": 3887,
      "ĠTur": 3888,
      "Ġmachine": 3889,
      "Ġtext": 3890,
      "Ġputting": 3891,
      "ĠMa": 3892,
      "Was": 3893,
      "ĠAlex": 3894,
      "Ġschools": 3895,
      "Ġexplain": 3896,
      "Ġcapt": 3897,
      "sequ": 3898,
      "why": 3899,
      "Ġbi": 3900,
      "Ġund": 3901,
      "Ġyesterday": 3902,
      "Ġmessage": 3903,
      "Ġbusy": 3904,
      "Ġaccess": 3905,
      "Ġlines": 3906,
      "Ġdeb": 3907,
      "Ġhol": 3908,
      "Ġrout": 3909,
      "ĠQueen": 3910,
      "Ġbes": 3911,
      "uts": 3912,
      "Ġspread": 3913,
      "People": 3914,
      "ĠOld": 3915,
      "Ġcustom": 3916,
      "Ġplus": 3917,
      "Only": 3918,
      "ĠMal": 3919,
      "Ġepis": 3920,
      "Ġmovies": 3921,
      "Ġmovement": 3922,
      "ĠAfrica": 3923,
      "ALL": 3924,
      "Ġagree": 3925,
      "ann": 3926,
      "ees": 3927,
      "fast": 3928,
      "Ġsongs": 3929,
      "ĠChe": 3930,
      "lvan": 3931,
      "ĠTex": 3932,
      "Ġnose": 3933,
      "Ġcreate": 3934,
      "ĠAND": 3935,
      "Ġlearned": 3936,
      "Ġmilk": 3937,
      "Ġride": 3938,
      "initely": 3939,
      "olf": 3940,
      "ummer": 3941,
      "Dad": 3942,
      "Ġcases": 3943,
      "First": 3944,
      "ossible": 3945,
      "IGH": 3946,
      "Ġpage": 3947,
      "Ġrelationship": 3948,
      "Ġ40": 3949,
      "Ġcondu": 3950,
      "Ġcareful": 3951,
      "Ġhero": 3952,
      "Ġestablished": 3953,
      "Ġmor": 3954,
      "Ġoccur": 3955,
      "arm": 3956,
      "Sir": 3957,
      "Ġhonest": 3958,
      "ĠMark": 3959,
      "Ġinternational": 3960,
      "Ġ..": 3961,
      "Ġ2004": 3962,
      "Ġgarden": 3963,
      "Ġcelebr": 3964,
      "Ġleaves": 3965,
      "liament": 3966,
      "Ġbath": 3967,
      "ĠME": 3968,
      "Ġyellow": 3969,
      "had": 3970,
      "Ġdemand": 3971,
      "aug": 3972,
      "Ġsuit": 3973,
      "Ġhun": 3974,
      "wr": 3975,
      "rat": 3976,
      "Ġrule": 3977,
      "ĠAward": 3978,
      "oday": 3979,
      "Ġstyle": 3980,
      "Ġlegs": 3981,
      "Ġliked": 3982,
      "Ġjoin": 3983,
      "Ġfaith": 3984,
      "acing": 3985,
      "Ġsquare": 3986,
      "Ġdan": 3987,
      "Ġsinger": 3988,
      "ĠLouis": 3989,
      "Ġpred": 3990,
      "ournal": 3991,
      "oves": 3992,
      "Ġterrible": 3993,
      "lvania": 3994,
      "Ġnone": 3995,
      "ems": 3996,
      "SE": 3997,
      "Ġinvestig": 3998,
      "Ġneck": 3999,
      "ita": 4000,
      "Ġcensus": 4001,
      "ux": 4002,
      "Ġbran": 4003,
      "ension": 4004,
      "Ġevents": 4005,
      "Ġproduction": 4006,
      "ĠSat": 4007,
      "Ġsky": 4008,
      "Ġkit": 4009,
      "Ġscared": 4010,
      "Ġfault": 4011,
      "ĠItalian": 4012,
      "Ġcorner": 4013,
      "Ġmunicipality": 4014,
      "kes": 4015,
      "ĠCaptain": 4016,
      "Ġprinci": 4017,
      "Sc": 4018,
      "Ġought": 4019,
      "Ġgar": 4020,
      "Ġstone": 4021,
      "Ġcontact": 4022,
      "Wh": 4023,
      "ams": 4024,
      "ĠWhite": 4025,
      "sey": 4026,
      "Ġdry": 4027,
      "Ġsmell": 4028,
      "Ġcup": 4029,
      "ĠRichard": 4030,
      "Ġeating": 4031,
      "ession": 4032,
      "inn": 4033,
      "Ġdrop": 4034,
      "Ġanimal": 4035,
      "ĠRob": 4036,
      "Ġchem": 4037,
      "lim": 4038,
      "ĠChinese": 4039,
      "ĠIsland": 4040,
      "Ġideas": 4041,
      "onel": 4042,
      "Ġtherefore": 4043,
      "aps": 4044,
      "hib": 4045,
      "aign": 4046,
      "icked": 4047,
      "Ġprof": 4048,
      "ights": 4049,
      "ĠOf": 4050,
      "ederal": 4051,
      "rupt": 4052,
      "ĠKore": 4053,
      "Mhm": 4054,
      "Ġcoun": 4055,
      "etic": 4056,
      "Ġfol": 4057,
      "erc": 4058,
      "yond": 4059,
      "Ġwit": 4060,
      "hand": 4061,
      "Ġimmediately": 4062,
      "uzz": 4063,
      "ilies": 4064,
      "ĠPet": 4065,
      "Ġflowers": 4066,
      "asing": 4067,
      "Ġskin": 4068,
      "ĠFrom": 4069,
      "Ġcow": 4070,
      "Gu": 4071,
      "Ġhey": 4072,
      "ini": 4073,
      "cean": 4074,
      "Ġ186": 4075,
      "ĠBill": 4076,
      "ĠMont": 4077,
      "Ġcred": 4078,
      "ccording": 4079,
      "Ġlikely": 4080,
      "Ġ2021": 4081,
      "ĠVirgin": 4082,
      "lear": 4083,
      "Ġbell": 4084,
      "Ġtall": 4085,
      "Ġclim": 4086,
      "using": 4087,
      "Ġsigned": 4088,
      "Ġwelcome": 4089,
      "Ġfarm": 4090,
      "sylvania": 4091,
      "WH": 4092,
      "icago": 4093,
      "otten": 4094,
      "Ġraised": 4095,
      "Ġlying": 4096,
      "Ġpieces": 4097,
      "Ġdistance": 4098,
      "itation": 4099,
      "ban": 4100,
      "Ġolder": 4101,
      "stairs": 4102,
      "oses": 4103,
      "oom": 4104,
      "known": 4105,
      "Ġmostly": 4106,
      "Ġbelieved": 4107,
      "Ġfrog": 4108,
      "ĠCong": 4109,
      "erved": 4110,
      "Ġbenef": 4111,
      "Ġir": 4112,
      "Ġtheory": 4113,
      "Ġcamer": 4114,
      "WE": 4115,
      "Ġnecessary": 4116,
      "yer": 4117,
      "ĠRussian": 4118,
      "Ġspecific": 4119,
      "itar": 4120,
      "Ġarg": 4121,
      "Ġchief": 4122,
      "gen": 4123,
      "asant": 4124,
      "Ġsevent": 4125,
      "istan": 4126,
      "Ġacqu": 4127,
      "oop": 4128,
      "Ġdiscovered": 4129,
      "ĠRes": 4130,
      "ĠâĢĺ": 4131,
      "Ġcoast": 4132,
      "AK": 4133,
      "iot": 4134,
      "da": 4135,
      "Ġcontinue": 4136,
      "ĠMil": 4137,
      "razil": 4138,
      "Ġservices": 4139,
      "ste": 4140,
      "mhm": 4141,
      "Ġru": 4142,
      "ĠTexas": 4143,
      "ĠMag": 4144,
      "Ġarrived": 4145,
      "Ġdepend": 4146,
      "ker": 4147,
      "Ġstorm": 4148,
      "Ġconvers": 4149,
      "Never": 4150,
      "ĠSwed": 4151,
      "Ġcrime": 4152,
      "ĠPrince": 4153,
      "Ġwalked": 4154,
      "vert": 4155,
      "kin": 4156,
      "Ġtruck": 4157,
      "Ġut": 4158,
      "Ġelected": 4159,
      "good": 4160,
      "Ġbeyond": 4161,
      "Ġsuccessful": 4162,
      "ket": 4163,
      "Ġrepe": 4164,
      "Ġspl": 4165,
      "utch": 4166,
      "ĠJesus": 4167,
      "Ġscene": 4168,
      "Ġaged": 4169,
      "atory": 4170,
      "ĠRec": 4171,
      "ĠST": 4172,
      "ĠWH": 4173,
      "Ġformula": 4174,
      "Ġswim": 4175,
      "ĠBro": 4176,
      "Ġindividual": 4177,
      "ĠSund": 4178,
      "Dr": 4179,
      "ĠTe": 4180,
      "Ġimagine": 4181,
      "Ġfighting": 4182,
      "ware": 4183,
      "ĠCourt": 4184,
      "Ġweak": 4185,
      "ols": 4186,
      "Ġ1990": 4187,
      "father": 4188,
      "Ġdouble": 4189,
      "ĠAnge": 4190,
      "Ġofficer": 4191,
      "yl": 4192,
      "Ġintell": 4193,
      "ĠPennsylvania": 4194,
      "Ġspot": 4195,
      "Ġcovered": 4196,
      "tt": 4197,
      "Could": 4198,
      "Ġreview": 4199,
      "Ġmoon": 4200,
      "Ġ2001": 4201,
      "ĠRobert": 4202,
      "Ġpractice": 4203,
      "ĠAct": 4204,
      "Ġgoal": 4205,
      "ores": 4206,
      "Ġcollect": 4207,
      "Ġenvironment": 4208,
      "Ġaddress": 4209,
      "ateg": 4210,
      "Ġattract": 4211,
      "Ġtar": 4212,
      "Ġreading": 4213,
      "Ġcab": 4214,
      "Ġess": 4215,
      "ĠĠĠĠĠĠĠ": 4216,
      "Ġcrow": 4217,
      "Ġprice": 4218,
      "Ġapart": 4219,
      "Ġparticip": 4220,
      "Ġreve": 4221,
      "Ġtells": 4222,
      "ĠArt": 4223,
      "ĠDuring": 4224,
      "ĠDemocr": 4225,
      "gl": 4226,
      "Ġble": 4227,
      "orks": 4228,
      "Ġphil": 4229,
      "Ġspeaking": 4230,
      "Ġboss": 4231,
      "Ġholding": 4232,
      "uments": 4233,
      "ĠScott": 4234,
      "Ġdistribut": 4235,
      "Ġwedding": 4236,
      "ĠMac": 4237,
      "40": 4238,
      "ora": 4239,
      "Ġwalking": 4240,
      "Ġdescribed": 4241,
      "isted": 4242,
      "iation": 4243,
      "ĠIS": 4244,
      "Ġrelease": 4245,
      "wh": 4246,
      "ĠCharles": 4247,
      "Ġfourth": 4248,
      "Ġpurpose": 4249,
      "Ġmic": 4250,
      "Ġemer": 4251,
      "Ġpan": 4252,
      "Ġprint": 4253,
      "Ġrules": 4254,
      "ĠKingdom": 4255,
      "Ġadminist": 4256,
      "Ġissue": 4257,
      "Ġfemale": 4258,
      "Ġpictures": 4259,
      "Ġ188": 4260,
      "Ġangry": 4261,
      "Ġtail": 4262,
      "aching": 4263,
      "ĠMount": 4264,
      "iant": 4265,
      "would": 4266,
      "Ġpig": 4267,
      "ĠJul": 4268,
      ";&": 4269,
      "Ã¤": 4270,
      "Ġmountain": 4271,
      "Ġrap": 4272,
      "Ġforces": 4273,
      "anda": 4274,
      "Ġshown": 4275,
      "ĠSpanish": 4276,
      "itiz": 4277,
      "Ġsettle": 4278,
      "Ġrange": 4279,
      "Ġtwice": 4280,
      "Ġpositive": 4281,
      "eff": 4282,
      "Ġoil": 4283,
      "NA": 4284,
      "Ġreplied": 4285,
      "Ġenemy": 4286,
      "arling": 4287,
      "Ġ1980": 4288,
      "Ġfresh": 4289,
      "ients": 4290,
      "cis": 4291,
      "rif": 4292,
      "ulf": 4293,
      "Ġtro": 4294,
      "ĠHenry": 4295,
      "va": 4296,
      "ca": 4297,
      "atin": 4298,
      "Ġslight": 4299,
      "YOU": 4300,
      "rial": 4301,
      "ĠLaw": 4302,
      "edy": 4303,
      "Ġtrade": 4304,
      "IR": 4305,
      "Ġlots": 4306,
      "ĠBrazil": 4307,
      "ĠChan": 4308,
      "iana": 4309,
      "Ġsurface": 4310,
      "BC": 4311,
      "Ġstrength": 4312,
      "Ġ2003": 4313,
      "Ġsle": 4314,
      "Ġdangerous": 4315,
      "Ġrate": 4316,
      "Ġbound": 4317,
      "lected": 4318,
      "Ġaccording": 4319,
      "Ġchick": 4320,
      "ictor": 4321,
      "Ġachie": 4322,
      "Ġdirection": 4323,
      "Put": 4324,
      "Ġlink": 4325,
      "Ġsoldiers": 4326,
      "uf": 4327,
      "Ġsatisf": 4328,
      "Ġhide": 4329,
      "Ġloss": 4330,
      "alled": 4331,
      "Ġeasily": 4332,
      "Che": 4333,
      "ĠBob": 4334,
      "Ġdebut": 4335,
      "Ġmemory": 4336,
      "Ġletters": 4337,
      "uke": 4338,
      "Wow": 4339,
      "isters": 4340,
      "Ġcalls": 4341,
      "ĠSov": 4342,
      "icate": 4343,
      "Ġknowledge": 4344,
      "ĠGold": 4345,
      "ashion": 4346,
      "Ġrecorded": 4347,
      "upp": 4348,
      "LA": 4349,
      "Ġpressure": 4350,
      "Ġsac": 4351,
      "Ġdesp": 4352,
      "ĠBrown": 4353,
      "Ġrub": 4354,
      "Ġproperty": 4355,
      "Ġnotice": 4356,
      "ĠMat": 4357,
      "izing": 4358,
      "ademy": 4359,
      "Ġ2002": 4360,
      "Ġmissing": 4361,
      "ĠTHAT": 4362,
      "Ġmir": 4363,
      "mar": 4364,
      "ĠSoviet": 4365,
      "ange": 4366,
      "ĠDO": 4367,
      "Ġstudent": 4368,
      "25": 4369,
      "lam": 4370,
      "Ġnewsp": 4371,
      "Ġtwelve": 4372,
      "Ġempt": 4373,
      "Ġspe": 4374,
      "Ġcru": 4375,
      "cause": 4376,
      "Ġder": 4377,
      "Ġyouth": 4378,
      "Ġhasn": 4379,
      "Ġrose": 4380,
      "ulations": 4381,
      "den": 4382,
      "ette": 4383,
      "ĠDay": 4384,
      "Ġload": 4385,
      "iring": 4386,
      "ĠDel": 4387,
      "ota": 4388,
      "Ġ2022": 4389,
      "Ġchoose": 4390,
      "Ġpet": 4391,
      "Ġfrequ": 4392,
      "Rem": 4393,
      "Ġproud": 4394,
      "Ġancient": 4395,
      "Ġteams": 4396,
      "ĠItaly": 4397,
      "Ġplaced": 4398,
      "ĠChicago": 4399,
      "Sha": 4400,
      "Ġcars": 4401,
      "ĠAnne": 4402,
      "isions": 4403,
      "Ġreb": 4404,
      "Ġbridge": 4405,
      "Ġentered": 4406,
      "Ġthinks": 4407,
      "Everything": 4408,
      "Got": 4409,
      "oseph": 4410,
      "UR": 4411,
      "ĠRoyal": 4412,
      "ĠSal": 4413,
      "Ġhors": 4414,
      "ĠTown": 4415,
      "Con": 4416,
      "ona": 4417,
      "rs": 4418,
      "Ġcoach": 4419,
      "Ġhonor": 4420,
      "Ġplayers": 4421,
      "abor": 4422,
      "Ġsignific": 4423,
      "enth": 4424,
      "Ġdollars": 4425,
      "vere": 4426,
      "down": 4427,
      "Ġintern": 4428,
      "Ġkitchen": 4429,
      "Ġanywhere": 4430,
      "Ġextreme": 4431,
      "Ġspring": 4432,
      "Ġmistake": 4433,
      "Ġcampaign": 4434,
      "Ġdropped": 4435,
      "zen": 4436,
      "ĠHere": 4437,
      "Those": 4438,
      "mark": 4439,
      "idden": 4440,
      "Ġflat": 4441,
      "Ġremain": 4442,
      "Ġren": 4443,
      "adian": 4444,
      "Ġforgot": 4445,
      "Fuck": 4446,
      "Bye": 4447,
      "vey": 4448,
      "oms": 4449,
      "Ġsecurity": 4450,
      "eless": 4451,
      "Ġ187": 4452,
      "Ġdegree": 4453,
      "Since": 4454,
      "ĠKen": 4455,
      "ĠPe": 4456,
      "Ġopin": 4457,
      "semb": 4458,
      "Ġweight": 4459,
      "Ġbrown": 4460,
      "Ġthroughout": 4461,
      "Ġcondition": 4462,
      "Ġdisease": 4463,
      "Ġlunch": 4464,
      "because": 4465,
      "Keep": 4466,
      "Americ": 4467,
      "History": 4468,
      "Ġcaptain": 4469,
      "igned": 4470,
      "ours": 4471,
      "Ġbigger": 4472,
      "ENT": 4473,
      "Ad": 4474,
      "Ġbirds": 4475,
      "Ġbab": 4476,
      "Ġwhis": 4477,
      "ĠFirst": 4478,
      "Ġincludes": 4479,
      "Ġleading": 4480,
      "Ġqual": 4481,
      "gypt": 4482,
      "ĠCarol": 4483,
      "Ġpolicy": 4484,
      "Ġtaught": 4485,
      "Le": 4486,
      "Ġabsolutely": 4487,
      "Ġvictim": 4488,
      "Ġunless": 4489,
      "sing": 4490,
      "itect": 4491,
      "Ġdamn": 4492,
      "Ġgradu": 4493,
      "Ġopportunity": 4494,
      "Lea": 4495,
      "VER": 4496,
      "Ġwriter": 4497,
      "Great": 4498,
      "Ġfamilies": 4499,
      "ĠPeople": 4500,
      "Ġcentral": 4501,
      "iety": 4502,
      "Ġhouses": 4503,
      "aled": 4504,
      "Ġsystems": 4505,
      "Ġmum": 4506,
      "ĠSar": 4507,
      "Hold": 4508,
      "stitute": 4509,
      "ĠAssoci": 4510,
      "Ġsurprise": 4511,
      "ipe": 4512,
      "Ġblock": 4513,
      "ĠThank": 4514,
      "Ġcorrect": 4515,
      "Ġmagaz": 4516,
      "Ġguard": 4517,
      "Ġstudied": 4518,
      "Ġstaff": 4519,
      "Ġeventually": 4520,
      "Ġrom": 4521,
      "Ġsurr": 4522,
      "ĠDiv": 4523,
      "ĠGO": 4524,
      "Ġshoes": 4525,
      "ĠJoe": 4526,
      "iverse": 4527,
      "Ġrisk": 4528,
      "ĠFred": 4529,
      "ato": 4530,
      "ĠIll": 4531,
      "Ġcities": 4532,
      "win": 4533,
      "icious": 4534,
      "ube": 4535,
      "Ġforty": 4536,
      "Ġge": 4537,
      "gn": 4538,
      "ĠCath": 4539,
      "Ġprovince": 4540,
      "Ġobviously": 4541,
      "199": 4542,
      "Ġnote": 4543,
      "Ġgrowing": 4544,
      "Ġprince": 4545,
      "Ġmedical": 4546,
      "Ġworried": 4547,
      "En": 4548,
      "anta": 4549,
      "Ġ1970": 4550,
      "hal": 4551,
      "Ġsmaller": 4552,
      "Ġconstit": 4553,
      "Ġbeg": 4554,
      "esty": 4555,
      "Ġvan": 4556,
      "Tom": 4557,
      "otion": 4558,
      "Ġbecomes": 4559,
      "roat": 4560,
      "Ġmm": 4561,
      "Ġescape": 4562,
      "Ġpock": 4563,
      "Ġdriving": 4564,
      "when": 4565,
      "Ġuses": 4566,
      "Ġmurd": 4567,
      "reci": 4568,
      "ĠDes": 4569,
      "Ġmagn": 4570,
      "bes": 4571,
      "Ġthou": 4572,
      "umber": 4573,
      "Ġteach": 4574,
      "Ġforced": 4575,
      "ĠWil": 4576,
      "estival": 4577,
      "Ġremained": 4578,
      "Ã¨": 4579,
      "ĠSing": 4580,
      "Ġlaid": 4581,
      "Ġcancer": 4582,
      "Ġmanager": 4583,
      "Ġtrip": 4584,
      "Ġenter": 4585,
      "Ġruns": 4586,
      "asy": 4587,
      "Ġhighest": 4588,
      "Ġslowly": 4589,
      "Ġresults": 4590,
      "Ġstudio": 4591,
      "Ġdisp": 4592,
      "ĠBay": 4593,
      "Ġtypes": 4594,
      "Ġoccup": 4595,
      "Ġscreen": 4596,
      "ĠScot": 4597,
      "Ġprovide": 4598,
      "ĠMany": 4599,
      "Ġpush": 4600,
      "Ġagreed": 4601,
      "Ġmultip": 4602,
      "--------": 4603,
      "_,": 4604,
      "Se": 4605,
      "ruit": 4606,
      "Ġchallen": 4607,
      "Ġsmile": 4608,
      "Ġbrothers": 4609,
      "Ġmentioned": 4610,
      "Ġimpossible": 4611,
      "Ġpicked": 4612,
      "Ġparticularly": 4613,
      "Ġamazing": 4614,
      "mit": 4615,
      "Ġlucky": 4616,
      "ĠSmith": 4617,
      "Ġkinds": 4618,
      "kins": 4619,
      "Alright": 4620,
      "Ġnation": 4621,
      "Ġopening": 4622,
      "Ġbreath": 4623,
      "Ġgrass": 4624,
      "edom": 4625,
      "yr": 4626,
      "Ġthus": 4627,
      "Ġ00": 4628,
      "tained": 4629,
      "Ġinterview": 4630,
      "ĠCom": 4631,
      "CK": 4632,
      "ĠHE": 4633,
      "icles": 4634,
      "Ġexpected": 4635,
      "New": 4636,
      "Ġactress": 4637,
      "Ġnomin": 4638,
      "odes": 4639,
      "host": 4640,
      "Ġheaven": 4641,
      "ĠEr": 4642,
      "aches": 4643,
      "ĠMo": 4644,
      "Ġcurrently": 4645,
      "Ġsaved": 4646,
      "Ġplans": 4647,
      "Ġartist": 4648,
      "ĠJer": 4649,
      "rael": 4650,
      "rough": 4651,
      "law": 4652,
      "Ġcro": 4653,
      "gent": 4654,
      "Ġvote": 4655,
      "Ġuniversity": 4656,
      "Ġma": 4657,
      "ications": 4658,
      "'.": 4659,
      "bered": 4660,
      "Ġwearing": 4661,
      "Ġplanet": 4662,
      "Something": 4663,
      "oken": 4664,
      "Ġinvent": 4665,
      "Mom": 4666,
      "ulous": 4667,
      "Ġhungry": 4668,
      "imin": 4669,
      "Ooh": 4670,
      "Ġweird": 4671,
      "ucky": 4672,
      "Ġbread": 4673,
      "Ġcode": 4674,
      "andy": 4675,
      "Ġpleasure": 4676,
      "Ġheat": 4677,
      "Ġplane": 4678,
      "rang": 4679,
      "Ġforth": 4680,
      "Ġaddition": 4681,
      "Ġperformance": 4682,
      "Ġfirm": 4683,
      "Ġhole": 4684,
      "ĠLittle": 4685,
      "Ġuncle": 4686,
      "ĠWin": 4687,
      "Ġelectric": 4688,
      "Ġcompetition": 4689,
      "have": 4690,
      "ION": 4691,
      "Pr": 4692,
      "aked": 4693,
      "Miss": 4694,
      "ips": 4695,
      "Ġlarger": 4696,
      "Ġshad": 4697,
      "Ġmission": 4698,
      "Ġleaders": 4699,
      "Ġminus": 4700,
      "Ġindustry": 4701,
      "will": 4702,
      "Ġshout": 4703,
      "Ġbreakfast": 4704,
      "Ġhill": 4705,
      "Ġtyp": 4706,
      "Ġwinter": 4707,
      "Ġconcept": 4708,
      "ĠEgypt": 4709,
      "istry": 4710,
      "Ġdesigned": 4711,
      "Act": 4712,
      "arrow": 4713,
      "ĠBur": 4714,
      "Ġgenerally": 4715,
      "Ġrough": 4716,
      "astern": 4717,
      "Ġreported": 4718,
      "Ġblind": 4719,
      "ĠCentral": 4720,
      "Ġstarts": 4721,
      "Char": 4722,
      "Ġpoet": 4723,
      "then": 4724,
      "Ġshape": 4725,
      "Ġrelated": 4726,
      "ĠBet": 4727,
      "Ġsusp": 4728,
      "Ġtoward": 4729,
      "Ġfinger": 4730,
      "Ġstuck": 4731,
      "ĠSun": 4732,
      "Ġstructure": 4733,
      "ĠRock": 4734,
      "stood": 4735,
      "ĠFather": 4736,
      "Ġcompanies": 4737,
      "vell": 4738,
      "Ġ1999": 4739,
      "Ġbrief": 4740,
      "ican": 4741,
      "Ġprevent": 4742,
      "Ġlikes": 4743,
      "vi": 4744,
      "ĠThomas": 4745,
      "Ġsmart": 4746,
      "friend": 4747,
      "Ġhurry": 4748,
      "ĠIr": 4749,
      "Ġweather": 4750,
      "Ġcomplet": 4751,
      "ĠPrin": 4752,
      "iqu": 4753,
      "Ġtape": 4754,
      "ĠLee": 4755,
      "Ġpaint": 4756,
      "ighs": 4757,
      "agn": 4758,
      "Ġcitiz": 4759,
      "60": 4760,
      "âĻ«": 4761,
      "Ġsides": 4762,
      "Ġgreatest": 4763,
      "Ġlearning": 4764,
      "isl": 4765,
      "Ġfinan": 4766,
      "ĠMom": 4767,
      "Ġstrugg": 4768,
      "Ġdefinitely": 4769,
      "ĠAcademy": 4770,
      "osh": 4771,
      "Ġya": 4772,
      "Ġfeatures": 4773,
      "cend": 4774,
      "Ġhotel": 4775,
      "Ġperformed": 4776,
      "ishes": 4777,
      "Ġfright": 4778,
      "Ġbal": 4779,
      "Ġtransl": 4780,
      "Three": 4781,
      "ĠVirginia": 4782,
      "Ġculture": 4783,
      "ĠMet": 4784,
      "Ġaware": 4785,
      "fessor": 4786,
      "Ġcentre": 4787,
      "Ġhorses": 4788,
      "Ġforms": 4789,
      "Ġsen": 4790,
      "Ġpair": 4791,
      "Ġiron": 4792,
      "Ġforeign": 4793,
      "ansas": 4794,
      "Ġnegative": 4795,
      "Ġplants": 4796,
      "Ġissues": 4797,
      "Ġspeech": 4798,
      "ĠAtl": 4799,
      "ola": 4800,
      "Ġremark": 4801,
      "Ġsch": 4802,
      "Huh": 4803,
      "Ġpowerful": 4804,
      "Ġvac": 4805,
      "Ġevil": 4806,
      "Ġretired": 4807,
      "ening": 4808,
      "Ġsilver": 4809,
      "ĠRoad": 4810,
      "Ġfilled": 4811,
      "Ġjudge": 4812,
      "Ġsection": 4813,
      "ĠGreek": 4814,
      "hered": 4815,
      "Ġsource": 4816,
      "ashed": 4817,
      "Ġpatient": 4818,
      "Ġcrew": 4819,
      "Ġthick": 4820,
      "ĠBoy": 4821,
      "Ġgreater": 4822,
      "bre": 4823,
      "Ġduty": 4824,
      "ima": 4825,
      "ĠEmp": 4826,
      "IGHT": 4827,
      "Ġinstr": 4828,
      "Ġcomplex": 4829,
      "Ġphilos": 4830,
      "ĠMost": 4831,
      "Ġcrowd": 4832,
      "Ġsinging": 4833,
      "Ġchap": 4834,
      "Ġorders": 4835,
      "uten": 4836,
      "Ġconditions": 4837,
      "Ġcalm": 4838,
      "Ġbless": 4839,
      "Ġhandle": 4840,
      "Ġharm": 4841,
      "elle": 4842,
      "osite": 4843,
      "war": 4844,
      "OME": 4845,
      "Ġbasket": 4846,
      "Ġempty": 4847,
      "Ġturns": 4848,
      "Say": 4849,
      "from": 4850,
      "ĠFil": 4851,
      "Ġlack": 4852,
      "Ġexcl": 4853,
      "Ġcrack": 4854,
      "ĠMexico": 4855,
      "Ġrank": 4856,
      "ĠDid": 4857,
      "clock": 4858,
      "ĠAfrican": 4859,
      "ĠChampionship": 4860,
      "Once": 4861,
      "ĠArab": 4862,
      "Ġbloody": 4863,
      "icine": 4864,
      "Ġquarter": 4865,
      "Ġteeth": 4866,
      "Ġheads": 4867,
      "Ġserve": 4868,
      "Ġmut": 4869,
      "eck": 4870,
      "Ġsteal": 4871,
      "Ġoffered": 4872,
      "gged": 4873,
      "Ġreasons": 4874,
      "imately": 4875,
      "ĠFore": 4876,
      "LY": 4877,
      "urry": 4878,
      "ĠHill": 4879,
      "zz": 4880,
      "Ġmere": 4881,
      "ĠCont": 4882,
      "Ġedge": 4883,
      "ĠFox": 4884,
      "IF": 4885,
      "Ġbeauty": 4886,
      "Ġoriginally": 4887,
      "Ġwitness": 4888,
      "ĠCH": 4889,
      "ourney": 4890,
      "Ġspell": 4891,
      "Ġstandard": 4892,
      "Ġincrease": 4893,
      "Ġrealize": 4894,
      "yan": 4895,
      "utive": 4896,
      "ĠFin": 4897,
      "ĠMartin": 4898,
      "Ġjoy": 4899,
      "ĠCongress": 4900,
      "Ġopt": 4901,
      "Ġbiggest": 4902,
      "Ġourselves": 4903,
      "ĠWestern": 4904,
      "Ġneither": 4905,
      "ĠFlor": 4906,
      "Ġmale": 4907,
      "Ġbecoming": 4908,
      "fortun": 4909,
      "cons": 4910,
      "ockey": 4911,
      "ba": 4912,
      "Ġbasically": 4913,
      "sm": 4914,
      "usic": 4915,
      "odies": 4916,
      "Ġ31": 4917,
      "ĠSunday": 4918,
      "Ġ1960": 4919,
      "Ġmissed": 4920,
      "Ġneighbor": 4921,
      "Ġsake": 4922,
      "Ġ1998": 4923,
      "Ġtarget": 4924,
      "oma": 4925,
      "Ġcharacters": 4926,
      "Ġmeasure": 4927,
      "Ġordered": 4928,
      "Ġdivided": 4929,
      "ĠAustralian": 4930,
      "Ġchampions": 4931,
      "Ġrare": 4932,
      "Ġsymb": 4933,
      "Before": 4934,
      "24": 4935,
      "23": 4936,
      "CE": 4937,
      "Ġgrown": 4938,
      "Ġbitch": 4939,
      "craft": 4940,
      "low": 4941,
      "ĠHi": 4942,
      "ĠSuper": 4943,
      "iano": 4944,
      "Ġhardly": 4945,
      "Ġsuspect": 4946,
      "Other": 4947,
      "urday": 4948,
      "Ġladies": 4949,
      "ĠSea": 4950,
      "ĠProv": 4951,
      "Ġmedia": 4952,
      "Ġ1996": 4953,
      "Ġseparate": 4954,
      "OD": 4955,
      "peror": 4956,
      "Ġtransfer": 4957,
      "ĠSpain": 4958,
      "Ġdogs": 4959,
      "Ġjournal": 4960,
      "ĠVictor": 4961,
      "Ġresponsible": 4962,
      "ĠApp": 4963,
      "ros": 4964,
      "Ġcere": 4965,
      "ĠMother": 4966,
      "urb": 4967,
      "ĠFrancis": 4968,
      "itan": 4969,
      "Ġdecide": 4970,
      "Ġign": 4971,
      "ĠMaster": 4972,
      "anced": 4973,
      "ĠWood": 4974,
      "ĠCanadian": 4975,
      "Ġdare": 4976,
      "ĠTwo": 4977,
      "Ġkilling": 4978,
      "bur": 4979,
      "Ġreplaced": 4980,
      "Ġtight": 4981,
      "eds": 4982,
      "Ġnorthern": 4983,
      "Ġstatistics": 4984,
      "ĠSecret": 4985,
      "book": 4986,
      "rid": 4987,
      "Ġnetwork": 4988,
      "Ġadult": 4989,
      "Ġactive": 4990,
      "Ġtotally": 4991,
      "Ġvot": 4992,
      "Ġacting": 4993,
      "Ġremind": 4994,
      "oned": 4995,
      "ga": 4996,
      "ĠCat": 4997,
      "rate": 4998,
      "rees": 4999,
      "Ġmechan": 5000,
      "Perhaps": 5001,
      "Ġgay": 5002,
      "Ġforever": 5003,
      "ado": 5004,
      "ĠAssociation": 5005,
      "Ġlegal": 5006,
      "Ġprevious": 5007,
      "Ġconnect": 5008,
      "uan": 5009,
      "ĠLos": 5010,
      "Ġcommer": 5011,
      "Ġdirectly": 5012,
      "rib": 5013,
      "ĠRussia": 5014,
      "ĠTor": 5015,
      "aging": 5016,
      "Ġox": 5017,
      "ooth": 5018,
      "ĠRome": 5019,
      "Ġeggs": 5020,
      "Ġdocument": 5021,
      "Ġunit": 5022,
      "Ġpromised": 5023,
      "Ġphysical": 5024,
      "Ġlies": 5025,
      "aret": 5026,
      "rated": 5027,
      "Ġcouncil": 5028,
      "umn": 5029,
      "Ġamb": 5030,
      "Ġcritic": 5031,
      "Mrs": 5032,
      "Ġwaste": 5033,
      "Ġterrit": 5034,
      "Ġgentlemen": 5035,
      "Ġwine": 5036,
      "Ġwilling": 5037,
      "Ġprove": 5038,
      "ishop": 5039,
      "Ġturning": 5040,
      "ĠCatholic": 5041,
      "may": 5042,
      "Ġcuri": 5043,
      "Ġarchitect": 5044,
      "Ġclearly": 5045,
      "boy": 5046,
      "ault": 5047,
      "said": 5048,
      "heart": 5049,
      "Ġnoise": 5050,
      "Ġfailed": 5051,
      "Ġmeat": 5052,
      "Ġcopy": 5053,
      "ĠIre": 5054,
      "Ġorganization": 5055,
      "Ġsilly": 5056,
      "Ġwake": 5057,
      "Ġsaf": 5058,
      "isher": 5059,
      "lder": 5060,
      "Ġju": 5061,
      "Ġdelight": 5062,
      "ĠJud": 5063,
      "EE": 5064,
      "ĠGet": 5065,
      "hia": 5066,
      "Ġlawyer": 5067,
      "Ġcamera": 5068,
      "Ġflight": 5069,
      "imp": 5070,
      "ĠConf": 5071,
      "Ġonto": 5072,
      "Ġresour": 5073,
      "Ġinstit": 5074,
      "Ġzero": 5075,
      "Ġseconds": 5076,
      "Ġcontribut": 5077,
      "Ġreligious": 5078,
      "Ġtaste": 5079,
      "Ġimage": 5080,
      "Ġtransport": 5081,
      "Ġcontent": 5082,
      "80": 5083,
      "Ġscream": 5084,
      "aughed": 5085,
      "Ġears": 5086,
      "Ġappointed": 5087,
      "uman": 5088,
      "Ind": 5089,
      "Ġcontr": 5090,
      "ĠFar": 5091,
      "Ġmotor": 5092,
      "Ġsuc": 5093,
      "Ġflying": 5094,
      "CT": 5095,
      "pre": 5096,
      "ĠBig": 5097,
      "Ġinfluence": 5098,
      "iger": 5099,
      "ali": 5100,
      "ctions": 5101,
      "ĠRev": 5102,
      "ĠIsrael": 5103,
      "Ġninet": 5104,
      "Ġappreci": 5105,
      "Ġsurprised": 5106,
      "Ġbother": 5107,
      "Ġproduce": 5108,
      "elcome": 5109,
      "ĠHam": 5110,
      "Ġtechnology": 5111,
      "Ġintroduced": 5112,
      "Isn": 5113,
      "Ġcandid": 5114,
      "Ġkick": 5115,
      "Ġlock": 5116,
      "Ġroof": 5117,
      "Ġpulled": 5118,
      "\"?": 5119,
      "some": 5120,
      "osen": 5121,
      "lig": 5122,
      "RI": 5123,
      "Ġdivision": 5124,
      "ĠMaj": 5125,
      "Ġconcerned": 5126,
      "iance": 5127,
      "ĠKar": 5128,
      "comm": 5129,
      "Ġpattern": 5130,
      "elly": 5131,
      "Bet": 5132,
      "Ġkeeping": 5133,
      "Ġbuildings": 5134,
      "Ġlibr": 5135,
      "Ġindependent": 5136,
      "Ġsouthern": 5137,
      "Help": 5138,
      "Ġwet": 5139,
      "ĠNat": 5140,
      "Ġsucceed": 5141,
      "Ġeasier": 5142,
      "Nice": 5143,
      "aded": 5144,
      "arently": 5145,
      "Ġepisode": 5146,
      "km": 5147,
      "arry": 5148,
      "ĠDen": 5149,
      "ura": 5150,
      "Ġdestroyed": 5151,
      "ĠWI": 5152,
      "Ġlanguages": 5153,
      "Ġprepared": 5154,
      "27": 5155,
      "Cos": 5156,
      "resp": 5157,
      "Ġ1995": 5158,
      "ĠLady": 5159,
      "inois": 5160,
      "Ġloud": 5161,
      "agon": 5162,
      "Ġopinion": 5163,
      "Ġasleep": 5164,
      "Most": 5165,
      "ĠMill": 5166,
      "ĠCenter": 5167,
      "nces": 5168,
      "Ag": 5169,
      "your": 5170,
      "ĠMel": 5171,
      "place": 5172,
      "Ġadop": 5173,
      "Ġ1994": 5174,
      "ĠCompany": 5175,
      "Ġdrunk": 5176,
      "Ġcrying": 5177,
      "Ġpit": 5178,
      "Ġmeas": 5179,
      "Remember": 5180,
      "rig": 5181,
      "Ġlistening": 5182,
      "Ġbomb": 5183,
      "ani": 5184,
      "idents": 5185,
      "part": 5186,
      "col": 5187,
      "Fine": 5188,
      "Ġrecently": 5189,
      "Ġsports": 5190,
      "Ġremem": 5191,
      "him": 5192,
      "Ġdemon": 5193,
      "Ġexperien": 5194,
      "Ġquality": 5195,
      "ĠGovernment": 5196,
      "ushing": 5197,
      "Ġpalace": 5198,
      "Ġanal": 5199,
      "ĠAngeles": 5200,
      "ĠDa": 5201,
      "Ġscar": 5202,
      "Ġpil": 5203,
      "Ġinsp": 5204,
      "Ġplat": 5205,
      "Over": 5206,
      "owed": 5207,
      "ĠFlorida": 5208,
      "sed": 5209,
      "Ġteaching": 5210,
      "uals": 5211,
      "ĠDis": 5212,
      "Ġlaughing": 5213,
      "Ġcart": 5214,
      "About": 5215,
      "Ġlaughed": 5216,
      "Ġactual": 5217,
      "During": 5218,
      "Ear": 5219,
      "Ġleague": 5220,
      "Ġveh": 5221,
      "ĠChief": 5222,
      "Ġodd": 5223,
      "ella": 5224,
      "Ġcloud": 5225,
      "onds": 5226,
      "ender": 5227,
      "Ha": 5228,
      "Mic": 5229,
      "ĠLake": 5230,
      "ĠBecause": 5231,
      "Ġmetal": 5232,
      "Ġjourney": 5233,
      "Ġgrant": 5234,
      "Ġswear": 5235,
      "Ġ60": 5236,
      "ĠTheir": 5237,
      "utenant": 5238,
      "abeth": 5239,
      "orter": 5240,
      "ĠMer": 5241,
      "aud": 5242,
      "Ok": 5243,
      "Ġdying": 5244,
      "kend": 5245,
      "ennis": 5246,
      "Ph": 5247,
      "rick": 5248,
      "wing": 5249,
      "Ġworst": 5250,
      "Ġthrew": 5251,
      "ĠBest": 5252,
      "Ġmagic": 5253,
      "Ġfavour": 5254,
      "add": 5255,
      "Ġmanaged": 5256,
      "Ġmainly": 5257,
      "azz": 5258,
      "Ġrecords": 5259,
      "Ġmaid": 5260,
      "tering": 5261,
      "Nobody": 5262,
      "Ġknock": 5263,
      "Ġtrial": 5264,
      "ardon": 5265,
      "ĠRay": 5266,
      "Ġfixed": 5267,
      "Ġsleeping": 5268,
      "Ġappears": 5269,
      "quar": 5270,
      "Ġpossibly": 5271,
      "atre": 5272,
      "ĠUK": 5273,
      "ropical": 5274,
      "ĠServ": 5275,
      "Ġdreams": 5276,
      "De": 5277,
      "Ġpound": 5278,
      "Ġsteps": 5279,
      "Ġsequ": 5280,
      "achel": 5281,
      "ym": 5282,
      "alright": 5283,
      "Ġplanning": 5284,
      "uries": 5285,
      "Ġpure": 5286,
      "Ġresist": 5287,
      "Ġadvant": 5288,
      "Ġwatched": 5289,
      "ĠSaint": 5290,
      "ĠGovernor": 5291,
      "two": 5292,
      "ooper": 5293,
      "ĠWomen": 5294,
      "oured": 5295,
      "ĠDutch": 5296,
      "Ġstream": 5297,
      "eare": 5298,
      "ĠDick": 5299,
      "Ġusual": 5300,
      "icide": 5301,
      "aving": 5302,
      "oles": 5303,
      "jo": 5304,
      "ANT": 5305,
      "ĠDepartment": 5306,
      "Ġawful": 5307,
      "App": 5308,
      "Ġscore": 5309,
      "Ġshowing": 5310,
      "cellent": 5311,
      "Ġdrew": 5312,
      "ĠBu": 5313,
      "Ġprovided": 5314,
      "Ġplain": 5315,
      "vis": 5316,
      "Ġ1992": 5317,
      "Ne": 5318,
      "onse": 5319,
      "Ġhadn": 5320,
      "Ġlaws": 5321,
      "Ġdamage": 5322,
      "ĠSl": 5323,
      "hell": 5324,
      "Ġfashion": 5325,
      "ĠBritain": 5326,
      "ua": 5327,
      "Today": 5328,
      "Ġbuck": 5329,
      "bel": 5330,
      "Ġpartner": 5331,
      "American": 5332,
      "ctors": 5333,
      "ĠHaw": 5334,
      "Ġ1997": 5335,
      "ĠCast": 5336,
      "Ġburied": 5337,
      "urance": 5338,
      "Ġgir": 5339,
      "Ġends": 5340,
      "ĠOther": 5341,
      "ĠFOR": 5342,
      "Ġcoat": 5343,
      "Ġknowing": 5344,
      "Ġcircum": 5345,
      "enced": 5346,
      "itzer": 5347,
      "ĠSil": 5348,
      "alent": 5349,
      "iously": 5350,
      "mother": 5351,
      "ĠEmpire": 5352,
      "Ġmanner": 5353,
      "Ġgro": 5354,
      "Â¶": 5355,
      "ĠWal": 5356,
      "Ġgrave": 5357,
      "Ġstayed": 5358,
      "cles": 5359,
      "Ġfeels": 5360,
      "Ġyounger": 5361,
      "Ġnuc": 5362,
      "Ġspoken": 5363,
      "ĠYoung": 5364,
      "rier": 5365,
      "Ġeverywhere": 5366,
      "Ġexpression": 5367,
      "Ġofficers": 5368,
      "ĠRE": 5369,
      "Ġfeelings": 5370,
      "Ġappearance": 5371,
      "Ġinha": 5372,
      "Ġconstruction": 5373,
      "aura": 5374,
      "owing": 5375,
      "Ġowned": 5376,
      "Ġfingers": 5377,
      "yo": 5378,
      "Ġremains": 5379,
      "Ġconversation": 5380,
      "Ġwalls": 5381,
      "Ġast": 5382,
      "Ġdom": 5383,
      "Ġstudies": 5384,
      "Ġgift": 5385,
      "Ġmagazine": 5386,
      "ocol": 5387,
      "Ġassum": 5388,
      "rance": 5389,
      "Ġnoticed": 5390,
      "Ġdrag": 5391,
      "Ġpocket": 5392,
      "ja": 5393,
      "Ġrequired": 5394,
      "Ġmel": 5395,
      "orough": 5396,
      "ĠRad": 5397,
      "oving": 5398,
      "Ġexpress": 5399,
      "imum": 5400,
      "ĠClub": 5401,
      "Ġanx": 5402,
      "ĠDev": 5403,
      "heast": 5404,
      "hey": 5405,
      "Ġeconomic": 5406,
      "ĠGeorg": 5407,
      "26": 5408,
      "Make": 5409,
      "Ġprem": 5410,
      "Ġsmoke": 5411,
      "ogether": 5412,
      "Ġrat": 5413,
      "Ġtong": 5414,
      "Ġlocation": 5415,
      "OH": 5416,
      "Ġstock": 5417,
      "ĠStan": 5418,
      "Ġdirty": 5419,
      "Ġbutter": 5420,
      "Ġ1993": 5421,
      "Ġsect": 5422,
      "Ġalt": 5423,
      "Ġreact": 5424,
      "Ġduck": 5425,
      "Ġupset": 5426,
      "Ġtroops": 5427,
      "Ġchamp": 5428,
      "lyn": 5429,
      "ĠAh": 5430,
      "ĠSummer": 5431,
      "ĠAng": 5432,
      "ios": 5433,
      "lying": 5434,
      "Ġce": 5435,
      "Ġcous": 5436,
      "utions": 5437,
      "ĠIllinois": 5438,
      "OP": 5439,
      "ĠMur": 5440,
      "Ġguns": 5441,
      "Ġpapers": 5442,
      "Ġloves": 5443,
      "leg": 5444,
      "Ġoccasion": 5445,
      "ties": 5446,
      "Ġwinning": 5447,
      "AVE": 5448,
      "Sometimes": 5449,
      "ko": 5450,
      "Ġscrew": 5451,
      "Ġrequire": 5452,
      "orial": 5453,
      "Ġlosing": 5454,
      "ĠPak": 5455,
      "Ġprefer": 5456,
      "ournament": 5457,
      "OS": 5458,
      "Ġrequest": 5459,
      "pa": 5460,
      "Ġstret": 5461,
      "Ġdrama": 5462,
      "Ġcollection": 5463,
      "Ġreality": 5464,
      "Ġopposite": 5465,
      "ĠStud": 5466,
      "NOW": 5467,
      "Another": 5468,
      "ĠWE": 5469,
      "ĠThan": 5470,
      "ĠParliament": 5471,
      "Ġsem": 5472,
      "Ġoperation": 5473,
      "Ġreligion": 5474,
      "Leave": 5475,
      "ĠRog": 5476,
      "Ġwheel": 5477,
      "Ġrestaur": 5478,
      "ĠIreland": 5479,
      "sembly": 5480,
      "ĠAunt": 5481,
      "Shut": 5482,
      "IE": 5483,
      "Ġthee": 5484,
      "ĠAmericans": 5485,
      "ingu": 5486,
      "ĠTim": 5487,
      "Ġminor": 5488,
      "More": 5489,
      "ĠHa": 5490,
      "Ġbye": 5491,
      "Ġautom": 5492,
      "aring": 5493,
      "cel": 5494,
      "Ġimprove": 5495,
      "Think": 5496,
      "foot": 5497,
      "Ġunits": 5498,
      "ĠKent": 5499,
      "ĠGames": 5500,
      "ĠHon": 5501,
      "Ġbottle": 5502,
      "Ġprogress": 5503,
      "Ġcake": 5504,
      "Ġencour": 5505,
      "Ġfile": 5506,
      "lict": 5507,
      "Ġdepart": 5508,
      "Ġcompleted": 5509,
      "ands": 5510,
      "Ġscr": 5511,
      "Ġfinding": 5512,
      "Ġcells": 5513,
      "Ġinnoc": 5514,
      "ĠVer": 5515,
      "iest": 5516,
      "Ġtrick": 5517,
      "Ġmusical": 5518,
      "Ġintellig": 5519,
      "enny": 5520,
      "ĠMajor": 5521,
      "Ġdriver": 5522,
      "Actually": 5523,
      "ĠBa": 5524,
      "ulty": 5525,
      "Ġrelative": 5526,
      "Ġsli": 5527,
      "ĠPan": 5528,
      "ĠGre": 5529,
      "Ġgall": 5530,
      "Stay": 5531,
      "Ġexcuse": 5532,
      "ĠMass": 5533,
      "ĠCamp": 5534,
      "Ġtreatment": 5535,
      "Ġprec": 5536,
      "Ġfavorite": 5537,
      "Ġtraditional": 5538,
      "ĠLook": 5539,
      "Ġability": 5540,
      "Ġraise": 5541,
      "Ġhelping": 5542,
      "ĠPrime": 5543,
      "keep": 5544,
      "Ġeffort": 5545,
      "ĠSqu": 5546,
      "oking": 5547,
      "ĠJane": 5548,
      "Ġfought": 5549,
      "Ġhumans": 5550,
      "Ġjoke": 5551,
      "ĠBas": 5552,
      "Everyone": 5553,
      "Anyway": 5554,
      "ching": 5555,
      "ĠRail": 5556,
      "Ġexerc": 5557,
      "Ġmo": 5558,
      "ĠDivision": 5559,
      "arian": 5560,
      "...?": 5561,
      "Ġmicro": 5562,
      "ois": 5563,
      "uit": 5564,
      "Ġjack": 5565,
      "Ġgiant": 5566,
      "owa": 5567,
      "Ġdrugs": 5568,
      "Ġ1991": 5569,
      "ĠGar": 5570,
      "asty": 5571,
      "Äģ": 5572,
      "enc": 5573,
      "Ġmatches": 5574,
      "ĠScotland": 5575,
      "Ġthousands": 5576,
      "Ġweekend": 5577,
      "emic": 5578,
      "onder": 5579,
      "Ġfan": 5580,
      "Ġbasis": 5581,
      "Ġthoughts": 5582,
      "Ġadvice": 5583,
      "Ġphilosop": 5584,
      "Ġtiny": 5585,
      "stitution": 5586,
      "ĠCle": 5587,
      "Ġflag": 5588,
      "ĠAnn": 5589,
      "ĠEvery": 5590,
      "Next": 5591,
      "Ġgate": 5592,
      "Ġstruck": 5593,
      "Ġfro": 5594,
      "ira": 5595,
      "Ġbast": 5596,
      "aning": 5597,
      "Ġwebs": 5598,
      "apa": 5599,
      "Ġguitar": 5600,
      "bet": 5601,
      "Ġlights": 5602,
      "ila": 5603,
      "ĠRight": 5604,
      "28": 5605,
      "rain": 5606,
      "Ġstatement": 5607,
      "Ġaffect": 5608,
      "Ġflower": 5609,
      "Cause": 5610,
      "ĠSus": 5611,
      "Ġchemical": 5612,
      "igg": 5613,
      "Ġuseful": 5614,
      "Ġtim": 5615,
      "acle": 5616,
      "Didn": 5617,
      "Ġwestern": 5618,
      "about": 5619,
      "Ġjobs": 5620,
      "UST": 5621,
      "aval": 5622,
      "ĠPrincess": 5623,
      "obile": 5624,
      "fall": 5625,
      "stead": 5626,
      "Ġships": 5627,
      "70": 5628,
      "iven": 5629,
      "Ġaltern": 5630,
      "ĠGroup": 5631,
      "Ġ185": 5632,
      "Ġforgotten": 5633,
      "Ġmatters": 5634,
      "ji": 5635,
      "Ġsin": 5636,
      "uted": 5637,
      "ĠOff": 5638,
      "water": 5639,
      "Ġnerv": 5640,
      "Ġsafety": 5641,
      "ufact": 5642,
      "Ġtun": 5643,
      "ĠGe": 5644,
      "ĠCons": 5645,
      "eral": 5646,
      "stra": 5647,
      "ache": 5648,
      "Ġetc": 5649,
      "While": 5650,
      "Ġthy": 5651,
      "El": 5652,
      "Ġye": 5653,
      "ĠCam": 5654,
      "thur": 5655,
      "Ġcloser": 5656,
      "Ġattend": 5657,
      "egr": 5658,
      "Ġflo": 5659,
      "Ġsword": 5660,
      "ĠMusic": 5661,
      "ano": 5662,
      "ĠBell": 5663,
      "aimed": 5664,
      "Ġfreedom": 5665,
      "abb": 5666,
      "29": 5667,
      "ĠCarl": 5668,
      "GE": 5669,
      "mond": 5670,
      "lfriend": 5671,
      "igan": 5672,
      "ĠOlympics": 5673,
      "while": 5674,
      "Ġbodies": 5675,
      "ĠSaturday": 5676,
      "RA": 5677,
      "Ġeffects": 5678,
      "Ġawarded": 5679,
      "ĠDire": 5680,
      "Ġninety": 5681,
      "Ġfal": 5682,
      "ĠDoctor": 5683,
      "Damn": 5684,
      "Sm": 5685,
      "ĠHel": 5686,
      "Ġreceive": 5687,
      "ias": 5688,
      "ĠHot": 5689,
      "Ġpresence": 5690,
      "Ġmotion": 5691,
      "iliar": 5692,
      "Call": 5693,
      "Ġfocus": 5694,
      "Ġsplit": 5695,
      "RY": 5696,
      "Ġrise": 5697,
      "ĠRose": 5698,
      "Ġdeclared": 5699,
      "ador": 5700,
      "ĠLatin": 5701,
      "ĠMike": 5702,
      "Ġgentleman": 5703,
      "However": 5704,
      "Ġaccepted": 5705,
      "Many": 5706,
      "Ġgolden": 5707,
      "Ġexchan": 5708,
      "ĠMax": 5709,
      "Ġnative": 5710,
      "stances": 5711,
      "olved": 5712,
      "load": 5713,
      "Ġminister": 5714,
      "Ġearn": 5715,
      "Ġbringing": 5716,
      "ĠDemocratic": 5717,
      "Ġselected": 5718,
      "Ġlect": 5719,
      "Ġthin": 5720,
      "MAN": 5721,
      "ĠWind": 5722,
      "gor": 5723,
      "erman": 5724,
      "Ġbare": 5725,
      "Ġtemperature": 5726,
      "abbit": 5727,
      "Ġdressed": 5728,
      "45": 5729,
      "ads": 5730,
      "ĠInstitute": 5731,
      "Ġtears": 5732,
      "Ġfinancial": 5733,
      "Ġgri": 5734,
      "ilty": 5735,
      "oops": 5736,
      "ailed": 5737,
      "Ġhearing": 5738,
      "Ġcredit": 5739,
      "ĠFoot": 5740,
      "Ġborder": 5741,
      "Ġsignal": 5742,
      "Ġresponse": 5743,
      "ĠKim": 5744,
      "Ġgraph": 5745,
      "ĠJoseph": 5746,
      "Ġcash": 5747,
      "Ġdarling": 5748,
      "Ġcream": 5749,
      "ĠMajesty": 5750,
      "Ġweapons": 5751,
      "Everybody": 5752,
      "Ġentirely": 5753,
      "Ġrecomm": 5754,
      "Ġafford": 5755,
      "ĠCommittee": 5756,
      "Ġbroadcast": 5757,
      "Ġsail": 5758,
      "Ġmate": 5759,
      "Ġrecent": 5760,
      "Out": 5761,
      "Ġmort": 5762,
      "aming": 5763,
      "Ġworkers": 5764,
      "Ġcontains": 5765,
      "Ġnewspaper": 5766,
      "ĠWhile": 5767,
      "zer": 5768,
      "ective": 5769,
      "Ġdivor": 5770,
      "Ġlips": 5771,
      "rd": 5772,
      "icient": 5773,
      "wan": 5774,
      "urse": 5775,
      ".)": 5776,
      "bury": 5777,
      "Ġ1989": 5778,
      "Ġexcited": 5779,
      "Ġchicken": 5780,
      "Ġfired": 5781,
      "hamber": 5782,
      "arring": 5783,
      "Ġfifteen": 5784,
      "uous": 5785,
      "iminal": 5786,
      "Ġauthority": 5787,
      "Ġsilence": 5788,
      "ĠLove": 5789,
      "Ġ1950": 5790,
      "Someone": 5791,
      "Ġperfectly": 5792,
      "Ġhyd": 5793,
      "car": 5794,
      "Ġboo": 5795,
      "Ġfalling": 5796,
      "Ġexperiment": 5797,
      "vin": 5798,
      "Ġcastle": 5799,
      "pret": 5800,
      "ervation": 5801,
      "Ġbillion": 5802,
      "Ġlic": 5803,
      "Whatever": 5804,
      "Christ": 5805,
      "Ġsignificant": 5806,
      "ysis": 5807,
      "isa": 5808,
      "Ġfaster": 5809,
      "ĠIm": 5810,
      "Ġmanagement": 5811,
      "elling": 5812,
      "Ġaim": 5813,
      "Ġdesire": 5814,
      "Ġactivity": 5815,
      "ĠIran": 5816,
      "rible": 5817,
      "sell": 5818,
      "35": 5819,
      "thank": 5820,
      "Ġrow": 5821,
      "Ġstreets": 5822,
      "Tw": 5823,
      "ĠHol": 5824,
      "ĠFer": 5825,
      "och": 5826,
      "Ġsugar": 5827,
      "vention": 5828,
      "Ġmajority": 5829,
      "Ġdrawing": 5830,
      "ulated": 5831,
      "Ġapproach": 5832,
      "ĠSince": 5833,
      "Ġcomment": 5834,
      "Ġboot": 5835,
      "Ġlabor": 5836,
      "chant": 5837,
      "Ġcarefully": 5838,
      "Ġdrinking": 5839,
      "inet": 5840,
      "aria": 5841,
      "Ġvari": 5842,
      ".]": 5843,
      "Ġfruit": 5844,
      "Ġconnected": 5845,
      "ĠSociety": 5846,
      "Ġsolution": 5847,
      "Ġnineteen": 5848,
      "BE": 5849,
      "ĠEdward": 5850,
      "Ġpool": 5851,
      "cont": 5852,
      "Ġsixty": 5853,
      "Ġbeach": 5854,
      "rant": 5855,
      "pet": 5856,
      "venue": 5857,
      "Ġpainting": 5858,
      "Ġsuck": 5859,
      "ĠSecretary": 5860,
      "Ġconcent": 5861,
      "stant": 5862,
      "Ġpin": 5863,
      "Ġqueen": 5864,
      "ĠOs": 5865,
      "Ġmedicine": 5866,
      "PE": 5867,
      "Ġrent": 5868,
      "ĠTw": 5869,
      "ipped": 5870,
      "Ġdiam": 5871,
      "Ġarrange": 5872,
      "ĠProfessor": 5873,
      "ĠDou": 5874,
      "odd": 5875,
      "Ġelement": 5876,
      "Ġkeeps": 5877,
      "Ġsettled": 5878,
      "Ġremoved": 5879,
      "Ġunderstood": 5880,
      "Ġah": 5881,
      "Ġfant": 5882,
      "eer": 5883,
      "ĠFre": 5884,
      "._": 5885,
      "La": 5886,
      "Ġupper": 5887,
      "ĠSee": 5888,
      "Ġkidding": 5889,
      "ummy": 5890,
      "Ġplanned": 5891,
      "Ġtough": 5892,
      "Ġfully": 5893,
      "Ġpotential": 5894,
      "Ġlake": 5895,
      "Ġsharp": 5896,
      "erves": 5897,
      "ulate": 5898,
      "acter": 5899,
      "Ġbranch": 5900,
      "izabeth": 5901,
      "OL": 5902,
      "zy": 5903,
      "ĠYear": 5904,
      "Ġcomedy": 5905,
      "ĠPlay": 5906,
      "Ġincreased": 5907,
      "Ġbasic": 5908,
      "Ġbeside": 5909,
      "Ġadvent": 5910,
      "ĠTrans": 5911,
      "Jack": 5912,
      "Ġlord": 5913,
      "ONE": 5914,
      "Ġhabit": 5915,
      "Should": 5916,
      "ĠBilly": 5917,
      "Ġprimary": 5918,
      "Ġscored": 5919,
      "Ġnumer": 5920,
      "spect": 5921,
      "Cap": 5922,
      "eman": 5923,
      "Ġotherwise": 5924,
      "Ġterror": 5925,
      "Ġmixed": 5926,
      "Ġdefend": 5927,
      "Ġhighly": 5928,
      "Ġprograms": 5929,
      "Ġmap": 5930,
      "Ġdim": 5931,
      "198": 5932,
      "Ġaudience": 5933,
      "Ġfederal": 5934,
      "Ġroy": 5935,
      "Ġapartment": 5936,
      "Ġchat": 5937,
      "Ġsexual": 5938,
      "wers": 5939,
      "Ġjail": 5940,
      "ĠRos": 5941,
      "Welcome": 5942,
      "pal": 5943,
      "Ġfigures": 5944,
      "ĠWAS": 5945,
      "ĠJackson": 5946,
      "Ġgoals": 5947,
      "Whoa": 5948,
      "illed": 5949,
      "ĠHello": 5950,
      "lar": 5951,
      "vest": 5952,
      "Hmm": 5953,
      "Ġmountains": 5954,
      "Ġpregn": 5955,
      "Ġprior": 5956,
      "Ġroles": 5957,
      "Ġdu": 5958,
      "Ġvictory": 5959,
      "Ġpleased": 5960,
      "obal": 5961,
      "Ġconsum": 5962,
      "Ġstatus": 5963,
      "Ġforgive": 5964,
      "ports": 5965,
      "inger": 5966,
      "AH": 5967,
      "nam": 5968,
      "ĠMuseum": 5969,
      "Ġkingdom": 5970,
      "ĠStar": 5971,
      "Ġpassing": 5972,
      "Ġcomfortable": 5973,
      "Ġtor": 5974,
      "hetic": 5975,
      "Ġfailure": 5976,
      "ĠPac": 5977,
      "uckles": 5978,
      "Ġpaying": 5979,
      "Ġfifth": 5980,
      "worth": 5981,
      "elled": 5982,
      "Ġgrab": 5983,
      "appy": 5984,
      "Ġsuggested": 5985,
      "orse": 5986,
      "osaur": 5987,
      "Ġarrested": 5988,
      "Ġchanging": 5989,
      "Ġdefeated": 5990,
      "porary": 5991,
      "37": 5992,
      "ivity": 5993,
      "Ġeighty": 5994,
      "Ġrapid": 5995,
      "KE": 5996,
      "Ġ(;": 5997,
      "Ġrailway": 5998,
      "<mask>": 5999
    },
    "merges": [
      "Ġ t",
      "h e",
      "Ġ a",
      "i n",
      "Ġt he",
      "r e",
      "Ġ w",
      "o u",
      "Ġ s",
      "o n",
      "e r",
      "h a",
      "n d",
      "i s",
      "i t",
      "Ġ b",
      "Ġ o",
      "Ġ c",
      "Ġ m",
      "Ġ f",
      "in g",
      "o r",
      "e d",
      "l l",
      "a n",
      "Ġ d",
      "e n",
      "Ġt o",
      "e s",
      "Ġ p",
      "Ġ y",
      "Ġo f",
      "a r",
      "Ġ in",
      "a t",
      "Ġy ou",
      "Ġa nd",
      "Ġ l",
      "ha t",
      "a s",
      "Ġ g",
      "o m",
      "Ġ n",
      "Ġ I",
      "i c",
      "o w",
      "v e",
      "l e",
      "o t",
      "a l",
      "Ġ h",
      "Ġ he",
      "e t",
      "u s",
      "Ġ ha",
      "' s",
      "a y",
      "Ġt h",
      "Ġ it",
      "Ġb e",
      "Ġ is",
      "Ġt hat",
      "Ġ on",
      "i on",
      "i d",
      "Ġ e",
      "g h",
      "l d",
      "en t",
      "Ġ re",
      "Ġw as",
      "u t",
      "i m",
      "a c",
      "Ġw e",
      "v er",
      "a m",
      "T he",
      "Ġf or",
      "Ġ S",
      "l y",
      ". .",
      "s t",
      "r i",
      "r o",
      "a d",
      "s e",
      "i r",
      "k e",
      "Ġs t",
      "Ġ .",
      "o o",
      "' t",
      "gh t",
      "Ġ A",
      "ou t",
      "Ġ C",
      "it h",
      "Ġm e",
      "Ġ M",
      "Ġ k",
      "Ġ u",
      "a ll",
      "Ġa n",
      "Ġw ith",
      "u r",
      "Ġd o",
      "Ġa s",
      "e c",
      "he r",
      "i ll",
      "t er",
      "i f",
      "Ġ Ġ",
      "Ġ H",
      "Ġw h",
      "c h",
      "om e",
      "c e",
      "Ġ 1",
      "Ġ B",
      "Ġa re",
      "i l",
      "Ġha ve",
      "Ġn ot",
      "Ġa t",
      "a nd",
      "Ġth is",
      "ou ld",
      "us t",
      "Ġs e",
      "Ġg o",
      "an t",
      "Ġ T",
      "Y ou",
      "Ġl i",
      "at ion",
      "Ġk n",
      "o p",
      "Ġ P",
      "e a",
      "a in",
      "u n",
      "Ġ W",
      "g e",
      "o l",
      "t h",
      "e ll",
      "u l",
      "r om",
      "Ġh is",
      "Ġ ,",
      "o re",
      "Ġkn ow",
      "Ġ \"",
      "Ġ j",
      "Ġ r",
      ".. .",
      "Ġ D",
      "ou r",
      "Ġn e",
      "p p",
      "Ġ G",
      "c t",
      "e l",
      "Ġc an",
      "u m",
      "Ġ ?",
      "is t",
      "Ġs o",
      "Ġyou r",
      "Ġ 2",
      "Ġa ll",
      "Ġthe y",
      "e m",
      "es t",
      "Ġm y",
      "Ġa l",
      "Ġ The",
      "Ġ L",
      "Ġ R",
      "Ġa b",
      "ar t",
      "er s",
      "Ġ F",
      "Ġb y",
      "Ġf rom",
      "es s",
      "Ġw hat",
      "Ġ N",
      "o s",
      "Ġs h",
      "a b",
      "Ġhe r",
      "n t",
      "Ġo r",
      "Ġon e",
      "Ġw he",
      "Ġc on",
      "i e",
      "Ġ J",
      "i ght",
      "i g",
      "Ġu p",
      "on e",
      "re d",
      "Ġthe re",
      "ha n",
      "' re",
      "Ġha d",
      "all y",
      "q u",
      "Ġs u",
      "â Ģ",
      "r y",
      "Ġc om",
      "r a",
      "Ġ out",
      "Ġb ut",
      "ac k",
      "Ġh im",
      "Ġw or",
      "oo d",
      "at e",
      "oo k",
      "ver y",
      "Ġp l",
      "re s",
      "Ġd e",
      "i ve",
      "Ġli ke",
      "Ġ (",
      "Ġ us",
      "a ke",
      "Ġs he",
      "' m",
      "o d",
      "am e",
      "on g",
      "Ġ E",
      "in k",
      "Ġp ro",
      "Ġs a",
      "I t",
      "Ġ1 9",
      "Ġab out",
      "Ġg et",
      "Ġ O",
      "Ġ v",
      "Ġe x",
      "in d",
      "Ġwe re",
      "as t",
      "ou nd",
      "or t",
      "ar d",
      "Ġd on",
      "c k",
      "it y",
      "Ġj ust",
      "A nd",
      "ri ght",
      "b er",
      "Ġs p",
      "e ar",
      "ic h",
      "H e",
      "Ġ2 0",
      "i es",
      "Ġd id",
      "ec t",
      "Ġwh o",
      "Ġhe re",
      "a k",
      "e p",
      "Ġn o",
      "ea h",
      "a p",
      "im e",
      "Ġthe m",
      "Ġw ant",
      "in e",
      "' ll",
      "Ġm an",
      "u d",
      "Ġ if",
      "Ġw ould",
      "Ġth ink",
      "Ġ '",
      "ou s",
      "v en",
      "Ġw ill",
      "W hat",
      "Ġs ome",
      "h ing",
      "ow n",
      "a g",
      "Ġin t",
      "Ġ K",
      "o st",
      "ic e",
      "it t",
      "Ġan y",
      "m ent",
      "ĠĠ ĠĠ",
      "Ġ right",
      "id e",
      "Ġha s",
      "h i",
      "ou gh",
      "Ġg ot",
      "us e",
      "ĠH e",
      "Ġse e",
      "t her",
      "Ġt r",
      "Ġwh ich",
      "Ġwhe n",
      "u re",
      "Ġa r",
      "Ġa g",
      "Ġs ay",
      "a re",
      "Ġt w",
      "e nd",
      "i v",
      "W e",
      "Ġbe en",
      "i an",
      "w ay",
      "Ġt ime",
      "- -",
      "ac e",
      "ĠI t",
      "i a",
      "Ġsa id",
      "o ve",
      "' ve",
      "Ġp e",
      "f f",
      "Ġbe c",
      "ic k",
      "Ġ U",
      "Ġn ow",
      "Ġc l",
      "s o",
      "o se",
      "a use",
      "Ġl ook",
      "l f",
      "op le",
      "n a",
      "is h",
      "Ġl e",
      "re at",
      "Ġm ore",
      "Ġthe ir",
      "ar y",
      "Ġgo ing",
      "ot her",
      "Y eah",
      "Ġthe n",
      "re e",
      "a ge",
      "Ġc ould",
      "S o",
      "N o",
      "u e",
      "Ġo ther",
      "Ġ =",
      "Ġb ack",
      "Ġo ver",
      "on d",
      "Ġof f",
      "it e",
      "ir st",
      "ĠS t",
      "h is",
      "ac t",
      "B ut",
      "Ġpe ople",
      "e w",
      "b le",
      "Ġ qu",
      "Ġg r",
      "or n",
      "Ġ ro",
      "ing s",
      "as s",
      "Ġwor k",
      "O h",
      "Ġ very",
      "p er",
      "Ġtw o",
      "ou nt",
      "0 0",
      "T hat",
      "f ter",
      "p t",
      "or d",
      "Ġg ood",
      "Ġb r",
      "Ġto o",
      "p l",
      "o g",
      "u b",
      "e re",
      "om et",
      "c i",
      "Ġ en",
      "Ġf irst",
      "an s",
      "as e",
      "itt le",
      "k ay",
      "er m",
      "Ġint o",
      "m er",
      "at ed",
      "i re",
      "o v",
      "ion s",
      "he d",
      "o ll",
      "al k",
      "o y",
      "Ġd own",
      "t he",
      "h y",
      "Ġh ow",
      "ad e",
      "Ġt han",
      "Ġy ear",
      "Ġu n",
      "Ġp art",
      "Ġw ay",
      "Ġp r",
      "Ġ our",
      "Ġa m",
      "w e",
      "Ġcom p",
      "i z",
      "ou ght",
      "Ġc all",
      "Ġl ittle",
      "Ġc ome",
      "Ġb l",
      "ĠI n",
      "Ġpl ay",
      "Ġal so",
      "Ġ im",
      "Ġon ly",
      "Ġ V",
      "at er",
      "nd er",
      "c c",
      "Ġwhe re",
      "ac h",
      "an ce",
      "Ġe very",
      "n e",
      "Ġag ain",
      "if e",
      "W ell",
      "n g",
      "ur n",
      "Ġa d",
      "ha r",
      "w n",
      "Ġs omet",
      "o c",
      "Ġ Y",
      "r u",
      "Ġd ay",
      "Ġne ed",
      "Ġb et",
      "Ġ20 1",
      "t y",
      "is s",
      "Ġf e",
      "he re",
      "u ch",
      ". \"",
      "res s",
      "a v",
      "Ġa ct",
      "Ġm ake",
      "Ġwe ll",
      "am p",
      "h o",
      "f ore",
      "Ġt ake",
      "en ce",
      "Ġa fter",
      "Ġg u",
      "se lf",
      "I n",
      "or y",
      "o h",
      "ab le",
      "an g",
      "Ġbec ause",
      "ar k",
      "Ġcon t",
      "Ġs c",
      "i p",
      "ic al",
      "a u",
      "Ġd is",
      "Ġt e",
      "ig n",
      "th ing",
      "in t",
      "Ġl et",
      "Ġre ally",
      "or m",
      "Ġsh ould",
      "u ck",
      "Ġp re",
      "ic t",
      "Ġt ell",
      "oo l",
      "Ġha pp",
      "at her",
      "Ġw r",
      "o b",
      "c l",
      "en s",
      "Ġth r",
      "on na",
      "Ġf l",
      "f t",
      "u ll",
      "i ed",
      "Ġa pp",
      "Ġu nder",
      "i al",
      "Ġthe se",
      "Ġm uch",
      "Ġdo es",
      "ul t",
      "Ġsomet hing",
      "T his",
      "Ġne w",
      "i le",
      "Ġre s",
      "Ġp ut",
      "od y",
      "Ġg onna",
      "Ġp o",
      "Ġp er",
      "Ġme an",
      "Ġm ade",
      "The y",
      "he n",
      "l es",
      "on s",
      "if f",
      "Ġl ong",
      "' d",
      "b e",
      "v ed",
      "Ġs er",
      "ĠU n",
      "o ld",
      "v ing",
      "Ġt alk",
      "l and",
      "Ġne ver",
      "Y es",
      "ation s",
      "S he",
      "t e",
      "Ġbe fore",
      "Ġ er",
      "Ġe ven",
      "Ġm ay",
      "k s",
      "d u",
      "i ly",
      "at es",
      "ĠC h",
      "o ck",
      "Ġit s",
      "p s",
      "ou se",
      "Ġc ar",
      "a il",
      "Ġb u",
      "t ing",
      "Ġdid n",
      "Ġre m",
      "Ġ âĢ",
      "Ġcom m",
      "Ġ 3",
      "p ort",
      "Ġ ke",
      "ad y",
      "The re",
      "Ġs m",
      "ver s",
      "Ġyear s",
      "at h",
      "it ion",
      "i ous",
      "y ou",
      "em ber",
      "or s",
      "is e",
      "i x",
      "re n",
      "Ġha nd",
      "w ard",
      "u ally",
      "âĢ Ŀ",
      "it ed",
      "Ġre c",
      "Ġhe l",
      "ve l",
      "Ġman y",
      "Ġthr ough",
      "ri ed",
      "Ġ20 0",
      "I f",
      "Ġo ld",
      "Ġs ec",
      "a w",
      "f ul",
      "g et",
      "r an",
      "Ġc h",
      "Ġth ing",
      "Ġm ost",
      "Ġst art",
      "Ġc han",
      "Ġth ree",
      "d ay",
      "Ġg reat",
      "Ġd iff",
      "p e",
      "in ce",
      "i gh",
      "Ġl ife",
      "Ġth ings",
      "a ve",
      "Ġth ought",
      "Ġf ound",
      "H ow",
      "Ġth ose",
      "Ġbe l",
      "â Ļ",
      "Ġst ill",
      "Ġs ha",
      "v es",
      "Ġa way",
      "w hat",
      "os s",
      "Ġd es",
      "Ġus ed",
      "Ġf ind",
      "t ain",
      "o ot",
      "` `",
      "Ġ' '",
      "Ġl ove",
      "e ver",
      "Ġm ust",
      "Ġh ome",
      "he s",
      "Ġ You",
      "Ġl ast",
      "ri end",
      "Ġhel p",
      "Ġdo ing",
      "Ġ i",
      "e e",
      "Ġc o",
      "im es",
      "Ġas k",
      "ent s",
      "Ġo wn",
      "Ġsh ow",
      "Ġc r",
      "hi ld",
      "Ġl ea",
      "mer ic",
      "le ase",
      "Ġw ent",
      "Ġg ive",
      "Ġ !",
      "u p",
      "Ġc ame",
      "x t",
      "Ġm in",
      "ation al",
      "one y",
      "Ġe nd",
      "âĢ Ļ",
      "ir l",
      "âĻ ª",
      "en ed",
      "Ġbe ing",
      "Ġat t",
      "Ġw on",
      "\" .",
      "Ġn ame",
      "ter n",
      "Ġc our",
      "g in",
      "ct ion",
      "ĠM r",
      "ĠS he",
      "Ġc ount",
      "c ed",
      "Ġcall ed",
      "ch ool",
      "m y",
      "n y",
      "Ġm ov",
      "Ġe ar",
      "a it",
      "g an",
      "Ġf am",
      "at ch",
      "D o",
      "ĠĠĠĠ ĠĠĠĠ",
      "al s",
      "m an",
      "Ġ1 8",
      "b ody",
      "Ġs ame",
      "N ow",
      "way s",
      "Ġc hild",
      "I N",
      "Ġd ec",
      "Ġc are",
      "on t",
      "c es",
      "Ġsu ch",
      "n ing",
      "l i",
      "ot h",
      "Ġk ind",
      "ĠM ar",
      "W hy",
      "Ġfe el",
      "id ent",
      "Ġt ry",
      "Ġb ig",
      "u g",
      "ĠA meric",
      "Ġhe ad",
      "Ġl ot",
      "Ġn ight",
      "ak ing",
      "Ġwor ld",
      "an y",
      "Ġsu pp",
      "Ġwh y",
      "i ld",
      "a ir",
      "Ġpl ace",
      "ha m",
      "Ġp ol",
      "f orm",
      "ers on",
      "Ġdiff ere",
      "E R",
      "s ide",
      "Ġw om",
      "Ġar ound",
      "Ġf in",
      "ĠB r",
      "Ġha r",
      "Ġf riend",
      "Ġn um",
      "ut e",
      "Ġm ar",
      "Ġk ill",
      "ĠA r",
      "s s",
      "L et",
      "at ing",
      "ur ing",
      ") .",
      "g r",
      "Ġus e",
      "as ed",
      "ow er",
      "Ġin d",
      "Ġa cc",
      "out h",
      "D on",
      "ub l",
      "Ġm ight",
      "Ġo p",
      "a h",
      "u nd",
      "Ġre g",
      "Ġan other",
      "\" ,",
      "Ġ 4",
      "Ġs et",
      "Ġs l",
      "Ġt urn",
      "Ġc he",
      "or ry",
      "Ġe le",
      "p ect",
      "en er",
      "we en",
      "Ġh ouse",
      "Ġal ways",
      "t s",
      "C ome",
      "ic s",
      "Ġre l",
      "y s",
      "Ġf our",
      "Ġa c",
      "cl ud",
      "i ble",
      "Ġany thing",
      "Ġg irl",
      "S t",
      "Ġle ft",
      ") ,",
      "A ll",
      "Ġbet ter",
      "u h",
      "Ġd one",
      "t hat",
      "Ġb it",
      "m b",
      "Ġsu re",
      "Ġp res",
      "v ent",
      "l ed",
      "Ġ19 9",
      "Ġs ur",
      "as on",
      "n ess",
      "a z",
      "ul ar",
      "p h",
      "p le",
      "Ġke ep",
      "Ġb oy",
      "Ġ 5",
      "Ġe l",
      "Ġs y",
      "g g",
      ", \"",
      "Ġr un",
      "d er",
      "ĠA nd",
      "i b",
      "au ght",
      "O kay",
      "u al",
      "Ġm on",
      "Ġfor m",
      "Ġre al",
      "Ġbet ween",
      "M y",
      "| |",
      "Ġbel ie",
      "oll ow",
      "ot t",
      "Ġto ld",
      "i o",
      "Ġknow n",
      "Ġsec ond",
      "ĠThe y",
      "e red",
      "ir d",
      "is hed",
      "ter s",
      "a le",
      "ar s",
      "Ġu nt",
      "y es",
      "Ġs chool",
      "Ġc har",
      "Ġwor d",
      "H E",
      "Ġst ud",
      "Ġm oney",
      "Ġd ist",
      "Ġe ver",
      "ĠN ew",
      "j ect",
      "Ġ ent",
      "Ġg l",
      "r ow",
      "Ġo b",
      "hi p",
      "He y",
      "n er",
      "Ġdiffere nt",
      "Ġre t",
      "Ġwh ile",
      "Ġm at",
      "or k",
      "I s",
      "re t",
      "b ut",
      "Ġm om",
      "Ġp erson",
      "Ġb o",
      "ĠA l",
      "ou n",
      "Ġb us",
      "ĠT his",
      "or th",
      "r ic",
      "ak es",
      "Ġin clud",
      "n o",
      "Ġpo int",
      "T han",
      "Ġsu b",
      "y e",
      "Ġcon s",
      "Ġo kay",
      "Ġd r",
      "N ot",
      "Ġm us",
      "Ġcour se",
      "A N",
      "ĠW hat",
      "O U",
      "Ġsp ec",
      "Ġst r",
      "Ġunt il",
      "ĠUn ited",
      "Ġ erm",
      "Ġas s",
      "Ġin v",
      "at ive",
      "ol og",
      "Ġb ook",
      "c y",
      "Ġu h",
      "Ġtoo k",
      "ĠĠ Ġ",
      "l ing",
      "ĠA n",
      "Ġm et",
      "it s",
      "Ġne xt",
      "W hen",
      "in s",
      "t on",
      "Ġm en",
      "Ġst op",
      "un e",
      "Ġc ent",
      "Ġs w",
      "st and",
      "Ġb est",
      "Ġw ar",
      "Ġin st",
      "Ġb oth",
      "Ġse em",
      "is ion",
      "Ġf ar",
      "Ġe ach",
      "Ġs ing",
      "Ġnot hing",
      "Ġf un",
      "a j",
      "Ġde p",
      "Ġwe e",
      "i er",
      "ĠG od",
      "Ġde f",
      "Ġc le",
      "ver n",
      "Ġb re",
      "it ies",
      "Ġc ha",
      "Ġw ater",
      "am es",
      "ce pt",
      "i red",
      "w here",
      "Ġnum ber",
      "u res",
      "op e",
      "Ġf ollow",
      "Ġp ass",
      "Ġf ather",
      "Ġsa w",
      "ĠAmeric an",
      "ĠA s",
      "ĠN o",
      "oh n",
      "Ġm other",
      "Ġl ater",
      "ĠâĢ ľ",
      "i vers",
      "Ġdoes n",
      "c er",
      "m s",
      "t o",
      "âĢ ľ",
      "Ġfam ily",
      "a x",
      "Ġ -",
      "Ġp h",
      "re w",
      "Ġl ist",
      "ea k",
      "Ġte am",
      "re am",
      "an k",
      "un g",
      "o k",
      "Ġpro du",
      "ro ss",
      "Ġl ar",
      "Ġ19 8",
      "e g",
      "b r",
      "Ġc ity",
      "Ġy eah",
      "os ed",
      "Ġin c",
      "Ġ 6",
      "Ġen ough",
      "IN G",
      "in ess",
      "O n",
      "Ġact ually",
      "1 9",
      "is ter",
      "J ust",
      "Ġel se",
      "Ġagain st",
      "m ber",
      "l ess",
      "Ġsm all",
      "Ġw ait",
      "Ġd ied",
      "ct or",
      "ot e",
      "Ġ --",
      "Ġc ap",
      "Ġse en",
      "Ġhar d",
      "in es",
      "Ġpro ble",
      "le t",
      "r ist",
      "ut h",
      "Ġh igh",
      "Ġp op",
      "Ġto get",
      "Ġtoget her",
      "Ġyou ng",
      "Ġim p",
      "ĠE ng",
      "ubl ic",
      "i et",
      "Ã ©",
      "Ġwith out",
      "o f",
      "e x",
      "W ho",
      "if ic",
      "Ġd ire",
      "om m",
      "ab ly",
      "Ġpl an",
      "Ġwant ed",
      "g er",
      "Ġbec ame",
      "Ġre f",
      "Ġs orry",
      "Ġad d",
      "ĠSt ates",
      "Ġf act",
      "Ġf ive",
      "W here",
      "Ġf ew",
      "Ġy es",
      "Ġhe ar",
      "at t",
      "Ġ id",
      "g ed",
      "Ġre p",
      "as h",
      "Ġe m",
      "Ġevery thing",
      "Ġm ind",
      "Ġcom ing",
      "Ġre st",
      "2 0",
      "L ook",
      "The n",
      "Ġro om",
      "Ġb ad",
      "Ġon ce",
      "Ġl oc",
      "Ġs ince",
      "Ġs ix",
      "Ġ19 7",
      "ĠS p",
      "in a",
      "Ġunder stand",
      "u ff",
      "Ġst and",
      "Ġs ign",
      "Ġs im",
      "r al",
      "Ġs k",
      "Ġli ght",
      "Ġli ve",
      "a id",
      "Ġst ay",
      "Ġre ad",
      "b all",
      "ie ld",
      "us s",
      "Ġlea ve",
      "et s",
      "Ġb orn",
      "Ġsay s",
      "ĠB ut",
      "u c",
      "Ġ 7",
      "Ġf r",
      "A T",
      "ur y",
      "n ed",
      "e b",
      "Ġc oll",
      "en se",
      "ere st",
      "ĠI nd",
      "ou p",
      "Ġt ra",
      "Ġbelie ve",
      "Ġt imes",
      "Ġs ide",
      "Ġd uring",
      "Ġlook ing",
      "m e",
      "A re",
      "ec ause",
      "Ġchild ren",
      "Ġe v",
      "Ġhe art",
      "t en",
      "Ġqu ite",
      "st em",
      "Ġpre t",
      "ĠI s",
      "orn ing",
      "Ġim port",
      "Ġdis c",
      "Ġs on",
      "Ġh um",
      "Ġt ri",
      "Ġto day",
      "a ut",
      "00 0",
      "Ġs it",
      "Ġqu est",
      "ow s",
      "O N",
      "Ġin ter",
      "ro p",
      "Ġex p",
      "a red",
      "Ġtr ans",
      "Ġk id",
      "Ġday s",
      "an na",
      "Ġhapp ened",
      "Ġme et",
      "Ġop en",
      "Ġ 8",
      "is ed",
      "Ġ ;",
      "R ight",
      "Ġle ad",
      "Ġm ove",
      "it al",
      "Ġcon f",
      "Ġp lease",
      "âĢ ĵ",
      "Ġf ace",
      "U h",
      "Ġg ener",
      "Ġne ar",
      "Ġe yes",
      "Ġto wn",
      "Ġget ting",
      "a pp",
      "Ġn ice",
      "ie w",
      "ĠT h",
      "Ġis n",
      "A s",
      "Ġex t",
      "Ġth ough",
      "in ed",
      "d y",
      "ab y",
      "re ady",
      "it her",
      "Ġmus ic",
      "er tain",
      "ment s",
      "Ġar t",
      "? \"",
      "e y",
      "Ġwho le",
      "i ke",
      "Ġc ol",
      "Ġd ri",
      "Ġs ort",
      "Ġ ed",
      "Ġl and",
      "F or",
      "Ġh our",
      "Ġb ro",
      "le ep",
      "ĠJ ohn",
      "ist s",
      "Ġp oss",
      "i k",
      "o kay",
      "ant s",
      "Ġint erest",
      "T h",
      "Ġwom an",
      "Than k",
      "as ter",
      "ct ed",
      "Ġhe ard",
      "b y",
      "o ber",
      "Ġ Z",
      "Ġbu ild",
      "se l",
      "Ġy et",
      "s on",
      "Ġe as",
      "M m",
      "er y",
      "Ġplay ed",
      "Ġ ri",
      "Ġ [",
      "Ġj ob",
      "e f",
      "ĠP r",
      "y eah",
      "Ġst ate",
      "Ġa ir",
      "Ġha lf",
      "Ġf oot",
      "Ġrem ember",
      "Ġm orning",
      "Ġhim self",
      "Ġstart ed",
      "u es",
      "Ġf il",
      "re en",
      "ec h",
      "Ġ19 6",
      "Ġ1 0",
      "ĠC l",
      "iz e",
      "d o",
      "A R",
      "ĠF r",
      "Ġm ed",
      "Ġw alk",
      "Ġkn ew",
      "ut ion",
      "h m",
      "c hed",
      "Ġha ving",
      "is m",
      "Ġ 9",
      "Ġrec ord",
      "Ġd ra",
      "Ġtalk ing",
      "d d",
      "G ood",
      "Ġsy stem",
      "ivers ity",
      "Ġh old",
      "ri es",
      "Ġm ain",
      "iz ed",
      "ĠJ an",
      "iv es",
      "t a",
      "e v",
      "Ġm od",
      "t ed",
      "Ġde ath",
      "Ġs ir",
      "Ġc ur",
      "Ġal ready",
      "Ġp ay",
      "is on",
      "at s",
      "Ġimport ant",
      "A l",
      "D id",
      "Ġwr ong",
      "C an",
      "Ġso on",
      "Ġs ong",
      "m ost",
      "ĠW e",
      "Ġal ong",
      "Ġm il",
      "ĠG r",
      "Ġsay ing",
      "s h",
      "Ġg i",
      "ĠM ay",
      "Ġp ower",
      "Ġret urn",
      "Ġid ea",
      "G o",
      "Ġ Q",
      "ain s",
      "s p",
      "Ġmon th",
      "n ot",
      "Ġan s",
      "um p",
      "Ġdo or",
      "Ġde ad",
      "Ġg ave",
      "Ġm iss",
      "Ġup on",
      "Ġcount ry",
      "Ġbr other",
      "e ad",
      "vel op",
      "id ed",
      "ag es",
      "n ow",
      "ĠH ow",
      "er ing",
      "Ġp rom",
      "Ġpro b",
      "Ġgo vern",
      "Ġw in",
      "Ġf ull",
      "Ġh ur",
      "Ġme ans",
      "Ġt y",
      "ĠâĢ ĵ",
      "ĠG erm",
      "Ġ âĻª",
      "Ġe ff",
      "Ġe at",
      "Ġpro v",
      "Ġc ase",
      "Ġtry ing",
      "il ity",
      "at ure",
      "Ġg ame",
      "Â ł",
      "Ġr ound",
      "ĠC ount",
      "ĠS o",
      "ĠThe re",
      "aught er",
      "Ġask ed",
      "id d",
      "ci al",
      "et er",
      "L L",
      "Ġw ife",
      "Ġj o",
      "Ġs ound",
      "ward s",
      "ic ally",
      "Ġin f",
      "on y",
      "Ġg one",
      "Ġare a",
      "Ġl aw",
      "O R",
      "Ġbus iness",
      "ĠCh rist",
      "g t",
      "E r",
      "m ed",
      "You r",
      "Ġmat ter",
      "ĠK ing",
      "Ġbe gan",
      "y ing",
      "c ess",
      "Ġex pl",
      "l ish",
      "Ġbr ing",
      "Ġd el",
      "Ġpret ty",
      "i ver",
      "ate ly",
      "ĠA t",
      "Ġf ore",
      "n ce",
      "Ġhand s",
      "Ġto p",
      "ar r",
      "Ġl ear",
      "Ġe qu",
      "Ġw ind",
      "c le",
      "ĠT HE",
      "G et",
      "Ġs ent",
      "r ict",
      "am ed",
      "Ġhapp en",
      "Ġgu y",
      "ĠS c",
      "le ased",
      "Ġst ory",
      "Ġc reat",
      "ur al",
      ". âĢĿ",
      "p r",
      "u ro",
      "Ġsha ll",
      "b orn",
      "Ġl ost",
      "e ed",
      "Ġcont in",
      "Ġser v",
      "Ġab le",
      "Ġmov ie",
      "or row",
      "Ġf uck",
      "it er",
      "A n",
      "Ġl ess",
      "en n",
      "Ġc ertain",
      "i ally",
      "Ġbe aut",
      "Ġm ill",
      "E S",
      "Ġoff ic",
      "u red",
      "ak en",
      "Ġb aby",
      "Ġpart ic",
      "Ġchan ge",
      "Ġpol it",
      "ep t",
      "ect ion",
      "Ġsp eak",
      "or ld",
      "g y",
      "Ġproble m",
      "Ġof ten",
      "Ġw ond",
      "Ġm aking",
      "Ġhis t",
      "Ġgo es",
      "Ġcl ass",
      "Ġp ri",
      "ion al",
      "M ay",
      "c ri",
      "Ġf ell",
      "c he",
      "Ġle g",
      "pp ed",
      "Ġ1 7",
      "Ġb as",
      "Ġfriend s",
      "A t",
      "ĠC ar",
      "Ġw anna",
      "Ġlook ed",
      "Ġmom ent",
      "Ġsome one",
      "Ġ1 5",
      "ĠA ll",
      "Ġwas n",
      "Ġf ight",
      "Ġw atch",
      "O ne",
      "und red",
      "at or",
      "Ġp ain",
      "ĠB l",
      "er v",
      "Ġ19 5",
      "Ġ19 4",
      "ĠO h",
      "He re",
      "ĠBr it",
      "Ġb ody",
      "id es",
      "us h",
      "Ġf ine",
      "ent ly",
      "Ġwom en",
      "E N",
      "Ġyour self",
      "w ell",
      "ar ch",
      "g es",
      "Ġa ge",
      "Ġde velop",
      "are nt",
      "Ġcom es",
      "ra p",
      "st er",
      "Ġ hat",
      "Ġex per",
      "us ed",
      "Ġgr oup",
      "r act",
      "Ġl ine",
      "Ġp at",
      "Ġwee k",
      "Ġgu ys",
      "Ġm ark",
      "Ġp ar",
      "f ess",
      "ac es",
      "Ġs leep",
      "Ġv is",
      "an e",
      "h ow",
      "u ary",
      "i ec",
      "Ġsh ort",
      "Ġp os",
      "o le",
      "Ġb ed",
      "Ġcl ose",
      "et h",
      "ain ed",
      "Ġprob ably",
      "m p",
      "Ġlar ge",
      "T o",
      "Ġag o",
      "e al",
      "er n",
      "ĠT hat",
      "c on",
      "Ġt erm",
      "art ment",
      "Ġgi ven",
      "ell o",
      "Ġwork ing",
      "Ġpr ot",
      "Ġbre ak",
      "ic es",
      "Ġd et",
      "ĠC an",
      "i am",
      "Ġ ...",
      "Ġtr ue",
      "u ly",
      "Ġf ire",
      "le y",
      "ri gin",
      "ent y",
      "g ue",
      "ĠH is",
      "a i",
      "ent ion",
      "B ecause",
      "ĠCount y",
      "Ġ es",
      "ap an",
      "Ġwould n",
      "! \"",
      "Ġe ight",
      "Ġh undred",
      "al ity",
      "Ġbec ome",
      "ĠF or",
      "Ġt er",
      "Ġor der",
      "Ġc ut",
      "Ġf all",
      "Ġc a",
      "b um",
      "et y",
      "Ġear ly",
      "o on",
      "w er",
      "ĠC on",
      "Ġde al",
      "c hes",
      "Ġp ick",
      "el s",
      "ul ation",
      "el t",
      "Ġs ol",
      "ur ch",
      "Ġh ope",
      "h ind",
      "Ġha ven",
      ", âĢĿ",
      "am a",
      "ap er",
      "Ġre ce",
      "ĠY es",
      "c ome",
      "il t",
      "re st",
      "aj or",
      "m m",
      "ou ble",
      "Ġc or",
      "Ġal most",
      "s y",
      "Ġa w",
      "ut es",
      "Ġd iv",
      "ĠUn iversity",
      "Ġst re",
      "Ġle ast",
      "Ġp ur",
      "Ġin s",
      "Ġbe gin",
      "Ġor gan",
      "Ġquest ion",
      "Ġt en",
      "ie f",
      "Ġv o",
      "ian s",
      "r on",
      "ro l",
      "if ul",
      "p ed",
      "ĠY ork",
      "Ġa ff",
      "Ġcomp le",
      "Ġbl ack",
      "ĠA p",
      "Ġo cc",
      "Ġmy self",
      "ĠO n",
      "gr am",
      "ri l",
      "Ġwh ite",
      "Ġad v",
      "ĠP ro",
      "Ġo per",
      "Ġp ublic",
      "amp le",
      "iv ed",
      "ĠW orld",
      "Ġcomm un",
      "ra z",
      "ou d",
      "ham p",
      "Ġr an",
      "Ġs qu",
      "Ġre ady",
      "Ġmar ried",
      "al th",
      "Ġl ate",
      "ĠJ apan",
      "Ġ _",
      "Ġv ar",
      "Ġcon st",
      "Ġo pp",
      "Ġmay be",
      "Ġh or",
      "Ġd ad",
      "Ġf ree",
      "um b",
      "re nt",
      "Ġ1 6",
      "ull y",
      "Ġre ason",
      "i um",
      "Ġs we",
      "it ing",
      "ug ust",
      "ang u",
      "Ġal one",
      "os p",
      "c o",
      "Ġkill ed",
      "Ġpres ent",
      "c ent",
      "Ġo h",
      "l er",
      "Ġgovern ment",
      "Ġgu ess",
      "ard s",
      "M r",
      "ĠP ar",
      "ĠJan uary",
      "Ġcomp any",
      "Ġ |",
      "cc ess",
      "he ad",
      "es e",
      "Ġ est",
      "er t",
      "Ġbl ood",
      "en e",
      "o ke",
      "E very",
      "Ġhapp y",
      "P lease",
      "h uh",
      "Ġal bum",
      "Ġ1 2",
      "Ġre leased",
      "Ġre d",
      "Ġbr ought",
      "Ġbe hind",
      "Ġs at",
      "Ġo rigin",
      "sel ves",
      "v ious",
      "Ġse ver",
      "Ġword s",
      "b ed",
      "m en",
      "Ġte le",
      "Ġh on",
      "ĠA ust",
      "Ġdr ink",
      "ĠM an",
      "ne y",
      "ĠW ar",
      "o x",
      "Ġhe ll",
      "I S",
      "Ġm akes",
      "olog y",
      "f or",
      "Ġ Yeah",
      "om p",
      "e or",
      "Ġ19 3",
      "Ġcle ar",
      "Ġt re",
      "R E",
      "ĠEng lish",
      "en g",
      "r ing",
      "Ġt aken",
      "Ġsever al",
      "on es",
      "Ġser ies",
      "Ġex c",
      "ĠFr ance",
      "ha ps",
      "au gh",
      "Ġf ood",
      "Ġfr ont",
      "ĠY OU",
      "c an",
      "i ent",
      "f e",
      "ren ch",
      "ĠE uro",
      "ĠMar ch",
      "em ent",
      "Ġdo g",
      "c ha",
      "Ġm ag",
      "ud e",
      "un t",
      "Ġan im",
      "at ic",
      "T H",
      "b and",
      "ĠS outh",
      "b s",
      "Ġhum an",
      "Ġp ast",
      "Ġt aking",
      "Ġh ot",
      "S ome",
      "b it",
      "ac ed",
      "Ġv al",
      "Ġ $",
      "ĠM in",
      "ĠD ec",
      "S h",
      "Ġsupp ort",
      "ĠM iss",
      "Ġst uff",
      "o or",
      "ept ember",
      "Ġse ason",
      "Ġstr ong",
      "i or",
      "ct ober",
      "Ġan n",
      "ĠF ran",
      "ĠC omm",
      "Ġb and",
      "Ġ ]",
      "ĠA ugust",
      "Ġp ict",
      "Ġe ither",
      "Ġb all",
      "Ġd em",
      "Ġ &",
      "ĠT r",
      "o int",
      "Ġb ar",
      "Ġst at",
      "the re",
      "Ġso ld",
      "Ġres p",
      "e le",
      "Ġen g",
      "Ġchar ac",
      "Ġad m",
      "w o",
      "Ġtr ain",
      "Ġd aughter",
      "ot s",
      "Ġp iec",
      "ĠĠĠĠĠĠĠĠ ĠĠĠĠĠĠĠĠ",
      "Ġr ather",
      "Ġf ig",
      "Ġex ample",
      "Ġthink ing",
      "Ġatt ack",
      "ĠJ une",
      "Ġall ow",
      "id er",
      "B e",
      "ĠW ill",
      "ci ent",
      "Ġmin utes",
      "Ġqu ick",
      "l t",
      "a im",
      "her n",
      "ĠMr s",
      "Ġlook s",
      "i ence",
      "iv ing",
      "Ġcould n",
      "Ġpro gram",
      "Ġre port",
      "Ġother s",
      "ĠBrit ish",
      "Ġro ad",
      "Ġpart y",
      "h ich",
      "Ġin form",
      "Ġt ou",
      "Ġc ou",
      "Ġlist en",
      "z e",
      "Ġwith in",
      "o ver",
      "m ing",
      "Ġt em",
      "Ġhe ld",
      "Ġli ving",
      "Ġbeaut iful",
      "ap e",
      "Ġsu ccess",
      "res ent",
      "en cy",
      "Ġdes ign",
      "o e",
      "Ġn amed",
      "om an",
      "am ent",
      "Ġgr ow",
      "ĠEuro pe",
      "Ġwant s",
      "itt ing",
      "Ġmill ion",
      "Ġres ult",
      "Ġmin ute",
      "ĠS eptember",
      "Ġn ational",
      "Ġn orth",
      "Ġper form",
      "od e",
      "itt en",
      "Ġin side",
      "or ies",
      "Ġst ru",
      "Ġa p",
      "Ġspec ial",
      "ĠT H",
      "ore d",
      "ĠO ctober",
      "act ly",
      "ĠS h",
      "E x",
      "ĠC ol",
      "Ġl angu",
      "Ġn ec",
      "e ge",
      "ĠAp ril",
      "ĠA d",
      "ove mber",
      "A S",
      "ĠB e",
      "a ul",
      "Ġme mber",
      "ĠJ uly",
      "ous and",
      "ĠP res",
      "Ġs um",
      "f ully",
      "Ġturn ed",
      "Ġm ess",
      "Ġre pl",
      "Ġwond er",
      "Ġsing le",
      "m a",
      "Ġ ve",
      "o ad",
      "Ġv ill",
      "ou b",
      "Ġfor mer",
      "ĠN ational",
      "ĠN orth",
      "Ġli ved",
      "Ġro ck",
      "Ġde ar",
      "ran ge",
      "Ġs il",
      "Ġapp ear",
      "un k",
      "Ġinclud ing",
      "May be",
      "Ġk ing",
      "Ġele ct",
      "I I",
      "ĠP l",
      "ang er",
      "Ġthan k",
      "Ġ1 1",
      "Ġt est",
      "ĠG o",
      "al d",
      "ĠC har",
      "O r",
      "ĠB ar",
      "ĠS w",
      "un ch",
      "Ġd ie",
      "A h",
      "f ort",
      "ke y",
      "Ġex pect",
      "Ġd ream",
      "f ect",
      "p ar",
      "us band",
      "-- --",
      "ru ary",
      "ound s",
      "al es",
      "eb ruary",
      "Ġsh ip",
      "u ed",
      "H ello",
      "Ġc amp",
      "qu e",
      "ĠDec ember",
      "Ġcomm on",
      "ĠW hen",
      "Ġf elt",
      "Ġplay ing",
      "id ge",
      "re ad",
      "Ġh it",
      "Ġth ird",
      "Ġvo ice",
      "W ith",
      "v ision",
      "Ġus ing",
      "Ġmonth s",
      "Ġac ross",
      "ĠP h",
      "b o",
      "Ġout side",
      "Ġfoot ball",
      "e en",
      "end ed",
      "H ave",
      "tern ational",
      "as k",
      "ĠN ovember",
      "Ġsomet imes",
      "ĠF rench",
      "Ġd ark",
      "Ġ X",
      "Ġme mb",
      "a ur",
      "Ġwork ed",
      "ech n",
      "Ġche ck",
      "g o",
      "Ġposs ible",
      "Ġ z",
      "idd le",
      "th ough",
      "A fter",
      "c il",
      "Ġhour s",
      "ac hed",
      "Ġeff ect",
      "Ġth ousand",
      "ĠC al",
      "Ġam ong",
      "Ġre v",
      "ain t",
      "Ġha ir",
      "Ġfil m",
      "Ġre qu",
      "Ġd est",
      "it ch",
      "Ġf if",
      "C h",
      "Ġg un",
      "Ġcare er",
      "Ġc op",
      "ĠD o",
      "ove red",
      "Ġcl ub",
      "Ġm ajor",
      "Ġf re",
      "Ġfollow ing",
      "Ġ ill",
      "Ġh usband",
      "Ġpo or",
      "ir th",
      "Ġs un",
      "li ke",
      "Ġd am",
      "at a",
      "Ġpro fess",
      "âĢ Ķ",
      "ĠF l",
      "ov ed",
      "Ġapp ro",
      "Ġ1 3",
      "Ġfor g",
      "Ġt ried",
      "Ġw ish",
      "R e",
      "ĠF ebruary",
      "ea red",
      "Ġst ra",
      "ro du",
      "Ġto t",
      "Ġa f",
      "Ġ1 4",
      "c ing",
      "Ġse nd",
      "Ġto m",
      "ĠC ity",
      "e an",
      "m ore",
      "Ġc ir",
      "l ook",
      "Ġle vel",
      "Ġmov ed",
      "s c",
      "Ġgot ta",
      "Ġse ven",
      "Ġhist ory",
      "Ġbu ilt",
      "air s",
      "A ny",
      "Ġbo x",
      "g est",
      "hi le",
      "Ġgr and",
      "Ġpol ice",
      "Ġ201 0",
      "uth or",
      "att le",
      "Ġpartic ular",
      "i pp",
      "ĠH er",
      "Ġs n",
      "Ġfe et",
      "d e",
      "ĠT O",
      "ĠC ha",
      "ress ed",
      "ou l",
      "ĠA f",
      "Ġbuild ing",
      "Ġpro per",
      "Ġmemb ers",
      "Ġus ually",
      "L E",
      "Ġc re",
      "om in",
      "Ġf a",
      "Ġt ill",
      "1 0",
      "Ġget s",
      "ra id",
      "ro om",
      "r it",
      "Ġp arent",
      "Ġr a",
      "ĠH ar",
      "Ġa v",
      "Ġcomp et",
      "Ġl ay",
      "Ġc ost",
      "s he",
      "Ġoff ice",
      "O M",
      "ro g",
      "Ġd in",
      "Ġt reat",
      "Ġwor ry",
      "ĠO r",
      "ĠG eor",
      "Ġany one",
      "if ied",
      "Ġt on",
      "Ġm ur",
      "ra ph",
      "Ġgo ld",
      "u k",
      "an a",
      "Ġp ull",
      "ag ed",
      "Ġans wer",
      "Ġchan ce",
      "Ġcomple te",
      "ond on",
      "Ġcont rol",
      "Ġt able",
      "Ġf ield",
      "Ġpop ulation",
      "Ġcon cer",
      "O f",
      "Ġswe et",
      "1 8",
      "Ġbu y",
      "ĠL e",
      "Ġst ar",
      "id ence",
      "Ġknow s",
      "Ġwhe ther",
      "Ġte ac",
      "Ġst ation",
      "Ġwork s",
      "Ġr ad",
      "Ġab s",
      "as es",
      "i en",
      "Ġb ased",
      "i od",
      "p or",
      "ay s",
      "Ġor d",
      "ĠG u",
      "Ġeas y",
      "ĠE d",
      "in o",
      "Ġpro p",
      "Ġcan not",
      "w ork",
      "Ġw all",
      "Ġcon d",
      "Ġplay er",
      "Ġ ``",
      "Ġtw enty",
      "Ġwr itten",
      "ĠC ent",
      "ĠR ep",
      "Ġst ep",
      "Ġ3 0",
      "Ġde v",
      "d ing",
      "y n",
      "ĠPres ident",
      "Ġli ves",
      "ir ty",
      "Ġst e",
      "ĠA fter",
      "Ġs ister",
      "Ġe vent",
      "Ġdes cri",
      "ĠI f",
      "ĠA b",
      "so ci",
      "Ġreg ion",
      "Ġf av",
      "Ġloc al",
      "Ġv iew",
      "Ġl a",
      "as ure",
      "Ġseem s",
      "it ions",
      "c om",
      "Ġph one",
      "O W",
      "Ġgener al",
      "ill y",
      "Ġpr act",
      "hy s",
      "an ces",
      "ul a",
      "Ġcou ple",
      "u le",
      "2 1",
      "ur g",
      "Ġm ine",
      "Ġis s",
      "ar a",
      "Ġevery one",
      "Ġcur rent",
      "Ġv ide",
      "C l",
      "Ġd i",
      "Ġaf raid",
      "id ing",
      "Ġl ow",
      "ir on",
      "Ġs outh",
      "Ġcent ury",
      "Ġpro cess",
      "Ġp ost",
      "Ġon es",
      "Ġb ird",
      "Ġf ast",
      "Ġm ot",
      "is ing",
      "Ġwr ote",
      "Ġdra w",
      "Ġde ep",
      "Ġs ense",
      "b ers",
      "um ent",
      "Ġc old",
      "Ġwe ar",
      "ĠW est",
      "hamp ions",
      "ĠL ondon",
      "Ġc al",
      "ĠL ea",
      "Ġdiff ic",
      "ĠD on",
      "Ġinv ol",
      "Ġgr ound",
      "Ġex actly",
      "if t",
      "Ġf air",
      "Ġseem ed",
      "Ġwr ite",
      "Ġtom orrow",
      "ad a",
      "Ġgirl s",
      "Ġc ry",
      "Ġn at",
      "T ake",
      "Ġse a",
      "E D",
      "I T",
      "iss ion",
      "Ġboy s",
      "Ġlong er",
      "Ġinc re",
      "our n",
      "k y",
      "Ġb irth",
      "w ho",
      "C H",
      "Ġf ur",
      "it ive",
      "ect ed",
      "Er m",
      "ĠEng land",
      "un ic",
      "u ri",
      "Ġp aper",
      "og n",
      "Ġdist rict",
      "Ġsu ff",
      "ĠJ ack",
      "Ġcharac ter",
      "Ġh uh",
      "Ġb ott",
      "av y",
      "iz ation",
      "Ġse x",
      "Ġinform ation",
      "ill s",
      "S ee",
      "g ing",
      "oo se",
      "he l",
      "Ġchan ged",
      "o ff",
      "W ait",
      "ord ing",
      "ĠIt al",
      "H is",
      "ri but",
      "Ġtr uth",
      "Ġkid s",
      "ent le",
      "Ġdire ct",
      "ĠAust ral",
      "am b",
      "r ation",
      "Ġdep artment",
      "Ġnew s",
      "Ġrun ning",
      "Ġ2 5",
      "ir t",
      "Ġli k",
      "ĠO ne",
      "Ġsupp osed",
      "u ation",
      "oun cil",
      "in ation",
      "Ġw ood",
      "d om",
      "Ġp ress",
      "Ġc at",
      "Ġserv ice",
      "Ġp ubl",
      "a ff",
      "Ġm er",
      "Ġsome body",
      "ĠGerm an",
      "Ġf ail",
      "Ġl ab",
      "Ġg en",
      "ĠW ell",
      "ĠM ic",
      "Ġfor get",
      "Ġhur t",
      "Ġed uc",
      "Ġton ight",
      "the y",
      "Ġsu per",
      "Ġc ross",
      "Ġtr ouble",
      "Ġsh ot",
      "Ġper iod",
      "G H",
      "Ġd ro",
      "ur s",
      "ill e",
      "Ġ *",
      "ĠL ord",
      "Ġneed s",
      "le x",
      "f ord",
      "ut ure",
      "2 2",
      "Ġrece ived",
      "Ġh ig",
      "Ġt ree",
      "ĠU S",
      "Ġcle an",
      "Ġty pe",
      "ĠAmeric a",
      "Ġa uthor",
      "Ġtele vision",
      "Ġpos ition",
      "Ġ 0",
      "ĠE l",
      "it ary",
      "L ike",
      "ac y",
      "ĠThe n",
      "Ġbl ue",
      "em y",
      "ĠD r",
      "con om",
      "ow ers",
      "Ġrep resent",
      "Ġp le",
      "Ġl uck",
      "p ec",
      "pt ion",
      "ĠA m",
      "Ġtr ad",
      "osp ital",
      "Ġl ady",
      "Ġsec ret",
      "ĠR e",
      "Ġke pt",
      "art y",
      "ĠS chool",
      "il ar",
      "ĠD an",
      "e ople",
      "ĠR uss",
      "Ġcreat ed",
      "Ġt echn",
      "Ġent ire",
      "Ġar ri",
      "Ġm ount",
      "Ġt it",
      "j oy",
      "Ġthem selves",
      "Ġlangu age",
      "Ġtou ch",
      "dd en",
      "Ġser ious",
      "Ġac cept",
      "Ġc os",
      "ĠE x",
      "Ġwait ing",
      "a e",
      "r or",
      "Ġcon n",
      "har d",
      "Ġevery body",
      "l u",
      "ed er",
      "Ġ vers",
      "f er",
      "Ġse ll",
      "Ġvill age",
      "Than ks",
      "Ġwhat ever",
      "k en",
      "U S",
      "l a",
      "u z",
      "av id",
      "pl oy",
      "O K",
      "i ol",
      "v an",
      "ĠAf ric",
      "Ġh y",
      "Ġob ject",
      "S orry",
      "Ġsur pr",
      "ĠT om",
      "Ġfuck ing",
      "Ġset t",
      "Ġsu dden",
      "Ġstra ight",
      "Ġc ook",
      "iv il",
      "Ġsu gg",
      "Ġsugg est",
      "ĠD e",
      "U n",
      "Ġab ove",
      "ĠSt ate",
      "in al",
      "Ġf ly",
      "Ġm ist",
      "Ġparent s",
      "Ġspec ies",
      "ol ution",
      "Ġper haps",
      "ic ian",
      "es tern",
      "w ith",
      "ĠP eter",
      "Ġp ot",
      "Ġg reen",
      "ĠM y",
      "Ġr ul",
      "p ing",
      "A r",
      "ress ion",
      "Ġf uture",
      "th is",
      "Ġre se",
      "Ġhow ever",
      "st it",
      "te en",
      "end ing",
      "Ġpict ure",
      "ag er",
      "Ġpri v",
      "Ġl im",
      "v al",
      "Ġres pect",
      "Ġcomp ut",
      "ci ence",
      "r ay",
      "Ġc ell",
      "Ġinst ead",
      "Ġt akes",
      "Ġdec ided",
      "Ġproble ms",
      "Ġex ist",
      "re et",
      "Ġinclud e",
      "Ġfeel ing",
      "Ġv ol",
      "T ell",
      "op s",
      "om b",
      "ĠS ha",
      "Ġsh oot",
      "Ġbook s",
      "at ter",
      "Ġit self",
      "ro y",
      "ĠM c",
      "Ġcar ry",
      "Ġpiec e",
      "Ġl ed",
      "Ġst ri",
      "ĠW h",
      "Ġper fect",
      "Ġm outh",
      "Ġan g",
      "Ġfin ished",
      "ist en",
      "land s",
      "Ġp ort",
      "Ġim ag",
      "Ġher self",
      "ĠS y",
      "oc r",
      "ĠP ol",
      "Ġinv est",
      "Ġlear n",
      "Ġc ult",
      "al t",
      "Ġcha ir",
      "Ġl augh",
      "ĠN ot",
      "raz y",
      "I C",
      "Ġdo ctor",
      "Ġpop ular",
      "iv id",
      "ĠO F",
      "Ġlet ter",
      "ener al",
      "1 5",
      "Ġc ho",
      "The se",
      "Ġser ved",
      "ĠE ar",
      "Ġd ue",
      "ha el",
      "Ġdo ll",
      "Ġf ix",
      "o es",
      "W ill",
      "Ġp en",
      "Ġare n",
      "Ġpro ject",
      "ĠHow ever",
      "Ġpr in",
      "Ġhapp ens",
      "unic ip",
      "Ġdiffic ult",
      "l in",
      "Ġwor th",
      "Ġch urch",
      "Ġtr ust",
      "re g",
      "Ġear th",
      "Ġvide o",
      "A Y",
      "Ġco ver",
      "St op",
      "Ġme m",
      "p es",
      "ĠH ouse",
      "Ġsp ace",
      "og rap",
      "Ġ2 4",
      "am er",
      "H i",
      "Ġfin al",
      "ol ute",
      "ĠPh il",
      "ĠLea gue",
      "Ġn orm",
      "Ġa in",
      "Ġtr ack",
      "y le",
      "Ġact iv",
      "Ġhe alth",
      "Ġbe ar",
      "Ġl ad",
      "se e",
      "Ġpr ison",
      "vious ly",
      "Ġes c",
      "Ġtell ing",
      "Ġsh it",
      "Ġhor se",
      "p ha",
      "ĠA N",
      "ĠC ap",
      "Ġsl ow",
      "Ġb ri",
      "Ġany way",
      "Ġar m",
      "1 7",
      "Ġrec ogn",
      "Ġn ine",
      "Ġe ye",
      "er ry",
      "Ġsa fe",
      "Ġrel ations",
      "Ġpres ident",
      "Ġso ft",
      "Ġha ng",
      "ĠT o",
      "ci ety",
      "ru g",
      "em pt",
      "im ent",
      "ear s",
      "Ġg entle",
      "Ġwee ks",
      "Ġ201 4",
      "Ġcom pl",
      "ere nce",
      "Ġso cial",
      "it or",
      "Ġm iddle",
      "ĠThe se",
      "Ġri ver",
      "ĠC oll",
      "Ġd oub",
      "Ġpass ed",
      "ro ll",
      "ep end",
      "Ġfig ure",
      "Ġc orn",
      "l s",
      "om es",
      "Ġsp ir",
      "Ġe p",
      "Ġ1 00",
      "Ġd anger",
      "itt ed",
      "Ġs us",
      "l ine",
      "t ime",
      "Ġme ant",
      "ĠGerm any",
      "E T",
      "Ã ¡",
      "a ha",
      "Ġph ot",
      "A L",
      "? âĢĿ",
      "le ct",
      "as hing",
      "Ġsa ve",
      "iv al",
      "1 2",
      "M ar",
      "n el",
      "Ġcount y",
      "b or",
      "Ġp hys",
      "Ġeng ine",
      "Ġj ud",
      "ĠInd ian",
      "Ġen joy",
      "u el",
      "Ġg ames",
      "ĠP aul",
      "Ġa head",
      "and er",
      "ĠP ark",
      "Ġest ab",
      "Ġcour t",
      "r is",
      "Ġfun ny",
      "Ġ201 8",
      "Ġmeet ing",
      "Ġcl ot",
      "Ġeven ing",
      "Ġh op",
      "Ġse at",
      "Ġfam ous",
      "Ġter ri",
      "Ġv ict",
      "Ġfur ther",
      "Ġ19 2",
      "Ġc ast",
      "ĠS ec",
      "Ġgo d",
      "Ġan t",
      "Ġe conom",
      "k ing",
      "ĠJ o",
      "A M",
      "c her",
      "Ġex cept",
      "Ġm is",
      "ri age",
      "Ġgl ad",
      "er gy",
      "Ġ201 1",
      "is hing",
      "ĠĠĠĠ Ġ",
      "i us",
      "Ġf ish",
      "Ġc razy",
      "Ġop ened",
      "if orn",
      "Ġ #",
      "Ġm ach",
      "Ġd a",
      "Ġs ick",
      "Ġ ide",
      "Ġcr it",
      "Ġne g",
      "um e",
      "Ġreturn ed",
      "ce ed",
      "Ġqu iet",
      "Ġf ill",
      "Ġ( \"",
      "Ġa ut",
      "ĠQ ue",
      "ĠS e",
      "f ield",
      "Ġst ood",
      "Ġu m",
      "Ġc ool",
      "Ġlea ving",
      "Ġgr ad",
      "Ġse lf",
      "p ut",
      "Ġcap ital",
      "Ġro le",
      "1 6",
      "o ly",
      "Ġn in",
      "Ġthr ow",
      "ĠWill iam",
      "han k",
      "et t",
      "iforn ia",
      "l ight",
      "ce ll",
      "Ġdis app",
      "Ġr ing",
      "ain ing",
      "Ġbegin ning",
      "Ġc atch",
      "Ġdin ner",
      "er ve",
      "O T",
      "Ġacc ount",
      "he m",
      "i ers",
      "Ġb reat",
      "V E",
      "Ġm ad",
      "Ġfor ce",
      "Ġm ult",
      "Ġsub ject",
      "ĠW hy",
      "Ġann oun",
      "ĠS ome",
      "Ġ201 3",
      "G ive",
      "i res",
      "Ġh ospital",
      "Ġfe at",
      "Ġsim ilar",
      "Ġwh om",
      "ra ve",
      "Ġb urn",
      "Ġfl oor",
      "Ġcomm une",
      "Ġcl aim",
      "Ġag re",
      "Ġ x",
      "u ge",
      "T ER",
      "Ġapp l",
      "Ġpolit ical",
      "Ġ201 7",
      "Ġ `",
      "ĠS am",
      "med i",
      "I D",
      "ĠR iver",
      "Ġcir c",
      "Ġm ass",
      "ĠI N",
      "Ġcl os",
      "it z",
      "re y",
      "1 4",
      "Ġn on",
      "Ġpart s",
      "\" )",
      "Ġs itting",
      "Ġsh ut",
      "Ġg iving",
      "Ġfor ward",
      "ĠH igh",
      "Ġnec ess",
      "Ġcommun ity",
      "Ġ ident",
      "pl es",
      "om ing",
      "Ġresp ons",
      "ĠS m",
      "Ġv iol",
      "n ight",
      "m in",
      "n s",
      "Ġint rodu",
      "ra ft",
      "Ġcom b",
      "ell ow",
      "Ġm ention",
      "Ġorigin al",
      "Ġdri ve",
      "Ġc ause",
      "Ġst ick",
      "Ġ20 20",
      "Ġre ached",
      "m on",
      "Ġtot al",
      "Ġinterest ing",
      "Ġstud ents",
      "ĠP er",
      "Ġcount ries",
      "re me",
      "5 0",
      "Ġbe at",
      "Ġm ater",
      "Ġquest ions",
      "Ġb ank",
      "Ġf em",
      "ĠE ast",
      "w as",
      "Ġb ag",
      "p ly",
      "Ġke y",
      "n es",
      "ĠR oman",
      "1 3",
      "c han",
      "ic a",
      "Ġse par",
      "ĠM us",
      "Ġrel ig",
      "ĠG ood",
      "Ġf ing",
      "ĠCal ifornia",
      "Ġpl aces",
      "ĠGeor ge",
      "B y",
      "b l",
      "Ġprodu ct",
      "Ġind ivid",
      "im ate",
      "ic ation",
      "hi ps",
      "Ġm atch",
      "ĠS u",
      "Ġyour s",
      "Ġquick ly",
      "Ġh oney",
      "Ġl ose",
      "Ġf ear",
      "Ġne igh",
      "Ġst age",
      "Ġh ung",
      "Ġam ount",
      "ĠM ary",
      "es us",
      "S omet",
      "ĠR ed",
      "Ġapp eared",
      "A C",
      "Ġstud y",
      "Ġst ore",
      "Ġ201 2",
      "E ven",
      "pec ially",
      "Ġh ost",
      "Ġmark et",
      "Ġwho se",
      "m as",
      "Ġto wards",
      "ĠRep ublic",
      "Ġsim ple",
      "ci ous",
      "w ood",
      "Ġk iss",
      "in ite",
      "Ġp ark",
      "ock ed",
      "Ġal ive",
      "h ood",
      "ĠInd ia",
      "Ġtra vel",
      "Ġin n",
      "Ġm id",
      "Ġ201 5",
      "Ġob s",
      "in c",
      "ĠJapan ese",
      "Ġmov ing",
      "Ġen ergy",
      "oll y",
      "Ġwind ow",
      "Ġsupp ose",
      "ic o",
      "Ġro ll",
      "Ġde g",
      "j ust",
      "G od",
      "Ġ200 8",
      "Ġloc ated",
      "ut y",
      "k a",
      "Ġc ried",
      "Ġpubl ished",
      "Ġb en",
      "Ġcol or",
      "up id",
      "F rom",
      "ad es",
      "ĠQ u",
      "Ġp al",
      "Ġany more",
      "Ġfollow ed",
      "a f",
      "Ġnat ural",
      "Ġcons ider",
      "ĠB y",
      "ard en",
      "Ġpol ic",
      "Ġind ust",
      "ru ction",
      "Ġc aught",
      "ĠGo vern",
      "ĠC or",
      "Ġw ide",
      "ĠG reat",
      "he t",
      "Ġr is",
      "ĠL ou",
      "Not hing",
      "ĠE m",
      "ĠJ ust",
      "A P",
      "it es",
      "Ġvis it",
      "ĠP arty",
      "Ġbe ha",
      "il i",
      "B l",
      "oy al",
      "ĠS an",
      "Re ally",
      "ĠG l",
      "Ġway s",
      "e xt",
      "Ġ201 6",
      "Ġneed ed",
      "il ed",
      "Ġexper ience",
      "Ġbel ong",
      "Ġcertain ly",
      "Ã Ń",
      "ri an",
      "is c",
      "ort s",
      "a ven",
      "ĠM e",
      "Ã ¶",
      "Ġ )",
      "ĠM ed",
      "Ġr ace",
      "Ġb ill",
      "ens ive",
      "Ġteac her",
      "Ġm unicip",
      "Ġ2 1",
      "Ġ ver",
      "d id",
      "Ġsit uation",
      "Ġs har",
      "in y",
      "L isten",
      "Ġli e",
      "Ġs ad",
      "Ġp erm",
      "Ġd ress",
      "om en",
      "Ġterm s",
      "us es",
      "ag o",
      "in ary",
      "we red",
      "3 0",
      "Ġal right",
      "Ġany body",
      "Ġ200 7",
      "Ġfin ally",
      "ro ad",
      "Ġf ac",
      "ber t",
      "Ġallow ed",
      "as ons",
      "ist ic",
      "re l",
      "ĠI I",
      "Ġstop ped",
      "in ing",
      "Ġmil es",
      "ĠI T",
      "Ġdisc uss",
      "Ġsh op",
      "f l",
      "Ġst range",
      "f ace",
      "c use",
      "Ġprot ect",
      "Ġ2 2",
      "T r",
      "g ar",
      "ir m",
      "ĠM ad",
      "s ha",
      "Ġ200 9",
      "ĠĠĠĠ ĠĠ",
      "Ġstre et",
      "Ã ¼",
      "Ġem ploy",
      "Ġequ al",
      "pp er",
      "ud d",
      "Ġshow s",
      "Ġex am",
      "Ġvar ious",
      "Ġ200 6",
      "er o",
      "Ġf ool",
      "Ġen c",
      "Ġanim als",
      "b ye",
      "ition al",
      "ort hern",
      "Ġes pecially",
      "Ġbo ard",
      "Ġwr iting",
      "2 00",
      "ho ld",
      "Ġinf lu",
      "ĠM on",
      "ur ity",
      "k i",
      "Ġval ue",
      "M an",
      "ens us",
      "Ġpe ace",
      "Ġbro ad",
      "Ġj ump",
      "g u",
      "Ġis land",
      "Ġsur v",
      "Ġear li",
      ". ,",
      "Ġinvol ved",
      "in ct",
      "Ġmil itary",
      "d on",
      "A D",
      "Ġmater ial",
      "Ġ ice",
      "y a",
      "ĠB en",
      "ĠW ith",
      "Ġr id",
      "Ġp aid",
      "Ġqu ar",
      "ĠD avid",
      "Ġ2 3",
      "Ġb ull",
      "ĠA ir",
      "Ġd ance",
      "Ġ Â",
      "st r",
      "ĠJ ames",
      "Ġe mb",
      "Ġmod ern",
      "Ġcon v",
      "Ġdest roy",
      "Ġplay s",
      "Ġsp ent",
      "ĠM art",
      ". '",
      "Ġw ild",
      "n ers",
      "ĠC hampions",
      "en ces",
      "Ġp ack",
      "O ur",
      "ĠA re",
      "Ġb ought",
      "ĠS er",
      "ict ion",
      "eng th",
      "ust om",
      "ain e",
      "Ġ201 9",
      "sy ch",
      "Ġt ax",
      "hi re",
      "Ġjo ined",
      "Ġe gg",
      "ĠC up",
      "id s",
      "Ġask ing",
      "Ġprodu ced",
      "ĠN ow",
      "el p",
      "Ġprofess ional",
      "Ġs oul",
      "ic ed",
      "ge l",
      "olute ly",
      "Ġd rug",
      "Ġact ion",
      "Ġlar gest",
      "out hern",
      "ĠW ho",
      "Ġhat e",
      "Ġd ate",
      ".. ..",
      "ri e",
      "il ing",
      "Ġw at",
      "k n",
      "Ġm ix",
      "Ġ5 0",
      "Ġfav or",
      "ĠCh urch",
      "Ġc and",
      "Ġn et",
      "Ġal though",
      "1 1",
      "Ġref er",
      "Ġsee ing",
      "Ġatt empt",
      "Ġb ase",
      "Ġans wered",
      "e ep",
      "Ġw est",
      "h ouse",
      "ĠC o",
      "Ġ19 0",
      "ff ic",
      "Ġgl ass",
      "Ġc ivil",
      "ic hard",
      "M e",
      "Ġsum mer",
      "U T",
      "ĠHe y",
      "Ġr ain",
      "ort un",
      "Ġcon side",
      "Ġim medi",
      "Ġconside red",
      "ĠM or",
      "c ast",
      "Ġoffic ial",
      "ĠD ad",
      "ĠD em",
      "Ġ2 6",
      "Ġg ives",
      "ĠJ im",
      "ĠT V",
      "Ġco ff",
      "ib ility",
      "S p",
      "Ġfor t",
      "P l",
      "h od",
      "s hip",
      "Ġe ast",
      "ober t",
      "Ġbro ke",
      "T wo",
      "ock s",
      "ll en",
      "Ġsome where",
      "Ġg rew",
      "Ġ :",
      "ĠGr and",
      "Ġar ms",
      "ree k",
      "Ġb an",
      "s u",
      "if y",
      "Ġdevelop ment",
      "Ġl oved",
      "Ġstand ing",
      "Ġs our",
      "bo ard",
      "Ġpl ant",
      "Ġd ata",
      "it ude",
      "Ġpoint s",
      "ograp hy",
      "re m",
      "Ġnum bers",
      "P ro",
      "Ġc ard",
      "Ġr ail",
      "W hich",
      "Ġen v",
      "Ġtit le",
      "et her",
      "Ġare as",
      "Ġpolit ician",
      "il s",
      "ist rict",
      "F F",
      "b ack",
      "Ġ2 8",
      "w hich",
      "al a",
      "Ġs ize",
      "Ġh ous",
      "ou ps",
      "is es",
      "ĠG eneral",
      "an cy",
      "B r",
      "Ġn ature",
      "Ġt end",
      "Ġcomp an",
      "ĠEurope an",
      "ĠL et",
      "ĠL u",
      "Ġperson al",
      "Ġstru ct",
      "b our",
      "Ġt ired",
      "ent ial",
      "Ġ2 7",
      "Ġm aster",
      "Ġa ud",
      "Ġp ers",
      "Ġg as",
      "ic le",
      "Ġd ig",
      "Ġar my",
      "Ġpur p",
      "Ġro b",
      "W ould",
      "Ġl o",
      "! âĢĿ",
      "Ġpr im",
      "our t",
      "Ġs al",
      "Ġclot hes",
      "at ors",
      "l ie",
      "ur t",
      "ab ility",
      "A b",
      "ar i",
      "act ion",
      "Ġbr ain",
      "w ise",
      "Ġf und",
      "Ġfun ction",
      "Ġinclud ed",
      "H er",
      "r am",
      "ter day",
      "Q u",
      "Ġst ars",
      "P er",
      "ir gin",
      "Ġcomput er",
      "pl ay",
      "Â ´",
      "c hen",
      "Ġst upid",
      "Ġcoll ege",
      "Ġadd ed",
      "ly mp",
      "Ġmom my",
      "ound ed",
      "Ġeduc ation",
      "Ġhe avy",
      "Do es",
      "ist ory",
      "v ille",
      "U m",
      "Ġsha re",
      "Ġs ight",
      "Ġcomplete ly",
      "re ct",
      "Ġrese arch",
      "ĠE n",
      "Ġa ver",
      "ĠC ouncil",
      "Ġcomm and",
      "Ġpriv ate",
      "te red",
      "ra v",
      "v iew",
      "as c",
      "Ġsim ply",
      "Ġspir it",
      "Ġbo at",
      "ol ic",
      "gr ound",
      "ĠW here",
      "ĠEar th",
      "Ġnear ly",
      "no on",
      "ic ated",
      "Ġtre es",
      "ĠMin ister",
      "ĠP al",
      "Ġdire cted",
      "ĠL a",
      "Ġind eed",
      "en a",
      "Ġse arch",
      "g ress",
      "G r",
      "S ure",
      "Ġmod el",
      "Ġcont ract",
      "Ġimp ro",
      "og raph",
      "Ġs cient",
      "V ery",
      "Ġca used",
      "ant ic",
      "Ġdad dy",
      "ĠB el",
      "Ġn ames",
      "b ing",
      "Ġev idence",
      "s et",
      "Ġthan ks",
      "Ġdoub t",
      "Ġt ea",
      "Ġdiffere nce",
      "i que",
      "ĠFran k",
      "ĠSt e",
      "res h",
      "ĠPar is",
      "ĠA g",
      "ra w",
      "ĠBl ack",
      "Ġele ction",
      "R O",
      "Ġc y",
      "i ber",
      "ri ll",
      "Ġt ick",
      "Ġpre p",
      "Ġcontin ued",
      "Ġpr ay",
      "p en",
      "Ġtalk ed",
      "ail s",
      "ĠH en",
      "id ay",
      "b urg",
      "ĠO kay",
      "ĠAustral ia",
      "Ġa ward",
      "os ing",
      "om as",
      "an c",
      "Ġav ail",
      "olog ical",
      "Ġs ens",
      "se c",
      "Ġt our",
      "ĠS ir",
      "Ġw ed",
      "Ġb ow",
      "ru ct",
      "ch ie",
      "p ro",
      "st on",
      "ord s",
      "ĠM ex",
      "ist ics",
      "ĠO lymp",
      "ive ly",
      "Ġbro ken",
      "l o",
      "Ġapp oint",
      "ast ic",
      "Ġfore st",
      "ĠD ep",
      "ĠO K",
      "Ġhist or",
      "Ġind epend",
      "Ġb ud",
      "Ġprom ise",
      "ĠC omp",
      "Ġsound s",
      "ashing ton",
      "Ġgr oups",
      "Ġrad io",
      "ĠS en",
      "Ġwatch ing",
      "Ġno body",
      "Ġwe l",
      "ous ly",
      "Ġatt ention",
      "Ġas soci",
      "AN D",
      "Ġim m",
      "Ġcom fort",
      "Ġhelp ed",
      "Ġwonder ful",
      "Ġsudden ly",
      "led ge",
      "Ġb ur",
      "Ġreg ular",
      "Ġu r",
      "Ġb attle",
      "Ġf oc",
      "Ġl iter",
      "am m",
      "ĠS ch",
      "ĠP at",
      "Ġf le",
      "Ġchar ge",
      "Ġp ath",
      "Ġar rest",
      "il es",
      "n ie",
      "Ġper cent",
      "op h",
      "Ġmar ry",
      "ĠB E",
      "Ġshould n",
      "us hed",
      "ant ly",
      "Ġ20 00",
      "Ġvers ion",
      "az ing",
      "ines e",
      "use um",
      "Ġwar m",
      "Ġth irty",
      "in ist",
      "Ġright s",
      "Ġmean ing",
      "ill a",
      "Ġsp end",
      "Ġestab l",
      "ĠS im",
      "ĠA c",
      "Ġdef e",
      "Ġs and",
      "Ġre ach",
      "Ġbott om",
      "ĠUn ion",
      "Ġbl ow",
      "Ġext ra",
      "ĠA nt",
      "Ġfif ty",
      "Ġshow ed",
      "ĠR eg",
      "ĠC ome",
      "u nder",
      "Ġhappen ing",
      "Ġf it",
      "Ġinterest ed",
      "Ġdo c",
      "Ġr ich",
      "ĠSt reet",
      "ĠMic hael",
      "ER E",
      "L D",
      "Ġar ch",
      "Ġfin ish",
      "itt ee",
      "Ġth reat",
      "Ġ et",
      "Ġl ength",
      "est s",
      "Ġannoun ced",
      "Ġcl osed",
      "Ġre du",
      "Ġopp ortun",
      "Ġl og",
      "ĠColl ege",
      "c ul",
      "he st",
      "ick s",
      "ĠCh ina",
      "Ġp ounds",
      "Ġform ed",
      "Ġf at",
      "us ion",
      "Ġafter noon",
      "Ġn or",
      "Ġfound ed",
      "Ġwe ap",
      "l or",
      "id a",
      "e k",
      "ĠH all",
      "Ġcho ice",
      "ab les",
      "Ġ( )",
      "Ġdis e",
      "Ex cuse",
      "an ish",
      "ĠChrist ian",
      "Ġcall ing",
      "ĠB o",
      "Ġd en",
      "ĠB er",
      "ĠP ort",
      "Ġhig her",
      "T HE",
      "Ġ2 9",
      "Ġbel ow",
      "Ã ³",
      "iron ment",
      "ri a",
      "I M",
      "J ohn",
      "Ġin it",
      "Ġtrain ing",
      "el ve",
      "Ġsp eed",
      "Ġdire ctor",
      "Ġbirth day",
      "ber g",
      "Ġnorm al",
      "Ġwere n",
      "Ġmar riage",
      "ele br",
      "av es",
      "Ġstre ng",
      "i el",
      "ĠG reen",
      "ak er",
      "Ġno vel",
      "ĠO N",
      "os ition",
      "b on",
      "C ar",
      "Ġact or",
      "ĠN or",
      "ĠD istrict",
      "Ġmur der",
      "A m",
      "S T",
      "ot ed",
      "ib ly",
      "y ear",
      "Ġtem per",
      "Ġt ast",
      "il ities",
      "Ġdec l",
      "Ġmet hod",
      "is f",
      "Ġstart ing",
      "ran k",
      "ĠJ ew",
      "Ġfell ow",
      "Ġha ll",
      "am n",
      "s es",
      "or ing",
      "Ġ200 5",
      "ific ation",
      "ĠC r",
      "Ġb right",
      "as ion",
      "at ives",
      "ord er",
      "z a",
      "Ġs cience",
      "Ġsp oke",
      "ap ers",
      "Ġst ories",
      "Ġ Ã",
      "ĠP enn",
      "Ġ18 9",
      "Ġcar ried",
      "Ġacc ident",
      "Ġdevelop ed",
      "ĠIn ternational",
      "Ġl ower",
      "Ġman age",
      "Ġs ite",
      "pp ing",
      "Ġoff er",
      "Ġlove ly",
      "Ġend ed",
      "Ġcent er",
      "al y",
      "all ey",
      "ap t",
      "Ġwor se",
      "Ġchan ges",
      "ĠW ashington",
      "Ġdet erm",
      "Ġcoff ee",
      "Ġp sych",
      "o id",
      "w est",
      "ar ies",
      "ĠP ri",
      "ĠIt s",
      "Ġavail able",
      "ra g",
      "Ġex ec",
      "Ġl if",
      "ar ily",
      "ent al",
      "Ġso ciety",
      "ĠYou r",
      "ĠChrist mas",
      "Ġlead er",
      "Ġh uge",
      "Ġass ist",
      "ĠCan ada",
      "Ġw a",
      "t r",
      "Ġst ates",
      "ph one",
      "i j",
      "Ġdec ision",
      "Ġfe ed",
      "ĠN e",
      "ĠAr my",
      "U N",
      "Ġs now",
      "Ġin j",
      "Ġreg ard",
      "Ġearli er",
      "Ġaver age",
      "Ġp un",
      "ĠT ur",
      "Ġmach ine",
      "Ġte xt",
      "Ġput ting",
      "ĠM a",
      "W as",
      "ĠA lex",
      "Ġschool s",
      "Ġexpl ain",
      "Ġcap t",
      "se qu",
      "w hy",
      "Ġb i",
      "Ġu nd",
      "Ġyes terday",
      "Ġmess age",
      "Ġbus y",
      "Ġacc ess",
      "Ġl ines",
      "Ġde b",
      "Ġh ol",
      "Ġr out",
      "ĠQue en",
      "Ġb es",
      "ut s",
      "Ġsp read",
      "P eople",
      "ĠO ld",
      "Ġc ustom",
      "Ġpl us",
      "On ly",
      "ĠM al",
      "Ġep is",
      "Ġmov ies",
      "Ġmove ment",
      "ĠAfric a",
      "A LL",
      "Ġag ree",
      "an n",
      "e es",
      "f ast",
      "Ġsong s",
      "ĠC he",
      "l van",
      "ĠT ex",
      "Ġno se",
      "Ġcre ate",
      "ĠAN D",
      "Ġlear ned",
      "Ġmil k",
      "Ġr ide",
      "inite ly",
      "ol f",
      "um mer",
      "D ad",
      "Ġc ases",
      "F irst",
      "oss ible",
      "I GH",
      "Ġp age",
      "Ġrelations hip",
      "Ġ4 0",
      "Ġcon du",
      "Ġcare ful",
      "Ġhe ro",
      "Ġestabl ished",
      "Ġm or",
      "Ġocc ur",
      "ar m",
      "S ir",
      "Ġhon est",
      "ĠM ark",
      "Ġin ternational",
      "Ġ ..",
      "Ġ200 4",
      "Ġg arden",
      "Ġc elebr",
      "Ġlea ves",
      "li ament",
      "Ġb ath",
      "ĠM E",
      "Ġy ellow",
      "ha d",
      "Ġdem and",
      "au g",
      "Ġsu it",
      "Ġh un",
      "w r",
      "r at",
      "Ġr ule",
      "ĠA ward",
      "od ay",
      "Ġst yle",
      "Ġleg s",
      "Ġlik ed",
      "Ġjo in",
      "Ġfa ith",
      "ac ing",
      "Ġsqu are",
      "Ġd an",
      "Ġsing er",
      "ĠLou is",
      "Ġp red",
      "ourn al",
      "ov es",
      "Ġterri ble",
      "lvan ia",
      "Ġn one",
      "em s",
      "S E",
      "Ġinvest ig",
      "Ġnec k",
      "it a",
      "Ġc ensus",
      "u x",
      "Ġbr an",
      "ens ion",
      "Ġev ents",
      "Ġprodu ction",
      "ĠS at",
      "Ġsk y",
      "Ġk it",
      "Ġsc ared",
      "Ġfa ult",
      "ĠItal ian",
      "Ġcorn er",
      "Ġmunicip ality",
      "k es",
      "ĠCap tain",
      "Ġprin ci",
      "S c",
      "Ġ ought",
      "Ġg ar",
      "Ġst one",
      "Ġcont act",
      "W h",
      "am s",
      "ĠWh ite",
      "se y",
      "Ġd ry",
      "Ġsm ell",
      "Ġc up",
      "ĠR ichard",
      "Ġe ating",
      "ess ion",
      "in n",
      "Ġd rop",
      "Ġanim al",
      "ĠR ob",
      "Ġche m",
      "l im",
      "ĠCh inese",
      "ĠIs land",
      "Ġide as",
      "on el",
      "Ġthere fore",
      "ap s",
      "hi b",
      "a ign",
      "ick ed",
      "Ġpro f",
      "ight s",
      "ĠO f",
      "eder al",
      "ru pt",
      "ĠK ore",
      "M hm",
      "Ġc oun",
      "et ic",
      "Ġf ol",
      "er c",
      "y ond",
      "Ġw it",
      "ha nd",
      "Ġimmedi ately",
      "uz z",
      "il ies",
      "ĠP et",
      "Ġfl owers",
      "as ing",
      "Ġsk in",
      "ĠF rom",
      "Ġc ow",
      "G u",
      "Ġhe y",
      "in i",
      "ce an",
      "Ġ18 6",
      "ĠB ill",
      "ĠM ont",
      "Ġc red",
      "cc ording",
      "Ġlike ly",
      "Ġ20 21",
      "ĠV irgin",
      "le ar",
      "Ġbe ll",
      "Ġt all",
      "Ġcl im",
      "us ing",
      "Ġsign ed",
      "Ġwel come",
      "Ġfar m",
      "sy lvania",
      "W H",
      "ic ago",
      "ott en",
      "Ġra ised",
      "Ġl ying",
      "Ġpiec es",
      "Ġdist ance",
      "it ation",
      "b an",
      "Ġold er",
      "st airs",
      "os es",
      "o om",
      "kn own",
      "Ġmost ly",
      "Ġbelie ved",
      "Ġf rog",
      "ĠC ong",
      "er ved",
      "Ġben ef",
      "Ġ ir",
      "Ġthe ory",
      "Ġc amer",
      "W E",
      "Ġnecess ary",
      "y er",
      "ĠRuss ian",
      "Ġspec ific",
      "it ar",
      "Ġar g",
      "Ġch ief",
      "g en",
      "as ant",
      "Ġse vent",
      "ist an",
      "Ġac qu",
      "oo p",
      "Ġdisc overed",
      "ĠR es",
      "ĠâĢ ĺ",
      "Ġco ast",
      "A K",
      "i ot",
      "d a",
      "Ġcontin ue",
      "ĠM il",
      "raz il",
      "Ġserv ices",
      "st e",
      "m hm",
      "Ġr u",
      "ĠTex as",
      "ĠM ag",
      "Ġarri ved",
      "Ġdep end",
      "k er",
      "Ġst orm",
      "Ġcon vers",
      "N ever",
      "ĠSw ed",
      "Ġcr ime",
      "ĠPr ince",
      "Ġwalk ed",
      "ver t",
      "k in",
      "Ġtr uck",
      "Ġ ut",
      "Ġele cted",
      "g ood",
      "Ġbe yond",
      "Ġsuccess ful",
      "k et",
      "Ġre pe",
      "Ġsp l",
      "ut ch",
      "ĠJ esus",
      "Ġsc ene",
      "Ġag ed",
      "at ory",
      "ĠR ec",
      "ĠS T",
      "ĠW H",
      "Ġform ula",
      "Ġsw im",
      "ĠB ro",
      "Ġindivid ual",
      "ĠS und",
      "D r",
      "ĠT e",
      "Ġimag ine",
      "Ġfight ing",
      "w are",
      "ĠC ourt",
      "Ġwe ak",
      "ol s",
      "Ġ199 0",
      "f ather",
      "Ġd ouble",
      "ĠAn ge",
      "Ġoffic er",
      "y l",
      "Ġint ell",
      "ĠPenn sylvania",
      "Ġsp ot",
      "Ġc overed",
      "t t",
      "C ould",
      "Ġrev iew",
      "Ġm oon",
      "Ġ200 1",
      "ĠR obert",
      "Ġpract ice",
      "ĠA ct",
      "Ġgo al",
      "ore s",
      "Ġcoll ect",
      "Ġenv ironment",
      "Ġadd ress",
      "ate g",
      "Ġatt ract",
      "Ġt ar",
      "Ġread ing",
      "Ġc ab",
      "Ġ ess",
      "ĠĠĠĠ ĠĠĠ",
      "Ġcr ow",
      "Ġpr ice",
      "Ġap art",
      "Ġpartic ip",
      "Ġre ve",
      "Ġtell s",
      "ĠAr t",
      "ĠD uring",
      "ĠDem ocr",
      "g l",
      "Ġb le",
      "or ks",
      "Ġph il",
      "Ġspeak ing",
      "Ġb oss",
      "Ġhold ing",
      "um ents",
      "ĠSc ott",
      "Ġdist ribut",
      "Ġwed ding",
      "ĠM ac",
      "4 0",
      "or a",
      "Ġwalk ing",
      "Ġdescri bed",
      "ist ed",
      "i ation",
      "ĠI S",
      "Ġre lease",
      "w h",
      "ĠChar les",
      "Ġfour th",
      "Ġpurp ose",
      "Ġm ic",
      "Ġe mer",
      "Ġp an",
      "Ġpr int",
      "Ġrul es",
      "ĠKing dom",
      "Ġadm inist",
      "Ġiss ue",
      "Ġfem ale",
      "Ġpict ures",
      "Ġ18 8",
      "Ġang ry",
      "Ġt ail",
      "ac hing",
      "ĠM ount",
      "i ant",
      "w ould",
      "Ġp ig",
      "ĠJ ul",
      "; &",
      "Ã ¤",
      "Ġmount ain",
      "Ġr ap",
      "Ġfor ces",
      "and a",
      "Ġsh own",
      "ĠSp anish",
      "it iz",
      "Ġsett le",
      "Ġran ge",
      "Ġtw ice",
      "Ġpos itive",
      "e ff",
      "Ġo il",
      "N A",
      "Ġrepl ied",
      "Ġen emy",
      "ar ling",
      "Ġ198 0",
      "Ġf resh",
      "i ents",
      "c is",
      "ri f",
      "ul f",
      "Ġt ro",
      "ĠHen ry",
      "v a",
      "c a",
      "at in",
      "Ġsl ight",
      "Y OU",
      "ri al",
      "ĠL aw",
      "ed y",
      "Ġtr ade",
      "I R",
      "Ġlot s",
      "ĠB razil",
      "ĠC han",
      "ian a",
      "Ġsur face",
      "B C",
      "Ġstreng th",
      "Ġ200 3",
      "Ġs le",
      "Ġdanger ous",
      "Ġr ate",
      "Ġb ound",
      "le cted",
      "Ġacc ording",
      "Ġch ick",
      "ict or",
      "Ġa chie",
      "Ġdire ction",
      "P ut",
      "Ġl ink",
      "Ġsold iers",
      "u f",
      "Ġsat isf",
      "Ġh ide",
      "Ġl oss",
      "all ed",
      "Ġeas ily",
      "C he",
      "ĠB ob",
      "Ġde but",
      "Ġmem ory",
      "Ġlet ters",
      "u ke",
      "W ow",
      "is ters",
      "Ġcall s",
      "ĠS ov",
      "ic ate",
      "Ġknow ledge",
      "ĠG old",
      "ash ion",
      "Ġrecord ed",
      "u pp",
      "L A",
      "Ġpress ure",
      "Ġs ac",
      "Ġdes p",
      "ĠBr own",
      "Ġr ub",
      "Ġproper ty",
      "Ġnot ice",
      "ĠM at",
      "iz ing",
      "ad emy",
      "Ġ200 2",
      "Ġmiss ing",
      "ĠTH AT",
      "Ġm ir",
      "m ar",
      "ĠSov iet",
      "an ge",
      "ĠD O",
      "Ġstud ent",
      "2 5",
      "l am",
      "Ġnew sp",
      "Ġtw elve",
      "Ġem pt",
      "Ġsp e",
      "Ġc ru",
      "c ause",
      "Ġd er",
      "Ġyou th",
      "Ġhas n",
      "Ġro se",
      "ul ations",
      "d en",
      "et te",
      "ĠD ay",
      "Ġl oad",
      "ir ing",
      "ĠD el",
      "ot a",
      "Ġ20 22",
      "Ġch oose",
      "Ġp et",
      "Ġfre qu",
      "R em",
      "Ġpr oud",
      "Ġan cient",
      "Ġteam s",
      "ĠItal y",
      "Ġpl aced",
      "ĠCh icago",
      "S ha",
      "Ġcar s",
      "ĠAn ne",
      "is ions",
      "Ġre b",
      "Ġbr idge",
      "Ġent ered",
      "Ġthink s",
      "Every thing",
      "G ot",
      "ose ph",
      "U R",
      "ĠR oyal",
      "ĠS al",
      "Ġh ors",
      "ĠT own",
      "C on",
      "on a",
      "r s",
      "Ġco ach",
      "Ġhon or",
      "Ġplay ers",
      "ab or",
      "Ġsign ific",
      "ent h",
      "Ġdoll ars",
      "ve re",
      "d own",
      "Ġin tern",
      "Ġkit chen",
      "Ġany where",
      "Ġext reme",
      "Ġsp ring",
      "Ġmist ake",
      "Ġcamp aign",
      "Ġdro pped",
      "z en",
      "ĠHe re",
      "Th ose",
      "m ark",
      "idd en",
      "Ġfl at",
      "Ġrem ain",
      "Ġre n",
      "ad ian",
      "Ġforg ot",
      "F uck",
      "B ye",
      "ve y",
      "om s",
      "Ġsec urity",
      "el ess",
      "Ġ18 7",
      "Ġdeg ree",
      "S ince",
      "ĠK en",
      "ĠP e",
      "Ġop in",
      "se mb",
      "Ġwe ight",
      "Ġbr own",
      "Ġthrough out",
      "Ġcond ition",
      "Ġdise ase",
      "Ġl unch",
      "b ecause",
      "K eep",
      "A meric",
      "H istory",
      "Ġcap tain",
      "ign ed",
      "our s",
      "Ġbig ger",
      "EN T",
      "A d",
      "Ġbird s",
      "Ġb ab",
      "Ġwh is",
      "ĠF irst",
      "Ġinclud es",
      "Ġlead ing",
      "Ġqu al",
      "gy pt",
      "ĠCar ol",
      "Ġpolic y",
      "Ġt aught",
      "L e",
      "Ġabs olutely",
      "Ġvict im",
      "Ġun less",
      "s ing",
      "it ect",
      "Ġdam n",
      "Ġgrad u",
      "Ġopportun ity",
      "L ea",
      "V ER",
      "Ġwr iter",
      "G reat",
      "Ġfam ilies",
      "ĠP eople",
      "Ġcent ral",
      "iet y",
      "Ġhous es",
      "al ed",
      "Ġsystem s",
      "Ġm um",
      "ĠS ar",
      "H old",
      "stit ute",
      "ĠAs soci",
      "Ġsurpr ise",
      "ip e",
      "Ġbl ock",
      "ĠT hank",
      "Ġcor rect",
      "Ġmag az",
      "Ġgu ard",
      "Ġstud ied",
      "Ġst aff",
      "Ġevent ually",
      "Ġ rom",
      "Ġsur r",
      "ĠD iv",
      "ĠG O",
      "Ġsh oes",
      "ĠJ oe",
      "iver se",
      "Ġris k",
      "ĠF red",
      "at o",
      "ĠI ll",
      "Ġc ities",
      "w in",
      "ic ious",
      "ub e",
      "Ġfor ty",
      "Ġg e",
      "g n",
      "ĠC ath",
      "Ġprov ince",
      "Ġob viously",
      "19 9",
      "Ġnot e",
      "Ġgrow ing",
      "Ġpr ince",
      "Ġmed ical",
      "Ġwor ried",
      "E n",
      "ant a",
      "Ġ197 0",
      "ha l",
      "Ġsmall er",
      "Ġconst it",
      "Ġbe g",
      "est y",
      "Ġv an",
      "T om",
      "ot ion",
      "Ġbec omes",
      "ro at",
      "Ġm m",
      "Ġesc ape",
      "Ġpo ck",
      "Ġdri ving",
      "w hen",
      "Ġus es",
      "Ġmur d",
      "re ci",
      "ĠD es",
      "Ġmag n",
      "b es",
      "Ġth ou",
      "um ber",
      "Ġte ach",
      "Ġfor ced",
      "ĠW il",
      "est ival",
      "Ġrem ained",
      "Ã ¨",
      "ĠS ing",
      "Ġl aid",
      "Ġcan cer",
      "Ġman ager",
      "Ġtri p",
      "Ġent er",
      "Ġrun s",
      "as y",
      "Ġhig hest",
      "Ġslow ly",
      "Ġresult s",
      "Ġstud io",
      "Ġdis p",
      "ĠB ay",
      "Ġty pes",
      "Ġocc up",
      "Ġsc reen",
      "ĠSc ot",
      "Ġprov ide",
      "ĠM any",
      "Ġp ush",
      "Ġagre ed",
      "Ġmult ip",
      "---- ----",
      "_ ,",
      "S e",
      "ru it",
      "Ġcha llen",
      "Ġsm ile",
      "Ġbrother s",
      "Ġmention ed",
      "Ġimp ossible",
      "Ġpick ed",
      "Ġparticular ly",
      "Ġam azing",
      "m it",
      "Ġluck y",
      "ĠSm ith",
      "Ġkind s",
      "k ins",
      "Al right",
      "Ġn ation",
      "Ġopen ing",
      "Ġbreat h",
      "Ġgr ass",
      "ed om",
      "y r",
      "Ġth us",
      "Ġ 00",
      "tain ed",
      "Ġinter view",
      "ĠC om",
      "C K",
      "ĠH E",
      "ic les",
      "Ġexpect ed",
      "N ew",
      "Ġact ress",
      "Ġn omin",
      "od es",
      "h ost",
      "Ġhe aven",
      "ĠE r",
      "ac hes",
      "ĠM o",
      "Ġcurrent ly",
      "Ġsa ved",
      "Ġpl ans",
      "Ġart ist",
      "ĠJ er",
      "ra el",
      "r ough",
      "l aw",
      "Ġc ro",
      "g ent",
      "Ġv ote",
      "Ġun iversity",
      "Ġm a",
      "ic ations",
      "' .",
      "be red",
      "Ġwear ing",
      "Ġplan et",
      "Somet hing",
      "ok en",
      "Ġin vent",
      "M om",
      "ul ous",
      "Ġhung ry",
      "im in",
      "O oh",
      "Ġwe ird",
      "uck y",
      "Ġbre ad",
      "Ġc ode",
      "and y",
      "Ġple asure",
      "Ġhe at",
      "Ġplan e",
      "r ang",
      "Ġfor th",
      "Ġadd ition",
      "Ġperform ance",
      "Ġf irm",
      "Ġh ole",
      "ĠL ittle",
      "Ġun cle",
      "ĠW in",
      "Ġelect ric",
      "Ġcompet ition",
      "ha ve",
      "I ON",
      "P r",
      "ak ed",
      "M iss",
      "ip s",
      "Ġlar ger",
      "Ġsha d",
      "Ġmiss ion",
      "Ġlead ers",
      "Ġmin us",
      "Ġindust ry",
      "w ill",
      "Ġsh out",
      "Ġbreak fast",
      "Ġh ill",
      "Ġty p",
      "Ġwin ter",
      "Ġcon cept",
      "ĠE gypt",
      "ist ry",
      "Ġdesign ed",
      "A ct",
      "ar row",
      "ĠB ur",
      "Ġgener ally",
      "Ġr ough",
      "as tern",
      "Ġreport ed",
      "Ġbl ind",
      "ĠCent ral",
      "Ġstart s",
      "C har",
      "Ġpo et",
      "the n",
      "Ġsha pe",
      "Ġrel ated",
      "ĠB et",
      "Ġsus p",
      "Ġto ward",
      "Ġfing er",
      "Ġst uck",
      "ĠS un",
      "Ġstruct ure",
      "ĠR ock",
      "st ood",
      "ĠF ather",
      "Ġcompan ies",
      "ve ll",
      "Ġ199 9",
      "Ġbri ef",
      "ic an",
      "Ġpre vent",
      "Ġlik es",
      "v i",
      "ĠTh omas",
      "Ġsm art",
      "f riend",
      "Ġhur ry",
      "ĠI r",
      "Ġwe ather",
      "Ġcomp let",
      "ĠPr in",
      "i qu",
      "Ġt ape",
      "ĠL ee",
      "Ġpain t",
      "igh s",
      "ag n",
      "Ġc itiz",
      "6 0",
      "âĻ «",
      "Ġs ides",
      "Ġgreat est",
      "Ġlear ning",
      "is l",
      "Ġfin an",
      "ĠM om",
      "Ġstru gg",
      "Ġdef initely",
      "ĠAc ademy",
      "os h",
      "Ġy a",
      "Ġfeat ures",
      "ce nd",
      "Ġhot el",
      "Ġperform ed",
      "is hes",
      "Ġf right",
      "Ġb al",
      "Ġtrans l",
      "Th ree",
      "ĠVirgin ia",
      "Ġcult ure",
      "ĠM et",
      "Ġaw are",
      "fess or",
      "Ġcent re",
      "Ġhors es",
      "Ġform s",
      "Ġs en",
      "Ġp air",
      "Ġ iron",
      "Ġfore ign",
      "ans as",
      "Ġneg ative",
      "Ġpl ants",
      "Ġiss ues",
      "Ġspe ech",
      "ĠAt l",
      "ol a",
      "Ġrem ark",
      "Ġs ch",
      "H uh",
      "Ġpower ful",
      "Ġv ac",
      "Ġev il",
      "Ġret ired",
      "en ing",
      "Ġsil ver",
      "ĠR oad",
      "Ġfill ed",
      "Ġjud ge",
      "Ġs ection",
      "ĠG reek",
      "he red",
      "Ġsour ce",
      "as hed",
      "Ġpat ient",
      "Ġc rew",
      "Ġth ick",
      "ĠB oy",
      "Ġgreat er",
      "b re",
      "Ġd uty",
      "im a",
      "ĠE mp",
      "IGH T",
      "Ġinst r",
      "Ġcomple x",
      "Ġphil os",
      "ĠM ost",
      "Ġcrow d",
      "Ġsing ing",
      "Ġcha p",
      "Ġord ers",
      "ut en",
      "Ġcond itions",
      "Ġcal m",
      "Ġbl ess",
      "Ġhand le",
      "Ġhar m",
      "ell e",
      "os ite",
      "w ar",
      "OM E",
      "Ġbas ket",
      "Ġempt y",
      "Ġturn s",
      "S ay",
      "f rom",
      "ĠF il",
      "Ġl ack",
      "Ġex cl",
      "Ġcr ack",
      "ĠMex ico",
      "Ġr ank",
      "ĠD id",
      "cl ock",
      "ĠAfric an",
      "ĠChampions hip",
      "On ce",
      "ĠAr ab",
      "Ġblood y",
      "ic ine",
      "Ġquar ter",
      "Ġte eth",
      "Ġhead s",
      "Ġser ve",
      "Ġm ut",
      "ec k",
      "Ġst eal",
      "Ġoff ered",
      "gg ed",
      "Ġre asons",
      "im ately",
      "ĠF ore",
      "L Y",
      "ur ry",
      "ĠH ill",
      "z z",
      "Ġme re",
      "ĠC ont",
      "Ġed ge",
      "ĠF ox",
      "I F",
      "Ġbeaut y",
      "Ġorigin ally",
      "Ġwit ness",
      "ĠC H",
      "our ney",
      "Ġsp ell",
      "Ġstand ard",
      "Ġincre ase",
      "Ġreal ize",
      "y an",
      "ut ive",
      "ĠF in",
      "ĠMart in",
      "Ġj oy",
      "ĠCong ress",
      "Ġo pt",
      "Ġbig gest",
      "Ġour selves",
      "ĠW estern",
      "Ġne ither",
      "ĠFl or",
      "Ġm ale",
      "Ġbec oming",
      "fort un",
      "c ons",
      "oc key",
      "b a",
[...]
