<pad>
<s>
</s>
<unk>
!
"
#
$
%
&
'
(
)
*
+
,
-
.
/
0
1
2
3
4
5
6
7
8
9
:
;
<
=
>
?
@
A
B
C
D
E
F
G
H
I
J
K
L
M
N
O
P
Q
R
S
T
U
V
W
X
Y
Z
[
\
]
^
_
`
a
b
c
d
e
f
g
h
i
j
k
l
m
n
o
p
q
r
s
t
u
v
w
x
y
z
{
|
}
~
¡
¢
£
¤
¥
¦
§
¨
©
ª
«
¬
®
¯
°
±
²
³
´
µ
¶
·
¸
¹
º
»
¼
½
¾
¿
Â
Ã
Ä
Å
Æ
Ç
È
É
Ê
Ë
Ì
Í
Î
Ï
Ð
Ñ
Ò
Ó
Ô
Õ
Ö
×
Ø
Ù
Ú
Û
Ü
Ý
Þ
à
á
â
ã
ä
å
æ
ç
è
é
ê
ë
ì
í
î
ï
ð
ĉ
Č
Ġ
ġ
Ģ
ģ
Ĥ
ĥ
Ħ
ħ
Ĩ
ĩ
Ī
ī
Ĭ
ĭ
Į
į
İ
ı
Ĳ
ĳ
Ĵ
ĵ
Ķ
ķ
ĸ
Ĺ
ĺ
Ļ
ļ
Ľ
ľ
Ŀ
ŀ
Ł
ł
Ń
##E
##N
##i
##g
##e
##r
##a
##z
##h
##n
##T
##u
##m
##t
##o
##Ã
##³
##s
##S
##c
##d
##l
##R
##Å
##¡
##v
##Ä
##ĩ
##A
##P
##I
##H
##p
##y
##f
##J
##D
##w
##b
##W
##G
##¦
##K
##C
##B
##L
##M
##k
##©
##O
##ª
##X
##U
##ĵ
##6
##8
##1
##4
##V
##¨
##j
##x
##į
##ï
##»
##¿
##Y
##«
##Z
##Ñ
##ĥ
##Ð
##±
##Ĭ
##µ
##º
##Ĥ
##Ľ
##0
##5
##9
##¤
##3
##F
##¶
##ģ
##7
##â
##Ģ
##Ļ
##"
##ľ
##(
##q
##}
##,
##Ê
##²
##è
##Ĺ
##ç
##Ķ
##°
##å
##ħ
##Q
##.
##Î
##Ī
##ł
##á
##2
##'
##;
##)
##ŀ
##½
##¾
##Ħ
##§
##*
##ĺ
##´
##ì
##¹
##®
##ļ
##à
##Į
##ê
##Ł
##]
##-
##æ
##ĳ
##ä
##¸
##ĭ
##é
##¥
##ı
##¢
##ķ
##í
##ë
##£
##Ń
##ī
##/
##+
##Â
##¼
##Ĳ
##ã
##Ï
##·
##Ø
##Ù
##¯
##Ĵ
##Ŀ
##×
##İ
##ĸ
##Ĩ
##~
##&
##:
##¬
##È
##Ú
##Ë
##É
##_
##|
##\
##[
##?
##{
##!
##^
##=
###
##Û
##@
##Ö
##<
##Ġ
##$
##Æ
##`
##Ó
##Ò
##>
##Ô
##Õ
##Ç
##%
##ġ
##Í
##Ì
##ð
##Þ
##Ü
##Ý
Ġt
##he
Ġa
##in
Ġthe
##re
Ġw
##ou
Ġs
##on
##er
##at
##nd
##is
##it
Ġb
Ġo
Ġc
Ġm
##an
Ġf
##ing
##or
Ġh
##ed
##ll
Ġd
##en
Ġto
##es
Ġth
##ar
Ġp
Ġy
Ġof
##as
Ġin
Ġyou
Ġand
Ġl
Ġg
##om
Ġn
ĠI
##ic
##ow
##ve
##al
##ot
##et
Ġhe
##le
##us
's
##ay
Ġit
Ġbe
Ġis
Ġthat
Ġon
##ion
##id
Ġe
##ad
##gh
##ld
##ut
Ġre
##ent
Ġwas
##im
##ac
Ġwe
##ver
##am
Ġwh
Ġfor
ĠS
##ly
##ri
##ro
ĠT
##st
##ir
Ġ.
##ke
Ġst
Ġha
##se
't
##oo
##ght
ĠA
##out
ĠC
##ith
Ġme
##all
ĠM
Ġk
Ġu
Ġan
Ġwith
##ur
##ec
Ġdo
Ġas
##her
##ill
##ch
##ter
##if
ĠH
##ome
Ġ1
##ce
ĠB
The
##hat
Ġare
##il
Ġhave
Ġnot
Ġat
Ġthis
##ould
##ust
Ġse
##ant
##ra
Ġgo
Ġli
##ation
Ġkn
##op
ĠP
##ea
##ĠĠ
##un
ĠW
##..
##ol
##ge
##ell
##our
##ul
Ġhis
##rom
Ġ,
Ġsh
Ġknow
##ore
Ġ"
Ġj
ĠD
Ġne
##ain
##pp
##el
ĠG
##ct
##and
##art
Ġcan
...
##um
You
Ġ?
##ist
Ġso
Ġyour
Ġ2
Ġall
Ġthey
Ġmy
##est
Ġal
ĠThe
##em
ĠL
ĠR
Ġab
##ers
ĠF
Ġby
Ġfrom
##ess
Ġwhat
Ġr
ĠN
##os
##th
Ġher
##ight
Ġor
Ġone
##nt
Ġwhe
Ġcon
##ie
ĠJ
Ġup
Ġch
##ig
##ard
Ġthere
##ab
##red
're
Ġhad
##ally
Ġsu
Ġcom
##ry
Ġdon
##qu
##ate
##ack
Ġout
Ġbut
Ġhim
Ġwor
##ood
##ook
Ġpl
##very
##ake
##res
##ive
Ġde
Ġlike
Ġ(
Ġus
##ame
Ġshe
'm
##od
##ong
ĠE
##ink
Ġpro
##ast
It
Ġ19
Ġabout
Ġget
ĠO
Ġv
Ġsa
Ġex
Ġwere
##ound
##ort
##ind
##ich
##one
##ap
##ck
##ity
Ġjust
And
##ber
Ġsp
##ear
##right
He
Ġ20
##ak
##ies
##ect
Ġdid
##ep
Ġwho
Ġhere
Ġno
##eah
##ime
##ine
Ġthem
Ġwant
'll
Ġman
Ġif
Ġwould
##ud
Ġthink
Ġ'
##ous
##ven
Ġwill
What
Ġsome
##hing
Ġint
ĠK
##own
##ost
##itt
##ice
Ġany
##ment
##ag
Ġright
##ide
Ġhas
ĠY
##ough
Ġgot
##ther
##use
ĠHe
Ġsee
Ġwhich
Ġwhen
##ure
Ġar
Ġsay
##iv
Ġag
##end
##ip
Ġtw
We
##ian
##ia
Ġbeen
Ġtime
##are
##way
ĠIt
##ace
Ġsaid
##ove
've
Ġpe
Ġbec
##ff
ĠU
##ick
Ġnow
Ġcl
Th
Ġtr
##ose
##ish
##ĠĠĠĠ
##ause
Ġlook
##ople
##na
Ġle
##reat
##âĢ
Ġmore
##ary
Ġtheir
Ġgoing
Ġthen
##ree
Ġcould
So
âĢ
##other
No
##ue
Ġother
Ġ=
Ġback
Ġover
##ond
Ġoff
##so
##ite
##irst
ĠSt
##age
##ank
##ere
But
##ew
Ġpeople
Ġqu
##orn
##ang
##ble
Ġro
ĠCh
##act
Ġthing
##ass
Ġwork
Oh
Ġvery
Ġtwo
##ount
##pl
That
##fter
##ase
##ire
Ġgood
##pt
##ord
##per
Yeah
Ġtoo
##og
##sel
##ub
##omet
Ġen
##ans
##ated
Ġfirst
##ance
##ittle
##erm
##kay
Ġinto
##mer
##ov
##ions
##ade
##alk
##oll
##hed
##oy
Ġdown
Ġhow
##hy
Ġyear
Ġun
Ġpart
Ġway
##ial
Ġgr
Ġbr
##oc
Ġpr
##iz
Ġour
##ild
Ġam
Ġcall
##ought
Ġlittle
##ach
##ne
Ġcome
Ġbl
ĠIn
Ġsc
Ġplay
Ġalso
Ġim
Ġonly
ĠV
##ater
##nder
Ġwhere
Ġevery
##cc
Ġagain
##here
##ife
Well
##av
##urn
##wn
Ġad
Ġsomet
Ġday
Ġneed
Ġbet
##ru
Ġ201
##uch
##ty
##iss
Ġfe
##ress
Ġact
."
Ġmake
##ark
Ġwell
Ġtake
##ence
Ġafter
##ile
##fore
Ġgu
In
##00
##self
##ng
##ory
Ġbecause
Ġcont
##we
##au
Ġthan
##able
##ical
Ġcomp
Ġdis
Ġte
##ign
Ġlet
##thing
Ġreally
##orm
Ġshould
##uck
Ġpre
##ict
Ġtell
##ool
Ġhapp
##hen
##ob
##ather
Ġwr
##int
##les
##ens
Ġthr
##ied
##onna
##ull
##ft
Ġapp
Ġunder
Ġthese
Ġmuch
Ġdoes
Ġfl
##ult
Ġsomething
This
Ġnew
ĠTh
Ġres
Ġput
##old
##ody
Ġgonna
Ġpo
Ġper
Ġmean
Ġmade
They
##ons
and
##--
##iff
Ġlong
'd
the
##ious
##ath
Ġser
ĠUn
##ving
##amp
##ved
--
Ġtalk
Ġnever
Ġinc
##land
Yes
##ations
She
Ġbefore
##ock
Ġer
##ates
Ġeven
Ġmay
##ting
##du
##ily
Ġits
Ġcar
##ouse
Ġbu
Ġdidn
Ġrem
##ady
ĠâĢ
Ġcomm
##ee
Ġ3
Ġke
There
Ġsm
##ave
Ġrec
##vers
Ġyears
##ho
##port
##ition
##ember
##anc
##ors
##ren
##ise
##ix
Ġhand
##ually
##ward
##lp
##aw
##ited
Ġmany
Ġthrough
##ried
Ġ200
##mp
If
Ġold
Ġsec
##air
##ful
##ail
you
##vel
##be
##igh
Ġmost
Ġstart
Ġthree
Ġgreat
Ġdiff
##ince
th
Ġlife
Ġthings
##get
Ġthought
Ġfound
How
Ġhelp
Ġthose
Ġbel
Ġstill
##âĢĿ
##oss
Ġaway
##ever
##ves
Ġdes
Ġused
Ġfind
##ings
##oot
##tain
Ġask
Ġ''
Ġlove
##irl
Ġmust
Ġhome
##hes
Ġlast
##riend
Ġdoing
Ġi
Ġco
##imes
##day
Ġcr
##oh
Ġra
##ents
Ġown
Ġshow
what
Ġlea
##meric
##ational
##ny
##lease
Ġwent
Ġgive
Ġ!
Ġcame
##xt
Ġmin
##oney
Ġend
##Ļª
##ened
Ġbeing
Ġatt
##gin
##tern
Ġwon
Ġname
ĠMr
##ction
ĠShe
Ġcount
##ange
Ġcalled
##ont
##chool
##atch
##pe
Ġmov
##ait
##ah
##gan
Ġfam
".
##oth
Do
Ġ18
Ġsame
Now
##als
Ġchild
##ways
Ġdec
##ars
Ġcare
##ph
Ġsuch
##body
ĠYou
Ġcour
##ning
##te
Ġkind
Why
##aking
Ġfeel
##ib
Ġtry
Ġbig
##ident
##ug
ĠAmeric
Ġtra
Ġhead
Ġlot
Ġnight
âĢĻ
##oup
##IN
Ġworld
Ġsupp
Ġwhy
Ġplace
Ġsl
Ġpol
##ased
##my
##ĠĠĠĠĠĠĠĠ
##erson
##ci
##up
Ġdiffere
##any
##ss
Ġwom
Ġaround
##ER
Ġfin
Ġfriend
ĠMar
Ġnum
##ute
Ġkill
##ced
##ating
Ġgirl
##outh
Let
##side
ĠĠĠ
##form
##uring
Ġuse
##ower
Ġind
Ġacc
##ubl
ĠBr
Ġmight
Ġreg
Ġop
``
##man
Ġanother
Ġmar
##und
Ġrel
Ġ4
##hip
Don
Ġset
Ġturn
Ġche
##arly
##ork
##orry
Ġele
##pect
##ween
Ġhouse
Ġalways
##lud
Come
##ener
##ics
##arl
##ys
Ġfour
",
Ġac
##ible
Ġanything
Ġleft
##ier
Ġbetter
Ġdone
All
##az
Ġbit
Ġsure
##mb
Ġpres
##led
##vent
Ġ199
Ġsur
##ason
Ġstr
##ness
that
##io
St
Ġkeep
ĠAr
Ġboy
##ual
Ġ5
##ek
Ġel
ĠFr
##gg
Ġsy
Ġrun
ĠAnd
##aught
,"
Okay
##ott
Ġform
Ġmon
Ġreal
Ġbetween
My
##ike
Ġbelie
##ollow
ĠAl
Ġtold
Ġknown
##ret
Ġsecond
ĠThey
##ird
).
##ered
##ntil
##ished
##ters
##gr
##uh
##akes
##arm
Ġschool
##ins
Ġword
Ġstud
##der
Ġmoney
Ġdist
##row
Ġever
Ġgl
ĠNew
##ject
Ġent
##ale
##ner
Ġob
Hey
Ġdifferent
Ġret
Ġwhile
Ġmat
oh
Ġmom
Ġperson
Ġey
##orth
Ġbo
Is
##oun
Ġbus
ĠThis
Ġph
Ġinclud
Ġpoint
##ric
),
ĠTH
ĠSh
Ġsub
Thank
Ġcons
Ġokay
##ts
Ġmus
Ġcourse
Not
ĠWhat
Ġspec
Ġuntil
ĠUnited
Ġerm
Ġdr
##OU
Ġass
Ġinv
##ative
##olog
##eak
Ġbook
##enc
Ġuh
Ġtook
ĠAn
Ġmet
Ġnext
amp
When
##ok
Ġmen
Ġstop
Ġcent
Ġsw
Ġbest
##ash
##aj
##une
Ġinst
Ġboth
##eg
Ġseem
##ision
Ġeach
Ġsing
Ġnothing
##ames
Ġfun
Ġdep
ĠGod
##iet
Ġdef
Ġcle
##vern
Ġbre
##ities
##its
Ġwater
##ired
##cept
Ġnumber
##ures
##stand
Ġfollow
##ular
Ġpass
Ġfather
##ope
Ġsaw
ĠAmerican
ĠAs
##rib
Ġhard
||
##ohn
##ane
##ivers
Ġmother
Ġlater
ĠâĢľ
##rand
Ġdoesn
ĠNo
Ġfamily
Ġ-
Ġimp
Ġlist
##rew
Ġteam
##ream
##ung
Ġprodu
##ax
Ġlar
##ton
Ġ198
Ġfr
##blem
##ets
âĢľ
##ross
Ġcity
##alf
##ery
Ġyeah
##osed
Ġ6
Ġenough
Ġchar
##iness
##ING
Ġactually
##att
On
##ister
Just
Ġelse
Ġagainst
##uth
##ctor
##mber
Ġsmall
Ġwait
Ġdied
##eb
##ines
Ġ--
Ġcap
Ġseen
##rist
##ote
##AN
Ġproblem
Ġhigh
Ġpop
##ling
Ġtoget
Ġtogether
in
Ġyoung
it
ĠEng
##ublic
Ġwithout
##ined
##ern
Who
##omm
##ific
Ġdire
Ġwanted
Ġbecame
Ġref
Ġsorry
Ġadd
ĠStates
Ġfact
Ġfive
##ably
Where
##rop
##Ã©
Ġfew
Ġyes
##uc
Ġdisc
##ared
##less
Ġid
Ġrep
##inc
Ġeverything
Ġmind
Ġcoming
##ik
Ġhear
Ġrest
##ution
Look
Then
Ġroom
Ġbad
Ġonce
Ġloc
Ġsince
Ġsix
Ġweek
##ral
ĠSp
##ha
Ġ197
Ġunderstand
Ġstand
Ġsign
##ey
Ġsim
Ġsk
Ġlight
Ġlive
##uff
Ġstay
Ġread
##ield
##uss
Ġleave
Ġborn
Ġsays
ĠBut
Ġ7
##ury
Ġheart
Ġcoll
##ertain
##erest
ĠInd
##ina
Ġbelieve
Ġtimes
Ġside
Ġduring
Ġlooking
##ism
Are
##ecause
Ġchildren
âĻª
Ġev
##ense
##AT
Ġquite
Ġpret
ĠIs
##stem
##orning
19
Ġimport
Ġson
##anna
Ġhum
##oon
Ġtoday
##ball
Ġsit
Ġâ
Ġquest
##ows
Ġinter
Ġcompl
Ġexp
##ants
Ġtrans
ĠĠ
Ġkid
Ġdays
Ġhappened
Ġmeet
Ġopen
##son
##ised
Ġ8
Ġ;
##aid
Right
Ġlead
Ġmove
##ten
Ġwar
##ital
Ġconf
Ġplease
Ġfar
Ġface
##ead
Uh
##ger
Ġgener
##leep
Ġeyes
âĢĵ
Ġtown
Ġgetting
Ġgroup
Ġnice
##ef
##iew
##ON
Ġisn
Ġext
##aby
Ġthough
##ither
Ġbeh
Ġmusic
##ries
##ments
Ġart
Ġwhole
?"
Ġcol
##ech
##aut
Ġsort
Ġed
Ġland
Ġdra
Ch
Ġhour
Ġbro
As
ĠJohn
For
##ete
##ists
Ġposs
Ġdri
okay
Ġinterest
Ġwoman
##aster
##cted
##dy
##ober
Ġheard
Ġplan
ĠZ
Sh
Ġbuild
Ġyet
Ġeas
##iam
Mm
Ġplayed
##ient
##ready
Ġ[
Ġjob
##by
yeah
ĠCl
Ġstate
Ġem
Ġair
Ġfoot
ĠPr
Ġremember
##ize
Ġmorning
Ġhalf
Ġfil
Ġhimself
Ġstarted
##dd
##ues
Ġ196
##ump
##reen
Ġ10
##ats
Ġmed
Ġwalk
Ġknew
Ġhaving
Ġ9
Ġrecord
##ev
##ized
Ġtalking
Ġsystem
##iversity
Good
Ġhold
Ġmain
##ives
##iver
Ġmod
Ġdeath
Ġsir
Ġcur
##ert
Ġalready
Ġpay
##ison
Ġconc
Ġimportant
Did
Ġwrong
##amed
Ġsoon
Ġsong
##ta
ĠWe
##ched
##enn
Ġalong
Ġmil
Ġsaying
Can
##AR
##app
ĠMay
Ġpower
Ġreturn
Ġidea
Ġgi
ĠQ
Ġgave
Al
Ġmonth
Ġans
Ġdoor
Ġdead
Go
Ġmiss
##ex
Ġupon
##ided
000
Ġcountry
Ġbrother
ĠAt
##aps
##velop
no
Ġri
ĠHow
##ipp
Ġprom
Ġprob
Ġgovern
##ering
Ġty
Ġfull
Ġhur
Ġmeans
ĠâĢĵ
ĠGerm
ĠâĻª
Ġeff
Ġprov
Ġcase
Ġwin
Ġeat
Ġtrying
##ility
##ature
Ġgame
##ages
##oice
Ġround
Ġdel
ĠCount
##idd
ĠThere
Ġasked
##aughter
ĠOh
##sh
Ġtop
Ġwife
Ġsound
Ġjo
##wards
##ically
##most
Ġinf
##nce
##ying
Ġgone
Ġarea
Ġlaw
Âł
##ony
Ġins
Ġbusiness
ĠChrist
##eed
Ġspeak
Er
st
Your
##lish
Ġmatter
ĠKing
Ġbegan
##urch
Ġexpl
Ġbring
##ience
##OR
Ġpretty
Ġtri
##ES
gt
##ately
##EN
Ġfore
Ġlear
Ġequ
##leased
Ġwind
Ġhands
he
Ġthank
##ted
Get
Ġsent
##anu
##aken
##ially
##rict
Ġhappen
Ġguy
##ection
Ġstory
Ġcreat
##ural
Ġ`
##ned
##ello
##ush
##ces
Ġshall
Ġlost
##eth
Ġcontin
Ġable
Ġmovie
.âĢĿ
Ġserv
##uro
##orrow
Ġfuck
Ġchang
Ġless
##iter
##ept
Ġcertain
An
##eal
ĠSc
..
##ring
Ġbeaut
Ġmill
##eter
Ġoffic
Ġpain
##ured
##gy
Ġpri
Ġbaby
##ai
Ġpartic
Ġchange
Ġpolit
##orld
Ġoften
Ġwond
Ġmaking
##ole
Ġhist
ĠTHE
Ġgoes
Ġclass
At
##ional
May
Ġfell
Ġleg
Ġ17
Ġbas
Ġfriends
##LL
##erv
Ġwanna
Ġlooked
Ġmoment
Ġsomeone
Ġ15
ĠAll
##ple
Ġwasn
##ract
Ġwatch
Ġfight
##undred
##ator
ĠBl
##rap
One
Ġ195
Ġ194
##cle
##ye
Here
ĠBrit
##arent
Ġbody
##ides
Ġfine
##ron
##arch
Ġwomen
##med
Ġyourself
Ġage
Ġexc
Ġdevelop
Ġ202
Ġcomes
Ġexper
Ġnear
##arth
ĠĠĠĠĠ
do
Ġline
Ġpat
Ġguys
Ġmark
##fess
##aces
Ġ...
##rigin
Ġsleep
Ġvis
ĠYork
##iec
Ġpos
Ġbed
Ġclose
##me
Ġprobably
Ġca
Ġlarge
Ġsn
Ġago
##ster
To
Ġshort
##used
ĠThat
!"
but
##ention
Ġterm
##gue
##artment
Ġgiven
Ġworking
##where
Ġbreak
Ġprot
##ices
Ġdet
Ġtrue
##uly
Ġ|
Ġfire
##ape
##ley
##utes
##enty
ĠHis
ĠCounty
Because
Ġwouldn
Ġes
##apan
Ġeight
Ġhundred
Ġbecome
to
Ġorder
Ġfall
Ġcut
ĠCan
ĠFor
Ġpresent
##ama
Ġter
Ġearly
##aper
##bum
##wer
Ġdeal
##ged
Ġpick
##ality
##ulation
##ps
Ġsol
ĠCon
##elt
Ġhope
##els
Ġhaven
##rol
Ġrece
ĠYes
##ilt
##bs
##ajor
##ox
,âĢĿ
##anuary
Ġalmost
Ġ12
Ġaw
Ġdiv
ĠUniversity
Ġstre
Ġleast
##ians
Ġcor
Ġbegin
Ġfilm
Ġorgan
##ief
Ġquestion
Ġten
##ouble
ĠOn
born
##br
Ġocc
##iful
##ards
ĠGr
Ġaff
Ġblack
ĠAp
##ining
##omp
Ġmyself
##oud
Ġwhite
##ril
Ġadv
ĠPro
Ġoper
Ġpublic
##ains
##ived
##ample
ĠWorld
##gram
Ġcommun
##raz
is
Ġconst
Ġsqu
Ġready
Ġmarried
Ġlate
ĠJapan
##oke
Ġ_
##iously
##ium
Ġopp
Ġvar
##sy
Ġmaybe
##rest
Ġhor
Ġdad
Ġfree
Ġ16
##ully
Ġreason
##ugust
Ġswe
##iting
##angu
Ġalone
Ġoh
##ann
##ccess
##osp
Ġkilled
Ġgovernment
Ġguess
##ese
ĠJanuary
Ġcompany
##ler
##rent
##alth
Mr
Ġred
Ġest
Ġblood
Every
Ġhappy
##ene
Please
Ġalbum
##oor
Ġreleased
Wh
Ġbrought
Ġbehind
huh
##eng
Ġsat
Ġorigin
Ġsever
##selves
ĠĠĠĠ
Ġpar
Ġwords
##pr
Ġhon
ĠWar
ĠAust
Ġdrink
##ney
Ġarm
Ġtele
##augh
Ġhell
##umb
Ġmakes
##ology
ĠYeah
Ġ193
of
Ġtre
ĠEnglish
Ġtaken
ĠSouth
Ġbar
Ġnews
Ġseveral
Ġseries
##eor
ĠFrance
##ently
Ġgra
Ġfood
Ġfront
ĠYOU
ĠMarch
##ones
##haps
##ped
##rench
##ement
ĠEuro
Ġdog
Ġval
Ġmag
Ġanim
Ġstat
##ks
Ġhuman
Ġpast
Ġtaking
Ġhot
Ġann
Some
##aced
Ġ$
##eptember
ĠDec
Ġsupport
ĠMiss
Ġstuff
##ior
##urs
Ġseason
Ġstrong
##ctober
ĠMin
ĠComm
Ġband
##ude
Ġ]
ĠAugust
Ġpict
##unt
Ġeither
Ġball
##lex
##band
Ġdem
ĠWh
##IS
Ġ&
##oint
##ots
##ales
##ances
##atic
Ġsold
Ġeng
Ġresp
Ġcharac
##aim
Ġadm
ĠPh
Ġdaughter
Ġpiec
Ġrather
Ġfig
Ġexample
Ġthinking
Ġattack
##ider
##ches
there
ĠJune
##oe
##ma
Ġallow
##wo
ĠWill
Ġap
##hern
Ġminutes
Ġquick
ĠMrs
Ġlooks
##iving
Ġcouldn
Ġprogram
we
Ġreport
Ġothers
ĠBritish
Ġroad
Ġparty
Ġinform
Be
##ety
Ġtou
Ġlisten
Ġwithin
##ald
Ġliving
Ġtem
Ġheld
##arr
Ġbeautiful
##ency
##oman
##men
Ġsuccess
Ġdesign
Ġnamed
##resent
##head
Ġnational
##aring
##ained
##oad
Ġgrow
ĠEurope
Ġwants
##itting
Ġmillion
Ġresult
Ġminute
ĠSeptember
##ode
Ġnorth
Ġperform
##itten
##aul
Ġinside
Ġbra
##ories
Ġstru
ĠCol
ĠBe
Ġspecial
##ored
ĠOctober
##actly
##ege
##isc
ĠNorth
Ġlangu
Ġnec
ĠAd
Ġstra
ĠTr
ĠApril
Ah
##ovember
##ounc
Ġmember
Ex
Ġ11
ĠJuly
##ousand
##oub
ĠPres
Ġsum
Ġrepl
Or
##ze
Ġturned
Ġmess
Ġwonder
Ġve
Ġsingle
ĠNational
##fully
Ġvill
##airs
##anger
Ġformer
##ĠĠĠĠĠĠĠĠĠĠĠĠĠĠĠĠ
Ġlived
Ġrock
ĠPl
##fe
Ġsil
Ġappear
##cial
Ġincluding
Maybe
Ġking
Ġelect
ĠSw
Ġtest
##unch
ĠGo
where
##unk
Ġdie
##pped
Ġexpect
##amb
##itch
Ġdream
##ara
##fect
##con
##usband
##ruary
Ġship
##ounds
##ebruary
##ued
Hello
Ġcamp
ĠDecember
Ġcommon
##over
ĠCar
ĠWhen
ĠSo
##oul
Ġfelt
")
Ġplaying
##key
##idge
Ġthird
Ġdear
With
Ġvoice
##AS
##ternational
##not
##ana
##fort
Ġusing
Ġmonths
Ġrev
##que
Ġacross
##hm
##echn
Ġoutside
Ġfootball
Have
ĠNovember
ĠFl
Ġsometimes
ĠFrench
Ġdark
ĠX
Ġmemb
wh
ĠCal
Ġworked
Ġz
##ended
Ġcheck
ĠBar
Ġpossible
After
Ġhours
Ġeffect
##ached
Ġthousand
Ġamong
Ġhit
ĠOr
Ġhair
##vision
Ġrequ
Ġdest
Ġfif
Ġ192
##ele
Ġgun
##pec
Ġforg
Ġcareer
Ġcop
Ġproc
##overed
Ġclub
Ġdesc
Ġmajor
##irth
Ġfollowing
Ġill
Ġhusband
##iddle
Ġpoor
Ġfre
ĠMan
Ġsun
##ata
Ġdam
ĠDo
Ġprofess
##oved
Ġ13
Ġappro
Ġtried
Ġwish
Ġtot
##che
ĠFebruary
##ays
Ġtom
sh
##ND
##rodu
Ġaf
Ġla
Re
##read
Ġ14
##lf
Ġsend
ĠCity
20
##eared
##though
Ġcir
Ġlevel
Ġmoved
Ġgotta
Ġseven
Ġhistory
##ases
Ġbuilt
Ġbox
Any
ĠHer
Ġpolice
Ġ2010
##uthor
##attle
##ED
##gest
Ġfeet
Ġgrand
ĠTO
##ressed
ĠAf
##aint
Ġbuilding
Ġproper
Ġmembers
Ġusually
Ġcre
##----
Ġtill
ĠPar
##work
##omin
Ġgets
##itions
Ġfa
Ġparent
Ġav
Ġcoup
Ġcost
Ġoffice
Ġcal
##rit
##onight
Ġstar
##ean
Ġtreat
Ġworry
##rog
ĠGeor
Ġanyone
##ified
Ġmur
Ġgold
##OM
Ġpull
ĠEd
##yn
Ġanswer
Ġchance
##raid
Ġcomplete
##ondon
Ġcontrol
Ġfield
Ġpopulation
Of
Ġsweet
Ġworks
Ġbuy
or
##idence
Ġabs
Ġknows
Ġwhether
Ġstation
Ġteac
##ham
Ġrad
##een
Ġcond
##ET
ĠGu
Ġbased
Ġlay
##iod
Ġord
ĠAb
##iol
Ġdev
##urg
##ino
Ġeasy
well
Ġcannot
Ġprop
Ġwall
Ġplayer
Ġ``
Ġtwenty
Ġwritten
ĠCent
ĠRep
Ġstep
Ġ30
##of
ĠLe
ĠPresident
##uk
Ġlives
Ġste
##irty
##por
Ġsecret
ĠAfter
Ġsister
##ges
##eople
ĠIf
Ġevent
Ġregion
Ġfav
let
##come
Ġlocal
Ġview
##asure
Ġseems
##ae
##iding
Ġphone
##hys
##IT
##illy
Ġgeneral
Ġpract
##par
##soci
Ġmine
Ġiss
##ule
Ġeveryone
##omb
Ġcurrent
Ġcouple
Ġvide
##OW
Ġafraid
Ġclear
Ġsouth
Ġlow
ĠEl
Ġcentury
Ġprocess
Ġpost
Ġones
Ġbird
##ising
Ġfast
##ding
Ġwrote
ĠLea
look
so
Ġmot
Ġdraw
Ġdeep
ĠWest
ĠDon
##ument
ĠHar
Ġcold
##ampions
ĠLondon
##ula
##ift
##EA
Ġdiffic
Ġinvol
Ġground
Ġexactly
Ġfair
Ġseemed
Ġwrite
Ġtomorrow
Ġtable
Ġgirls
##ada
Ġcry
al
Take
Ġsea
##ourn
##ission
Ġboys
Ġlonger
Ġincre
Ġsense
##itive
Ġbirth
##iron
Erm
##ected
##mm
##ogn
Ġdin
ĠEngland
##unic
Ġpaper
Ġdistrict
Ġsuff
ĠJack
Ġcharacter
##uri
Ġhuh
##ask
Ġbott
##ization
Ġsex
Ġinformation
##ills
See
Ġpur
##oose
Ġchanged
##oard
##ording
ĠItal
Wait
who
His
Ġfur
Ġtruth
Ġkids
Ġdirect
##entle
##erc
##aur
ĠAustral
Ġdepartment
##sc
Ġcompet
##ration
##hel
Ġrunning
Ġ25
Ġlik
ĠOne
Ġsupposed
##ani
##uation
##ouncil
##ination
##irt
Ġwood
TH
Ġpress
Ġpubl
âĢĶ
Ġservice
Ġran
Ġsomebody
Ġcat
ĠGerman
Ġfail
##avy
Ġlab
Ġgen
ĠWell
Ġdeb
Ġforget
Cl
Ġhurt
Ġeduc
Ġtonight
Ġsuper
Ġcross
Ġnat
Ġshot
she
Ġperiod
##conom
##GH
##ille
##OT
Ġ*
##dom
##erry
ĠLord
Ġneeds
Ġtrouble
##uture
##ael
Ġreceived
Ġhig
Ġtree
ĠUS
##ops
Ġtype
Ġclean
ĠAmerica
Ġauthor
Ġ191
Ġtelevision
##to
Ġposition
Ġ0
they
##itary
Like
ĠThen
##emy
Ġblue
##acy
can
ĠDr
##more
##aff
##ption
##owers
##let
Ġrepresent
Ġluck
##ospital
Ġtrad
Ġlady
Ġtechn
Ġple
Ġkept
ĠSchool
##arty
##alt
##room
ĠRuss
Ġcreated
##cer
ĠAm
##aged
Ġentire
##ford
Ġmount
Ġarri
for
Ġtit
Ġtouch
Ġthemselves
Ġlanguage
##dden
Ġconn
Ġaccept
Ġcos
##II
ĠEx
Ġwaiting
##joy
##ror
##oes
Ġbank
ĠRe
Ġeverybody
##eder
Ġvers
Ġsell
Ġvillage
Ġear
Thanks
Ġwhatever
##LE
##uz
##avid
##ploy
ch
##oming
ĠAfric
Ġhy
Ġ100
Ġobject
Sorry
Ġsurpr
##ky
Ġfucking
here
Ġsudden
##ivil
Ġstraight
Ġcook
Ġsugg
Ġsuggest
Un
Ġabove
ĠState
##lu
##IC
##irm
Ġfly
cl
Ġmist
Ġparents
Ġspecies
##olution
##ician
Ġperhaps
##estern
ĠPeter
Ġgreen
ĠMy
Ġrul
##fer
Ġpot
##ager
##bers
##ression
Ġfuture
ĠTom
Ġrese
Ġhowever
##omes
ĠDe
##stit
Ġpicture
Ġpriv
Ġlim
Ġrespect
Ġcomput
Ġbooks
Ġcell
##teen
##ping
##ending
Ġinstead
Ġtakes
##inal
Ġdecided
Ġproblems
Ġexist
Ġinclude
on
##reet
##atter
Ġfeeling
Ġvol
##tle
Tell
Ġshoot
Ġitself
ĠMc
Ġcarry
Ġcirc
Ġpiece
Ġled
##roy
Ġstri
Ġperfect
Ġmouth
Ġang
Ġfinished
Ġlaugh
Ġport
ĠPol
##ocr
Ġimag
Ġherself
ĠSy
Ġinvest
##hem
Ġlearn
##bit
Ġcult
Ġdro
br
##isten
##razy
Ġdoctor
##ivid
##lands
ĠOF
Ġletter
##eneral
##ences
These
Ġserved
Ġdue
##ilar
Ġdoll
Ġfix
Ġaren
Ġproject
ĠNot
this
Will
ĠHowever
##pecially
##ental
Ġhappens
##unicip
yes
Ġdifficult
Ġworth
Ġchurch
Ġtrust
Ġdi
Ġvideo
Ġcover
Ġmem
ĠEm
Stop
ĠHouse
Ġspace
Ġ24
Ġant
##ran
Ġfinal
##ampionship
##ien
##AY
Ġearth
##olute
ĠPhil
Hi
Ġpopular
##ograp
ĠLeague
Ġnorm
Ġain
##amm
##line
Ġtrack
##amer
Ġactiv
Ġhealth
Ġlad
Ġprison
##ray
##viously
Ġtelling
Ġshit
how
##ival
Ġhorse
Ġesc
Ġslow
Ġanyway
Ġrecogn
##itor
Ġnine
Ġsoft
Ġsafe
Ġrelations
Ġdoub
Ġpresident
ĠTo
##rill
##RE
ĠCap
Ġgentle
Ar
Ġweeks
Ġ2014
Ġsocial
##erence
##lin
##ken
##uted
Ġfear
ĠThese
Ġmiddle
Ġ21
Ġriver
ĠColl
##raph
Ġpassed
##epend
Ġhang
Ġfigure
Ġcorn
##rug
Ġviol
Ġep
Ġspir
##ichael
Ġdanger
##itted
##ades
Ġmeant
ĠGermany
##val
re
Ġphot
##ashing
Ġsave
##cl
##US
Ġcounty
##eep
ĠPaul
##Ã¡
Ġphys
Ġengine
Ġjud
?âĢĿ
ĠIndian
Ġenjoy
Ġgames
##ius
Ġahead
##gel
as
ĠPark
##empt
##iers
##ander
Ġestab
Ġcourt
Ġfunny
Ġtrain
Ġ2018
Ġmeeting
Ġprinc
Ġevening
Ġhop
Ġseat
Ġfamous
Ġtyp
Ġclot
Ġgod
Ġvict
##oom
em
Ġfurther
Ġcast
ĠSec
with
##bor
##bed
Ġeconom
ll
##oly
Ġappl
Ġsus
Ġexcept
##riage
##ishing
Ġ2011
Ġfish
##van
Ġmach
Ġener
##rible
Ġglad
Ġcrazy
Ġopened
##iforn
Ġ#
Ġda
Ġneg
Ġsick
Ġide
Ġcrit
##yle
Ġreturned
##ceed
##ume
Ġquiet
Ġfill
Ġ("
Ġaut
ĠQue
Ġleaving
Ġstood
Ġum
Ġcool
##roll
Ġself
Ġcapital
Ġrole
Ġthrow
ĠWilliam
##ris
Ġnin
##ifornia
Mar
##erve
##oph
##oura
Ġdisapp
Ġring
Ġcatch
Ġbeginning
18
##ires
Ġdinner
Ġaccount
Ġbreat
Ġmad
Ġforce
Ġmult
Ġsubject
ĠWhy
ĠSome
Ġ2013
Give
##reg
Ġhospital
Ġfeat
ĠSe
like
up
Ġwhom
Ġburn
Ġfloor
Ġcommune
##now
Ġclaim
Ġagre
Ġx
Ġchair
Ġpolitical
##cient
Ġ2017
##rey
ĠRiver
Ġmass
Ġcomb
Ġclos
##itz
##TER
##uge
##lect
##medi
Ġeye
Ġnon
Ġparts
Ġsitting
ĠHigh
Ġshut
Ġgiving
Ġforward
Ġnecess
Ġcommunity
Ġident
lt
ĠSm
Ġrespons
Ġintrodu
##ellow
Ġmention
Ġoriginal
Ġdrive
Ġcause
Ġstick
Ġ2020
Ġreached
Ġtotal
Ġinteresting
Ġstudents
ĠSam
Ġcountries
##reme
##ID
be
Ġmater
Ġbeat
##co
Ġquestions
Ġfem
Ġkey
Ġbag
ĠEast
##af
##ica
##hood
ĠRoman
##ging
Ġsepar
Ġsoci
Ġrelig
Ġ)
ĠGood
Ġfing
Ġobs
ĠCalifornia
##iny
Ġplaces
ĠGeorge
not
By
Ġproduct
Ġindivid
##imate
##ication
ĠMus
Ġmatch
##ili
Ġyours
##ply
Ġquickly
Ġhoney
Ġ22
Ġlose
##inist
Ġneigh
##field
Ġstage
Ġhung
##ears
Ġamount
##raft
ĠMary
##AC
##esus
ĠSu
Somet
##ocked
are
ĠRed
Ġappeared
##uel
Ġstudy
Ġpen
Ġparticular
##ffic
Ġstore
Ġ2012
Ġinn
Ġbear
Even
##ounced
Ġhost
Ġwhose
200
Ġtowards
ĠRepublic
Ġmarket
##cent
Ġkiss
Ġsimilar
##inite
Ġpark
Ġalive
ĠIN
Ġmis
ĠIndia
Ġtravel
Ġsimple
Ġpal
Ġmid
Ġ2015
##iety
Ġjump
ĠJapanese
Ġmoving
##olly
Ġenergy
Ġwindow
Ġsuppose
Ġgrad
##het
Ġroll
Ġdeg
##uty
Ġ2008
Ġlocated
Ġcried
ĠGl
Ġpublished
##ico
Ġcolor
##upid
##cher
God
##iled
From
Ġanymore
ĠQu
Ġfollowed
##arden
Ġnatural
##ming
ĠBy
Ġ()
Ġconsider
##oyal
Ġpolic
Ġindust
##ruction
Ġcaught
ĠGovern
##ites
Ġwide
ĠGreat
ĠCor
ĠLou
Ġris
Nothing
ĠJust
Ġvisit
ĠParty
Ġenc
##orts
Really
10
##rian
##aven
Ġways
##mas
##ext
Ġ2016
Ġneeded
##rab
now
Ġexperience
Ġbelong
Ġcertainly
##anch
ĠMed
##anks
Ġrace
Ġbill
##ensive
Ġteacher
Ġmunicip
Ġben
Ġver
Ġsituation
ĠJo
##ÃŃ
Listen
ĠMe
Ġsad
Ġlie
Ġperm
##Ã¶
Ġdress
##ids
Ġterms
##wered
Ġprep
Ġalright
##nes
##uses
Ġanybody
Ġ2007
Ġfinally
##wood
Ġfac
Ġallowed
ĠII
##asons
##go
Ġstopped
##iment
##ett
Ġmiles
Ġearl
ĠIT
Ġ23
Bl
Ġdiscuss
Ġconcern
Ġstrange
Ġshop
Ġprotect
##cuse
##ago
all
ĠMad
Ġ2009
one
##omen
Ġstreet
##bert
Ġemploy
Ġequal
##Ã¼
##inary
Ġarch
Ġshows
Ġexam
##ship
ĠRich
##istic
Ġ2006
##sych
ĠÂ
Ġfool
ĠBro
Ġserious
##udd
Ġanimals
##anish
##ero
##itional
##orthern
ĠWith
##pper
##AL
##ights
an
Ġespecially
Ġboard
.,
ĠCup
Ġwriting
##ils
Ġinflu
##resh
##urity
did
Ġvalue
##ensus
Ġpeace
Ġbroad
Ġisland
Ġsurv
##inct
Ġinvolved
Ġmilitary
ĠCo
##UT
Ġmaterial
Ġice
##iling
##ari
Ġpaid
Ġquar
ĠDavid
Ġbull
Ġrid
Ġdance
ĠAir
ex
ĠJames
ĠBen
Ġemb
Ġmodern
Ġvarious
Ġconv
Ġdestroy
Ġplays
##ram
Ġfarm
Ġspent
##ortun
ĠAre
ĠPer
ĠMart
Ġwild
Ġfort
Ġwarm
Ġpack
Ġbought
Our
##yl
##iction
##ength
ĠSer
Ġsoul
##ustom
Ġ2019
OK
Ġtax
ĠChar
.'
Ġjoined
Sp
##VE
Ġegg
##ocks
Ġasking
Ġproduced
ĠNow
Ġnet
Ġprofessional
00
##gar
Ġdrug
Ġremain
##olutely
Ġhate
##iced
Ġaction
Ġlargest
##outhern
ĠWho
Ġdate
ĠSan
##ala
Ġdescrib
Ġmix
Ġenv
Ġ50
Ġet
Ġrelationship
##rel
##cell
Ġfavor
ĠChurch
Ġwat
Ġcand
Ġalthough
Ġrefer
##pen
Ġseeing
##well
Ġattempt
Ġbase
Ġanswered
##cious
Ġwest
Ġ190
Ġglass
Ġcivil
Ġsummer
ĠHey
##ibility
##edy
Ġconside
Ġimmedi
Ġconsidered
ĠMor
ĠDad
Ġofficial
ĠDem
##AP
Ġ26
Ġgives
ĠJim
Me
Ġwear
ĠTV
Ġcoff
##obert
Ġeast
ĠEn
Ġbroke
Ġsomewhere
Ġgrew
Two
Ġ:
ĠGrand
##reek
Ġarms
##ify
##hod
was
Ġdevelopment
Tr
Ġloved
Ġstanding
##ancy
Ġsour
Ġplant
Ġdata
ĠSch
##itude
Ġpoints
Ġcard
##ography
Ġnumbers
Which
Ġtitle
Ġareas
Ġpolitician
##istrict
##ises
Ġ28
Ġsize
Ġunc
Ġhous
ĠGeneral
Ġnature
Ġtend
Ġcompan
Ġhat
which
##asing
##vious
ĠEuropean
Ġpersonal
Ġstruct
Ġtired
##ners
##ential
Ġ27
Ġmaster
ĠSoc
Ġaud
Ġpers
Ġrob
Ġdig
Ġgas
##icle
ĠLet
Ġarmy
Ġpurp
Would
ĠFrank
##ique
Ġsal
##ourt
Ġprim
##ament
Ġclothes
##ators
Pro
##uts
##asc
ĠAg
!âĢĿ
Ab
Ġfund
Ġfunction
Ġincluded
##rif
##terday
Ġstars
Ġmer
##irgin
Ġcomputer
##cast
Ġstupid
##ability
##ether
##face
Ġcollege
Ġbrain
##lymp
##bour
Ġadded
Ġmommy
##ounded
Ġeducation
Â´
Ġheavy
Does
##iber
##friend
##istory
##ya
Ġshare
Um
Ġcompletely
Ġresearch
see
Ġaver
##rect
ĠCouncil
Ġcommand
ĠBel
Ġprivate
##ka
Ġsimply
Ġimm
Ġspirit
##ville
Ġboat
##chen
Ġdrop
##olic
##ularly
ĠPal
ĠWhere
Qu
ĠLa
ĠEarth
##EL
Ġnearly
##icated
Ġtrees
ĠMinister
Ġsearch
##ograph
Ġdirected
Ġindeed
##ki
##AM
Pl
Sure
201
##noon
Ġmodel
##ena
Ġextra
##oid
Ġcontract
Ġimpro
Ġscient
Very
Ġcaused
##board
Ġdaddy
##off
##gress
Ġnames
right
Ġevidence
Ġdoubt
Ġthanks
Ġtea
##hest
Ġdifference
Her
Ġexplain
ĠSte
ĠBlack
Ġelection
ĠMon
##ston
##antic
##astic
ĠParis
Ġtick
Ġcontinued
Ġpray
Ġtalked
##iday
##antly
ĠOkay
Ġavail
ĠHen
##wise
ĠAustralia
Ġaward
##osing
Per
##omas
##chie
##ological
Ġsens
Ġdecl
ĠSir
Ġtour
Ġwed
Ġbow
##ruct
Ġrail
ĠMex
##istics
##burg
ĠOlymp
##ails
##ively
Ġbroken
Ġappoint
Ġforest
Ġrain
ĠDep
ĠOK
Ġhistor
ĠĠĠĠĠĠĠĠĠĠĠĠĠĠĠĠĠ
##tered
Ġindepend
Ġbud
ĠComp
Ġpromise
Ġwel
ĠSen
Ġsounds
##ashington
Ġgroups
Ġradio
Ġwatching
##ij
Ġlo
Ġnobody
Ġattention
Ġassoci
##ously
Ġcomfort
Ġfoc
Ġhelped
Ġwonderful
Ġarr
Ġsuddenly
Ġbur
##anced
Fr
Ġur
Ġbattle
##ledge
Ġliter
Ġfle
Ġpath
Ġcharge
##ux
##light
##iles
ĠChampionship
Ġarrest
##uke
Ġcup
ĠAc
Ġpercent
Ġrich
Ġ2000
Ġmarry
Ġreach
Ġshouldn
##ushed
ĠTur
Ġarg
##raw
Ġversion
Ġdoc
##rie
##useum
##action
Ġthirty
##azing
##inese
##ibly
##ords
Ġrights
##unn
Ġinj
Ġmeaning
Ġspend
Ġestabl
ĠSim
##aker
Ġdefe
Ġsand
ĠMont
##ground
##illa
Ġbottom
Ġsight
##tt
ĠUnion
Ġblow
ĠBer
##nown
##iot
##de
Ġfifty
ĠAnt
Ġshowed
ĠReg
ĠCome
##aste
##ests
Ġhappening
Ġfit
Ġinterested
ĠĠĠĠĠĠ
ĠStreet
ĠMichael
##FF
Ġfinish
##ittee
##OS
Ġthreat
Ġlength
Ġannounced
Ġclosed
Ġredu
Ġopportun
Ġlog
##ERE
ĠCollege
Man
ĠDan
ĠChina
Ġpounds
Ġformed
##usion
Ġafternoon
Ġnor
##elebr
##ples
Ġfat
Ġfounded
15
Ġweap
ĠHall
Ġchoice
##ables
##ida
Ġdise
##aves
ĠChristian
Excuse
Ġcalling
##elve
Ġden
Ġhigher
Ġ29
Ġbelow
ĠPat
##ironment
ĠPort
Ġbri
ĠCr
pl
##Ã³
ĠWH
Ġinit
Ġtraining
Ġspeed
Ġdirector
Ġbirthday
Ġnormal
Ġweren
Ġmarriage
Ġnovel
##berg
Ġstreng
##amn
##oring
##osition
ĠON
Am
âĢĿ
ĠGreen
ĠInternational
##aly
Ġactor
ĠNor
ĠDistrict
Ġmurder
aha
##king
John
##icks
##ubb
Ġtemper
##view
##ilities
##isf
Br
Ġmethod
Ġstarting
##osh
##ript
ĠJew
Ġfellow
Ġhall
##oted
##inn
Ġ2005
##apers
##ification
##asion
Ġbright
##atives
Ġspoke
Ġscience
Ġstories
ĠPenn
mm
ĠÃ
Ġ189
come
12
##ria
##urb
Ġcarried
##cul
Ġaccident
##str
Ġdeveloped
Ġlower
Ġmanage
Ġsite
Ġlovely
Ġended
Ġcenter
ĠPri
##upp
Ġoffer
##ession
##ols
Ġworse
Ġchanges
ĠWashington
Ġdeterm
Ġcoffee
Ġpsych
##za
##aries
##alley
ĠIts
Ġavailable
Ġexec
ĠYour
##set
##arily
Ġsociety
ĠMal
ĠChristmas
Ġleader
Ġassist
Ġhuge
ĠCanada
##IM
##LD
Ġlif
##arp
Ġstates
Ġdecision
##ees
Ġfeed
ĠArmy
Ġsnow
Ġregard
Ġearlier
Ġaverage
Ġtext
Ġmachine
Ġputting
Ġpun
ĠAlex
Ġschools
Ġcapt
Was
Ġmilk
Ġund
##ams
Ġyesterday
##iest
Ġmessage
Ġbusy
Ġlines
##ipped
Ġrout
Ġhol
ĠKh
ĠQueen
Ġbes
Ġspread
ĠOld
People
Ġcustom
Ġplus
Ġmultip
Ġepis
##OO
Ġmovies
why
Only
Ġmovement
ĠAfrica
Ġagree
##arliam
##sequ
Ġsongs
year
ĠChe
Ġcreate
ĠAND
Ġnose
Ġlearned
ĠTex
17
Ġride
##initely
##olf
##ummer
##rag
##IGH
Dad
Ġcases
##ossible
Ġpage
##for
Ġ40
Ġcondu
Ġinternational
First
ĠSl
Ġcareful
Ġhero
Ġestablished
Ġmor
Ġoccur
Ġhonest
Sir
ĠMark
Ġ2004
Ġgarden
Ġaccess
CH
##bon
Ġcelebr
Sc
Ġcy
Ġleaves
##arliament
Ġbath
##ips
Ġyellow
Ġdemand
##uit
Ġhun
Ġsuit
ĠBE
##ccording
Ġ..
##oday
ĠAward
Ġrule
##vania
Ġlegs
Ġstyle
Ġliked
Ġjoin
Ġfaith
##hib
##acing
Ġsquare
##ems
##ims
Ġsinger
##lor
ĠLouis
##la
##rat
Ġpred
##ournal
##oves
Ġterrible
Ġnone
Ġinvestig
Ġneck
Ġcensus
##ension
Ġevents
Ġproduction
Ġkit
Ġbi
Ġscared
Ġfault
ĠItalian
hm
##ette
Ġcorner
Ġmunicipality
ĠFranc
ĠCaptain
Ġprincip
##sey
Ġought
Ġstone
Ġcontact
ĠWhite
##ita
Ġdistrib
Ġdry
##emember
Ġsmell
##ms
##apt
##imb
ĠSat
Ġwa
Ġeating
if
Ġchem
Ġanimal
ĠRob
Ġprof
##onel
ar
ĠChinese
##aign
##ini
ĠIsland
Ġideas
Ġtherefore
##order
ĠME
##icked
ĠOf
##ederal
##cy
##rupt
##syl
##etic
ĠKore
Mhm
##nie
ĠĠĠĠĠĠĠĠĠ
Ġfol
##elp
Ġimmediately
##uzz
11
##fast
WH
##ilies
Ġflowers
ĠFrom
Ġcow
Ġskin
Ġsky
Ġhey
THE
Ġ186
##NA
ĠBill
##cean
am
Ġcred
Ġlikely
Ġ2021
ĠVirgin
Ġbell
Ġtall
##itation
##oses
##hab
##ELL
##lected
Ġsigned
Ġwelcome
##sylvania
##icago
Ġraised
##otten
Ġlying
Ġpieces
Ġolder
Ġdistance
Ġwit
##phone
##ipe
16
Ġmostly
Ġbelieved
##erved
Ġfrog
##agn
##icro
ĠCong
##aug
Ġbenef
Ġir
Ġtheory
ve
Ġcamer
##the
ĠMa
Ġnecessary
##ancing
ĠRussian
Ġspecific
go
Ġchief
Ġharm
##asant
Ġsevent
ĠMil
Ġacqu
Ġdiscovered
##night
ĠRes
Ġdisp
ĠâĢĺ
Ġcoast
Ġcontinue
##gain
##CH
##razil
##ns
Ġservices
##urt
##mpire
ĠTexas
Ġarrived
Ġdepend
##ware
Ġbey
##vert
Ġstorm
Ġconvers
##annel
Never
ĠCharl
mhm
ĠSwed
Ġcrime
ĠPrince
Ġwalked
Ġtruck
Ġut
Ġelected
##utch
Ġsuccessful
Ġbeyond
Ġspl
Ġrepe
ĠJesus
##vey
Ġscene
ĠST
Ġru
Ġaged
##atory
ĠRec
##using
Ġindividual
ĠSund
ĠĠĠĠĠĠĠ
Ġimagine
##stairs
sp
Ġgar
Ġfighting
ĠCourt
Ġweak
Ġmountain
Ġ1990
ĠTe
##iant
Ġintell
Ġofficer
ĠPennsylvania
Ġspot
Ġreb
Ġcovered
Could
Ġmoon
ĠScott
Ġfirm
Ġreview
Ġ2001
Dr
ĠRobert
Ġchall
##ateg
Ġpractice
ĠAct
Ġgoal
Ġ31
Ġcollect
Ġenvironment
Ġaddress
##house
Ġattract
Ġreading
don
Ġcab
Ġparticip
Ġess
Ġcrow
ĠIS
Ġprice
....
ĠArt
Ġapart
Ġreve
Ġtells
##...
ĠDuring
Ġformula
Ġble
ĠDemocr
##arling
Ġphil
Ġspeaking
Ġboss
Ġfresh
Ġholding
ĠRichard
##uments
Ġwedding
##kin
Ġdouble
##UR
Ġwalking
Ġdescribed
##isted
Ġrelease
##ulf
ĠCharles
Ġfourth
##west
Ġpurpose
Ġemer
Ġprint
Ġrules
ĠKingdom
ĠSal
Ġadminist
Ġissue
Ġfemale
##iana
##aching
Ġpictures
Ġ188
Ġangry
ĠMount
Ġpig
##hew
;&
Ġtail
ĠJul
##ora
Ġtar
Ġforces
Ġshown
ĠSpanish
##itiz
Ġsettle
##ients
Ġrange
Ġtwice
Gu
##rs
Ġpositive
Ġoil
Ġreplied
Ġenemy
##pping
Ġ1980
Ġregular
Ġtro
his
ĠHenry
##IR
ĠDel
good
##ura
##atin
##lt
Ġslight
Ġpan
Ġbehav
##Ã¤
##anda
ĠLaw
Ġtrade
##AD
Ġlots
ĠBrazil
Ġsurface
##ores
##itar
Ġstrength
##mon
Ġ2003
##rial
Ġnetwork
Ġsle
Ġdangerous
Ġrate
##pty
13
Ġbound
Ġaccording
##alled
Ġchick
##ictor
Ġachie
##oop
##yer
##oz
Ġdirection
Ġswim
Put
bl
Ġlink
Ġsoldiers
Ġsatisf
##sec
Ġhide
Ġloss
##enth
##KE
Ġeasily
##how
ĠBob
##50
##âĢĻ
Ġmemory
Ġletters
##ourage
Wow
##izing
Ġcalls
ĠSov
##icate
Ġknowledge
ĠGold
##ashion
##road
##lam
Ġrecorded
Ġpressure
de
##isters
Ġdesp
ĠBrown
14
Ġsac
Ġcoun
Ġproperty
Ġnotice
time
##ademy
Ġ2002
ĠTHAT
Ġmissing
Ġmir
ĠSoviet
##rely
ĠMac
Ġstudent
##ket
##ker
##oseph
Ġtwelve
Ġspe
Ġcru
Ġnewsp
Ġyouth
Ġder
Ġhasn
Ġrose
##ulations
##iring
ĠDay
Ġload
cause
##aine
##ours
Ġ2022
##isions
Ġchoose
Ġfrequ
Ġproud
Ġancient
Ġteams
ĠItaly
Ġplaced
ĠChicago
Ġcars
ĠAnne
##aled
Everything
Ġthinks
Ġbridge
Ġentered
Ġhar
ĠRoyal
##iation
Ġhors
ĠTown
##ona
Ġcoach
##sp
Ġhonor
Ġplayers
##ota
Ġsignific
would
Ġdollars
Ġcomplet
##adian
ĠCH
##aped
Ġ00
##abor
ĠNe
##vell
Ad
Ġkitchen
ĠOl
Ġanywhere
Ġextreme
Ġspring
Ġmistake
Ġcampaign
Ġdropped
##play
uh
ĠHere
Those
##idden
Ġintern
##oms
Ġflat
##BC
Got
Ġforgot
Fuck
##back
Ġsecurity
Ġ187
Ġdegree
Che
Bye
Since
##ENT
Ġopin
Ġweight
##uf
Ġbrown
Ġthroughout
Ġcondition
Ġdisease
Ġlunch
YOU
ĠCath
Ġpainting
History
Keep
Ġcaptain
##igned
30
##UN
Ġbigger
##gn
ĠDO
Ġbirds
Ġwhis
ĠFirst
Ġincludes
Ġleading
##gypt
day
Ġqual
##ano
Ġwee
because
##eless
ĠCarol
Ġpolicy
Ġtaught
Ġsett
Ġbab
Americ
##semb
ĠPre
Ġabsolutely
Ġunless
##zen
##itect
Ġbeg
Ġdamn
Ġgradu
Ġopportunity
Ġwriter
Great
Ġfamilies
ĠPeople
Ġcentral
Ġhouses
Ġsystems
##utions
##stitute
Hold
ĠAssoci
ĠThank
Ġsurprise
##father
Ġblock
ĠPrinc
Ġcorrect
Ġmagaz
##ato
Ġguard
ĠPe
Ġstudied
Ġstaff
Ġeventually
Ġpet
##arah
##cing
Ġrom
##istan
Ġsurr
ĠDiv
Ġcontrib
Ġshoes
##ube
Ġmum
ĠJoe
##iverse
Ġrisk
##yr
ĠFred
ĠIll
##anta
##hold
Ġcities
##ompl
##rain
Ġforty
Ġhel
Ġge
##den
Ġprovince
Ġobviously
Ġnote
Ġgrowing
Ġprince
Ġmedical
##VER
Ġworried
Ġ1970
Ġsmaller
Ġconstit
##esty
Ġpatient
##arsh
##otion
##ca
ĠWil
Ġbecomes
Ġmm
##roat
##shire
Ġescape
Ġpock
Ġvan
Ġdriving
##iqu
##asy
Ġuses
Ġmurd
'.
En
Ġteach
Ġmagn
##fl
ĠDes
Tom
Ġthou
##umber
Con
##lear
##ses
Ġforced
##estival
Ġremained
199
ĠSing
Ġlaid
Ġcancer
Ġtrip
Ġmanager
Ġruns
##ares
Ġenter
Ġhighest
Ġslowly
Lea
Ġresults
Ġstudio
ĠCarl
ĠBay
Ġoccup
Ġtypes
at
Ġbreath
Le
##under
_,
Ġpush
##Ã¨
Ġban
Ġprovide
Ġscreen
##imin
ĠMany
##tained
just
Ġagreed
##ruit
##ls
Ġsmile
Ġbrothers
pro
Ġmentioned
Ġimpossible
Ġparticularly
Ġpicked
Ġamazing
Ġchap
my
ĠSmith
Ġlucky
Ġkinds
when
Alright
Ġopening
Ġgrass
##edom
##elling
##odes
##gent
Ġthus
##EC
Se
##mit
Ġweird
Ġinterview
##kins
##icles
Ġexpected
Pr
Ġactress
Ġnomin
Ġheaven
##aches
ĠEr
Ġcurrently
ĠScot
Ġsaved
##och
Ġplans
Ġartist
ĠJer
##oken
##rael
##isl
Ġvote
Ġuniversity
##ications
##da
Ġwearing
Ġsen
##bered
Ġforth
Ġplanet
##aniel
Ġappre
Ġlaws
Ġinvent
Something
Ġbomb
##ulous
Ġhungry
##ashed
Ooh
##ucky
##like
Ġbread
Ġcode
New
Mom
##--------
Ġpleasure
Ġheat
Ġplane
Ġaddition
Ġperformance
Ġuncle
Ġhole
##lement
Ġelectric
Ġcompetition
Ġnation
##ION
##gged
Ġlarger
##arn
##arry
Miss
##aked
Ġmission
Ġleaders
Ġminus
Ġindustry
##eff
Ġshout
Ġbreakfast
Ġhill
Ġwinter
Ġrough
Ġconcept
ĠEgypt
Ġdesigned
##istry
##adow
Ġgenerally
ĠLittle
Ġreported
Act
Ġblind
ĠCentral
Ġstarts
Ġpoet
##enny
##chan
##astern
Ġshape
Ġrelated
Ġsusp
Ġtoward
Ġfinger
Ġstuck
Ġstructure
ĠRock
ĠIr
ĠMag
ĠFather
Ġcompanies
Ġ1999
Ġbrief
##arrow
Ġprevent
Ġlikes
ĠThomas
Ġsmart
Ġhurry
Ġweather
Ġtape
ĠLee
##rough
Ġma
##iano
##ighs
Ġcitiz
##Ļ«
##gen
Ġsides
Ġgreatest
Ġlearning
Ġamb
Ġstrugg
Ġdefinitely
ĠAcademy
Ġya
##cend
Ġfeatures
Ġhotel
ĠMom
Ġperformed
##ishes
Ġfright
Ġbal
Ġtransl
Three
ĠVirginia
Ġculture
Ġrap
Ġaware
##fessor
Ġcentre
con
Ġhorses
##eck
Ġforms
Ġren
Ġpair
Ġiron
##ansas
Ġforeign
Ġsch
ĠAtl
Ġnegative
ĠAh
Ġplants
Ġissues
Ġspeech
##RO
##icious
Ġremark
##lo
##IGHT
Ġpowerful
Huh
##ola
Ġevil
Ġvac
Ġretired
ĠCont
Ġsilver
##ican
ĠRoad
Ġfilled
Ġjudge
Ġsection
ĠGreek
Ġsource
Ġcrew
##oma
Ġprec
ĠBoy
Ġgreater
##gu
ĠBet
Ġduty
Ġthick
##mph
##rad
Ġcomplex
Ġinstr
Ġphilos
ĠMost
Ġcrowd
##utive
##hered
Ġsinging
##uten
Ġcalm
Ġorders
Ġconditions
Ġbless
Ġhandle
##osite
Ġdescri
##elle
Ġbasket
Ġempty
##||
ĠFil
Ġturns
##gl
##arts
by
##enge
##icient
Say
Ġlack
Ġcrack
ĠMexico
Ġrank
ĠDid
ĠBur
Once
ĠAfrican
Ġbloody
##icine
Ġteeth
Ġquarter
##host
Ġheads
Ġserve
Ġoffered
Ġsteal
Ġreasons
##imately
ĠFore
ĠHill
##asty
Ġedge
ĠFox
##urry
Ġbeauty
Ġoriginally
Ġwitness
##ourney
ĠSecret
Ġstandard
Ġincrease
Ġrealize
old
ĠMartin
un
##aving
Ġjoy
##va
ĠCongress
##anged
Ġbiggest
##ste
Ġopt
Ġourselves
ĠWestern
Ġsem
Ġneither
ĠFlor
##oned
##stood
Ġbecoming
##ockey
Ġmale
Ġbasically
##usic
##ros
##odies
ĠSunday
Ġcontain
Ġ1960
Ġneighbor
Ġsake
ĠHi
Ġ1998
Ġtarget
Ġmissed
Ġcharacters
Ġmeasure
Ġordered
Ġdivided
ĠAustralian
##hi
Ġsymb
Before
ĠCom
Ġgrown
Ġbitch
##anted
ĠSuper
Ġhardly
Ġsuspect
##urday
Ġladies
Other
ĠProv
Ġmut
##ening
Ġmedia
clock
ĠSun
Ġ1996
Ġseparate
##peror
ĠSpain
Ġtransfer
ĠMet
Ġdogs
Ġjournal
ĠVictor
Ġresponsible
ĠApp
##rick
Ġcere
ĠMother
ĠFin
Ġdecide
Ġign
ĠMaster
ĠTwo
ĠWood
ĠCanadian
Ġdare
Ġkilling
Ġreplaced
Ġeggs
Ġtight
Ġnorthern
##ooth
Ġstatistics
##fortun
##aud
##ault
Ġadult
Ġactive
Ġtotally
Ġvot
Ġacting
Ġremind
##rees
Ġgay
Ġmechan
Ġforever
Perhaps
ĠAssociation
Ġlegal
er
Ġprevious
Ġconnect
ĠLos
Ġcommer
Ġdirectly
##craft
ĠRussia
##ado
##aded
ĠTor
##ali
man
##CK
Ġox
ĠRome
##ois
Ġdocument
her
##time
##vere
Ġunit
Ġpromised
Ġphysical
Ġlies
ĠAnge
##aret
Ġcouncil
##umn
Ġcritic
##ked
ĠPet
Ġwaste
Ġterrit
Ġgentlemen
Ġwine
Ġwilling
##eds
Mrs
##mark
ĠSea
Ġprove
##ishop
Ġturning
ĠCatholic
##mond
Ġcuri
Ġarchitect
Ġclearly
Ġnoise
out
Ġfailed
##ias
Ġmeat
Ġcopy
ĠSH
##yan
ĠIre
##wr
Ġorganization
Ġsilly
Ġju
Ġwake
ĠLuc
Ġsaf
##isher
Ġdelight
ĠGet
ĠJud
Ġlawyer
Ġcamera
Ġflight
from
ĠConf
Ġsuc
Ġonto
Ġresour
##lder
Ġinstit
Ġzero
Ġseconds
Ġtaste
Ġimage
Ġtransport
##olit
Ġcontent
Ġscream
##aughed
Ġears
Ġappointed
##inter
Ġmotor
Ġflying
ĠTra
Ġinfluence
have
ĠBig
##EE
ĠRev
ĠIsrael
Ind
Ġappreci
Ġsurprised
Ġbother
Ġproduce
##elcome
##iger
Ġtechnology
Ġintroduced
Isn
##cience
Ġcandid
##elly
##ban
Ġkick
Ġlock
Ġroof
Ġpulled
Ġexcl
##abeth
##uan
##ender
##rated
"?
##rid
ĠCat
Ġdivision
ĠMaj
Ġconcerned
sc
##iance
##ima
Ġplat
##uman
Ġpattern
Ġkeeping
##ctions
put
Ġreligious
Ġbuildings
Ġlibr
Ġindependent
Ġsouthern
ĠMel
Help
Ġsucceed
##RI
Ġwet
Ġeasier
##lig
##arently
Ġepisode
Nice
Ġdestroyed
##osen
Ġlanguages
ĠHam
##ancial
Ġprepared
Ġ1995
Cos
##mar
ĠLady
##inois
.)
Ġloud
Ġopinion
Ġasleep
Most
ĠMill
ĠCenter
##nces
Ġsports
said
##atre
Ġadop
Ġ1994
ĠCompany
Ġdrunk
Bet
Ġcrying
##agon
Ġpit
Ġmeas
##bye
Remember
Ġlistening
##idents
##ennis
##orter
Ġrecently
Fine
Ġremem
Ġdemon
##TH
Ġquality
Ġanal
ĠGovernment
##ushing
##azz
Ġpalace
##ardon
ĠAngeles
Ġpil
##oking
ĠSand
Ġinsp
ĠFlorida
Ġteaching
Ġlaughing
##rate
##uals
Ġlaughed
##tering
Ġactual
About
##ga
Ġveh
During
Ġleague
ĠChief
##elled
Ġodd
Ġninete
Ġcloud
ĠEll
ĠLake
ĠBecause
Ġmetal
##ella
Ġjourney
Ġswear
Over
Ġ60
ĠTheir
##utenant
Ok
Ġdying
##kend
Ġworst
Ġthrew
##ua
ĠBest
##anny
Ġmagic
le
Ġmanaged
Ġmainly
se
##oles
Ġrecords
Ġmaid
Nobody
Ġknock
Ġtrial
##isco
ĠArab
ĠRay
##achel
Ġfixed
Ġsleeping
ĠDa
Ġappears
km
Ġpossibly
ĠUK
##ropical
ĠServ
Ġdreams
Ha
##rer
Ġpound
Ġsteps
##rier
Ġsequ
Tw
##vis
Ġplanning
##uries
Ġpure
Ġresist
##ios
Ġadvant
Ġwatched
ĠSaint
alright
ĠGovernor
##ooper
ĠWomen
##oured
Ġast
Ph
ĠDutch
Ġstream
ĠDick
Ġusual
##icide
Ġbrand
ĠDepartment
Ġawful
##bur
Ġnuc
Ġscore
Ġshowing
##cellent
int
Ġeth
Ġdrew
Ġprovided
Ġplain
two
Ġhadn
Ġ1992
##onse
Ġdamage
Ġfashion
##ctors
ĠBritain
##AU
Ġbuck
App
Today
Ġpartner
##LY
ĠBu
ĠHaw
Ġ1997
Ġburied
##urance
Ġends
AND
##alent
Ġrow
ĠOther
American
##zz
Ġtrib
ĠDen
ĠFOR
ĠSil
Ġcoat
Ġknowing
Ġcircum
##enced
##itzer
ĠEmpire
##esse
ĠCast
Ġmanner
Ġgro
##ANT
had
##oices
Ġyounger
Ġstayed
Ġfeels
De
Gr
ĠGO
Ġspoken
ĠYoung
Ġeverywhere
Ġexpression
##iable
Ġofficers
Ġfeelings
Ġappearance
Ġdebut
Ġconstruction
bye
Ġowned
Ġfingers
##orough
Ġremains
Ġconversation
en
Ġwalls
Ġdom
Ġstudies
Ġgift
##rig
Ġmagazine
##put
##change
##ocol
Ġassum
198
ĠRad
Ġnoticed
Ġmel
##oving
Ġdrag
Ġpocket
ĠMatt
Ġrequired
Ġexpress
##imum
Ġchamp
Ġanx
ĠDev
##heast
ĠClub
ĠAN
then
Ġeconomic
##ouch
ĠGeorg
Make
Ġprem
Ġguns
Ġsmoke
##ogether
Ġtong
Ġlocation
Ġstock
Ġash
Ġdirty
Ġbutter
Ġ1993
Ġsect
Ġalt
Ġreact
##ounce
Ġduck
Ġrat
Ġupset
Ġtroops
ĠSummer
Ġce
Ġcous
ĠMur
ĠIllinois
ĠAng
Ġpapers
Ġloves
##lection
ĠStan
Ġoccasion
Ġwinning
Sometimes
Ġcart
##orial
Ġscrew
##anche
##can
Ġrequire
##ingu
Ġlosing
##lyn
ĠPak
Ġprefer
##ournament
ĠFar
##ih
Ġflow
Ġrequest
ĠJane
##OME
Ġstret
Ġdrama
Ġcollection
Ġreality
Ġopposite
ĠTw
##ties
ĠStud
Another
ĠParliament
Ġoperation
Ġreligion
Leave
ĠRog
Ġrestaur
ĠIreland
Ġwheel
##sembly
##mn
##ache
ĠAunt
Ġthee
Shut
ĠAmericans
Ġminor
Ġbye
Ġautom
##appy
Ġimprove
Think
ĠGroup
More
Ġunits
ĠAnn
##owa
ĠKent
##duc
ĠGames
ĠHon
Ġbottle
El
ab
Ġprogress
##apa
Ġcake
Ġmusical
##lict
##iven
Ġmicro
Ġcompleted
##yp
##resp
Ġrub
Ġfinding
Ġcells
Ġinnoc
Ġtrick
Ġintellig
ĠMajor
##ulty
Ġdriver
Actually
Ġrelative
##reak
Ġgall
...?
Stay
Ġexcuse
ĠMass
ĠVer
Ġtreatment
ĠCamp
Ġfavorite
Ġtraditional
ĠLook
Ġability
Ġraise
##cel
Ġhelping
##bo
ĠSqu
ĠPrime
##arian
Ġeffort
Ġfought
Ġscr
##aria
Ġhumans
Ġfavour
me
##emic
Ġexerc
Ġjoke
##onder
Everyone
Anyway
ĠRail
ĠDivision
Ġfile
Ġcash
Ġjack
Ġgiant
Ġdrugs
Ġ1991
ĠTim
Ġmatches
ĠScotland
Ġthousands
Ġweekend
Ġthoughts
Ġbasis
Ġadvice
Ġtiny
##stitution
##20
Ġlights
Ġflag
ĠEvery
Ġgate
##aval
Ġstruck
Ġfro
Ġthy
Ġwebs
##onds
Next
##Äģ
Ġguitar
ĠRight
##igg
Ġstatement
Ġaffect
##ila
Ġadj
Ġflower
##ira
Cause
Ġbast
Ġchemical
Ġuseful
##ILL
##oos
ĠHa
Didn
Ġwestern
Ġspr
Ġjobs
25
##CE
ĠPrincess
Ġphilosop
##obile
Ne
##osa
Ġdepart
Ġships
##UST
ĠHA
Ġaltern
hand
off
Ġ185
Ġforgotten
Ġmatters
ĠOff
##uing
##acle
##vest
Ġtim
Ġnerv
Ġsafety
50
law
ĠCons
ĠGe
##RA
Ġpurs
Ġetc
Ġye
While
RE
your
Ġattend
Ġcloser
ĠSus
ĠGre
Ġsword
##add
Ġfreedom
Ġfinancial
##eral
##ja
Ġflo
##thur
ĠMusic
##igan
ĠOlympics
##ildren
II
Ġbodies
ĠCam
ĠSaturday
##hile
Ġeffects
._
##erman
Ġawarded
ĠDire
Ġninety
Ġfal
ĠDoctor
Damn
##rary
##egr
##lim
##ST
ĠHel
Ġreceive
##aimed
Ġpresence
##lying
Ġmotion
##inger
##urse
ĠWal
Ġfocus
Ġsplit
##kes
##ootball
##isa
Ġrise
##stead
ĠRose
ĠJoseph
Ġgolden
Ġdeclared
ĠLatin
ĠMike
Ġgentleman
Ġaccepted
Many
However
ĠMax
ĠBas
##ailed
Ġnative
##stances
##olved
Ġminister
Ġbringing
Ġearn
ĠDemocratic
Ġselected
Ġthin
Ġlect
ĠWind
Sm
Ġbare
Ġtemperature
Ġdressed
ĠInstitute
##yo
Ġtears
##ilty
Ġgri
Ġhearing
Ġcredit
Ġgraph
##IF
Ġborder
some
Ġsignal
Ġresponse
##izabeth
##onic
##iliar
Ġdarling
Ġcream
Ġbranch
ĠMajesty
Ġweapons
Everybody
Ġentirely
##iro
Ġrecomm
Ġafford
Ġinhab
ĠCommittee
Ġbroadcast
Ġsail
ĠBell
Ġmate
Ġrecent
21
##ads
Ġwave
Ġmort
Ġworkers
Ġcontains
##hin
Ġnewspaper
##amber
ĠWhile
ĠFre
##ective
ĠKim
Ġdivor
##aming
Ġcro
Ġlips
Ġuns
ĠLand
Ġcommercial
Ġ1989
Ġexcited
Ġchicken
Ġfired
Ġfifteen
##iminal
##OP
Ġauthority
Ġsilence
ĠLove
Ġ1950
##uous
Ġperfectly
Someone
Ġhyd
Ġfalling
ĠOs
##arge
##ervation
Ġapproach
Ġcastle
Ġbillion
Whatever
Ġsignificant
Ġ""
Out
##bury
Ġtur
Ġlic
##ysis
Ġmo
Ġfaster
Ġmanagement
ĠPan
Ġdesire
Ġactivity
Ġstreets
##elie
Christ
ĠHol
thank
197
##nam
Ġ184
##vention
Ġmajority
Ġdrawing
##ulated
ĠArch
ĠSince
Ġcomment
Ġboo
Ġboot
Ġlabor
Ġcarefully
##ITH
Ġdrinking
Ġfruit
ĠFer
Ġconnected
##venue
Ġsolution
ĠSociety
Ġnineteen
ĠIran
ĠEdward
Ġpool
Ġsugar
##quar
Ġsixty
Ġbeach
Ġrele
Ġgrave
Ġah
##imp
##rant
##zy
Ġsuck
ĠSecretary
ĠIm
Ġconcent
ĠHot
com
##vy
ĠMer
Ġqueen
##essel
##erves
##stant
Ġmedicine
Ġrent
Ġdiam
ĠProfessor
Ġarrange
ĠDou
##illed
Ġelement
Ġgain
Ġkeeps
Ġsettled
qu
Ġshr
Ġremoved
Ġunderstood
.]
Ġfant
ĠSee
Ġkidding
##ummy
Ġplanned
Ġtough
Ġfully
Ġpotential
Ġlake
Ġsharp
Ġlord
may
##acter
##ulate
ĠYear
##owed
Ġcomedy
ĠPlay
Ġincreased
##ipping
Ġbasic
Ġbeside
Ġadvent
ĠTrans
Ġsin
##ipl
Ġhabit
Should
ĠBilly
##abb
Ġprimary
Ġscored
Ġnumer
##gor
ah
##eping
Ġotherwise
Ġterror
Ġmixed
Ġdefend
Ġhighly
Ġprograms
Ġmap
Ġaudience
##onia
##isp
Ġfederal
Ġroy
Call
Ġapartment
Ġsexual
Ġchat
##eman
Ġjail
##wers
Welcome
Ġfigures
ĠWAS
ĠJackson
Ġgoals
##aging
Whoa
ĠHello
##wan
Ġdim
Ġscar
Ġunk
Ġmountains
Ġcharm
Ġsetting
ĠKN
Ġpregn
Ġprior
Hmm
Ġroles
Ġvictory
Ġpleased
ĠHE
..."
##obal
Ġconsum
Ġdu
Ġstatus
Ġforgive
##ador
##acks
##bl
ĠMuseum
ĠGirl
Ġkingdom
Ġpassing
Ġcomfortable
Ġtor
##hetic
Ġfailure
##gency
##spect
##uckles
Ġpaying
Ġfifth
ĠBa
Ġsuggested
Ġow
Ġarrested
##oir
Ġchanging
Ġdefeated
##ALL
##unny
##porary
Ġupper
##ivity
Ġeighty
Ġrapid
Ġ(;
Ġrailway
##adium
##oston
Cap
##stra
Ġproceed
Ġagent
Ġinvited
Ġfaces
Ġmuseum
##ropri
ĠNorthern
##what
Love
Ġchosen
Ġelements
Ġnervous
Ġhiding
Ġexhib
##rep
Ġpra
##itzerland
gr
Ġknife
##ports
##inda
Ġstrike
ĠSweden
##IL
ĠJewish
Ġwash
##amily
Ġproducer
Ġ1988
Ġapolog
Ġrepresented
##zer
Ġchannel
ĠGar
ĠLu
Ġavoid
Ġextremely
##eel
Ġdancing
Ġpossess
Ġgrowth
##alls
Ġcontroll
Ġprofessor
Ġcircle
##odd
ĠLy
fl
Ġgirlfriend
tr
Ġeh
ĠPac
##stein
##gment
Ġ80
##ufact
Ġdomin
##enger
ĠCle
La
Ġmanufact
Ġwid
##usted
Ġchest
Ġactivities
Ġschol
Jack
##orse
Ġlibrary
Ġwindows
Try
ĠFriday
##eer
Ġplenty
##izes
Ġwealth
##osc
Ġsomehow
Ġdisplay
##RY
ĠHarry
Ġnotes
Ġroute
##ece
will
Ġselling
Ġunf
##ocal
ĠStar
##hens
Ġflew
Ġult
Ġmax
ĠAsia
Ġpurch
Ġupstairs
##min
Ġsees
Ġchampionship
Ġshooting
Ġadvantage
##load
ĠZeal
Ġtongue
Car
##isation
Ġcolour
Back
Ġexpand
Ġbunch
Ġcompos
Ġbelief
##han
Ġfields
Ġunderstanding
Ġmultiple
##riff
ĠBo
Ġproducts
Ġsons
##ishment
,'
nd
ĠColumb
##li
##onday
Ġcarrying
app
Ġsoldier
Ġinstance
Ġsales
Ġclimb
Ġaircraft
Ġguilty
Ġachieve
##iences
##pa
Ġslightly
##ercy
##vin
Ġdesert
Ġcalcul
Ġocean
ĠSouthern
Ste
ĠMah
Ġshell
Ġconsist
Ġowner
Ġpowers
Ġdism
hey
Ġkil
##ums
Ġtraffic
Ġfilms
##IE
Ġded
Ġghost
Ġliber
Ġresc
Ġinterp
Ġdoors
ĠOk
Ġhanging
ĠMore
Ġunt
##win
Ġproof
Ġseriously
").
Ġpoison
ĠCorn
ĠWay
##iform
Ġsched
Ġ500
Ġ1987
Ġmathem
Ġnarrow
Ġscale
ĠBang
Ġchain
Ġentertain
##aughs
Ġlatter
Ġconnection
Ġrevolution
##bably
ĠIowa
Ġtone
Ġcounter
Ġquant
Ġresources
ĠSwitzerland
Ġbrave
ĠJac
##ulture
Ġpink
Ġ183
ĠZealand
ĠNat
Ġcauses
##outs
Ġexpensive
Hurry
Ġsupported
ĠLong
Ġrealized
23
##awa
Ġguest
Ġtask
Ġscientific
ĠCharlie
24
##overy
ĠUncle
##acher
Ġspect
ĠIrish
Ġcitizens
Ġheav
##apes
Ġ90
ĠWE
ĠLike
',
Ġbat
Ġgang
##amin
ĠMY
Ġsupply
Ġrecording
ĠMcC
Ġimpl
Ġunion
Ġweapon
Ġapprox
ĠThanks
Ġemot
Ġstring
ĠCarolina
Move
##icy
Ġuniverse
Ġdetails
ĠDis
Ġcant
ĠAmy
Ġcheer
ĠColonel
Ġremembered
##inent
Ġdiss
##esc
Ġblame
Ġcosts
Ġgather
Ġlevels
):
ĠTer
does
Ġspell
ĠStep
##weet
##eaking
ĠEs
Ser
##PS
Ġ1984
ĠJohnson
##bey
Ġfamiliar
Ġincred
##book
Ġwings
ĠJan
ĠAwards
##angers
Still
196
Ġfairly
Shit
Ġtradition
ĠLight
##uls
ĠChair
Ġwondering
Ġshore
Ġsilent
Ġreck
##esides
Ġ35
ĠMic
Ġtransform
Ġlabel
##mother
Ġhidden
ĠIslam
ĠMich
Ġclasses
ĠNOT
Ġoldest
##egal
Ġgrab
Ġhyp
Ġdust
Ġpiano
##roke
Ġspin
Ġ32
him
##war
Ġseasons
Ġshirt
ĠJun
##ava
##ji
Ġmental
Ġstaying
Col
##verse
Ġate
Ġpriest
Ġsport
ĠUnder
Ġafterwards
Ġmole
ĠCommission
Ġ1979
Ġplatform
ĠHy
##elf
##urd
Ġsheep
Ġvessel
Ġthroat
ĠAT
Ġresponsibility
Ġroyal
##Î¿
Ġrac
Ġdisappoint
Ġhook
ĠValley
Ed
##omer
ĠSk
Ġvirt
According
Ġadvert
Ġcapac
##lend
Ġpin
Ġplate
##APTER
Ġbudget
Watch
very
Ġcards
##Ã±
ĠJean
Ġhello
Ġeastern
Ġsolid
Ġprincess
Ġ/
Ġlimited
Ġcousin
##gie
##CT
Ġ1981
##icted
Ġfeature
Ġfinds
Ġpresented
Ġpill
ĠLab
##ela
##worth
Ġaband
Ġtravell
Ġbreaking
Ġcabin
##etch
Up
Ġunivers
##eau
##pet
Ġwise
##OL
Ġath
Ġ1972
IT
Ġshoulder
Ġshame
ĠVal
Ġeconomy
Aye
Ġtournament
Ġ1986
Ġattacked
##uper
Ġnea
##ario
ĠOut
Ġchose
Ġrocks
22
Ġdread
Ġcolon
Sit
Ġtroub
Ġ70
Ġ<
##eding
ĠBra
##rence
Ġartists
Ġparties
Ġ--&
Ġrefused
Ġwaited
##ez
##andy
ĠKorea
Ġham
ĠAngel
##aning
Ġflu
Ġentr
Ġfan
##unched
Ġpassion
ĠProvince
##ko
Ġpoll
##aka
ĠTHIS
Ġfolks
ĠRepublican
were
Ġlat
Has
Care
##ova
##aws
##AND
Ġmedal
##rast
Ġrelax
##athy
Ġangel
Ġjustice
Open
Ġliqu
Ġstated
ĠJeff
Ġdial
##oto
Ġcheese
##ESS
Ġwire
Ġsuffered
Ġstations
##urally
Ġoccurred
ĠSol
Ġdetermined
Ġbatter
##icket
Ġbegins
Ġchallenge
ĠWales
Ġ1983
ĠRod
Ġeditor
Ġpolitics
##alm
Ġconscious
Ġdisappeared
##fortunately
ĠFootball
Ġblank
ĠWall
Ġintegr
ĠKe
Ġgeneration
##entially
Ġtelephone
Ġanti
##AUGH
Ġvariety
Ġadmit
##erk
Ġgodd
Ġdrawn
Ġcrown
##inson
##rilliant
Ġnormally
Ġfalse
ĠCommun
##enes
Ġattended
ĠTre
Ġpaint
ĠYOUR
ĠFort
Ġhappiness
Although
Ġridic
Ġ1985
Ġhelps
Ġinnocent
##cest
Ġcontinues
Under
##encies
Ġprotection
Ġ1982
Ġeleven
Ġconflict
##iece
##RB
Ġunus
Ġfurn
##omed
##iments
##isse
Ġproposed
Ġlocked
Ġlone
Sam
Ġhomes
Ġlegisl
Ġtemple
Ġdaily
Ġvent
Ġidiot
Ġexistence
##ordin
Ġarticle
##jo
Ġbite
ĠInter
##ronic
ĠEven
##ologist
Ġswitch
ĠBook
Ġcarbon
Ġrab
ĠSecond
Ġcateg
Ġhom
ĠTri
Ġdegrees
ĠUk
Ġtouched
ĠSP
##hings
100
Ġax
ĠEv
Ġbackground
Ġreferred
##ONE
Ġnurs
Ġonline
Ġclimate
Ġshadow
Ġveget
##heim
Ġfold
##ints
Ġstands
Ġvictim
Â¶
get
ĠRam
Ġequip
Ġsentence
ĠNick
Ġoperations
Sec
ĠTony
Ġrespond
Ġinhabit
Ġsole
ĠLib
Ġrare
Ġtower
ĠHave
Ġimpact
##ourse
Ġconcert
Ġaim
Ġsurg
ĠNE
ĠSenate
##lN
Ġkiller
##iac
##earch
Ġflood
Looks
##ingly
Ġpa
##eps
Early
ĠNaz
Ġtreated
Ġincreasing
ĠAS
Ġpleasant
Ġsuicide
Ġbutton
Ġvision
Ġwrit
Ġdyn
Ġunknown
Ġcriminal
Ġcommittee
Mad
##angle
Ġheight
##aki
##rical
##eek
cent
Ġcig
Ġtowns
Club
ĠFour
Ġorange
ĠIII
Ġestablish
Jesus
Peter
Ġloose
##idae
##istor
Ġregret
##uns
ĠâĢĶ
Ġassociated
Ġchart
Ġcoal
Ġobjects
Ġtied
Mother
Fl
Ġaspect
Ġvalues
##ducation
##coh
Ġsymbol
Ġterritory
##gly
##ras
ĠThree
Ġfallen
##wa
ĠBoston
Ġ36
##orpor
Ġquit
Ġhundreds
ĠForce
##geant
Turn
Ġengaged
Ġrecognized
Ġserving
Ġframe
##okes
Ġ1976
Ġhorn
Ġpreviously
Ġcute
##aron
Ġincome
Ġseek
Ġfollows
##OULD
Ġinstrument
##eneath
ĠKansas
ĠKNOW
##GE
HE
##ito
##IA
Ġhunting
Ġjuice
Ġ1978
Ġviolence
Ġneighbour
Ġconsequ
Ġboyfriend
Again
ĠLater
Ġclock
ĠGal
##ieutenant
Ġtruly
Ġhoping
Ġsacrif
Ġappreciate
Ġdiscover
Ġcott
Ġrooms
##ba
##athan
ĠUp
##uce
Ġtie
Ġsisters
Ġbenefit
##ception
ĠSur
ĠKong
ĠPortug
Ġdrove
Ġclient
Ġhandsome
Ġfeatured
Ġmyst
Ġcommission
ĠAss
Ġfancy
ĠLife
Father
##boy
##ricane
ĠJones
Ġsuffering
Ġargument
ĠNorm
ĠJohnny
Ġsenior
Ġbeer
##oof
ĠAccording
##itty
Ġmaintain
##lla
Ġpeak
ĠTay
##osphere
Ġsuppl
Ġconduct
##KING
"),
Ġaunt
##nic
##adel
##ounding
ĠJimmy
ĠGra
should
Ġordinary
five
Ġlit
ĠDor
Ġcompared
Ġclever
ĠEmperor
Ġestim
Ġshock
Paul
Ġapple
Last
Ġwo
Ġappeal
Ġdistinct
##iser
##emies
Ġrecognize
##mes
Ġborrow
500
ĠMem
##ustration
Ġsurvive
Little
Ġfate
ĠSocial
##fall
Ġmail
##asm
ĠElizabeth
Ge
##iat
##olk
ĠEastern
##asts
Ġrepeated
Ġproperly
Ġ1974
Bill
comm
Ġdescend
ĠMen
Ġbehavior
##bridge
##era
Ġ1973
##ements
Ġadministr
Ġcourage
Ġinqu
ĠHan
Ġlin
ĠCO
ĠChris
ĠMat
ĠRecords
##LA
ĠLiber
Ġlimit
Ġdeliver
##arrass
Ġrestaurant
##inging
##aire
##obb
##iy
##sect
##oln
Ġok
Ġcheap
##place
##quarters
##ERS
ĠMiddle
Ġ300
##gle
##ealous
##hole
Ġcreature
Ġearned
ĠAlan
ĠJersey
Four
Ġcontest
ĠConn
Ġ01
Ġwebsite
rd
##aya
Ġens
Ġunique
##isy
Ġ45
ĠHind
##ague
Ġexcellent
Ġapparently
##ocolate
Ġnoted
##down
##IST
Em
Ġrum
ĠBank
ĠFair
night
Ġbatt
##anging
Ġagreement
##venge
Ġindividuals
##onn
Ġequipment
##wide
##imal
##iration
ĠTime
Ġburning
ĠFestival
ĠPhilipp
##low
Ġsigns
ĠVen
Ġreports
ĠHAVE
Ġpushed
##omach
ĠMarg
Ġconsult
also
ad
##HL
Ġsaving
Ġchampion
##wich
##unting
ĠShow
Ġcircumstances
ĠCa
Ġholds
##sters
Ġalarm
Ġsomewhat
Ġpartners
##achus
##arant
Ġexact
Ġcommitted
Ġofficially
Ġgoodness
Ġconstant
Ġbrings
Ġpatients
##gs
ĠHome
Ġobvious
Ġgovernor
ĠMonday
##izations
Ġcas
Ġbuddy
Ġbastard
ĠHu
Ġlisted
ĠTy
##una
hmm
##ika
Ġsoftware
Ġrot
##atherine
##bow
##olt
Ġnuclear
##otic
ĠBarb
ĠJr
##ACK
##heart
Ġexperiment
##ading
ĠRon
ĠKenn
Ġreject
Ġintended
##ented
Their
Ġcheek
Ġimportance
##gian
##arks
Ġconference
Ġ1969
##oked
Ġexplained
ĠAlthough
Ġpretend
##Åį
ĠSteve
Ġmeal
ĠAsian
Ġadditional
Ġbabies
ĠOx
Ġmoves
Ġtrail
ĠHoly
ĠMaria
##ometimes
Ġadvance
Ġ1968
Big
##while
##ront
##etts
##stone
Ġexchange
ĠKen
Ġ1975
ĠMod
Ġdesk
Ġlaunched
##osal
Ġwoods
ĠLI
##pered
Ġslept
##Ã´
##zo
##iral
Ġeaten
ĠBlue
Ġdepends
Ġwithd
##ĠĠĠ
Ġnominated
##umph
27
##gend
Ġassistant
ĠService
Ġperman
Ġ1971
Ġroot
based
Ġweb
Ġwrest
ĠBern
Ġkeys
ĠPakistan
Ġstole
ĠDet
##addy
Ġsolve
ĠRom
Pres
##lers
Ġtracks
##BS
##aren
##retty
Ġscript
##aze
Ġ1977
26
ĠAv
Ġcommit
##evin
Ġdarkness
##otal
Ġhorrible
ĠTem
ĠNavy
Ġshel
Ġclim
ĠGeorgia
per
Ġteachers
Ġhistorical
##hess
ĠBrother
Ġclaimed
##aling
Ġgoods
Both
ĠTurk
Ġho
Ġpale
ĠTele
ĠBus
ĠAtlantic
Ġpump
ĠAndrew
Ġ1930
Ġcommonly
ĠCivil
Ġswimming
Ġneighborhood
known
##inking
Ġreaction
##Ã©e
##erer
David
##asp
Ġdescribe
Ġoverall
##ati
Ġowe
##estic
Ġatm
Ġactions
Ġclosely
ĠPacific
Ġtoil
##incoln
Ġwinner
Ġbedroom
ĠPL
ĠDef
##obe
Ġaccomp
##aura
Ġeleph
Ġdefin
Ġcompeted
##inity
ĠDar
Ġprime
Ġfriendly
##standing
Ġphotograph
##sell
Ġmyth
Ġsitu
Ġ1940
ĠBerlin
Gl
##olen
ĠHung
ĠCy
Ġallows
Ġwished
##writer
ĠBull
ĠAdm
Ġancest
##unts
,--
##unes
Ġexplos
Ġcorresp
ĠPrize
##atics
Ġsymp
Ġproved
ĠFrancisco
Ġembarrass
Ġlift
Ġbasketball
Ġspite
Ġindustrial
##achusetts
ĠVan
Ġholiday
Ġsettlement
Ġretire
Ġ1964
Saint
Ġalcoh
##mpt
##ching
Ġcock
ĠGil
##water
Ġremaining
Ġcorpor
Ġromantic
want
Ġdies
ĠBoth
##anches
Ma
##omy
Ġgotten
Ġcurious
ĠHarr
Ġsplend
Ġdram
##chestra
Ġfishing
##anes
##iley
##Ã§
Ġaside
Ġaccompl
Ġmarked
40
ĠArthur
Ġinsurance
Ġinvestigation
Fin
##ami
Ġanalysis
Ġcomposed
Ġwing
Ġconqu
##uy
##ouri
Ġridiculous
Ġfrightened
'?
##reck
Ġpuzz
##oops
Ġmerely
Ġbathroom
##burgh
Ġvalley
Ġtender
mom
ĠWITH
CHAPTER
##cles
##wing
Ġsteel
ĠNether
Ġfalls
##EM
ĠDi
##you
Ġemergency
ĠSant
Ġdevil
Ġdesper
Ġnearby
Ġgods
##iques
##ropriate
##osis
##TS
Ġgal
Ġsending
##aska
##Ã³n
Ġlonely
##UM
Ġtools
Ġnurse
âĻ«
##wick
Ġbones
ĠOnly
##gues
##ierce
ĠHea
Ġsimpl
ĠWater
Ġstronger
Geor
Ġtort
Ġnut
ĠRaj
Ġexamples
Ġmaterials
##omi
Ġsets
Ġcritical
Ġstomach
ĠUh
ĠTok
Ġprote
Ġapplication
ĠBoard
##AB
##rich
ĠInt
Ġmonster
Ġwore
Ġbeneath
Ġreward
##irmed
ĠBav
Ġdecor
Ġefforts
ĠOpen
Anything
##ogue
##otted
only
Ġcaptured
Comm
ĠUN
##unning
ĠAbout
##onsense
Ġhired
Ġpregnant
Ġjun
ĠNob
Ġacid
Ġestate
Five
ĠCAN
ĠIntern
##ruce
ĠTa
Ġours
ĠFilm
ĠBattle
Ġmethods
Ġshared
ĠGall
##ordon
Ġsweetie
over
Ġpride
Ġprotest
Ġenemies
Ġbutt
Ġairport
Shall
Ġexercise
##itors
Ġmile
Ġsurely
ĠKorean
##vant
Ġmood
ĠCub
##esp
ĠSel
Ġ1967
down
ĠLeon
Ġdump
Ġlands
ĠPen
Ġuniform
Ġsalt
Ġ33
Ġ(,
Ġattacks
Ġcopies
Ġenjoyed
Ġdefeat
Life
Ġtalent
Ġtoys
Ġshook
Ġapply
Ġliterature
ĠDirector
ĠTimes
Too
##force
Ġadopted
more
ĠBible
Ġbrilliant
##aser
##asters
Ġugly
##rav
Ġnumerous
Sim
Ġta
##bsolutely
Ġcolors
Captain
Ġsoil
every
Ġdealing
Ġinhabitants
Ġsurgery
Ġrand
Ġphr
##apping
Ġapplied
ĠBrook
ĠOffice
##onent
Ġrug
Ġoblig
Ġauthorities
--"
##agement
Ġskills
Ġproced
ĠDav
ĠOver
Ġsorts
##ifying
Ġagric
##olitan
Ġrings
ĠJon
Ġdevice
Ġorganized
Ġgained
Ġseats
Ġdistributed
Ġjoint
Ġfolk
##itable
Ġreform
Ġtheme
Ġmayor
Ġfactory
Ġburst
##ithm
Ġspo
ĠSimon
##ription
Ġdelay
28
Ġthrown
ĠRepresent
ĠDON
ĠScottish
ĠMichigan
ĠDaniel
ĠNight
Ġsam
Ġyard
ĠTommy
Ġsale
Exactly
Ġvehicle
ĠAssembly
Ġconcl
##rogen
Ġfortune
##EF
##UCK
##ppy
ĠKat
ĠAlice
Ġcomplain
Ġdetail
##iri
Boy
Ġmyster
ĠArts
Ġunusual
##ultural
Ġticket
Ġtrains
Ġcomplicated
OH
any
Ġtip
ĠAny
Ġ181
Ġtear
ĠDNA
Ġannual
ĠSon
##stance
ĠAri
Ġeffective
##ori
Ġblocks
##ructed
Ġinstant
##alo
Ġhousehold
Ġprize
ĠMassachusetts
cont
Ġconce
Ġ1945
Frank
Ġscientists
Ġdemocr
ĠAdam
Ġaid
ĠNetherlands
say
Ġincident
Ġdraft
##oster
ĠArgent
##eh
Ġburned
Ġinitial
##icing
ĠSup
ĠGer
##ateful
ĠViet
Ġbullet
##athered
Ġpity
ĠOb
##gging
ĠNet
Ġopera
Ġdisappear
ĠOlympic
Ġdoctors
##ivered
ĠBefore
maybe
01
Eng
Ġplot
Ġelev
Ġharder
Ġparish
ĠNic
Ġteen
##oti
Bring
Ġstranger
Ap
ind
##OUT
Ġobserved
ĠSarah
ĠDuke
##phia
Ġsixth
Ġelections
Ġpermission
Time
Ġbride
Ġconsists
Ġattitude
Ġsuffer
ĠWHAT
##ington
Ġhearts
Ġfuel
Ġwarning
Ġcultural
##ige
##rane
ĠBea
Ġlegend
Ġbadly
little
##owing
##umes
Ġdish
Ġpow
ĠLew
Ġunable
##rot
Ġcruel
Ġcandidate
Ġrandom
##Äĩ
Somebody
Yep
Ġhast
Ġhills
Ġpupp
ĠProt
Ġadvanced
Ġroads
General
##ollowing
Ġsubsequ
##inem
ĠEve
ĠOhio
Ġcreating
ĠBab
##engers
Ġspare
Ġstruggle
ĠBad
Ġgre
##uties
Ġwhenever
Ġnights
Im
Ġislands
Ġstress
Ġowners
Ġassume
##eness
ĠMir
ĠKn
Ġconfess
Jo
ĠRa
Ġbalance
ĠAB
ĠSC
Ġriding
Ġpointed
Ġbelongs
##aph
Ġbits
Ġangle
##cript
Ġhonour
Ġacts
Ġexplan
Ġlesson
Ġjealous
Ġidentity
Ġleads
Ġseventy
##âĻª
ĠWilliams
ĠChampionships
Ġpages
ĠLeg
##orney
##EST
looking
Whe
##itter
Ġjew
Ġvolume
##utation
three
Cong
##unte
ĠLes
Ġvisited
WHAT
##adelphia
Bar
ĠMid
##uma
Ġbuying
Ġballs
ĠRoss
ĠDanny
ĠHead
Ġarmed
##opp
Ġvia
ĠAustria
Ġcapable
Ġphoto
##isms
Ġstairs
##erent
Ġcharges
ĠBroad
##omething
##OB
Ġwaves
Ġeager
##perial
ĠWork
Ġoperating
Ġimpress
Ġyards
##ici
##cha
##apped
Ġsmooth
Ġruled
Ġdebt
ĠEnter
Ġspending
##aughters
hi
Ġcrash
ĠClass
ĠStr
Ġsquared
Ġmud
##abet
ĠHong
Ġapproximately
Ġpants
ĠNations
Ġtropical
ĠForest
Ġconver
Mart
Michael
##ilton
Ġrevealed
four
Ġwounded
ĠAlso
Ġaffected
ĠOcean
##rem
Ġmeters
Ġwand
Ġrecommend
Ġtrained
Ġinterpret
ĠBon
Ġmoral
ĠChairman
ĠUs
Ġquietly
Ġwaters
##aughing
Ġcapacity
##âĢĶ
##ervative
##ygen
ĠGi
Ġpainted
##esome
ĠKar
Ġelder
##ureau
Ġregions
ĠNews
ĠVol
Ġconclud
ĠVictoria
ĠGen
Ġintroduce
Ġcutting
##ursday
Ġwhist
Ġdespite
Ġtab
Ġexpert
Ġlaunch
Ġcooking
##ART
Ġcreation
Ġtalks
##40
Ġfart
Ġdistribution
Ġphilosophy
##ii
##kel
ĠEach
Ġstudying
Ġmurdered
Ġbone
ĠAsh
##otte
Ġvoices
Ġmarks
_.
ha
Ġshake
Ġgrey
Ġinterrupt
called
room
ĠLine
ĠFound
##onscious
Ġreference
Ġdozen
Ġglobal
sur
Ġlecture
Ġhockey
Ġchocolate
Ġ180
Ġinterests
Ġprogramme
Ġmouse
Ġaccur
MAN
Ġera
ĠRevolution
Ġguests
Ġacad
Ġfuneral
Ġhealthy
Ġlistened
Ġexciting
##aned
Ġsubs
Ġbaseball
##cus
##iture
ĠSar
Eh
##ardo
##icky
Ġdeserve
Ġreflect
Ġmunicipal
about
##anting
Ġalgor
Ġrelief
ĠTake
Ġgraduated
##ands
##aved
##aa
Ġcrap
Ġped
Ġstolen
Ġcert
Ġanswers
Ġsources
##har
##uable
Ġguarant
##UL
##othy
##leg
##ensity
##rovers
Ġ1966
Ġcrossed
ĠFR
Ġarts
ĠGolden
Ġtrem
Ġfond
Ġunp
Ġsmiled
ĠUP
Ġgray
Ġalbums
ĠALL
##raine
ĠArk
Ġcenturies
Ġgenus
##OTH
##usting
##inder
##ondisse
Ġmillions
##uild
##rete
ĠOper
##mony
##ingham
ĠBudd
ĠAlexander
ĠCross
ĠOffic
##orders
Ġgrandfather
Ġfeather
Ġheadquarters
Ġsecure
##iner
##erences
ĠFord
ĠÂ£
##Ã¦
##eper
Ġ1963
##ARD
ĠĠĠĠĠĠĠĠĠĠĠĠĠĠĠĠĠĠĠĠĠĠĠĠĠ
Ġvast
##irds
Ġfunctions
Ġdistricts
ĠHolly
Ġnuts
Ġbetray
ĠIslands
ĠPoland
ĠTownship
Ġwitch
Ġrhy
Ġshopping
ĠSanta
ĠTed
ĠBre
##OD
Ġcollea
##adesh
Te
##CA
Ġsucceeded
##IV
##icking
Ġmerch
##irus
##sen
Besides
Red
wow
Ġdude
ĠSub
Ġunb
Ġatmosphere
##utor
ĠMarsh
Jim
Six
Ġsites
Ġsquad
Ben
back
##heme
Ġracing
Ġprisoners
Ġinjury
##thony
could
##sk
##iar
Ġjumped
Ġshoulders
Ill
ĠSwedish
sm
Ġbul
Ġhi
##eline
Ġextended
##ederation
Ġentrance
Ġstir
ĠHealth
##obby
Ġfriendship
##SE
Ġstones
ĠWat
their
Ġ1965
Ġpilot
##PP
Ġbanks
ĠColumbia
ĠMissouri
Ġwidely
ĠBrazilian
Ġmirror
Ġsan
##irk
##pton
Ġcris
ĠPlease
ĠLincoln
Ġsang
Ġaffair
them
Ġinterf
Brother
##anz
Ġlion
Ġassign
Ġfactor
ĠMo
Ġfacts
ĠSa
Ġbranches
ĠAnother
Ġprovides
ĠEp
##berry
Ġfra
ĠRos
Ġ1948
Ġcorrespond
Ġthrill
ĠMeg
Ġconcer
Ġpersons
##REA
Ġtunn
Ġfans
Ġbitter
Ġglasses
Ġgrade
Ġchecked
Ġitems
Ġanger
Ġnick
ĠTam
ĠWed
Ġgrace
Ġillust
##ecess
Ġalleg
ĠInc
Ġarranged
ĠSong
Ġslide
Ġsufficient
Ġselect
Ġfigured
##eable
ĠFederal
ĠPolice
asked
##olm
##ordan
Ġurban
Ġedition
ĠOxford
Ġwound
ĠSure
Ġpoly
Ġconfused
ĠDisney
head
Ġprojects
Ġvictims
Ġexecutive
ĠWait
Ġinspect
ĠBC
##UD
ĠFe
ĠEst
Ġputs
##amps
Ġevolution
Ġdecisions
know
##azed
Ġdiscussion
Ġsurrounded
##uesday
Ġindu
Ġchildhood
Ġdistingu
Rich
##ropolitan
Ġconfidence
ĠMexican
Ġknees
Ġremove
Ġcovers
Also
ĠTaylor
##fred
Ġreviews
##akh
##uv
Ġgathered
ĠWalk
##umin
ĠDaddy
Grand
Ġplastic
Ġstarring
Ġpiss
##ipper
##ographer
##Ã¡n
Ġrib
Ġcou
Ġpractical
Ġinstruct
##chers
Ġtow
ĠFC
ĠFire
Ġinjured
Ġknocked
ĠJerry
ĠARE
Ġdemonstr
Ġescaped
ĠIra
##orne
Ġprofession
ĠNothing
Ġloyal
Ġrising
Ġnoble
Ġissued
Ġconstitution
Ġintelligence
Aw
##fle
ĠBor
ĠBall
Ġviews
##80
Ġnorthwest
Ġindependence
ĠAndy
##uled
29
##uate
Ġawards
##antry
Ġheaded
Ġsupper
##bra
##onents
Ġrush
ĠTop
##elia
Were
Ġcommunication
Ġsubjects
Ġreduced
Ġsmiling
Ġsurre
Ġdepth
##oscow
##rison
Ġterrif
Ġaffairs
Ġpossibility
Ġtries
THAT
after
##ghan
##rive
ĠPope
ĠFel
Ġmodels
;/
##atically
##ules
##case
##ulpt
ĠSupreme
Old
Ġtoy
Ġfairy
Ġcompar
Ġ34
Â°
##BI
##ierre
Without
Music
Ġsooner
Ġ+
ĠDam
Ġservant
Ġsumm
ĠCoast
Us
##ui
Ġ1920
##enly
ĠDun
Ġdifficulty
##leton
ĠSystem
Dear
Ġgranted
Ġletting
Ġcommunities
Ġbeating
Ġprepare
ĠJews
Ġing
Ġbegun
##lle
ĠRab
Ġ1956
Ġclaims
##don
Ġec
##etime
Ġbreast
ĠPhiladelphia
##erable
##iped
##tical
Ġ1962
Ġdiagn
Ġsed
Ġdrown
ĠÂ¶
##itage
ĠTell
ĠDave
ĠBrad
Ġdawn
Probably
##opher
ĠGET
Ġcharged
ĠSpec
Ġreturning
##onym
##OOD
rel
##do
Ġcollabor
Ġparliament
Char
Ġadministration
ĠRadio
##arted
##osity
195
NO
##nesday
##aus
##IG
##adies
ĠCD
Sw
Ġmoments
ĠPolish
house
##emon
Ġprovinc
Ġsecretary
LL
Ġsoup
ĠOUT
Ġ75
Ġ1958
Ġreplace
Ġillness
Ġnecessarily
Ġheavily
ĠBavaria
ĠInternet
ĠCz
those
##foot
ĠWin
##osaur
Ġdumb
##oa
Ġsust
Ġceremony
##ifer
ĠGreg
Ġbesides
Ġbon
ĠSO
##illing
Ġlung
ĠPers
##ifts
ĠOw
ĠMatthew
Aren
Ġfiction
ĠAM
ĠAlp
Pat
##bec
Ġawake
James
ĠScience
Ġashamed
Ġtorn
Ġdea
##enses
##acon
ĠNever
Ġcontem
Ġchairman
Ġastron
WE
Ġ1939
Int
Ġpup
##anges
Ġslave
##mann
Ġdefense
Ġconfirmed
Ġpoetry
Ġunlike
##ucker
Ġtap
Ġdriven
Ġcustomers
Cor
##30
Ġforb
ĠBBC
##hatt
##ienced
Ġfestival
##tery
Ġending
##itled
##iders
Ġformal
Ġseparated
ĠĠĠĠĠĠĠĠĠĠĠĠĠĠĠĠĠĠĠĠĠĠĠĠĠĠĠĠĠĠĠĠĠ
ĠWalter
class
##Ã¢
##com
Ġfox
ĠPart
Ġsav
Ġpersonally
Ġsteam
Ġtheatre
Ġcontext
ĠGuard
Ġpersu
Ġoutl
Ġpresidential
##**
ĠEducation
##intend
Ġdefined
Ġfoolish
SH
##box
Ġstrict
Ġmassive
Ġcats
##rix
##agger
##izz
Ġshortly
Ġtreasure
ĠPublic
Ġ182
Ġdeck
us
Ġalcohol
##hh
Ġnest
Ġcops
##ratulations
##KS
##allel
Ġregist
##rows
##uct
##LES
##urches
ĠWas
ĠWinter
Ġappropriate
Ġ1961
Ġ1947
hello
##Ã£
Ġgy
##outheast
ĠSusan
Ġsplendid
Ġdaughters
Ġsympt
Ġsolo
Ġmachines
##rons
ĠAk
##ugg
Forget
ĠKentucky
ĠNO
Ġ1957
Ġalternative
##hus
##inced
Ġsorrow
Ġbass
##bing
##rene
Ġjournalist
Ġexclaimed
##fish
Ġpor
Ġchamber
ĠAtt
Ġassociation
ĠJess
##everal
Ġoccas
great
##TA
ĠBow
Ġflash
ĠTeam
##EO
##eare
Ġboats
Ġextent
Ġnic
Ġdeeply
Alex
Mon
##mo
Ġleaf
Ġminds
Ġideal
Ġspiritual
Ġopposed
Ġvotes
ĠMayor
Ġyo
Ġlover
Mmm
ĠWilson
Ant
Ġpoem
Ġiniti
Ġlifted
ĠKhan
other
Ġfasc
Ġgrateful
Ġrivers
Ġ179
ĠConstitution
Ġscheme
Ġcolumn
31
##inton
Ġ400
Ġtickets
ĠAD
ĠPict
ĠGro
Ġsock
Ġpron
Ġimplement
Rec
Ġmama
Ġpitch
Ġwondered
Ġexisting
/&
Rep
##hire
Ġepisodes
Ġreckon
Until
Ġdipl
##orted
Ġimpression
Ġ1944
Ġprinciple
##ubble
Ġclubs
Ġengineer
Ġidentified
##nesota
Ġinspired
##bell
ĠCard
Ġuser
ĠCorpor
Ġoxygen
Ġsnake
##ippi
Ġlap
##iva
##ersonal
work
Ġcombined
Ġpir
Ġpul
ĠStone
Ġdating
Ġworn
Ġcomputers
Ġneut
Ġliterally
Ġinner
Ġstim
Ġinvented
##EP
Ġencoura
Ġjury
##iki
##AKE
Ġgor
Ġshift
ĠEric
Cont
ĠSav
Ġalph
##MS
Ġcontrovers
Ġthrowing
Ġcrisis
Ġvel
ĠâĻ«
Ġabsor
Ġthir
Ġenorm
Ġimages
Ġvari
Ġprisoner
##mouth
Ġdates
Ġpassage
ĠAirport
Ġcombination
ĠTokyo
Want
Check
Ġanxious
ĠLieutenant
Ġscholars
##rim
ĠMoscow
Ġ42
ĠStation
Ġregional
##erick
##via
Ġevident
Ġstraw
Ġengineering
Happy
tell
##greg
##western
ĠReally
ĠJustice
Ġconvinced
ALL
Ġhurts
ĠHans
Ġincredible
Pre
Ġrear
Ġshower
Ġpositions
Ġstops
Jul
ĠHay
Ġnarr
Ġreply
Black
Har
Long
Ġcrop
ĠPR
Ġattached
Ġorganizations
Ġtests
Ġvideos
Ġnaturally
Ġinsect
Ġprincipal
Ġcooper
Ġhm
##atoes
ĠJos
Ġrescue
Ġviolent
Ġ37
Ġhorror
ĠTechn
ĠChap
Ġsculpt
Ġpersonality
Ġtransferred
Ġadministrative
Ġnaked
ĠSher
um
Ġtransm
Ġmusician
Ġgrav
Ġoccupied
Ġkilomet
##atures
Ġrice
Ġsyn
Ġnort
ĠBridge
Ġstable
Ġ1952
ĠSteven
Ġprecise
Ġmystery
Ġunha
##---
##ques
Rel
##ti
##usive
Ġ1949
Ġstrip
Ġacquired
Ġsatisfied
Ġfrequently
Its
Ġ1942
Talk
##specially
Ġpie
Ġsevere
Ġgreatly
##prise
Ġhunt
Ġpicking
music
ĠBrian
ĠRoger
Ġbeings
ĠPop
Ġrope
Ġprosec
Ġbowl
Ġpunishment
##rum
##alling
##abad
Ġbold
ĠIraq
ĠSn
ĠWild
Ġprecious
Ġoperated
Ġillegal
Ġhoped
##iah
ĠCastle
##aga
##ordinary
ĠĠĠĠĠĠĠĠĠĠĠĠĠ
William
Son
des
Ġpour
Ġinher
ĠMot
Ġkinda
ĠMinnesota
Aha
Par
ĠFle
##agers
Ġmonkey
##irit
Ġdiscip
Ġpurple
Ġinitially
##uj
##emet
Ġvisual
ĠBal
ĠUt
Ġproperties
Poor
Ġtechnical
##FL
Ġtank
##ertainly
Ġtypical
##iÄĩ
Ġmere
##andal
Ġbike
##sex
Ġprepar
Ġarrive
##aith
##oons
##lesh
ĠAli
ĠSeries
Foot
Robert
ÂĴ
##icit
##ifferent
##oration
##acked
ĠBetty
ĠHospital
Ġarticles
Ġregarded
35
##hoot
ĠCentre
ĠMargaret
Ġmal
Ġdownstairs
Ġerror
Ġstrate
Ġpasses
Ġtesting
Ġadventure
##otes
ĠAustrian
Ġcontrolled
##nold
Ġlately
##rait
Ġvice
##akers
Charl
Ġstrategy
##lie
##acles
Ġswall
Ġadmitted
ĠLouisiana
Ġfever
Ġrestrict
Ten
Ġcausing
Ġrode
Each
Ġbond
Ġguide
##velopment
ĠGreece
Ġexplanation
Ġwicked
Ġment
ĠEle
ĠNa
Ġ1954
Ġofficials
##mont
##jan
##pected
##lah
Ġrevenge
##stal
Ġnowhere
##alais
play
comp
##ungle
Ġ38
Ġvaluable
Ġwishes
ĠOt
Ġasks
Ġwins
ĠPas
Ġ1941
Ġdigital
Ġloan
Ġdescription
Ġbacter
Ġhug
##uster
Ġexpecting
Ġimmig
##uther
Ġages
Stand
Mark
Ġtool
##onto
Ġpromoted
##unno
King
Work
##itched
Ġdiet
Ġintention
Daddy
##ania
Ġhes
Ġequation
Ġ1959
ĠIndians
##ddie
##END
##lly
ĠNap
Ġdece
Ġpermanent
Ġphen
International
Run
##hedral
ĠCop
ĠBart
Ġworship
Ġdiscovery
Ġcore
Ġreign
ĠSpring
Ġannoy
##neath
ĠThursday
Ġpulling
##usal
Ġmemories
Ġnations
Ġconstitu
wait
##dney
##pir
##ype
Ġfulf
Ġcreatures
ĠCL
ĠLo
Ġthrone
Ġdisturb
Ġvillages
##resents
turn
##met
Ġacted
long
##ester
ĠSab
Ġrapidly
Ġlt
##chi
Ġportion
Ġdefinition
##ds
##aman
ĠLi
ĠRus
Ġ1946
Ġcampus
Ġgarage
ĠDown
Ġraces
ĠColor
Honey
Ġneat
ĠKy
Ġbron
Ġdeveloping
Ġabandoned
##icians
Ġeld
ĠForm
Ġexha
Ġaccused
].
Ġprayer
Ġholes
min
Ġhousing
Ġessentially
Ġresistance
ĠFoundation
GR
##fit
Ġsurvey
ĠBah
ĠJUST
##ensions
Ġphotos
Ġintellect
ĠWhe
Ann
##iography
Ġbang
Ġfed
Ġnap
ĠMississ
Ġthorough
ĠHit
Ġsheet
Ġcommander
Ġinternal
ĠCur
Ġarchitecture
ĠCzech
##60
Ġdecre
Ġassault
##cules
Ġanaly
##aks
Show
wanna
##aro
##rose
ĠLabour
Ġbelt
Ġbreathing
##vi
Ġvolunte
ĠHERE
##III
Ġfaint
Ġadapt
ĠJacob
ĠStephen
Ġliquid
##bar
ĠMuslim
Cle
Ġouter
Ow
col
##nel
##orf
##chief
Ġrecon
Ġreputation
Total
##gers
ĠSid
Ġeighteen
Ġdomestic
Ġalongside
##mphas
Ġcomposer
ĠTest
##olas
Ġdisg
##INE
Ġtast
Ġooh
Ġrefers
ĠOrder
##zes
##agle
Ġskill
##scape
Ġphrase
Ġstroke
##akesp
Ġlessons
Ġtiss
Ġbump
arr
.[
rep
Ġdragon
Ġmaximum
##rior
Ġabroad
Ġcycle
Goodbye
Ġprotected
Ġstepped
Ġkissed
##glas
George
ĠEnd
Ġversions
##==
ĠGame
##rett
##ardens
Ġbags
##ragon
Better
##Ã£o
##Å¡
ĠVill
Ġflows
ĠMarie
Ġexped
ĠIndiana
ĠLewis
ĠBat
Ġwhoa
Ġbrush
Ġpipe
ĠCON
##OUGH
ĠTurkey
Ġcraw
ĠRoy
Com
Lou
Ġwra
ĠHoll
Ġsubt
Ġdedicated
Ġfence
Ġnonsense
Ġpassengers
Ġleadership
Ġcoc
Ġmessages
Ġabsolute
##teenth
Ġmobile
Ġestimated
ĠAle
Ġscarce
Down
Ġelimin
ĠConference
.--
##BA
ĠSoph
##ternal
Ġbenefits
.âĢĻ
Ġproport
##ibilities
Ġobst
Ġreduce
Ġstores
ĠHonor
##lar
ĠRIGHT
Ġgenius
Ġboots
##IND
ĠPot
Ġopposition
Such
##adows
Ġnotable
ĠPost
##ubs
im
ĠÎ
Ġisol
Ġdelivered
Ġrepeat
Ġelephant
Ġnickn
Ġfiles
Ġbreathe
45
##vard
##olis
ĠChannel
Ġgrandmother
Ġtoilet
32
##rin
Ġfacilities
##theless
##bage
Ġoption
ĠTuesday
Ġcave
ĠOur
Ġwooden
##rong
Ġappearances
Ġzone
ĠVery
Ġexperienced
Ġwhispered
##note
ĠTurn
Ġlasted
Ġconfident
under
ĠRh
Ġupd
Ġathlet
Comp
##cho
ĠLau
Ġrural
##anchester
##roc
Ġappointment
Ġske
Ġdat
Ġrelation
Ġsought
Ġcritics
##emetery
Must
Ob
##WE
Ġ150
Ġ||
Ġhoriz
ĠHeaven
##akespeare
Hen
##VD
Ġengin
Ġstab
Ġentry
Ġsemi
these
Ġfounder
Ġyoungest
Ġdocuments
##||||
IN
Ġhits
ĠBul
Ġlargely
Ġidentify
Ġelectricity
ĠHell
take
ĠBrand
Ġsixteen
Find
##utiful
ĠHard
ĠNi
Ġcarriage
Ġfleet
Ġwheels
Ġsurvived
Ġsequence
Absolutely
ĠIce
ĠHal
Ġwanting
Ġclin
##tainment
##endment
Ġrepresents
Ġbehavi
Ġgalax
##uter
##oli
Ġoffers
Ġpurposes
Ġrelatively
Ġexists
Ġsingles
Norm
Ġrein
Ġtrap
Ġutter
None
##rome
Ġshoe
ĠKennedy
Ġbark
ĠVice
Ġheading
##ggie
Ġfellows
ĠTai
ĠJay
Ġusers
Ġindic
inc
ĠLIKE
Ġinsult
Ġengines
Ġenvironmental
Ġdepos
Ġ1955
ĠBeth
Ġdetect
##ribly
Ġfab
##ogs
Step
Ġobtained
Ġsession
Ġmig
##ogy
Ġlanded
erm
Ġlatest
bet
made
Ġpossession
##lon
##oogle
Ġsouthwest
Doesn
ĠCab
Ġmargin
Ġthreatened
Phil
##adi
##amma
Laughter
Ġcattle
Ġamongst
Ġspons
Ġworldwide
##hips
Ġinvolve
Ġsna
ĠRel
##fly
Ġtooth
Ġslipped
Ġconfirm
Ġtypically
Ġdivorce
##irts
##rying
Ġcrimes
Ġexpressed
Ġexperiences
ĠRegion
ĠPlan
ĠMu
ĠRailway
Ġholy
ĠHor
ĠInf
Ġfourteen
Ġnegoti
ĠTour
Ġrabbit
ey
##itals
Doctor
Ġdollar
Ġclouds
Ġacademic
Ġreprodu
Quick
ĠPy
##orious
ĠSara
Ġagency
##ogan
##icity
Ġslip
Ġfoss
Ġfaced
ĠRo
Ġinches
Ġruined
Ġfake
ĠBalt
Ġexplore
ĠHas
Ġcontrast
ĠAnton
ĠWednesday
##Ä±
ĠGive
##umbling
Ġruin
Ġ1943
Ġsweetheart
Ġ65
##ATH
ĠGrant
Ġspirits
Ġtale
Ġreaching
##osl
##70
Ġfo
Ġven
##ancer
ĠArm
Ġequals
Ġcapture
Death
##nda
##itated
Ġselection
ĠExp
ĠPrem
##pent
ĠDer
ĠGermans
res
##iel
##herry
Ġfocused
Ġconducted
Ġmeetings
Ġdelicious
##EAH
##lock
ĠKa
Ġdistant
##shit
Ġawesome
ĠMiller
Ġtent
Ġmath
##uting
Ġfactors
##ienna
##lahoma
Ġhated
ĠJam
ĠStop
Ġdifferences
Ġrival
Ġ48
Hang
##die
Ġserves
##annah
Ġuseless
##EAD
dis
gl
Ġloving
ĠTs
##endar
Ġmerged
Ġtoast
ĠBeach
ĠMississippi
Ġconven
ĠCommon
##uki
ĠAR
Ġsup
Ġmighty
Ġdebate
Ġfantastic
Ġdow
ĠRyan
Ġcanton
Career
##bach
##romise
Ġtennis
Ġemp
##endy
Ġ1953
Ġannounce
Ġinstitution
Ġemphas
##otta
Ġphase
Ġbands
";
ĠClark
DO
Ġtherap
Ġpardon
ĠAlbert
Sch
Ġbent
ĠHockey
ĠFree
##iko
Ask
Ġprimarily
Tomorrow
Geography
ĠRepresentatives
Ġbot
Ġpushing
ĠBh
ĠBand
Ġpartly
Ġfrag
Ġinch
Ġslaves
Pol
Ġwoke
Ġbend
##cknow
##umble
Ġproviding
##organ
ĠSix
Ġsoap
ĠNord
Ġwherever
Ġsubm
Lord
ĠWel
Ġrefuse
Ġbarrel
##oody
##iveness
tw
##itement
Ġbid
Ġflesh
ĠJason
Ġpresents
Dec
Super
##oust
ĠIV
Ġstadium
ĠWeb
##udge
Ġaccounts
Ġrolled
Ġmamm
ĠWy
Mary
##idering
Ġprofit
Ġnewspapers
LAUGH
##ieur
Ġunderneath
Ġincorpor
Ġencourage
Ġchapter
Sub
Ġdrinks
Ġcookie
Ġsacred
##imental
ĠKevin
##izza
Ġfrank
Ġinteract
##onde
Ġgrant
form
ĠBishop
##bie
ĠAL
Ġblew
Had
##rack
##bre
Ġdamaged
Ġunhappy
Ġbeast
Ġreasonable
Yet
##real
Ġpenal
##isk
Ġchop
Ġ41
Ġreceiving
mommy
Ġresidents
##eanwhile
ĠVietnam
##TING
##olves
ĠBaby
##olve
Ġsurrounding
been
Ġmovements
ĠPoint
Ġfuckin
ĠFrancis
##orage
##arin
Ġinput
ĠDie
Ġassess
ĠHollywood
Ġwreck
ĠElect
Ġtempt
Ġparticipated
Ġpaintings
Ġmysterious
Ġduties
ĠTen
Ġchalleng
Ġinstruments
Illustration
Ġcricket
Ġstrateg
##shine
##inction
âĢĺ
part
##ashi
ĠSydney
Ġ1938
Congratulations
##CO
##ansion
ĠHistory
first
Ġconclusion
Ġenormous
##part
##LING
Ġoverl
ĠBarry
ĠTurkish
Ġretirement
Ġtunnel
Ġsymptoms
Ġpip
Ġdisaster
Ġdecent
Ġformat
Ġroots
ĠCir
Ġstandards
Ġprobability
Ġrequires
Ġstaring
such
##lause
Ġunex
Ġcares
Ġboxes
Ġadults
##zing
Ġvon
Ġscare
Ġphenomen
##pher
Ġknee
Ġclassic
before
##apore
##INK
##ORE
ĠPeace
Ġwarn
Da
Hon
##ridge
Ġaer
Ġgreet
##utt
Ġ39
Ġkidna
ĠPhilip
Ġimmediate
Ġextraordinary
Ġdreadful
##rected
ĠJordan
ĠEth
Ġintent
##onsieur
ĠWANT
Ġundert
Ġgosh
Ġscenes
ST
Ġjudgment
Ġemotional
Ġsacrifice
Ġinstinct
Ġwinds
##arc
ĠOnce
Ġdisag
Ġassigned
ĠCarter
##).
##acement
ĠMoon
Ġcontained
Ġrolling
Calais
Later
ĠSometimes
Ġseed
âĢİ
##ocated
Ġpec
Ġtaxes
Ġlicense
ĠOklahoma
Ġalgorithm
Ġeval
60
Men
Ġdign
##ovie
Ġremote
##hesis
##iversary
Ġadding
##CC
##orous
ĠWOR
way
Ġsample
##inds
Ġincl
##lessly
Ġapologize
Ġkitt
ĠBud
Ġune
Ġairpl
##uits
Ġcoordin
Ġopens
##ologists
Ġvisitors
Ġwriters
ĠAff
##ighed
Ġcomic
##asha
Ġstrongly
really
ĠCreek
Ġlanding
Ġtitles
Ġdetermine
Aah
##abel
Ġ1934
six
##idel
ĠChuck
##onsin
Ġjoining
ĠDavis
34
Ġoffering
Ġstructures
##bourne
Ġtub
##ashes
ĠSU
Ġsmoking
Ġmedium
##keeper
ĠAvenue
Ġ64
Ġconstantly
Ġparallel
Ġcod
ĠSpecial
##igen
Ġresear
Ġetern
Ġaston
Ġlied
Ġservants
Ġbeaten
##esar
Ġcann
Ġagents
Ġprices
Ġinvestment
ĠPhilippines
sec
Ġintense
##egas
);
Ġbay
ĠPic
##thm
Ġtwin
Ġassass
Ġreturns
door
##master
##OY
##VID
Ġtheore
Ġwolf
Ġmask
ĠTit
Ġhistoric
Ġscreaming
##ondissement
ĠBase
Ġ1951
Ġcelebrate
ĠMm
Ġsector
"...
Ġdepending
ĠUSA
##uddenly
Ġinstructions
again
##istol
ĠMorgan
Ġachieved
ĠHug
Ġnewly
ĠColorado
ĠRoll
Ġanimated
##isconsin
ĠNetwork
ĠBurn
Ġargue
ĠMaybe
Ġstarred
Ġpredict
Ġfrequency
##formation
Ġarrival
##bits
##pective
ĠTenn
Ġgoin
Ġchurches
Ġmidnight
Footnote
Sl
##allas
ĠField
Ġtrunk
##geon
ĠGOT
ĠOtt
Trans
ĠTheatre
Ġrecover
##encer
##uese
Ġdivide
Ġ1936
##erg
##gger
Ġswing
Ġequival
##rell
##odge
Ġcurtain
Always
Ġwrites
Ġclassical
Ġseventh
san
Ġlaughter
Ġfootballer
ĠMoo
ĠKr
ĠStory
Ġbarely
car
Ġdirt
Ġitem
ĠGordon
Ġ1933
Ġrailroad
Twenty
lea
##lets
##elson
Ġfacing
##OOK
Sy
Ġwashing
ĠHuman
Ġcounties
Ġshouted
ĠMP
ĠHIM
ĠWars
Ġcourts
Ġenthus
Ġproducing
Ġprominent
Ġpref
Ġclothing
ĠSenator
##ubbles
che
ĠCape
##ntario
Ġstrings
##anguage
Art
Ġexception
Ġearliest
Ġaltogether
rec
Ġcollected
ĠCorps
36
##vor
##oyd
ĠSA
ĠMaine
ĠWolf
Ġtribe
Ġimproved
33
ĠSay
##asses
Ġapproved
##essee
Ġmob
##agne
ĠAnthony
Ġdrift
ĠPalace
Ġdismiss
even
Ġalien
Ġemployed
Ġroughly
Ġjacket
Ġwis
##ARS
ĠAfghan
Ġsoftly
ĠIndepend
ĠAnna
Ġallowing
Ġattempted
Second
West
Uncle
ĠReddy
Ġregarding
Ġpy
##ags
Ġgrows
Unless
Ġemployees
ĠDeath
##orters
##inks
##encing
ĠCorporation
##gon
Ġairl
##uration
39
Ġcha
Ġcloth
Ġcrossing
Ġcounsel
ĠGrace
##ecca
Ġcompete
ĠEngine
Ġinsane
ĠAllen
Mc
Ġvoc
Ġimagination
Ġspecifically
Ġthirteen
Res
ass
##race
Ġspark
##ruits
Ġessential
"'
wr
##rors
Ġshining
##weight
Ġdesperate
ĠJoy
Ġrelie
Ġeducational
Ġclosing
##avig
##ONG
##ammy
Ġfoundation
Ġapplications
Ġearthqu
Ġringing
Ġtheater
##aints
Ġvain
Ġresident
Ġcurve
Ġoccurs
Ġpanel
ĠLl
ĠMinistry
Ġcovering
##oj
Ġwars
##itate
Ġshops
Ġsupporting
Ġperce
##omfort
##raham
Ġvul
Ġaffection
Ġcleaning
ĠManchester
Ġseized
ĠEarl
Ġscary
##ATION
ĠAz
Ġretreat
Ġperforming
%.
Ġcomed
ĠConnect
##11
##bery
ĠKelly
Ġcleared
##eeds
##Ã¼r
Cut
Ġcraft
ĠAdd
##ante
##fecture
##eller
##andra
Ġrust
Ġinvite
Play
ĠNorway
ĠResearch
38
ĠAy
ĠHold
Ġshy
##ailing
Ġphysics
ĠHawai
##pool
ĠHart
ĠPu
ĠChile
Ġmetres
ĠCommander
ĠMain
##peed
Ġoffices
Spec
whe
Ġacknow
Ġdiplom
Mum
Star
Ġinvasion
Ġextensive
Ġmotiv
Ġvacation
ĠMountain
please
##eters
ĠMunicip
Ġmarch
Ġequally
Ġcombat
Ġgradually
ĠToday
ĠMars
ĠTemple
morrow
Ġflour
Ġfemales
ĠPa
##assador
Ġlongest
Ġobtain
##urious
Ġrenamed
##à¸
##inals
Ġthief
ĠSorry
ĠThus
ĠShakespeare
ĠMun
ĠHistor
ĠMoh
##luding
Ġtriumph
Ġexisted
Ġwow
Ġnerve
Ġentitled
Ġinfluenced
ĠToronto
Ġconsciousness
##uart
ĠBruce
Ġatom
ĠWisconsin
Ġsecondary
Ġexcitement
Ġdivorced
Ġbattery
ĠOfficer
Def
Ġassumed
Ġaccompan
Kill
act
##hal
Ġcam
Ġmales
##amental
Ġclick
Ġstopping
Att
Ġeducated
Ġfarther
##onne
Ġbom
ĠPete
##ggy
Ġmaiden
ĠHun
Ġabuse
##acking
Ġgoodbye
Ġformation
Ġbelieves
ĠDak
Ġ1935
Ġdelighted
ĠPower
Ġ44
Ġdrill
ĠQueens
ĠLead
Ġbrid
Ġprompt
Ġvisible
##elieve
##din
##ussy
Ġprogramming
Ġtroubles
##icop
Ġkicked
Ġric
Ġtrace
ĠStand
Ġexposed
Ready
ĠSecurity
Ġhal
Ġstiff
Ġnep
##estion
##udes
Ġdestruction
has
Ġfee
ĠHoward
Ġsounded
##wall
##alia
ĠLat
Ġabsence
Ġprinted
Ġdull
##stan
ĠHo
##ETH
Min
##Ãº
##pan
Master
Ġmercy
ĠDomin
ĠONE
Ġinstitutions
Ġschedule
ĠFamily
Ġglory
##asia
##riv
ĠHur
Ġguards
Ġconstructed
ĠRen
Ġmeasures
Ġvehicles
Ġmanufacture
Ġinfl
ĠDonald
Fire
Ġminimum
Ġglance
Ġconsiderable
Bad
##attered
Ġobey
Ġrelationships
Carl
Ġrubb
##quis
Ġcoinc
ĠShut
##ammad
ooh
Ġswift
Ġbreaks
##zed
##ÅĤ
ĠID
Ġcourses
##ikh
Ġhurricane
##ouncill
ĠPitt
Ġabst
ĠVienna
Ġdiscussed
Ġprinciples
ĠHER
ĠGR
Ġlayer
Ġcompanion
Finally
ĠABOUT
BUT
ĠAmb
ĠPo
Enough
Ġgrounds
ĠGot
Ġhighway
##umbled
ĠContin
Ġresigned
Ġbriefly
ĠSquare
,âĢĻ
##rine
Ġboring
ĠCamer
##ilst
Start
##atural
Ġlamp
##icut
##ifted
ĠOntario
##agu
Ġbehalf
##ARR
Ġinformed
ĠLucy
Ġtube
194
ĠSingapore
##reeze
ĠRabbit
ĠWhit
white
ĠBelg
Ġdisappointed
Baby
##Ãª
Ġtoss
##iden
Ġsatell
Ġthread
##unction
Ġbears
ĠMess
Ġchances
Ġ1937
Ġforests
##point
Ġtox
Ġ49
Ġfarmer
Ġhid
ĠHim
Ġbunny
Ġfierce
ĠHills
##ntown
ĠMaryland
Ġfacility
Ġmerry
##uto
ĠTR
##igs
ĠDouglas
##struction
Ġanch
Ġ43
Ġimpressed
Ġgrandma
Ġfer
ĠCall
ĠCare
Ġplates
ĠUkraine
##zona
##illery
ĠYe
##ICE
Ġinternet
Ġfurniture
##cular
##bors
Ġactors
Ġdevices
Ġchuck
Ġtechnique
Ġdwell
Pardon
##istinct
Ġunderground
Ġoperate
Ġbeet
Ġrecall
Anne
Ġhip
##keys
Ġreserve
Ġpolicies
ĠLibrary
ĠFive
Ġrecognition
##USE
Ġvoted
Ġspaces
Ġhanded
Ġhopes
Girl
term
ĠBush
Ġeveryday
Ġethnic
Ġcategory
kn
ĠCra
Ġcycl
into
Ġtremend
Ġnephew
Ġshield
Sil
Ġgolf
Ġcopper
ĠKal
Ġfled
##Ã©n
Ġsolar
ĠOliver
ĠHelen
List
##AG
Ġbore
##iche
ĠRober
ĠRachel
Ġpros
Richard
Ġcord
ĠLin
##pering
ĠTennessee
ĠChamp
Ġmistakes
Ġbronze
people
ĠSom
Ġvirus
Ġintend
Ġsecrets
ye
##ught
##ados
Ġresign
Ġrepresenting
##ture
Ġbars
Ġtomb
##abled
Ġdeleg
Ġhurried
Ġtemporary
mon
##bian
##olo
ĠStanley
Ġbeloved
Ġdistract
Ġsensitive
Ġtables
##ainted
Ġrates
Ġinsist
Sal
ĠAud
Ġcharity
##lNG
##geous
Ġchase
ĠBeat
Ġsuperior
ĠBobby
Ev
Ġwashed
##acious
Ġjazz
Ġwhoever
##ugs
Ġpassenger
Ġsearching
Ġthunder
ĠVar
Ġmusicians
ĠSilver
ĠEntertainment
##oria
##ivia
Ġcalendar
Ġnearer
ĠMAN
Ġvisiting
daddy
##ultan
Ġbelonged
Ġfare
ĠHou
##abama
Ġ55
ĠÅ
##ivery
Ġtack
Ġski
Ġrepresentative
ĠConfeder
##riends
Ġopportunities
ĠPatrick
ĠPortuguese
Ġseal
##arter
Ġgently
##icip
##rik
?'
##ushes
##urther
Ġrude
##osure
ĠAlb
Ġscientist
give
##mates
ĠGary
Ġefficient
ĠCommand
Ġattempts
Ġscratch
ph
##dam
Ġcra
ĠFinn
##----------------
##IFA
Hy
ĠBureau
##aza
Ġcitizen
300
##ingo
##pless
Ġsilk
Ġentertainment
Ġsty
##ctic
##warf
WELL
##oni
Ġspoon
##avia
Ġoccasionally
SO
Ġdishes
Ġdramatic
laughs
##rants
ĠWould
Ġflav
ĠSports
Ġcomments
ĠUr
Ġdeaths
##chell
Ġcharming
ĠBuck
##opes
Ġmuscle
Ġextend
Sounds
##asps
ĠKer
Ġdefence
Ġlifetime
Ġdemanded
President
##illion
Ġvector
Ġcounting
ĠSwiss
##ographic
Ġprocedure
ĠArkansas
Yo
##10
##emed
ĠChildren
Ġkeen
Ġtopic
Ġelectrical
Ġproposal
ĠTaiwan
##sky
##fa
ĠAqu
##cription
Ġcure
ĠDID
ĠStock
Ġliterary
Ġremarkable
Ġaye
ĠGab
##artial
Ġmonarch
ĠTHERE
ĠSyl
Ġprotein
##iry
##celer
ĠFame
Ġorg
##scar
##oral
Ġtune
##agen
##rating
Ġshots
##umm
Ġmurm
Ġmiserable
Ġcustomer
Ġshar
ĠFederation
Ġinnit
boy
Ġcable
##abilities
Pretty
##then
##inations
ĠIan
ĠMerc
ĠPhill
ĠCro
##ouses
Ġdepression
Ġhosted
War
##lims
##iami
Ġtremb
Ġyield
ĠPress
##spector
ĠAth
Ġseeds
##ommod
Ġlimits
Ġ1931
Ġconcerns
##bro
ĠReb
Ġhonestly
Ġpenc
##ifest
Ġyourselves
Ġspeaks
],
Ġsharing
Ġaboard
Ġfunds
Brit
Cr
Co
Sur
def
##aters
Ġseeking
Ġworker
Ġ52
##AST
##IP
Ġhers
ĠHitler
37
Bea
Ġdisorder
Ġstatue
Ġpenalty
##atical
##orp
Ġkings
ĠBos
##ATE
Ġwarned
Ġderiv
##Ã¥
Ġmos
##roit
Forg
Ġlets
##ISH
Alp
Ac
Ġpreced
Ġemotion
Ġbucks
##AF
ĠJoh
Ġanniversary
ĠBangl
Ġnearest
##opy
Soon
ĠBuddh
Rob
##Ã©s
Ġol
Ġspy
Ġunw
Ġboom
##ribed
Ġbrains
Ġdynam
##fire
ĠPra
##iper
Ġchecking
ĠLawrence
Things
Ġcliff
Ġque
Ġrecovered
song
Ġaired
##asks
##utter
Ġrefuge
ĠEgyptian
##ulating
Ġelsewhere
Ġvalid
ĠOrgan
Ġfarmers
Ġempire
ĠNative
Ġfavourite
##coming
Ġward
ĠGib
Ġ1929
Ġshelter
Ġorchestra
##erto
shall
cried
ĠDu
Kn
##oting
42
##esh
Ġwhale
Ġpeas
##burn
##rob
##ruption
Ġresulted
Ġunconscious
Ġbleeding
Ġultimately
Ġhypot
##stream
ĠNag
Ġcircuit
##ruck
end
##SB
Ġ(_
ĠKings
Ġqueer
Luc
##atus
##state
Ġrushed
ĠNiger
Ġentering
Ġdeliber
Ġelectron
Ġassistance
Ġlinked
##ao
Ġloop
ĠCensus
Ġsauce
Ġequivalent
Ġstages
ĠDeb
##arson
Ġvariable
Ġintroduction
ĠConnecticut
##FC
Ġmac
##hoe
Ġbusinessman
Ġobserv
Ġpatterns
too
##eturn
Ġuna
ĠIndones
##dle
Ġdunno
ĠNHL
##issa
Ġcontaining
##uccess
##alle
Ġbuff
Ġsynt
Ġstretched
ĠDog
##ateur
Ġ178
Ġprivile
ĠRoc
Ġsuggests
Ġblowing
##dale
Ġpole
Ġgoddamn
##vable
Ġtel
ĠSuch
ĠCass
Ġdecades
ĠJunior
Ġsupplies
Personal
##no
##sm
ĠDVD
Young
Ġfrogs
##hu
##vo
Ġtoes
Ġbug
Ġhelpful
Ġformerly
half
Ġprospect
Ġ1928
cons
##yard
##adays
##rient
ĠBR
Ġmonitor
Ġ177
Ġbusinesses
Ġdebuted
Ġsafely
yep
ĠHad
Ġcongress
Though
Ġclimbed
##riel
##ells
ĠEX
ĠChristians
Ġborders
Ġhollow
Ġperf
Ġquarters
ĠMoore
192
Except
Ġmiracle
Ġbehaviour
##BE
Ġtact
Ġsits
ĠFBI
Ġignor
Ġfrozen
ĠIF
Ġhem
Ġmeets
Ġattrib
Mont
Ġthirst
ĠSky
80
##NE
##ighty
ĠZe
##asket
ĠParker
ĠFranklin
Billboard
##jamin
Instead
through
Ġelectronic
ĠSergeant
ĠLaure
##orph
ĠLane
ĠFrances
Ġrobot
Ġgrief
)"
watch
##inated
Ġlyr
ĠNich
Ġattorney
Ġsurf
##iate
Ġvolunt
Ġtoler
##icial
Ġstamp
##reaming
South
most
ĠLuke
Ġadap
Ġemployment
Ġ51
Guys
Ġtons
ĠMead
ĠGoogle
Stud
Ġconsidering
Ġattracted
##ni
##idency
##imore
ĠTar
ĠPut
ĠPass
ĠDiana
##ften
Ġconcrete
Hel
Ġhitting
Ġdensity
ĠSah
##azy
Ġattractive
century
ĠPLAY
Ġknight
Ġjur
ĠDennis
##employ
ĠOp
ĠDevelopment
##hattan
Ass
Del
##ocation
something
Ġbored
Ġpile
##riet
ĠProdu
Ġfetch
Ġasshole
Ġfract
Ġrepair
ĠHarris
August
VE
Ġcarpet
Ġbench
Ġna
Ġflies
Ġguarantee
life
Ġsink
Ġease
Ġpackage
Ġgraduate
ĠNorman
##ÅŁ
##IVE
Ġoutta
Ġtissue
Same
Ġ{
Ġbeard
ĠMicro
Ġtract
Ġgrat
##insula
Ġ1932
ĠMadame
Ġconvince
ĠLaura
Ġdrum
Ġtouching
Ġweakness
##estly
Ġsteady
Ġdeeper
Ġuniversities
Ġpoo
Ġles
ĠLion
ĠLeb
Whoo
ĠRobinson
##heastern
ĠWendy
##agan
Ġsynd
##egro
##ITT
ĠBelgium
Ġdifficulties
Ġfunding
ĠDakota
##iop
Ġvib
Ġ46
Ġrifle
ĠYorkshire
Ġtested
Ġradiation
ĠIslamic
Ġpension
ĠCOM
##ovak
Ġ72
Fred
##lan
Ġgest
ĠCas
ĠLyn
Ġshed
Ġapproaching
Ġfundamental
Ġdespair
##SA
##vet
Ġpresently
Ġbarn
sighs
##kward
Ġcolleagues
##xual
Ġspots
Ġwhereas
##OUND
Sweet
Ġbubble
Ġgifts
##uru
Ġcreative
SP
TV
Ġgear
Ġimprison
ĠXX
Ġneighbors
Ġfeeding
Charlie
ĠAlabama
Ġspeaker
##achelor
Ġexpanded
Mind
dr
Ġhosp
##verty
##hers
Ġseated
##ulance
ĠMcG
03
Ladies
Ġtin
ĠTal
ĠMarian
Ġunexpected
ĠCooper
Ġresolution
Ġwalks
Ġworthy
Ġexecution
06
ĠHIS
##alking
##rophy
##uine
Ġbearing
Ġoutput
Ġperformances
ĠBack
##ideo
Ġpainter
ĠCost
ĠCole
##ods
ĠKate
##annels
Ġwithdraw
##equ
ĠDean
##going
Ġsubsequently
Ġdirections
Guess
ĠWindows
ĠImperial
ac
##TV
##ettle
Ġvocal
ĠStadium
Ġacceler
Ġpremie
Ġpond
Ġpoverty
##vals
ĠMove
##orton
Ġexperiments
Ġbills
##inding
ĠYet
Ġfaithful
Ġranked
cH
ĠOak
ĠIndust
Ġgenetic
Ġoverse
Ġwisdom
ĠMs
Ġfinishing
Ġsubstant
Ġsolemn
ĠFrog
ĠNep
##soft
ĠUnivers
Ġkindly
Ġ47
Ġjumping
Ġsatisfaction
Ġoptions
ĠBeng
ĠRem
##odox
Ġraising
Ġfreak
ĠLaurie
Jean
Mal
##orus
##ayer
##oples
##aku
Ġparam
ĠCambridge
##lad
##erving
Ġmode
Ġpromote
Ġbacteria
##kh
Ġdick
Ġexpansion
Ġemperor
Ġmic
Otherwise
41
Ġdict
ĠSci
ĠTower
##ando
##quet
##ANS
Ġdescribes
ĠArizona
ĠLev
Ġsneak
ĠHighness
##break
Ġpowder
##just
##isible
Ġmerc
ĠCroat
ĠMit
Biography
Ġfict
##idays
##ogen
Ġhopefully
Ġrejected
Ġrarely
Ġconfront
Ġsquee
Ġsuccessfully
ĠColomb
ĠJoan
Ġvessels
Ġmild
ĠâĢĻ
Ġstays
place
Ġmicrophone
Martin
Ġlos
ĠPun
Ġjam
Ġ1927
Ġpurchased
Dude
co
ĠNev
Ġturb
ĠRy
Ġparking
count
ĠDoc
##ountain
##regon
Ġdocumentary
##odded
04
ref
##sea
ĠBi
Ġtwist
Ġaccommod
Ġsunshine
Ġmathematics
ĠGir
ĠFIFA
ĠTrust
Ġtechniques
Ġsituations
remember
ĠNature
Ġconvent
ĠEconom
Ġunn
Ġsometime
Ġpolite
Ġskull
##ATOR
Ġ1918
Ġselfish
Ġnovels
LRB
ĠGill
ĠEddie
Ġpointing
ĠProject
Ol
RRB
Ġfert
Ġlux
Ġclients
Ġbuzz
ĠSha
Ġ1922
Ġgap
##ocking
ĠJu
##OUR
ĠRobin
Ġpecul
Ġ73
Ġhammer
Ġaspects
make
ĠAst
Ġexceed
Ġclown
Ġfeast
Ġportray
##onies
ĠCru
ĠSpr
ĠĠĠĠĠĠĠĠ
47
##tes
Ġfires
##iga
##iang
Ġrelatives
Ġdescent
ĠHotel
Ġdiamond
##oca
ĠSpace
Ġcuts
ĠBaron
Ġdiseases
new
Ġbegged
ĠWoman
ĠChristopher
Ġmunicipalities
att
##iu
ĠBry
Ġscre
ĠAgain
05
Ġsoutheast
ĠGU
ĠThose
Ġdrank
##rous
Ġdock
##essions
Ġ1926
Ġcondem
Ġmurderer
Ġrenew
Ġpuzzle
Henry
43
hour
##uilt
##olley
ĠBuild
Ġcomr
ĠAbd
Ġjunior
##umed
ĠJake
Ġblast
##thy
Ġchrist
Ġregularly
##eaning
Ġcelebrated
Ġbattles
ĠArgentina
!'
Ġdeer
Through
Ġprey
Ġexpedition
ĠPremier
55
ĠÐ
Ġconstruct
Ġstealing
Sighs
ĠTel
ĠSpirit
Ġmistress
Ġcasual
Mike
Ġnit
Ġstorage
##ichi
Ġunfortunately
Especially
Ġgross
ĠDallas
Ġtitled
Ġmerchant
Ġic
ĠJenn
Ġ99
Ġexcess
Ġintelligent
Ġadvertising
##veland
ĠRey
Ġbelly
Ġshaking
ĠVegas
Ġperspective
##bles
ĠGulf
Ġbeds
Ġparad
Ġabstract
Ġpunch
ĠCre
##emen
Ġchim
##ccer
Ġactivist
ĠMedia
Ġsuspic
Ġtricks
Ġadvis
Quite
Ġqualified
Half
##eries
##oped
ĠAdams
Ġcandy
Ġloaded
##omplete
##arette
Ġceased
Ġgoddess
Ġ1924
Ġhelicop
Ġsustain
Ġnortheast
##rm
ĠMas
Ġkills
Ġ1917
ĠDyn
ĠLO
##ortion
Ġinstantly
Ġwidow
Ġgravity
our
Ġhire
##iane
Ġapples
Ġpromotion
Ġprocesses
Ġ1919
Ġinjuries
Ġexecuted
Ġtribes
##uis
ĠGh
Ġvo
##apse
Ġterribly
Ġadopt
ĠGilbert
Ġconcluded
ĠRick
ĠMountains
Ġmeasured
ĠPictures
imp
Ġpizza
##anth
##unted
White
Ġmulti
Ġensure
Ġcinem
ĠIda
##amas
Ġdefine
##reams
Ġ1925
##borough
ĠPalest
ĠANY
ĠFine
Ġvary
##uda
##aund
##ifications
193
Ġsurve
Ġpainful
Ġinnov
Ġcabinet
Ġconsequences
##ophy
##istance
##agram
##irect
Ġconsideration
yay
Ġleather
ĠApple
ĠPeters
Ġemotions
##usalem
Ġdatab
Ġbeef
Ġunemploy
Ġfranch
##irmingham
ĠMuslims
ĠMedical
Ġargued
##ificent
Ġsurprising
Ġuncomfort
Ġdenied
ĠJudge
Ray
Ġbin
ĠMum
Ġvig
##earing
##ector
Ġpayment
Ġtranslated
##rac
Ġlip
Ġdeny
Easy
Ġinstall
Ġ85
Ġresulting
##DP
Supp
Ġdrives
Ġdelivery
ĠDeputy
Ġdemands
Charles
Ġmothers
70
ĠAirl
ĠPur
ĠCountry
##entlemen
Ġlogic
ĠFarmer
Tra
##rection
Ġcub
##ader
##acc
ĠLim
Ġforehead
another
ĠCharlotte
Â²
Ġsailed
YEAH
##bal
Ġalert
Ġbrick
##wegian
Ġavo
Ġshouting
eight
##yc
##je
Ġshares
ĠDesp
ĠNobel
Ġregistered
Ġoccasions
Hope
hold
Ġgender
Ġunderw
Ġrage
Ġ74
Ġdevoted
Ġstretch
44
Med
Ġimper
Ġtrapped
Ġtriangle
Sn
gu
##asures
ĠSnow
Ġgovernments
##OMAN
Ġlads
ĠHamilton
##hind
Ġtiger
##urbed
Ġsections
48
##ded
Ġgig
ĠWrest
##earl
Inc
Ġgarbage
Ġfeathers
Ġcared
##eton
ĠRio
Ġscrap
Nor
ĠDark
ĠStorm
##ixon
##ega
##ikes
ĠColin
ĠSupp
46
Ġstared
ĠBye
Ġresidence
Ġtraveling
AN
##pass
Ġresemb
Ġairplane
Part
tra
##iary
##gi
Ġbust
Ġinject
Ġchairs
Ġarrow
Going
?!
foot
##onom
ĠDC
ĠLow
ĠKaz
ĠKnight
Ġextract
Ġbehave
Ġawkward
Ġcookies
Ġenjoying
Ġfloating
##rations
Ġaccent
ĠAlaska
##with
Ġwives
ĠHamp
ĠBL
Ġcongr
ĠOd
ĠStill
Ġsweat
nothing
Won
ĠRights
Being
##IME
ĠForeign
ĠCuba
Know
Ġfiring
ĠMiami
ĠNazi
ĠBear
Ġlandscape
Ġcheeks
##lete
Ġcust
ĠAnderson
Ġsuburb
Ġpublisher
Ġlamb
Ġsoccer
Ġbackwards
Ġunl
##ologies
02
sub
Ġgenerations
ĠClare
Ġlabour
Ġpossessed
ĠHouston
Ġwounds
##alph
ĠPin
ĠWard
##arrator
Ġkittie
Ġtremendous
Ġjungle
Ġsuggestion
Ġburden
Kim
Ġchess
Ġtransition
Ġsouls
Ġdeaf
Ġfisher
Ġnodded
ĠSEE
ĠList
Ġinfection
Ġcotton
##away
##rak
##ificial
Ġpenny
Ġparticipate
Ġprovinces
Ġtag
Ġauth
ĠEN
Ġdragged
Ġamounts
Pe
Ġlun
##opl
Ġregister
ĠLeo
Ġcottage
Ġaccurate
Ġearthquake
Bel
##rov
##ilia
Ġpoems
Cal
ĠCook
Ġprev
Ġdesigns
Ġapproached
##ranean
##wald
##ocity
Ġcompound
Ġlaura
Ġlyrics
High
ĠAuthor
ĠNik
Ġmadam
Ġcameras
##intendo
ĠRussell
Off
Ġreception
ĠRat
ĠCrown
Ġtum
##ounter
Ġdivine
##uela
Ġpigs
Sat
ĠLabor
ĠWelsh
09
##rea
ĠCarm
Ġchlor
Ġdisch
Shh
ĠFlore
Ġinsects
Morning
Ġwipe
##oute
Ġvital
##lude
Matt
Ġhen
Ġnotion
##oga
Ġsurrender
Ġnasty
##usk
ĠMR
ĠLam
ĠRand
##works
ĠJulia
Ġhydrogen
ĠAffairs
Ġaccompanied
49
##gage
Ġgenuine
##ÃŃa
Ġpeaceful
ĠWayne
Ġsympathy
##rehens
##arse
Ġga
Ġrehe
ĠBri
Ġpractically
Ġcandidates
Fif
##orable
Ġserial
##ussian
Ġmounted
Ġdropping
Ġsticks
Ġlinear
Ever
Ġsear
ĠReal
Thomas
Ġmuscles
Ġsuitable
##ndered
Ġrit
##orship
Ġ95
##QU
Ġjoking
Ġpresentation
Ġsteep
Ġladder
Ġpurchase
Rog
Reg
##Å«
##xide
ĠWILL
Ġrang
Ġovert
Ġconfusion
Ġfeaturing
Ġvegetables
Ġexplosion
Ġreun
##irrel
ĠCart
ĠMarc
Ġsalary
ĠCOVID
Add
ĠScient
ĠJosh
##OWN
English
ĠAfghanistan
Ġcough
Ġshove
ĠKam
Ġassure
Ġparticles
Ġhistorian
##reprene
Ġcongrat
Tim
pr
Ġbishop
##ayan
##....
Ġ88
Ġhumanity
90
Ġwagon
##eting
Ġdifferently
##rolled
Certainly
##ethe
##ellig
##naud
ĠJulie
ĠIvan
Ġstake
ĠAG
Ġconvention
Ġcompass
Ġsubstance
Ġcaps
Ġdelicate
ĠTHEY
##gedy
Ġchemistry
ĠMetropolitan
Ġalphabet
red
##agine
Ġcolours
ĠChristianity
Ġmultipl
Ġblessed
light
##vation
ĠBour
ĠRub
Ġmatrix
Ġextension
GRUN
##po
Ġcows
Ġnavig
##ecutive
ĠOregon
Ġcontrary
Ġconscience
Ġexplo
Ġbrig
open
##oi
Ġcoin
Ġversus
Ġsore
Ġpeasant
Ġ1923
ĠPortugal
Ġconcerning
##Äį
ĠSax
ĠGor
Ġedges
ĠHighway
ĠMalays
08
Ġsigh
Ġnaught
ĠDetroit
Ġcontemporary
Ġconsec
Ġquote
Ġinsisted
ĠNelson
Ġ54
Ġsmallest
##ructure
##life
Ġchannels
Ġarrangement
ĠHindu
51
sure
##inating
##idy
ĠBert
Ġje
Ġdispl
Ġmaintained
Ġeffectively
Ġagriculture
##thodox
ĠJuan
Ġinterior
Unfortunately
ĠEmma
Ġtravelling
Hard
pre
Ġtu
Ġ53
Seriously
Cons
##range
Ġnerves
ĠMach
##throp
ĠVik
Ġcray
Ġbush
Trust
Ġdrops
Ġromance
ĠAge
ĠCos
Ġassembly
being
level
Forgive
North
sl
##arity
Ġlend
Ġgle
Ġclay
Ġdownload
Ġwarrant
ĠCommunist
Number
ĠBan
Ġliver
ĠThrough
Ġhunter
Ġdowntown
##Ã«
Ġdough
Ġdoggie
ĠNam
Ġcharts
##wealth
Ġ1921
Ġrhythm
)}
##OH
##acent
##anka
##ORD
07
Ġfits
ĠBY
Ġtrash
than
Ġplanets
Ġcommunicate
##amba
Ġzoo
Ġcloset
ĠMorris
="
round
Ġtheories
Fucking
never
produ
ĠBol
Ġseas
ĠFace
Ġvic
Anyone
ĠPerhaps
Holy
##iens
##usions
ĠLas
ĠNar
Ġrestored
ĠTrump
Ġbullshit
got
##mate
Ġexternal
Ġmans
Ġpee
ĠEmily
Ġscheduled
Pop
##whel
ĠBrig
##iciency
##BER
##ulu
ĠJose
Ġcolony
Ġmistaken
ĠMadrid
ĠAdminist
Ġobliged
##irs
ĠNeb
##ANG
shaped
Ġderived
ĠUtah
----
Ag
##mare
Ġton
ĠSoon
##olph
Ġpoliceman
##AME
Ġlinks
Ġsuspected
Best
Ġweigh
ĠRap
Ġorbit
thought
Ġlieutenant
Ġroutes
Ġblanket
Rock
la
Ġ66
Ġeighth
ĠDenmark
Des
Ġrespectively
Ġchoices
Ġconsent
whoops
Ġtrusted
Ġpacked
Ġestablishment
Ġchoo
ĠTHINK
Ġlocations
##gressive
Ġdialect
Ġsatellite
Hell
##Ã¸
Ġfounding
ĠClinton
Ġpublication
Ġsprang
Ġpillow
ĠCec
##ilation
ĠLast
##ibl
":
##iti
ĠSum
ĠDur
Ġmustn
Ġrounds
Ġuncertain
sit
##fare
##ingle
ĠLisa
Ġscarcely
book
Ġbund
Ġdesignated
##alymp
Calm
March
San
Ġdoin
ĠGa
ĠLower
##ieval
Ġchin
ĠChild
Ġinvolves
ĠBaltimore
National
##inea
##edge
Ġpressed
ĠRain
Ġexit
##aima
Ġcreep
Ġpurse
Ġcoward
Ġambulance
Ġconcentration
Ġstead
Ġspider
ĠKay
##otto
##feld
ĠRomania
ĠAlfred
Ġimmense
Ġsandwich
ĠTamil
Ġpencil
59
point
ĠOR
Ġvoy
Ġincreases
ĠArea
Ġexhibition
Ġdynasty
Ġconverted
Bas
Coll
girl
##hand
Ġpairs
ĠSS
##inkle
Ġveter
Ġdreaming
ĠMarshall
##atal
Ġshadows
ĠDal
Ġengagement
Ġ1914
ĠNorwegian
Ġpanic
Ġpraise
Ġconstituency
Ġbeans
ĠLinda
Ġdecade
Ġdestiny
ĠMemorial
ĠWalker
Ġwrapped
ĠAut
Ġcler
Ġadvoc
Ġoccupation
Indeed
ĠMember
ĠDong
Ġchampions
##pled
Ġcontrols
Ġburnt
side
##pse
Ġretain
##imens
##iller
ĠHop
##rave
Ġ1900
ĠOrigin
##owser
Ġcommanded
Ġimpressive
Max
ĠCR
ĠMi
Ġdetective
ĠCaesar
ĠCrow
Ġkm
##ahn
Ġbottles
Ġassignment
##outing
##abl
Ġcompare
Ġjudges
ĠGreater
ĠAirlines
Ġcents
Ġgates
ĠMand
ĠUpper
Ġswept
ĠParalymp
SC
ĠTerry
Ġpeoples
Ġindex
Ġindicate
ĠAbb
ĠTak
...!
ĠLive
##igious
Ġinvitation
Ġdreamed
##EFA
Joe
ĠWright
##ICK
found
mind
##21
Ġshorter
Ġmisunder
ĠMedal
ĠĠĠĠĠĠĠĠĠĠĠĠĠĠĠĠĠĠĠĠĠ
ĠJerusalem
ĠAtlanta
Ġclimbing
ĠBangladesh
Gold
##izer
Ġtraveled
Ġtranslation
Ġpace
##ifies
##oren
ĠGon
Ġscan
Ġdanced
##enz
##leans
##urrent
Ġaddressed
Ġcollaps
Ġmechanical
Ġnucle
Ġadjust
##
##di
##inburgh
##aco
Ġstro
ĠPhys
Ġplug
Ġmanifest
ĠKarl
ĠStat
ĠConc
Ġvoting
Hit
own
rem
##nergy
Ġwhistle
##+----
Ġchips
Ġslope
ĠDoes
Ġboundary
Ġpeculiar
Coming
##uction
Ġaccord
Ġfortun
Ġwrestling
Ġintellectual
Mel
Ġdated
##omo
ĠBirmingham
Ġblown
##issance
ĠMcD
ĠTelevision
Ġagricultural
Ġuncomfortable
Ġcage
Ġcouch
Ġorph
Ġ63
Ġcompanions
Ġroutine
Ġanxiety
##pherd
##ouncillor
##BLE
ĠSri
Ġalike
ĠNintendo
Ġcarries
Ġgenerous
##Ä«
Ġrevol
Ġeats
##oded
Ġovercome
Ġfucked
Ġdesigner
ĠMilan
ĠObama
54
##cu
##OCK
Ġbury
Ġshark
ĠFern
Ġclue
Ġroses
Ġgloom
##rooms
Ġcultiv
Ġpreparing
Ġmummy
ĠSciences
Laughs
Ġsignals
ready
##elievable
Ġfantasy
##icycle
Ġdemocracy
Mag
Ġmoder
Ġorganisation
##ammar
Ġevidently
Air
##imony
ĠYouth
Ġ120
Ġruler
Having
Ġsheets
Ġproduces
Ġorganic
ĠProgram
ĠFinland
Ġdomain
Neither
##bi
##ĶĢ
Ġdared
##arus
##illes
##igenous
##yers
##Ð°
Ġsleepy
Ġeldest
Sus
Ġseve
its
ĠLarry
ĠREA
##grad
Ġgrain
Ġcriticism
Ġdot
ĠCow
ĠInn
Ġsends
Ġpatch
Ġpunk
##anton
##eap
Ġrocket
##ACE
ĠAgent
ĠCleveland
Ġadapted
Bob
ĠHeb
Ġoverwhel
Ġpatience
Ġperiods
ĠAdmiral
##FFFF
ĠDespite
Pull
##kind
##atient
Ġwhilst
ĠLind
##acey
Ġseventeen
Tonight
##issions
##uffy
Follow
##cers
Ġoven
Ġfame
Ġdining
##omot
ĠSi
Ġdoct
##oda
ĠArmen
ĠHorn
ĠWalt
Ġcrimin
Ġdeputy
ĠSamuel
ĠMelbourne
ĠDorothy
##izard
##tenance
Ġ1000
##VERY
Ġcomposition
Ġcharacteristics
##PER
Ġflex
Ġshocked
##eges
stand
ĠMunicipality
Far
##Î±
##roph
Ġstern
Ġdesired
Ġ56
Ġconsisted
Ġtrading
ĠPrix
Ġmagazines
Ġmechanism
ĠManhattan
Ġfictional
##inet
##rip
ĠGarden
Ġ(),
##ographical
##osaurs
Ġsung
##alion
##roid
##actory
##urname
Ġcamps
Anybody
June
Ãĺ
##asa
Ġscattered
Ġexplains
##LLY
##MA
Ġprovision
##fortunate
##avery
ĠVerm
Ġowns
##enez
Ġneutral
ĠHolland
care
Ġunited
Ġrecorder
Ġmilit
Ġlegit
Ġcooked
Ġverse
53
Ġnom
ĠGrey
Ġraw
##ompson
ĠWarren
Ġrepresentation
Ġfeared
##amous
Ġsod
Ġviolin
##ais
ĠCatherine
Ġtrump
##azine
Ġlists
Ġ83
Ugh
Ġmast
Ġdwarf
##icia
ĠSally
##rah
Ġindicated
##phy
##itches
Use
big
Ġhappily
Ġ78
Ġ160
Eight
ĠPed
ĠLang
Ġscandal
Ġcompens
though
Ġcolored
ĠErn
ĠRoberts
##agg
##avan
ĠMario
Ġhelpless
Rem
ĠRud
Ġappet
##INGS
Ġgathering
Ġcigarette
Ġencouraged
##uary
##inning
Ġplanes
Ġrig
##iterranean
Ġpropose
ĠSammy
Ġprayers
school
Ġom
Ġpic
Ġrejo
##olished
ĠBron
Ġtreaty
ĠSeven
Ġmidst
Ġrequirements
ĠLiberal
grand
##mble
Ġbubbles
Ġclo
##bean
Ġ57
Ġhumili
Ġmarketing
Home
ĠKeep
ĠStew
ĠStuart
Ġthrust
Ġadmire
Ġpractices
##Ã¨re
Ġtherapy
##aton
Ġgene
##istant
Ġdestro
Ġapproval
##USIC
Ġwitnesses
Ġcuriosity
Ġlegislation
##olar
Ġintr
ĠInstead
Ġ82
Ġpatri
Ġpunish
Ġsocks
ĠBulgar
Ter
ĠGrammy
whoa
baby
##hill
##ANK
Ġheroes
75
Water
Ġhay
Ġshapes
Ġbreed
Atl
Ġmeantime
ĠTerrit
Ġthoroughly
laughter
ĠPRO
ĠStaff
Ġquid
Ġwaist
ĠCommunity
ĠBenn
Ġcancell
##ials
Ġdistinguished
Af
Ġpills
ĠImp
Ġgoat
Ġsentenced
##ASE
Ġlawn
ĠQuebec
ĠCarlos
Ġsuspicious
Ġphotographs
ĠHunter
Bro
##rÃ©
##St
##vas
##jab
Ġfest
ĠKl
ĠWhich
Ġstriking
Ġanticip
Ġcatching
Ġmultiply
speaking
Ġuniversal
Woman
Ġblows
Ġdivisions
ĠAmong
Ġsituated
##SP
##Äĥ
ĠGy
Ġneedle
Ġdisgr
Ġmini
Ġlowest
ĠServices
cle
Ġumb
##umns
##ibi
Ġ77
Ġignore
Ġliberty
##long
ĠKit
Ġrape
Ġballoon
ĠCentury
Ġfilling
Ġreveal
Ġrubber
ĠFROM
both
##ifully
ĠBACK
##umi
##ollo
##hoen
##incent
Ġstatements
Ġdressing
Ġmagnetic
97
aw
##ilda
ĠThird
Ġcriter
Ġimagined
Seven
Ġscrewed
Ġtravelled
##uilding
reg
##uscript
Ġconservative
##ARE
Ġaffili
Ġrelevant
##sa
Ġtide
ĠSin
ĠFat
ĠYouT
ĠEdinburgh
Ġvanished
##omeday
Ġdignity
ĠHawaii
##dge
ĠIl
##ido
##ilight
Ġrealise
Ġpersonnel
Chief
Ġirrit
Ġgalaxy
keep
##uno
##oline
Ġrecip
Ġpretending
ĠJustin
##OSE
arrondissement
Ġreaches
##orty
Ġdecides
ĠFrederick
ĠSingh
Ġtroubled
##isen
Ġmand
Ġpier
##agraph
Ġscoring
Ġceiling
Ġwelf
Ġjerk
Ġcomedian
Ġwelfare
##gate
##WAY
##held
##atched
ĠRun
ĠNext
Ġwheat
Ġchip
ĠUEFA
##auc
##retched
ĠOrleans
Ġprotecting
Plus
,...
##mi
##IAN
##acco
ĠAncient
Ġdent
##jud
ĠHarvard
Jan
##itan
ĠMust
##ulum
Ġartistic
##ouncer
Ġpercentage
Ġwrap
Ġsuits
Ġclassified
Ġestimate
ĠHeritage
Ġpopularity
##ocese
##ventually
56
Ġfet
Ġly
Ġdiameter
Ġfranchise
Ġgardens
ĠWonder
Ġkindness
Ġmarkets
ĠMontreal
going
ĠJanet
ĠAntonio
Ġhint
Ġdiver
ĠChat
ĠLanc
Ġchasing
Ġ68
Ġcultures
ĠBetween
Ġoptim
Ġinspiration
##oug
Ġlane
Ġwasted
ĠMarilla
ĠGray
ĠGraham
ĠBusiness
##nal
Ġdancer
Ġthumb
Ġlou
##ista
##OUS
Ġfiled
Almost
Ġobservation
ĠBelgian
Ġnomination
Ġmotorcy
##engu
Ġmolecules
Send
à¤
ĠShir
Ġassured
Ġ250
Ġremarked
Ġprecisely
ĠConstant
France
Police
Born
last
Ġstew
##eae
##ulse
ĠChamber
Ġslipp
Ġmush
Ġcontribution
Ġathlete
ĠBrooklyn
Ġdisgusting
ĠPitts
##rates
Ġrect
Ġnoon
ĠAnnie
##iverpool
ĠMicrosoft
##estyle
ĠKil
Ġlandl
Ġ1910
Ġpunished
Ġdiagnosed
##olleyball
Ġdoo
ĠDead
Ġslavery
ĠFront
Ġfatal
##mphony
""
Mur
later
Ġsoph
##itis
##ulus
##eading
400
ĠSound
ĠAcc
ĠBed
##ueen
Ġphones
##REE
Ġfears
Ġidentical
Ġwealthy
ĠDiego
##oro
Ġsha
Ġapparent
Ġ58
Ġsubsc
Ġengage
ĠGuy
Ġobjective
Ġblessing
Ġfluid
##oning
##iza
ĠVI
Ġawait
##VEN
Ġoath
##acht
Ġsmells
Ġrebell
ĠCampbell
##avalry
##unks
##vernment
Ġdrivers
ĠCommonwealth
52
East
te
Ġfruits
Ġreverse
ĠJournal
Ġcollar
Ġbargain
Ġradical
##iolet
Ġbullets
##APP
##OST
##ECT
Ġjewel
Ġproportion
disc
##word
##á¹
##ested
ĠEP
##enson
Ġfighter
Ġlaying
Ġdeparture
Whether
##bai
ĠFarm
Ġfewer
Ġsignature
Ġfraud
ĠNan
Ġforming
Ġsuccessor
ĠPlace
Ġ1912
Ġverte
ĠNeil
Cool
##AH
Ġharsh
Ġpub
##umper
##neum
Ġwinners
Professor
free
##idal
Ġ92
ĠBarbara
Ġbuttons
ĠĠĠĠĠĠĠĠĠĠĠĠĠĠĠĠĠĠĠĠĠĠĠĠĠĠĠĠĠ
Count
Ġsank
Ġinaug
Val
##isne
ĠMolly
##aba
Ġmanip
##never
Ġresolved
ĠSpencer
Ġfoods
ĠLeonard
Ġvelocity
ĠYam
Ġrod
##aux
Ġdefensive
##ebast
ĠGran
Ġgamb
Ġrational
Ġentreprene
Ġstrengthen
ĠTechnology
TO
ÃĻ
##isd
ĠSOME
ĠPil
Ġleap
Ġkilometers
,.
Det
cr
ĠBuzz
##ressing
Ġconvicted
Ġliberal
##swer
Ġcul
ĠYug
Ġabsurd
French
Ġtenth
Ġjokes
Ġneuro
Ġspray
ĠHeart
##eremy
Ġeconomics
ĠGrandfather
Ġwax
Ġrevenue
Ġabund
Ġflame
Ġevolved
Ġhunger
Ġconductor
Between
Ġbeliefs
##oat
##AIN
ĠDragon
##active
##ensed
Ġ84
Ġcontinuous
ĠBarn
ĠBenjamin
##seud
ĠMuh
ĠFollowing
Ġhomework
##ussia
Ġhyper
Ġautumn
fe
pres
ĠSue
Ġsailing
Ġ600
ĠSpeak
Ġacquaint
Ba
ĠSem
##rod
Ġrecovery
Ġdeadly
Ġobserve
Ġcivilization
Ġtrucks
Ġresource
Ġpartnership
Sa
men
ĠMoz
##angled
Ġross
Ġ67
##lace
ĠCEO
ĠBec
##isha
Ġgenes
Ġsurvival
Ġdiscipline
##uated
Ġpause
Ġpapa
ĠHand
Ġchrom
##arded
Ġscores
Ġartificial
##erted
Ġtaxi
Ġharvest
Ġbabe
Land
pass
squ
Ġmant
ĠJen
Ġ59
##nik
Ġjunk
##icken
Ġgloves
ĠExcuse
Ġmemorial
ĠAlexand
Imp
Ġpion
ĠNice
Ġcomponents
Ġfollowers
chuckles
Ġancestors
Ġprosper
##nut
ĠNed
ĠJe
##udson
Ġbrut
##athaniel
##atively
Ġtransp
##ourable
Ġarchae
ĠBoys
Ġaccomplished
Ġtorture
ĠHampshire
##EAR
Ġvague
Wake
##mund
##anne
Ġfog
ĠKu
Ġamateur
Ġextinct
Ġdetailed
Ġsolitary
Ġprocessing
Ġloads
ĠHugh
British
##ths
##anga
Ġ89
Ġholidays
ĠBaker
Ġsob
ĠLot
Ġcolumns
##urope
Ġpotatoes
Ġplanted
Rose
Ġburg
##igo
##aboo
##assy
Ġmotherf
Ġpaused
Ġvulner
##naudible
##AW
Ġrating
ĠYan
Ġdisgu
Ġ81
Ġmembership
Ġphysician
ĠMediterranean
Ġemployee
Ġfrequent
Ġguitarist
##giving
ĠSeattle
Ġarguments
Haven
##llor
##rium
ĠPapa
ĠRuth
ĠNOW
Ġunfortunate
Ġstrangers
Ġ176
Close
Ġaudio
Ġbombs
water
Ġdug
Therefore
ĠGirls
Ġpreparation
##rost
ĠOz
Ġmining
Ġevac
Ġnicely
Ġvisits
Ġdealt
Ġmagnificent
ĠIsraeli
ĠHarrison
Ġalleged
##onymous
Ġrubbish
##eches
ĠDAY
ĠFaith
Ġpeep
Ġpoliticians
isn
Ġvolcan
Ġrehears
##colm
ĠId
Ġhence
Ġarray
Ġreporter
Ġ86
Ġcurse
Ġcreates
Ġpsychiat
##zerbai
##orting
ĠiP
ĠAlber
##ieth
##oshi
Ġcontributed
Ġpockets
Eat
Ġsurname
Ġmartial
ĠNad
Ġassets
Ġcircles
Ġportrait
Ġpalm
Ġpermit
Dem
Harry
##inery
Ġmice
##istical
ĠRea
ĠEt
##osexual
Ġinstalled
Ġtrend
Ġfemin
Ġsequel
Ġpreferred
ĠTransport
{\
##rup
Ġtragedy
Ġsurviv
Ġpsychology
ĠBroadway
ĠAP
ĠDanish
Ġruling
ĠWHO
Ġpine
Ġpresum
Ġmonument
ĠOrchestra
Ġarrangements
April
Ġinterrupted
Either
##zard
Ġlazy
ĠTob
Ġcargo
Ġcrept
Speak
Ġlungs
Ġexhausted
57
##zi
Ġmaj
ĠCurt
ĠBass
ĠVic
Ġswitched
Ġlocality
Ġmixture
Ġratio
##nia
Ġfib
##ripp
##essed
##aneous
show
Ġrobbery
Ġnursing
Ġcrops
Ġfossil
Ġchallenges
##wering
Ġalter
Ġoffensive
ĠChance
Ġpreserved
Ġ87
Ġballet
Ġnetworks
Ġslee
Ġconnections
ĠPersian
Ġpanc
Chuckles
Ġcorporate
Roger
99
October
Shoot
ĠSultan
Ġcrashed
##oku
Ġposted
ĠGlen
Ġhorns
Women
##inner
Ġenforce
Angel
Ġpraised
##itles
Ġhood
ĠAisne
Ġjolly
ĠJenny
Ġdeals
ĠKaren
Ġ71
ĠSHE
Apparently
Obviously
Aunt
Ġsegment
ĠPap
Ġinstruction
Ġartillery
ĠAbraham
##IGHS
Ġbetrayed
Les
acc
Ġsubmar
Ġcontinuing
Ġvisitor
Ġappearing
Ġcandle
Ġprofile
Pass
Ġstored
Ġhumor
Ġ1915
ĠProtest
Dis
Desp
##hard
##cut
Ġ76
war
Ġmister
Ġweary
ĠNAS
Ġbloss
Ġcoins
Ġinfect
Believe
##EG
Ġarose
ĠTreat
ĠPrim
Ġmammals
Ġbonds
Ġhates
ĠIron
ĠAllah
Ġdinosaur
September
Ġcodes
Ġmoth
##rainian
Ġhelicopter
ĠYouTube
##elli
ĠDuck
##hyl
Ġcomponent
##ontin
ĠCalv
##mmet
Ġ1916
ĠMcK
Ġsenses
air
Ġtales
##neys
Ġcontinu
Ġtraditions
ĠGOING
##eeling
ĠExpress
##ystem
##OG
Ġnowadays
Ġboil
ĠShah
Ġattacking
Ġdatabase
Met
ĠRow
Ġmanuscript
##achi
think
Ġmarine
Ġgeomet
ĠGeoff
Following
##riors
##oping
##sels
Ġscen
##eez
Ġmedals
Ġwoo
Ġwider
Ġwhore
Ġcounted
Ġcircus
Ġphotographer
Ġfaculty
Light
##inus
Ġstem
##raight
##ieu
##erek
Ġdistinction
Ġweekly
##ju
Ġcries
##ribe
ĠLAUGH
##essa
Ġranks
##abe
Ġvow
Ġbugs
##arma
Ġinvisible
ĠForces
Ġcontroversial
ĠBuilding
##inate
##enburg
Ġjer
##igers
Ġenh
Ġchew
Ġeleg
##azon
Ġtransmit
ĠClay
Ġcoron
Ġclosest
Ġfarming
Ġdelightful
Mil
Ġsack
ĠTIME
Ġelabor
Ġ175
Green
line
Ġdried
##irable
ĠCad
##ibbean
Ġinfinite
##itarian
Ġpuppy
Relax
Lee
##imm
Ġassemb
Ġchef
Ġcurs
Ġvolt
Ġthreatening
##wright
##rella
Ġwilliam
##astery
Ġmaintenance
Ġsouthwestern
Dan
##gic
##overs
Ġshone
##iao
stop
Quiet
ĠSlo
Ġcheerful
Ġbothered
Ep
Meanwhile
Wr
##atra
Ġparl
##stable
ĠWOULD
##aha
Ġtempor
Ġelectrons
ĠExecutive
Ġcommitment
ĠLegisl
##IX
##UE
Ġfinest
##ATTER
##arrison
Cheers
Ġstruggling
ĠConservative
ĠRomans
##Ð¾
##asper
Ġinev
ĠBatt
##rawn
Ġobsc
##ylan
Ġopinions
ĠCP
Ġchir
##asey
##gins
##iba
Ġ62
Ġ93
Ġbasement
ĠConvention
Tony
Ġheels
ĠMack
ĠLuther
Ġopponent
Ġderivative
##bus
##VI
Ġwears
ĠWag
Ġshine
ĠNancy
ĠOri
Ġperpet
Ġsecured
Ġcounts
Ġ91
Ġsummon
Sister
##kee
ĠGOOD
Ġrack
Ġcheaper
Ġreader
Ġutil
Ġcriminals
##raska
ĠVis
Ġflung
Ġinvolving
##ACH
ĠMartha
CHUCK
##bishop
ĠDaw
Ġregiment
Ġcollapse
Ġdigging
Aust
##zel
##Ðµ
ĠMagn
##urst
ĠGun
ĠKnow
Ġexpense
Ġpatron
Perfect
Ġorgans
Fre
July
est
##vironment
##onald
Ġfitted
ĠSaud
ĠPalmer
Ġbiological
Ġquantity
##town
##LS
Ġstove
ĠMos
ĠNav
Ġcleaned
Ġcosm
ĠMurray
ĠWrestling
ĠFlorence
ĠMarine
##eneration
inter
Ġbells
##cup
##isure
ĠJa
ĠThough
##venth
191
Ġpriests
Ġaccompany
ĠFormula
January
##rise
##irch
ĠShort
ĠParish
Ġlovers
making
##tin
Ġtal
Ġmaps
Ġlump
ĠChel
Ġsober
##OND
Ġhurting
ĠCathedral
Boss
Mac
Ġvirgin
Ġmanners
ĠVenez
##ublin
Ġcolonel
Ġ96
##ICH
Ġboundaries
##ammed
ĠBund
Ġrats
##reeks
ĠThompson
Looking
Wal
##itness
ĠHappy
ĠListen
Ġupside
ĠOFF
Ġpsychological
ĠĠĠĠĠĠĠĠĠĠĠ
Ġcrowded
Ġrequested
Ġangels
Mer
Ġpant
ĠHannah
##aver
##hend
##ldom
ĠPC
Ġtwins
Ġgran
Ġfreely
True
Ġgorgeous
US
dec
supp
Ġnaval
ĠSean
ĠWatch
ĠYang
Ġresting
##Ã¶r
Ġsubsequent
Ġisolated
!!
el
##kers
Ġber
ĠMaur
##resa
Ġmines
Ġlawyers
Ġbucket
Ġpursue
ĠHungary
ĠAthlet
ĠRena
ĠFitz
Ġgrim
Ġadam
##aneously
Ġprophe
Ġterritories
Hm
Jac
##EW
##ayed
ĠSuz
##rove
ĠMA
Ġsigning
love
##MAN
Ġwages
##isons
Ġstair
ĠWol
Ġbacks
ĠClaire
Ġrip
Ġsolutions
Ġventure
ĠCraig
Sarah
##imation
ĠTan
Ġliar
ĠFall
ĠKan
Ġattach
Ġclassification
ĠAgency
Ġprofound
##ecessary
Ġconvenient
Ġapplause
Ġmarble
Chris
Ġsuspended
German
##walk
Ġties
ĠDh
ĠFuck
Ġvacc
Dev
Real
##ilarly
ĠProp
Ġsurgeon
Ġspeakers
Ġsolved
Ġeternal
Money
##Â¶
##omon
ĠLiverpool
ĠKid
ĠThor
Ġdepressed
Ġcostume
ĠHarvey
Ġsuggesting
Ġreferring
ĠBrothers
Ġnickname
NARR
movie
##erie
##rained
Ġninth
##ttes
Ġincorporated
Ġbeam
ĠSAY
ĠPel
Ġneur
Ġspan
CL
eng
woman
Ġfanc
Ġhut
ĠFif
ĠExt
##ubborn
Ġfirmly
Ġautomatic
Jane
ĠSeveral
Ġlighter
190
Ġparagraph
##MP
##inth
##onge
Ġcomplications
Ġpenet
Ġsamples
Danny
Ġted
Ġconspir
##Ã¶n
Ġgraduating
##oosing
ĠNepal
##Î½
Ġwasting
Ġjet
Ġlightning
##ONNA
THEY
Ġcategories
Alpes
Ang
green
sn
##cia
##ĶĤ
##roach
ĠBuff
Ġalliance
Ġworm
ĠMetro
ĠCatal
Ġbutterfly
Ġpupils
Ġcustody
Save
fashion
oops
Ġpad
##ifting
Ġoutcome
ĠEllen
Ġconsistent
Japan
Ġtire
ĠTW
Ġreplacement
ĠOrange
without
Ġtowel
ĠPunjab
Mor
##TO
##bes
##GB
Ġtanks
Ġcemetery
##rily
ĠRoute
Ġlearnt
##plex
##ambers
Ġrestaurants
ĠMichel
ĠJefferson
Ġbatteries
NARRATOR
##itudes
Ġbail
##steps
##illo
ĠBox
ĠJin
Ġrepublic
Ġhopeless
Ġmurders
ĠPittsburgh
.!
##zh
##oqu
Ġcancel
2010
Ġinterpretation
;:
Ġregulations
Ġreflected
ĠTrade
Ġsticking
Ġinvestigate
ĠDelhi
Ġqualities
Ġbanana
Ġcolonial
Ġcertific
ĠFu
Ġtravels
##celona
Jimmy
58
Ġorganisms
Ġcelebration
Ġhospitals
ĠMans
##eren
##Ã©part
Ġultimate
##oppy
%)
##amples
ĠLt
ĠFal
ĠShar
##ctoral
ĠIsa
Ġmedic
##IDE
Ġtastes
##iors
ĠHorse
ĠRangers
ĠRalph
Ġvamp
ĠChampions
Ġ79
ĠPuerto
Ain
##imo
ĠNFL
##Ã©es
Ġsexy
Ġdiary
Ġassociate
Applause
Ġresponded
ĠFairy
Bur
##SH
Ġmedieval
Ġsupports
Ġpublishing
United
Ġcoverage
âĢİ.
high
sometimes
##pur
ĠRic
Ġanswering
Ġarrives
Ġadventures
##list
ĠAC
Ġmeals
Inter
ĠShin
##brid
Suddenly
##á»
ĠManu
Ġshade
ĠUm
Ġstrain
##offs
Ġtemperatures
handed
Ġturkey
years
Ġtroll
ĠAin
ĠMama
ĠArnold
Ġ69
Ġexperts
Ġscholar
Ġunto
Ġrecept
ĠTun
##chair
##olid
##haus
Ġcharacteristic
seven
Ġhydro
Colonel
##graph
##chio
Ġatoms
##gered
Ġshaped
Ġschem
##sterdam
Ġtransportation
##URE
##aments
ĠCOULD
##aping
Ġodds
Ġautomatically
Ġimprovement
Ġauthors
oper
ĠBomb
ĠMagazine
Ġsymbols
Ġfolded
Ġnaughty
Lady
Wonder
ĠAzerbai
ĠMouse
ĠDra
Ġhonored
Ġpermitted
Ġembarrassing
Ġembarrassed
December
##asi
Ġobl
Ġcomplaint
Ġpays
##ÃŃn
ĠBaseball
must
##cribed
##ieves
Ġagencies
##uka
trans
Ġrelieved
Joseph
Jeff
Major
##erts
##eties
##opard
Ġconj
Ġregime
Ġbanned
Ġrecommended
Ġcomparison
ĠEthiop
##gal
Ġtoe
Ġgoss
ĠWWE
Ġdrain
Ġlectures
Ġpissed
Ġpeasants
ĠMitchell
op
##iw
##emale
Ġprohib
ĠKey
Ġdefending
Ġdestination
Ġ1913
Ġphysically
Cent
Ġtob
Ġnail
ĠPhoen
ĠWik
Ġrecognised
Imagine
Rad
ĠJill
##arer
Ġbiology
##eted
Ġratt
ĠInspector
##beat
Ġurgent
Adam
ĠArabic
ĠHungarian
Ġq
##yes
Ġlakes
ĠBurg
Ġjar
Ġcenters
ĠâĶĤ
##rington
Ġfights
Ġpropos
ĠGallery
Ġingred
ĠPicard
##eenth
Ġporn
Ġbew
ĠTodd
##iege
Ġserver
##ugar
##ORY
ĠHarold
Ġcompeting
Ġannouncement
Ġdisagre
Ġacknowled
##IES
ĠOscar
Ġpean
ĠFran
Ġdisturbed
star
ĠDevon
Ġtransmission
pop
##lia
Ġpneum
Ġheir
Thus
ĠChand
Ġscales
Ġguid
Ġdecline
ĠAthens
ĠCaribbean
Ġkissing
Ġdependent
Ġshells
Ġconsisting
Ġinherit
November
##arents
Ġsecretly
Ġ1911
##ascal
Ġcontributions
ĠYugosl
Despite
Sen
inaudible
Ġtherm
Ġ61
Ġpromises
ĠRogers
Ġconcerts
Ġsharply
##asping
Ġrows
ĠKang
Ġparas
Wouldn
Ell
ĠÄ
##tic
ĠAra
ĠChen
##qual
##obs
ĠUniverse
Ġreaders
ĠGriff
##avi
Ġcompounds
##tingham
##sson
Ġsketch
Ġconfession
ĠRaymond
ĠModern
real
##iology
##stad
Ġbloke
Ġregards
Ġwhisper
Ġmoist
cos
ĠPont
Note
ĠAdv
while
Ġsensible
Ġproceeded
Europe
##gus
##hent
Ġtheat
Ġchoir
Ġincredibly
Might
Ġcyl
Ġdense
Ġank
ĠPoly
##arettes
##acts
Ġbrass
Ġpreserve
Ġpurely
Ġunfair
ĠLloyd
ĠHebrew
Ham
Much
##inian
Ġsins
##enos
ĠBey
Ġmankind
##ivan
Ġroast
Ġresort
Ġendea
##INGING
Ġguessed
Ġbelonging
ĠMalaysia
##eda
Ġpod
ĠTol
ĠWarner
Ġrepresentatives
Ġcorners
ĠStudies
ĠMiche
ĠMuhammad
ĠHank
##ighting
Ġorch
Ġhandling
Ġglorious
Ġbushes
Ġdrums
Ġlaughs
##aptist
Ġcoastal
Ġchemicals
Ġstrategic
##Ã©partement
##Ãł
Ġtatt
##acre
Ġsurviving
Ġturtle
ĠJonathan
minute
Ġbicycle
Ġheal
Ġgrandson
Ġwallet
Ġspinning
ĠCalvados
##after
##cott
Ġgoose
Ġecho
ĠPierre
##unity
Ġdeploy
##avin
Ġsubd
Ġsummit
Ġrises
spec
ĠPad
ĠRO
Ġbelieving
Ġpatrol
Blue
Ġpitcher
ĠSelena
ĠSylvia
ĠIndonesia
Gentlemen
Hot
Ġashes
ĠChan
##ORT
ĠBlake
ĠSimp
ĠIranian
ĠNapole
ĠVillage
Ġhorizont
Port
Ġtens
Ġmr
ĠMong
ĠMorning
Ġfrust
ĠClar
Ġseparation
Ġconcentrate
Steve
##gom
Ġlemon
ĠGw
ĠSandy
Ġconsequence
ĠNebraska
ĠNash
##iph
Ġtrials
Ġindustries
Ġdresses
Ġ1908
Ġterrorist
Ġrugby
ĠLeader
Ġstyles
Drop
Fore
Mod
Â¡
##oodle
Ġtrous
##eva
Ġemerged
Ġmanufacturing
Ġquantum
Ġphenomenon
Ġtension
ĠDream
##oused
##oba
##aware
##ierra
ĠSyria
Ġcriticized
Nope
##gil
##ouver
Ġborough
ĠWeek
ĠLud
##berries
Ġhumble
Ġsunset
Ġvariables
Ġdio
Ġformally
##airies
Ay
Ġsighed
ĠCold
Ġvag
Ġquad
Ġcontents
##OUN
Ġtrigger
##eption
Ġbankrupt
blue
Ġdrowned
##rived
ĠGard
Ġglanced
Ġcompetitive
Ġcatal
Ġbisc
ĠSud
##antine
ĠRah
ĠEmer
##udding
Ġnightmare
Ġequations
ĠCameron
Ġsyndrome
ĠStewart
Nick
##rike
ĠMall
ĠPH
ĠLily
ĠRoom
##ipur
Thought
Ġflats
Ġoperates
Ġruins
Jon
Slow
##laimed
##riers
##grim
Ġknocking
Ġphilosopher
Ġlaboratory
Ġeliminated
fr
Ġpoured
##riger
Ġcrystal
Ġpotato
Ġprimitive
ĠMilitary
Mic
Pas
Ġsaint
##velope
Ġsnakes
##ASS
Ġsubsid
Ġthirsty
Bo
##haw
##ski
##AA
Ġgown
ĠBU
ĠPerry
ĠLeeds
Ġ800
Ġexamination
Adm
Ġmagnet
Ġloyalty
IS
Ra
ĠRi
Ohh
Ġlighting
ĠGranny
Ġcorrectly
ĠUkrainian
##REAM
##ebastian
Ġpap
Ġniece
ĠCould
ĠMoses
Ġsheriff
ĠAlbum
Ġcompetitions
Ġwritings
Ġairline
ĠAuthority
Ġtapes
Ġbats
##amo
##estone
Ġconvert
ĠKirk
Ġtwisted
Ġworksh
##phones
ĠShaw
Ġ98
Ġgrandpa
Ġdiagram
eyed
##riek
ĠHat
Ġchains
Ġarc
ĠMontana
Ġchapel
Ġheavens
ĠEverything
Ġfrost
ĠCommissioner
ĠNazis
Ġincreasingly
Ġsearched
Bon
Ġtore
Ġsew
Ġaloud
Ġdaylight
##kerchief
Ġphilosoph
SHE
Ġkidnapped
Ġvoyage
cap
dÃ©partement
Ġrevers
Ġmanaging
Ġclerk
Ġfinance
Ġwarrior
Ġfreed
Ġpriority
Ġsubstantial
64
Nah
sw
Ġdess
##usiness
##enton
##sole
##oval
##ailand
ĠTherefore
upon
Ġmasses
Ġceremon
Ġcoincidence
95
##erness
Ġhind
##river
##ulk
##uddy
Ġintu
Ġemail
Ġdirectors
Ġdeparted
ĠVenus
Ġownership
ĠSophie
ĠReagan
##bird
Ġpadd
##inky
Ġeru
Ġprett
Ġvertical
Ġfarms
Ġsalad
Ġcartoon
Ġdismissed
ĠVermont
Eric
Ġlob
ĠIP
ĠABC
Ġwandering
Ir
##orig
##etta
ĠHaut
ĠGONNA
##REAT
Ġtoxic
ĠParalympics
Pal
ĠBha
Ġjaw
Ġunre
##nex
##airy
Ġ-&
Ġpossibilities
Ġrecordings
##fessional
##oeing
Ġlogical
Ġsignificance
Ġelderly
Cast
try
##pes
##bul
Ġbee
ĠBoo
ĠPay
ĠYu
Ġlosses
Ġreminded
Ġvirtue
Ġfrankly
Ġbeetle
Daniel
sty
##hall
Ġwage
Ġstubborn
ĠAld
ĠMake
Ġexch
##herent
##ormal
##uffs
THIS
Ġcowboy
Ġaltitude
##IFE
Ġforbidden
ĠJoyce
Ġtelesc
Ġtasks
Ġmall
ĠNumber
##oys
Ġmessenger
ĠOrthodox
Ġtourist
Ref
Wil
##tail
##cano
ĠHudson
Ġcanal
##arlow
Ġlayers
Ġdeclare
Ġreminds
HOW
##shot
##amburg
ĠDefense
ĠChampion
February
##ÃŁ
Ġware
##aran
Ġlaund
##see
ĠHem
ĠEnt
Ġinteg
Ġattending
##upiter
Ġexposure
Ġcommunications
Ġspreading
Ġcollecting
Ġborrowed
between
ĠIdaho
##DS
Ġpige
Ġseldom
ĠFinal
Ġaggressive
Ġdefinite
Alice
ĠAmsterdam
Ġfarewell
##maker
##icism
Ġrely
Ġrevel
ĠSaf
ĠBarcelona
ĠLords
Ġadjacent
ĠBasil
ĠEvans
ĠDetective
Ġfabric
ĠManagement
Ġtraded
Ġabsorbed
ĠMunich
##lain
Ġsovere
Ġflights
##itionally
hearted
##iji
Ġarguing
ĠConfederate
Ġtrembling
WOMAN
Ġlily
Ġrestore
Ġflee
Ġtexts
Ġdepartments
##zburg
Ġpear
ĠSE
##unci
Ġpartial
Ġsubstitute
Ġdispute
including
ĠMovement
##otype
ĠAw
##luded
ĠAustin
Ġstrongest
Ġworrying
##OTHER
Ke
ne
##antern
##eta
ĠLaughing
Ġamendment
##eered
##rency
Ġmeter
Ġtopics
Ġpathetic
black
##woman
Ġego
ĠFalls
Ġguilt
Ġsweep
Ġforgetting
Ġinfluential
Ġessay
Ġpollution
##ITTLE
ĠChase
ĠAlt
Ġparks
Franc
##quer
##ogram
##ovich
##ancouver
##ISS
Ġstrikes
Ġquarrel
Ġcivilian
Ġrobbed
Ġinherited
ĠWr
##anking
Ġfootage
Ġcorrid
ĠStudios
Ġgesture
Pick
et
##bly
Ġbegging
ĠCS
ĠFried
##iguel
Ġclan
Ġench
Ġraining
Ġlocomot
Ġ94
ĠTurner
ĠMeth
##izzy
Ġhardware
Ġcolleges
Ġdoorway
##unications
Ġexamined
ĠBernard
Ġdrafted
ĠSprings
End
##born
##hester
Ġod
Ġpian
ĠCBS
ĠDear
Ġleaning
ĠChart
##auer
Ġreduction
Johnny
Ġsurround
ĠOpera
##borne
Ġtires
ĠCOME
ĠPam
Ġblocked
Ġbuses
Ġcontinent
Ġpublicly
Ġpropag
ĠPeru
65
##laim
##atar
Ġink
Ġheritage
Ġpopulations
Ġawfully
ĠJackie
##flies
Ġporch
Ġathletes
Ġpyram
Ġjurisd
Ġcancelled
Law
west
Ġgum
ĠDig
Ġencl
##velt
Ġlightly
Drink
##gomery
Mem
Ġpony
##aying
ĠSac
##istent
##iren
Ġrecre
Ġopenly
Ġtestimony
Ġsatisfy
Ġhelmet
Ġrevolutionary
Simon
ĠBowl
Ġperceived
ĠCosta
Ġoct
ĠAges
##oding
Ġmarvel
Ġbehold
Ġquestioned
Ġunsuccess
ĠNevada
:--
ĠMind
ĠHerm
Ġretail
##ENCE
Ġcups
ĠJulian
Ġspoil
Ġconsecutive
million
ĠMerry
ĠBright
ĠEarly
Ġvine
Ġpolar
ĠCanal
Ġmeasuring
Ġmathematical
Ġdelayed
Ġvolunteer
Ġsuspicion
Ġbapt
##onda
Ġflip
##ixed
Ġcheating
Ġvolumes
exp
##iasm
Ġpeaked
Ġtobacco
Mine
##run
Ġhipp
ĠMes
##ako
Ġblade
Ġcrust
ĠMedicine
Ġconcepts
ĠQueensland
"!
##eous
##MY
##22
ĠLis
Ġindign
##archy
ĠNottingham
Ġescort
Ġ1905
Ġprecip
Ġgallery
ĠSquad
headed
ĠNicholas
bleep
##loe
Ġsessions
ĠHamm
ĠViv
Ġparade
Ġsunlight
Ġimmort
ĠDemocrat
Ġflowing
ĠLeslie
800
push
##aude
Ġcher
##imir
ĠOVER
ĠUl
Ġmodified
Ġstarving
GAS
##pers
##anas
##inge
##ctive
Ġboards
Ġdrummer
Ġfilmed
Ġdisplayed
Louis
ĠJohann
##mun
##othe
Children
Ġhosts
Ġprinting
Jess
##rowing
Ġengineers
Ġabandon
Ġresidential
Fe
##oft
Ġdub
##riages
ĠAu
ĠHAD
##gebra
Ġshelf
Ġleaned
Ġflames
Ġprotests
Ġashore
Ġcroc
Ġproteins
Ġmotorcycle
Ms
Pet
Ġtails
##esy
##aris
ĠBou
ĠLiter
ĠEight
Ġtwent
##grade
Ġimpatient
ĠGrandma
Ġdominant
Ġstrictly
Ġseverely
Way
present
Ġsizes
Ġbade
Ġdorm
Ġvoltage
Ġguidance
Bull
Dead
away
Ġcakes
Ġlod
Ġ97
Ġorganised
Ġswallow
ĠSidney
del
ĠCamb
##osom
ĠOm
Ġspill
##ivals
Ġcarn
Ġexpenses
Ġsniff
FR
met
Ġoak
ĠTro
ĠKon
ĠKum
##fulness
Ġcrush
Ġsupporters
Ġreporting
Couldn
ĠFinally
Ġcriteria
world
##owell
ĠBond
##unty
Ġblues
##ERY
ĠShan
Ġcorps
Ġcopyright
Clear
Narrator
##instein
Ġpi
ĠMO
ĠWing
Ġworries
Ġclassroom
Ġadvise
Ġabsent
ĠLouise
Ġdiscussing
Ġdenomin
Ġstreams
Ġtribut
Ġmythology
Ġeagerly
##abetes
ĠSimpson
Hea
##urop
##orr
Ġwhip
ĠTib
ĠDublin
##ppers
Ġrays
ĠKyle
Ġhappier
Ġhomeless
##IDS
Seems
Ġdemocratic
Ġanchor
Ġfu
##stration
##abul
Ġoutfit
Ġdisk
Ġcorruption
##ouncing
Ġprints
Ġsulf
ĠEagle
Ġamid
Ġarriving
Ġpipes
Den
##sis
##asped
##ource
ĠVincent
Ġdistress
Ġterminal
Ġconviction
ĠSaudi
peek
##usively
##utton
Ġvit
##ahu
Ġfathers
Ġ170
##ustomed
ĠPrefecture
##Ã¢t
nine
##__
##ationally
Ġdonkey
still
ĠTHEM
ĠDesign
Ġreactions
Ġaxis
ĠPotter
ĠHistoric
Ġcinema
Ġdisgrace
ob
ĠPant
Ġintim
ĠChi
Ġreads
Ġconversations
ĠRonald
Ġbridges
Ġchimney
##him
Ġlocks
Ġkin
ĠFund
##ipher
##hyd
Ġapprent
Ġmagical
Ġ1909
âĢĿ.
Ġinterfere
Night
##mans
ĠPsych
Ġconvey
ĠVas
Ġprivacy
Ġ1890
Ġminority
Ġtiming
Ġvolunteers
Dick
Gro
SIGHS
##bel
ĠDJ
ĠRound
ĠJama
Ġcontempt
Ġenters
ĠZh
Ġnursery
ev
##holm
##ww
##urbs
ĠBach
Ġtreating
ĠAmendment
##cliff
ĠWithout
ĠCaroline
Ġsailor
ĠLoire
Ġresearchers
ĠBee
ĠPir
ĠEver
ĠThailand
##amese
Ġmotive
Ġpronounced
ĠJosÃ©
##oise
Ġfuss
Ġbees
Ġhighlight
Ġshallow
Ġmisery
interest
Ġchampionships
Ġcollaboration
Ġdil
##omers
Ġspit
Ġbloom
Ġinfant
2000
ĠPeninsula
Ġenthusi
.&
Ġbreeze
Ġmasc
ĠWERE
Ġsnap
Prince
##gregation
##====
Ġindicates
##bia
##??
Ġwides
##itating
Ġbeats
Ġglow
Ġsongwriter
##idding
Ġarmies
Enjoy
Ġconsumption
ĠSocialist
Ġoverlook
Ġmansion
Ġdioxide
Sk
Walk
##lines
ĠHig
ĠBird
ĠGate
Ġrushing
Ġmanual
##ucked
Ġcrushed
Ġgenerated
Ġadvised
Ġdiamonds
ĠDoug
ĠArgentine
Beautiful
ĠHuh
##atsu
Ġexamine
Ġfirms
Ġcolleague
ĠPetersburg
Jake
Ver
##eur
Ġyelling
ĠKath
Ġbru
##oker
##ieties
Ġreflection
Ġghosts
Ġcontroversy
Hur
face
##cule
Ġwag
ĠMason
ĠDraft
Ġnevertheless
Ġraid
Ġslap
ĠPlat
Ġcontracts
Ġorphan
Ġsealed
Ġinfer
Ġdevast
Ġkicking
Ġterrific
Day
Ho
ext
##pro
##oux
Ġnails
Ġstere
##ecraft
Ġexport
##oosevelt
Ġtransformation
Ġcigarettes
Ġcommissioned
ĠLeban
Ġoverseas
Break
##uum
##SC
##pread
##immer
ĠGand
Ġmainland
Christian
Ġtransformed
Ġinquired
Ġhears
##amine
Speaking
Ġaimed
ĠShirley
IF
##TY
##dad
##isode
ĠIike
##icular
Ġretained
Ġchill
âĻªâĻª
Ġawhile
ĠAdvent
Ġapproaches
Ġclaiming
##ictionary
Ġsettlements
bre
Ġfork
ĠCraw
Ġchoosing
##arming
ĠNewton
Ġnegro
Ġhatred
ĠMilton
Ġaffects
ĠTestament
ĠJamie
ĠNigeria
##usa
Ġreass
ĠDuc
Ġlean
ĠValent
Ġaccum
Ġreligions
ĠFelix
ĠIceland
ĠWagner
ĠSic
ĠMAR
Ġgenre
2011
Ġexclusive
Ġmortal
Ġpirate
ĠBengal
Amy
Ġbout
Ġloses
##uba
Ġgrin
Ġwrist
Ġtrauma
Ġreplacing
Ġremarks
Ġsavings
ĠInfantry
Ġgratitude
Ġvulnerable
600
ĠYellow
Ġleisure
Ġministers
Ġreluct
Ġrefriger
ĠButler
Ġsupern
ĠCollins
Ġrisks
Ġtendency
Ġattraction
ĠOttoman
Ġcollapsed
Ġtrousers
Az
##á½
Ġsomeday
ĠSomething
ĠPand
Ġsofa
ĠBrid
Ġeyeb
Ġorganize
Ġdamned
ĠPolit
189
ĠWallace
Ġdestroying
Offic
Ġclip
ĠVancouver
Ġoperator
Ġanimation
ĠBros
Ġblend
Ġaccomplish
Ġpremiered
Ele
Ġshat
Ġcogn
Ġnod
ĠWant
ĠObl
Thirty
Ġfeud
Ġcarved
Ġmonkeys
Ġswords
##ESE
ent
tree
ĠSide
ĠTree
ĠMaz
##olia
ĠDance
ĠDash
##udy
Ġmenu
##ITY
ĠRussians
ĠĠĠĠĠĠĠĠĠĠ
Ġmutual
Ġbundle
Ġumbrella
cm
Ġpussy
##alie
Ġstating
Ġtragic
Ġefficiency
ĠSeoul
Ġ1907
Ġaccidentally
##minster
Bre
Billy
Id
World
ray
Ġcater
ĠChem
ĠFA
ĠNina
Ġenvelope
Ġmarched
Ġdrawer
##pleasant
Ġchecks
Ġfastest
Scott
Ġdamp
ĠPink
ĠWon
ĠWald
Ġthemes
##orns
Ġcompliment
Ġsaddle
Ġinvention
##asketball
Origin
language
##power
Ġbeasts
ĠWAY
##andie
##oots
Ġrecognise
Surely
Ġsignificantly
##pot
##lem
ĠPAR
ĠWow
Ġrider
##oka
Getting
##roduction
Ġinterviews
ĠPanama
Ġdominated
Ġbonus
Free
mother
##oan
##piece
Ġbord
Ġhorm
##icable
ĠToad
ĠNBC
Ġindigenous
Ġrelate
Ġdescribing
ĠFreud
Ġconquer
second
Ġstall
ĠPyr
##aines
Ġrotten
##ivision
##resses
Ġhandled
##gric
##armed
##ONS
Ġfilming
##anni
ĠBEEN
Ġtargets
##ODY
Ġimmigrants
ĠAdministration
run
Ġsunk
Ġhither
Ġbegg
Ġstack
ĠHOW
Ġjelly
ĠLen
Ġoutra
Ġmonthly
Ġ1906
ĠAnglo
ĠAttorney
##pack
##YS
ĠSport
ĠSaints
Ġsentences
Ġcloses
Ġtroop
Ġpetition
Ġpneumonia
Ġcaut
ĠLux
Ġbases
##egend
Ġfailing
Ġrespected
##EEP
Ġelementary
Ġprocedures
##EOP
Ġwool
Ġwires
Ġmasters
ĠCemetery
ĠLanka
##apor
##inee
Ġrecyc
##uality
Ġproducers
Whoever
Ġpretended
##affe
ĠRegiment
Ġluxury
-[
Hear
##aired
##bone
ĠGhost
Ġabilities
##early
Ġblog
Ġscold
Ġacres
##Ã©t
Ġparticle
Excellent
ĠEmmy
Ġencounter
Ġcoffin
Ġthreats
himself
Ġgossip
##illance
ĠJava
Ġoutd
ĠHend
Ġhandkerchief
Ġapprove
ĠReserve
ĠColumbus
Ġcurtains
ĠTerritory
à¸
##lC
##IO
Ġdeter
ĠSad
Head
##reath
##lington
Ġkidney
Ġinfected
story
Ġassumption
Ġbastards
Ġadvertis
##smith
Ġfortunate
Name
Polit
##66
##enged
##acer
ĠHope
##ppe
##umer
##ORN
Ġvillain
Ġirre
Tommy
##ypes
Ġutterly
Hand
Victor
dep
Ġdive
##section
ĠCry
Ġprest
Ġrecru
Ġcorrupt
Ġchickens
Ġmuttered
Ġdescended
Ġinvolvement
Ġdivers
##lee
Ġspotted
Stan
##umbo
ĠAbbey
Ġposter
Ġdeclined
ĠÃī
Ġearnest
ĠNEW
Ġritual
gun
##uber
##cat
Ġhats
ĠStra
Ġresur
Ġmedication
Ġdelta
##ijing
Careful
ĠVenice
Ġdepths
ĠPicardie
Ġou
##dia
##MENT
Ġtut
ĠPent
Ġmature
Ġsimult
Ġprophet
Ġnecklace
Ġinstrumental
ĠUpon
fashioned
mark
Ġyell
ĠSoul
Ġexagger
Ġmischief
ĠDelaware
Ġ1870
ĠDevil
Ġcolonies
Ġsavage
Ġclinic
Top
da
##isle
Ġnode
ĠDub
ĠLITTLE
##icker
Ġfloors
ĠAngela
HEY
Ġprovincial
ĠGonz
Sign
laughing
##gun
##IRE
Ġlid
ĠWes
ĠOUR
Ġcomprehens
Ġsunny
Ġburns
Ġsadly
Among
ĠDynasty
Jos
dog
##AGE
##ML
Ġtheta
Ġsings
##atisf
Ġbum
ĠRing
##ighter
Ġbackup
Ġdeserves
Ġidol
Ġfella
left
67
House
ĠDol
##rastructure
Ġneighbours
ĠAaron
ĠCut
Ġperception
##Ã©r
##attering
ĠFacebook
Elect
##track
##erers
##portant
ĠSheriff
Ġmonsters
Ġhalfway
Ġdinosaurs
Bloody
Ġcollections
Ġtribute
Ġinitiative
cut
ĠJesse
##igi
Ġworlds
Ġviewed
Ġdrawings
ĠControl
##ALLY
Ġinclined
Ġskiing
Ca
Roll
ĠTheod
Ġquack
Ġlonging
Ġconvict
Ġharbour
##THING
Ber
##anim
ĠEaster
##reated
Ġtends
songwriter
##elligence
ĠTrib
ĠLor
Ġproven
Ġmakeup
Ġcontrad
Door
Ġrunner
Ġsorted
Ġtrips
former
child
ĠDemocrats
Ġconquered
Ġfascinating
Ġpirates
Ġdeliberately
Bri
Ġsab
Ġfoul
ĠCoy
ĠPle
ĠRan
Ġdisl
Ġexperimental
##ÃŃs
Ġelevator
ĠOwen
ĠPLAYING
Kat
listen
Ġpand
ĠCliff
Ġpitched
##athetic
Ġfurious
ĠSister
ĠHum
ĠDOWN
ĠGoth
ĠRug
Ġhandful
Ġcountryside
Ġagenda
Whose
##bourg
Ġassuming
Ġdeserted
Ġmathematic
##heimer
Ġsqueeze
mar
Ãī
##PL
Ġlest
ĠWoo
##than
##soever
ĠJoey
Ġsucks
ĠGironde
##stall
##akin
##enders
Ġenable
Ġcareless
ĠCommons
Est
Ġpp
Ġinex
ĠHomer
Ġchased
Ġpharm
Alan
Ġearning
Ġpraying
ĠWoody
##liga
Ġsupplied
##hr
##len
ĠAx
ĠBru
##ogne
Ġdisability
Ġreceip
Ġtemples
ĠMadonna
Ġbowed
east
##gow
Ġdolp
ĠLock
ĠRu
ĠNation
Ġskip
Ġpaths
Ġoxid
Ġchampagne
Ġpulse
Ġhypothesis
##EOPLE
Read
Sing
ho
##tor
Ġsne
Ġtoll
##leen
##usc
ĠTELL
Ġlikewise
##owski
##prints
Ġmarrying
Ġterrified
ĠSophia
%,
ste
Ġgaze
Ġstout
ĠCher
##ema
##assic
Ġskirt
Ġbeautifully
Ġsquirrel
Godd
Ġboarding
Ġ1902
ĠSenior
##market
ĠKeith
Ġdistinguish
Ġwidespread
Fran
ĠBag
ĠDue
##aple
Ġcheat
##helm
Ġtourists
Conn
ĠFilip
Ġsupreme
Ġcrocod
Ted
much
ĠKill
Ġadequ
Stat
Ġbarrier
Ġsensation
##gio
Ġhabits
Ġmelt
ĠRaven
ĠJung
ĠStars
Ġamus
ĠMarcus
##annon
ĠRegional
Ġcomplaints
Suppose
Ġappetite
ĠPercy
ĠFood
Ġvault
##fielder
Ġremainder
Ġcalculate
ĠPhoenix
Mama
##XT
Ġwaking
##isi
ĠGreeks
ĠKo
##âĢľ
##insky
##uffled
Ġremembering
Ġnecessity
##OHN
Ġconspiracy
Kiss
Ġba
##eston
ĠLoc
Ġdeed
ĠEnergy
Ġlever
Ġtheirs
Ġsubtle
Ġmachinery
##Ã¨s
##boat
ĠNEED
Ġneighbourhood
Cam
##lyde
##storm
ĠBald
Ġtrim
Ġburial
##ERING
Ġreliable
ĠGuinea
ĠCapital
Set
elect
##NY
##AK
Ġlust
##eland
Ġoutstanding
##ango
##ovsky
##oya
Ġrealised
##etti
ĠMarket
hum
##onial
##aye
Ġeve
ĠMath
##eca
ĠHoney
Ġvs
ĠWhoa
Ġfeedback
Ġstruggled
ĠTeddy
Ġcooperation
ĠProtestant
##mail
Ġwaving
ĠRiley
Ġbacked
Ġammun
Ġdesires
Ġlighted
Ġregardless
Ġpursuit
ĠOblast
##pin
Ġsarah
Ġheap
##lymouth
ĠMidd
##ffect
ĠVin
Ġswung
Ġfactories
Ġvariation
Ġphysic
##reshold
Ġplainly
Ġwebsites
Ġsailors
Ġwireless
Ġsculpture
Ġupdate
Ġbol
Ġnothin
Ġoutbreak
ĠUntil
Ġgenerate
ĠTOO
Ġ1904
Ġcereal
Ġhorizon
ĠBennett
Gen
Several
Ġmit
ĠNov
ĠNaval
Ġreserv
##ervatory
##rapes
Ġcorpse
ĠEdwards
ĠEnvironment
conf
Ġdefendant
related
Ġpersuade
Ġannoying
Ġsteadily
Ġacquaintance
Ġproposals
CR
Ur
##itus
Ġcrab
Ġsteak
ĠCode
ĠRural
Ġcluster
##oyle
Ġpartially
Ġgrades
##landers
Mommy
ĠArabia
ĠContinues
country
Pay
gro
##lights
Ġhaste
Ġheating
Ġstare
##ithuan
ĠBUT
##amped
Marie
ĠRichmond
ĠDaisy
Ġethan
ĠDuncan
Ġassessment
Ġresignation
##cht
Ġnotably
ĠRoosevelt
ĠVe
Ġposts
ĠNobody
Ġsubmitted
##onomous
Dep
Ġhatch
ĠSÃ£o
ĠOoh
##ivier
Ġdealer
ĠApollo
Ġpressing
ĠPaulo
Ġattempting
ĠMalcolm
Ġgrip
ĠHurricane
98
Tur
since
Ġlions
ĠSuff
Ġresent
Ġsworn
Ġdefended
##ARY
Ġcathedral
ter
ÂĿ
##was
Ġtips
##enance
##arre
ĠBoss
ĠWor
##ollar
Ġfreezing
Ġ1901
Ġhouseholds
Ġsodium
Ġcertificate
Rod
Ġtun
Ġhier
##icating
##riving
ĠPath
##eredith
Ġadmiration
Ġapost
Ġranch
Ġlimbs
Ġexplaining
Ġawareness
Fil
Nat
Sun
##TC
##lS
##alian
Ġspac
##ructor
Ġnamely
Ġfrown
Ġ110
Ġsocieties
Ġconsumer
ĠDarwin
Ġhastily
design
Ly
Ġcavalry
##arting
Ġunpleasant
Ġcaf
Ġvaried
ĠMadison
##casting
Ġmortgage
Ġadaptation
Ġdoctrine
ĠAzerbaijan
Ġammunition
##eals
ĠSM
Ġoverhead
Ġmodest
Ġmessed
Ġ1903
ĠBelarus
ĠSingles
Hol
##iated
##gence
Ġhack
Ġpork
ĠMist
##ovan
Ġcarrier
ĠBristol
ĠSyrian
Ġprevented
Ġdumped
##gments
##arged
Ġnomi
Ġhealing
ĠHaz
Ġcheering
##aley
always
Ġauto
Ġmoonlight
ĠIndependent
Ġgazed
ĠIndeed
Answer
Ġcouples
Ġchaos
##Ã©nÃ©es
##effic
##bons
Ġwolves
##isations
Ġbachelor
ĠBaptist
##ilib
Ġorb
Ġintimate
ĠKoh
Ġovernight
Ġreserved
Ġempt
##laus
Ġcontribute
Ġdeposit
Ġenthusiasm
##anthrop
Ġnaima
##aceae
##ampton
ĠDin
Ġpeek
Ġmetropolitan
##ipedia
Ġswiftly
ĠColombia
Ġcomrades
Ġshaft
Rh
ĠSey
ĠTogether
ĠHook
Ġplague
##actor
##occhio
ĠThink
Ġbasin
Ġfighters
Ġcredited
Left
ĠMagic
##Ã´ne
Ġlaundry
##ÏĦ
Ġheck
ĠBorough
##ickly
young
ĠRocky
ĠLuis
Ġachievement
ĠRebecca
Ext
##rator
##will
Ġaltered
##abouts
##ondo
Ġgrasp
Ġreferences
Ġresponsibilities
Ġducks
name
pos
top
Ġpent
Ġtraces
Ġgrid
Ġrecoll
Ġmonk
ĠZone
Ġreceives
Ġenterprise
Ġmechanics
Ġtorped
Ġparliamentary
ĠNapoleon
86
Papa
##hales
ĠSign
Ġconsole
Ġclaws
Ġenqu
ĠVo
Ġbreeding
Ġtops
##ynth
Ġracial
ĠDerby
SPEA
cond
occ
Ġthieves
##alysis
ĠCAR
ĠLET
Ġbrack
Ġdiscount
ĠBeijing
ĠAmbassador
Ġpicnic
62
Dam
Ġabrupt
Ġsaus
##ishi
Ġrested
ĠPradesh
Ġwandered
Ġconstitutional
##Station
ĠTreaty
Ġion
Ġascend
Ġshipping
Ġsafer
ĠChall
##ressive
Ġindul
##ggs
ĠÂĸ
Ġdisappointment
Edward
Ġelephants
Ġcannon
Nine
Squ
ball
##asting
ĠOP
##ogical
Ġmonastery
Ġinterface
Ġcustoms
Ġprofits
Ġvirtually
ĠPhillips
Brian
fin
##erals
ĠShip
ĠSweet
##istle
Ġdeeds
##agi
ĠAlger
Ġdepict
Ġidi
Ġangles
Ġcandles
ĠLightfoot
Ġmurmured
Germ
##SR
##etition
Ġregul
Ġsolic
##Ã±a
?âĢĻ
##hum
Ġgut
Ġstalk
Ġramp
ĠShall
Ash
2007
Ġcompassion
Ġpersec
ĠUnc
Ġinterc
Ġinteraction
ĠMickey
Madam
Mat
##oviÄĩ
Ġampl
##eeves
Ġopponents
Ġviewers
Ġinfluences
Plot
Ġreleases
Ġlegislature
##UB
Ġwiped
ĠMak
Ġants
ĠFurther
Ġoverd
Ġdiabetes
Ġdefeating
ĠMontgomery
Ġpredecess
Ġcontrolling
Ġoccasional
Ġscholarship
Cy
Roman
##OC
Ġwretched
Ġmock
Ġpuff
##imi
ĠEVERY
##ishna
Ġ1800
Ġcellar
Ġslender
Ġharass
Ġcalculated
Ġpassionate
ĠCabinet
ĠScientists
Ġrebellion
##OX
ĠPast
ĠRest
Ġexile
Ġlively
ĠRomanian
Ġparticipation
Ġadvantages
Ġplatforms
Atlant
"-
det
##asse
Ġhedge
##adder
ĠKle
Ġriot
ĠEngineering
ĠFinnish
once
set
##rice
##etics
##ghai
ĠBoeing
ĠObs
Ġorganism
ĠSmall
art
ĠReview
Ġdialogue
Ġsanct
Ġunlikely
Ġvocals
ĠOrganization
Van
less
Ġiv
##folk
Ġnavy
ĠVoice
Ġstartled
Ġstorms
##boards
Ġcloak
might
##nan
##hero
##nde
ĠTab
ĠBeck
ĠUnlike
Ġfinals
Ġsubc
2008
Ġcrucial
Ġchatter
ĠNatural
Ġsurveillance
Ġhorizontal
mod
Ġaster
Ġcunning
Ġdip
ĠToy
ĠNort
Ġconservation
Ġvolcano
Ġkeyboard
Ġhunted
Ġdemonstration
Ġgrabbed
Ġprivilege
Die
##bot
##90
Ġtowers
##imeter
ĠTAL
##illian
ĠDrive
ĠEM
Ġprejud
Ġpresidency
2013
Ġvoters
85
COME
Darling
Ġorient
Ġfairies
Ġpel
Ġyer
Ġabbre
ĠEug
ĠOcc
Ġblah
Stupid
Ġignored
Ġcorresponding
Ġgym
Ġemphasis
Ġcondemned
Sleep
##NG
Ġaha
##eros
Ġferry
ĠTu
ĠNegro
##pling
Ġapology
didn
Ġrebels
Ġbulk
Subt
Main
##liness
Ġfountain
Ġgau
ĠJae
whose
ĠAmanda
Ġhistorians
Ġcousins
LAUGHS
ĠSpeaker
Bell
help
type
Ġdances
Ġpistol
ĠToo
ĠBrew
Ġvolleyball
Andy
##weed
##angel
Ġhotels
ĠPerform
Ġfloat
Ġaxe
##cess
##itaine
##ench
ĠSit
ĠAlliance
##ISE
Ġ140
##ylum
Ġpregnancy
68
person
Ġguts
ĠSierra
ĠBesides
##olation
Ġplacing
Ġtraitor
Ġinvaded
Ġsingers
ĠAmazon
Ġconnecting
ĠDaily
ĠMeadows
wind
Ġtv
##isch
Ġcad
##opper
##emor
ĠLocal
Ġvest
Ġvivid
Ġhandy
Ġdeserved
Ġministry
##ussion
Ġoriginated
Brown
Ġambassador
ĠCommer
Ġautomobile
##orporated
ĠGerald
ĠIndependence
Lieutenant
tem
things
##itations
Ġhath
ĠMuch
Ġupright
Ġexter
Ġspear
Ġ174
Ġvert
Ġconfessed
Ġcope
Ġlobby
ĠTournament
ĠBanks
ĠWA
##angar
ĠChad
Ġmissions
Ġfixing
Ġdiaper
ĠGlobal
Ġrebuilt
Conf
##vestig
Ġreinforce
Family
##wyn
##oton
ĠPav
ĠWere
Ġwholly
Ġexpectations
ĠGuild
Ġsettlers
Ġrenov
Ġwithdrew
eyes
##ovakia
ed
Ġpenn
##asgow
##owl
Ġongoing
ĠMonsieur
##oughs
Ġoffense
Ġscrat
Ġ700
##ENS
Ġfails
Ġantib
ĠSoccer
Ġloudly
Course
Ġpence
Ġdod
Ġallies
ĠJi
ĠOLD
Ġagg
##hedron
ĠIns
Ġerrors
Ġbrook
Ġcurrency
Ġsuccession
Ġ1860
Ġqualification
Ġelaborate
Fat
Fair
Ye
##ooh
ĠHood
##istocr
##igma
Ġplung
Ġsperm
ĠIsab
Ġparticipants
Ġpilots
ĠThanksgiving
until
##rade
##oween
Ġhaw
ĠLing
Ġsergeant
Ġcorrel
Ġtracking
Ġpenis
Ġrainbow
Ġendeav
66
##iott
##olan
##elet
ĠGang
Ġheadache
Ġtouches
Ġspecialist
Wasn
Ġ1880
Ġqualify
Ġmagnitude
ĠDenver
Ġunbelievable
Ġatomic
##ouched
Ġmarsh
Ġblamed
##avian
Ġinfantry
Ġ164
Ġtickle
ĠSalv
ĠMaggie
##writing
Ġliquor
Team
ĠAlpha
twenty
Ġlouder
##Ð¸
ĠAction
ĠAires
ĠMull
ĠWord
##ogo
Ġamazed
ĠAlban
Ġtechnologies
ĠPortland
##strong
Ġtheorem
Gun
London
##ders
Ġay
Ġtha
Ġmend
ĠJupiter
Ġchorus
Ġsuite
Ġincomp
Ġfridge
Ġequipped
ĠFlight
Ġpublish
Arch
Ġsickness
Ġcivilians
WHO
Ġchallenged
Ġscreenwriter
ĠBasse
Ġreleg
central
ĠBurns
minded
ĠVenezuela
eat
##fol
Ġmarty
Ġfut
Ġls
ĠPrest
##oland
ĠFull
Ġforgiveness
ĠErnest
-(
##gam
##var
##wig
Ġsway
Ġmour
ĠYa
Ġarbit
Ġimperial
Ġraped
Ġaccidents
ĠAlf
Ġsubmit
Ġintercept
Ġthanked
Ġlegally
ĠReich
Ġcomposers
Kind
id
##rus
##cery
##ãģ
##inement
Ġbob
Ġbureau
ĠPack
Ġanyhow
ĠVlad
##ANCE
Ġnatives
Ġcirculation
ĠSymphony
Ġdoubts
2006
2009
Ġfools
Ġloser
Ġschemes
bea
##fles
Ġmorn
Ġdum
Ġdiverse
Ġpose
Ġpseud
Ġlent
##eto
##rock
ĠTroy
ĠGust
ĠFoster
##ooks
##cio
Ġsitcom
##iamond
Ġcamping
THERE
Ġrespects
Ġapplies
Ġinvestigating
Ġjewels
ĠUniversal
Ġpresumably
Ġsubmarine
Jerry
Ġserm
Ġbunk
##usp
ĠSak
ĠDR
ĠNBA
Ġdisabled
ĠShiv
ĠGrandpa
ĠPlayStation
ĠPedro
ĠMichelle
##NER
##sch
Ġthreshold
##alid
ĠDarling
##thon
Ġtram
Ġscope
Ġelbow
inf
Ġinterrog
Ġadmired
##Ã³w
Ġbroadcasting
##ilibrium
63
78
Kevin
hoo
##onso
##aration
##arians
Ġstrand
ĠFab
ĠEva
##earning
Ġuncon
Ġslim
Ġimpulse
Ġfraction
Ġrestless
##Ã¼l
Ġharbor
##penter
ĠLOVE
Ġmotherfucker
Said
fif
##UC
##Î¹
Ġrender
Ġwhirl
##ources
##istani
##abs
##ools
##xton
Ġ101
Ġthankful
Leon
ĠEssex
Aud
Game
Ġgent
##roe
ĠPoor
Ġrides
##ucking
Ġaccus
Ġ130
Ġcease
ĠMethod
PH
Ġwishing
ĠTAKE
ĠCer
Ġplaint
##anya
Ġintervention
ĠClaud
Blood
Ġdimensions
Ġtalented
ĠMotor
Ġfulfill
Mo
_)
pull
##car
Ġbung
ĠHalf
ĠRef
##ocy
##cium
##arlet
##OMETH
Ġconvinc
Normandie
Ġcens
##asury
Ġlined
ĠTas
##stick
##irc
##illon
ĠPit
##azi
ins
Ġfilter
##chet
2017
Ġcupboard
ĠSatan
Ġranking
Ġconnects
Special
AR
##iago
##owered
ĠMoney
Ġroar
ĠShiva
Ġrespectable
##ships
ĠBuenos
Ġpursued
ĠFreedom
ĠMarianne
friend
Ġlingu
ĠMUSIC
ĠDist
Ġspelling
##iaz
##angs
Ġleak
Ġveil
almost
##rieve
Ġsuitcase
Ġharmony
##impse
DOOR
Girls
ĠBuddhist
Ġimprisoned
Ġelegant
Ġcm
##imen
ĠPick
##ellar
Ġsharks
##ucks
Ġglimpse
Ġpassport
Ġpromot
Ġfreeze
##oubted
Ġmadness
Ġhostile
##guard
ĠLucas
Ġmolecule
ĠGregory
Ġnarrative
ĠElectric
Ġignorant
Ġridge
##ighted
Ġaccustomed
##omme
Ġfortnight
##yrus
----"
Ġjurisdiction
72
Feel
##rr
##rots
##wic
##Ļ¬
Ġwept
Ġaliens
Ġwhatsoever
Ġgrammar
ĠQU
communes
ĠModel
anything
Ta
pat
Ġmol
##outheastern
Ġanthrop
Ġgover
##ountered
Ġscent
ĠUnit
Ġincon
ĠAround
Ġcorporation
small
Ġpreparations
Ġpromptly
##fs
ĠFE
ĠNon
##igion
ĠAborig
Ġfertil
Gotta
Ġlantern
##ooped
ĠProm
##agles
##ounces
Ġreadily
Ġ165
ĠLeave
##spring
Ġmeasurement
Ġaltar
##enesis
77
##core
##alin
##ilian
Ġaristocr
##ibal
Ġspecially
Ġcombine
America
ĠFerr
Ġrescued
Whenever
Ġobservations
nice
##rimin
Ġdimin
Ġwhales
ĠMut
ĠRaw
ĠKel
##actic
Ġspecialized
Ġradar
Ġdraws
Ġ().
##Ã¤r
ĠSPEA
Ġnurses
Ġwrestler
Ġastronaut
##rimination
Park
came
Ġpudding
Ġreorgan
ĠAF
ĠHaven
ĠPearl
Ġsuited
ĠEston
Ġresid
ĠFranz
##Ã©l
ĠSteel
Ġambition
ĠOperation
##CAA
Walter
ĠPyrÃ©nÃ©es
many
##DR
##wind
##erver
Ġtwelf
Ġrecalled
ĠBlood
Ġwatches
2012
ĠCornwall
##ulsion
Ġintentions
Ġtemporarily
style
BOTH
Live
Ġgrill
Ġginger
ĠTang
ĠHob
Ġprovisions
Ġrobots
Ġprayed
Ġlegitimate
ĠCurtis
Bless
Made
##children
ĠDonna
ĠDerek
Ġsciences
2014
Ġreducing
Ġdescendants
Definitely
##iya
##fold
Ġcherry
Ġmisc
##imson
ĠDom
##rys
##issors
##ups
Ġ1896
Ġcrawl
ĠHughes
Hands
Mah
dem
fire
Ġfist
##usters
##acular
Ġforcing
ĠMORE
ĠBened
Ġabe
Ġidle
Ġwarfare
##riters
ĠMommy
ĠWinds
Ġpumpkin
Ġvoluntary
Ġchirping
CHUCKLES
Ġcorridor
83
ON
election
power
##rising
ĠPlymouth
ĠFM
Ġdistances
##aji
close
brother
Ġpremises
ĠTwenty
Ġowl
Ġlame
##anto
ĠWR
##quin
Ġenl
##athi
Ġfranc
Ġquestioning
ĠChester
##vellous
Ġswallowed
BR
talk
##ussels
Ġshriek
Ġretiring
##aja
Ġquicker
Ġemployer
Ġconception
Ġ"".
Ġfossils
Ġyog
ĠGosp
Ġsoda
Ġchronic
##ousin
Ġflank
Anna
Ġpublications
expl
Ġslightest
Ġhabitat
Ġpouring
Ġvoiced
ĠPalestine
ĠRugby
##TE
##rez
ĠHelp
Ġoutc
Ġarrows
Ġmeteor
Ġemig
Ġexpressions
ĠREALLY
##ynthia
)\
61
73
##rina
##holes
ĠBasketball
Ġarena
##arten
Ġrecipe
##ohan
Ġsymmet
ĠAndre
Ġmissile
ĠChristine
Ġbothering
ĠArchbishop
##intendent
ĠFleet
Ġamusement
71
wing
Ġov
##icus
ĠMul
ĠBark
ĠLithuan
##igure
Andrew
Ġclar
##formed
Ġsuburbs
Ġexplicit
Ġillusion
Ġcracked
Ġwidth
Ġconventional
##uish
##care
Ġauction
Ġling
Ġobed
Ġboiling
Ġswore
Ġhardest
##iked
Ġconfusing
Ahh
Ġacceptable
187
ĠRailroad
Ġtimber
74
dire
nÃ©e
ten
Ġecc
ĠFriends
ĠOpp
##udder
ĠBranch
Ġadds
Short
Ġteaches
Ġdevotion
188
Ġfunded
Ġwitnessed
Ġgraphics
Ġsummary
Ġastonished
hard
sim
Ġbounce
##urp
ĠYale
Ġresumed
Ġelig
##oki
Ġverd
ĠMonica
Ġurged
ĠPrincip
Hall
Ken
##inence
Ġloos
##eled
ĠLiz
Ġbacking
Yesterday
##everly
##elect
##uddle
except
Ġwelc
ĠBuffalo
Atlantiques
Bu
ĠDE
Ġsue
##inkled
Ġcompromise
Ġrapper
ĠMarx
Ġencountered
##castle
Ġrestricted
ĠGabriel
Ġportrayed
Ġclergy
##REAMING
?,
Catch
##vised
##DA
Ġtones
Ġnoisy
ĠKir
ĠCha
Ġappar
Ġsupplement
Ġinfrastructure
##afa
probably
ĠJudy
##lynn
Ġgalaxies
ĠIsaac
Wind
##uana
##mat
##hell
Ġsor
##imated
##verted
ĠSpeed
Ġalgebra
Ġsheer
##inted
ĠScots
ĠHarbor
ĠMoroc
Ġvacuum
##Ã±or
perhaps
Ġjunction
Dor
Full
sil
ya
Ġbald
ĠCai
ĠRet
ĠRivers
Ġrally
Ġorche
##abi
Ġoverth
##uckle
ĠMaya
##etera
ĠAllied
Maria
Ġbombing
ĠChancellor
land
##fen
##ithms
##chin
ĠNova
Ġfees
##forest
Ġ168
Ġ1861
Ġenforcement
##lE
##jar
Ġsiege
ĠGiant
ĠFa
ĠJeremy
ĠKash
Ġovers
Ġfilthy
Ġmagician
Ġcrosses
Ġepid
ĠMurphy
##ravo
ĠCroatia
ĠBrigade
ĠLegislative
.-
Ġmes
##eno
ĠDisc
Ġswinging
##echan
ĠElin
Ġunemployment
84
Leg
ĠDow
ĠSharon
Ġmembrane
Ġstepping
ĠDeep
Ġsticky
Ġsenator
Ġspoiled
Ġexhaust
Ġflavor
##cuador
fore
##acity
ĠLA
Ġsingular
Ġunderstands
Ġequilibrium
Ġsuperst
Ġspectrum
##asmus
EX
Till
home
##imer
Ġbackpack
Ġflock
Ġclearing
Ġcoloured
ĠMadam
Ġpacket
Ġaccessible
ĠVictorian
Ġexclusively
Ġdecorated
Ġinspector
Ġmarginal
ĠLtd
ĠTibet
Lu
Ġfitting
Ġheated
##semble
##ults
##azar
Ġinstances
Ġwarmth
##Ã¨res
Ġtraditionally
ĠMiranda
Ġcertified
Need
Ġtheft
Ġcel
Ġdual
ĠAPP
##ifier
Ġsomeplace
Ġlocally
Ġpublicity
ĠSalzburg
Ġtrailer
##rics
Ġcripp
ĠSebastian
ĠCand
Ġdose
ĠChin
ĠThunder
##atha
##avel
ĠShould
Ġassert
Ġwarriors
##byter
Ġtriple
ĠGlobe
Ġsubtract
Ġsnapped
poss
##iries
##aca
ĠSN
Ġshifted
ĠDee
ĠLamb
Ġorn
##arms
inch
Ġequality
ĠHercules
Ġsells
##boro
Ġ1899
Ġlifestyle
Ġdissolved
Ġpuppet
Ġribbon
Ġdisagree
YES
sized
##ooming
Ġpope
Ġlaser
ĠTru
ĠCour
##igue
##ittees
ĠMarion
Ġsexually
Ġembrace
ĠTwitter
Ġmolecular
Ġillustrated
Ġpersuaded
"--
##gia
##hart
##mir
ĠMol
ĠWa
ĠRhod
Ġscorn
##avier
Ġerrand
Ġslice
Ġembr
Ġcredits
Lovely
Ġcoalition
ĠAndrews
ĠBuddha
Ġpianist
Tele
Ġaqu
Ġbacon
##ede
Ġalley
ĠRidge
##tha
Ġthereby
Ġusage
Ġnob
##iery
##ricia
Ġhumid
ĠWestminster
ĠExcell
2001
Ġimmune
ĠStein
Ġrequirement
Ġprosecutor
Ġdiplomatic
Ġunnecessary
Queen
##ciously
##entive
ĠSr
ĠSW
ĠCool
##urred
ĠBess
ĠPool
##iev
Ġsphere
##ianc
ĠVII
Ġtriang
Ġarmor
##isticated
Ġcalmly
##iscovery
ĠFourth
ĠTyler
Contin
Ġfragments
against
Ger
LET
winning
Ġwander
ĠKap
Ġafterward
ĠNoah
Ġdolly
ĠSeason
ĠHugo
Ġignorance
Ġgambling
Jason
##nity
ĠHAPP
Ġcomin
Ġguessing
##umbai
Ġdiscussions
Ġreveals
ĠFreddie
Ġrecommendation
Announcer
87
Grab
##namese
##top
##IZ
Ġtense
Ġmars
##orrect
ĠMAKE
ĠLoren
Ġshepherd
ĠKin
ĠYears
##ginning
##Ã©d
Ġdiscl
Ġcomplained
Ġsquares
ĠMission
Ġverb
ĠCoach
##rified
##URN
Ġinquiry
Ġvampire
Ġdessert
##zens
##hot
Ġapt
Ġcass
ĠVel
ĠClara
Ġripped
Ġobjection
Ġmemor
ĠPerkins
ĠCricket
ĠPlayer
Ġintegral
Ġkilometres
Ġstabbed
Ġtackle
Ġmoderate
Ġrigid
Ġinevitable
Greg
ĠFac
Ġrounded
##umbent
char
Ġcasting
ĠBerg
ĠAntar
Ġ1865
##visor
Ġintegrated
Usually
ĠBundes
69
##jack
##Ïģ
Ġcited
##enh
##icon
ĠMend
##umbs
Ġquart
Ġgracious
##izers
Ġendure
Ġgraduation
Princ
Ġlawsuit
Ġtorment
ĠWheel
ĠBrandon
Ġchallenging
Ġdynamic
##graduate
##PA
##keley
ĠDim
ĠNathan
Ġsund
Ġouts
Ġquoted
Ġhyster
Arthur
Ġcollective
Ġhomosexual
Ġpuzzled
Ġdecrease
##OMETHING
Ġà
##kan
##athon
ĠSanders
ĠSussex
Ġconcentrated
##uggage
##nolds
ĠNASA
93
Nic
##AUSE
##furt
##itol
##asis
Ġhaul
Ġalumin
ĠFIR
ĠFisher
ĠKrist
Ġresolve
##ologically
Ġstuffed
ĠGlasgow
Ġtailor
Ġalternate
sweet
Ġbinary
Ġcush
Ġding
ĠHunt
ĠRot
ĠNy
##ancers
Ġendless
Ġsilently
Ġradius
Ġpotentially
Ġenvy
Ġfunctional
Ġinternationally
GASPS
Ġfried
Ġeagle
ĠCott
##rape
Ġabortion
Ġdonated
ĠUC
Thou
Ġamend
Ġpolo
Ġcommunist
Ġrolls
ĠÂ§
##OSS
Ġpunct
Ġroman
ĠJessica
better
Ġcoordinates
Vol
serv
##kov
Ġweed
ĠVIII
##ullivan
##umbers
ĠEmil
ĠSerbia
ĠBailey
ĠDefence
Stephen
Av
ups
Ġgrapes
ĠChes
ĠMills
ĠHoff
##olition
ĠFL
Ġspelled
Ġnoises
##ptions
Ġelectoral
Ġsolving
Ġhunters
##verend
Ġinspection
ĠRenaissance
700
GRO
Ġfaded
Ġbean
##ooping
##uras
ĠNixon
ĠIsabel
##NDER
ĠMEAN
Ġprogressive
everything
##stanbul
ĠStockholm
ĠJennifer
NOW
Prep
Rev
##hey
Ġwhites
ĠCelt
ĠBly
Ġherd
Third
##ometown
Ġsomethin
Ġrefuses
ĠMinor
ĠAbu
Ġtouchdown
##rugu
Ġassembled
Bravo
Gary
Var
suff
##HS
##pit
##world
##aru
ĠCrist
ĠMiguel
Ġcontinually
Ġpracticed
Ġrisen
Meet
Ġsustained
Ġtossed
ĠTunis
Ġwarehouse
Promise
Â§
##irie
##BO
ĠSalt
ĠMaced
ĠDani
Ġcanvas
ĠEun
Ġtray
Ġunions
ĠBlair
Ġrepeatedly
Ġskeleton
Ġchristmas
Ġdischarge
!âĢĻ
96
Burn
Jun
Tor
ĠSang
Ġknot
##elong
ĠEmp
Throw
Ġcurric
##cester
##ASH
Ġessence
Ġpetrol
Ġmosque
ĠMaurice
Power
yard
##ALE
##aders
ĠCond
ĠDavy
##akened
Ġunity
Ġ1850
##upon
Ġregulation
Ġrelating
Ġglac
Ġcreator
Ġepic
##mediate
Ġacquire
Ġimprovements
Ġexhibit
Secret
Ġdesperately
Ġgymn
##ILD
Ġdash
ĠCox
ĠReed
ĠRico
Ġrighteous
##ounted
Ġglobe
ĠSpart
organ
looks
Ġpacking
ĠRegister
Shouldn
Ġtheoretical
ĠWikipedia
Mummy
aff
##gre
Ġerect
##olving
ĠEmb
ĠEcuador
ĠKitty
ĠHeights
Ġremoval
Ġauthent
186
Ġseparately
##worthy
##senal
ĠChelsea
##hausen
Dire
Ġdun
ĠSighs
Ġsewing
ĠLex
ĠFly
ĠEsp
ĠStef
ĠChip
Ġbrow
##ampa
Beat
Been
Ġsuggestions
Ġlearns
Ġlifting
ĠTrevor
cHFFFF
Mus
##inos
##amble
ĠMade
Ġcans
ĠLogan
ĠRE
##abby
ĠEqu
ĠUlt
##ribution
Ġ900
Ġconstra
Ġnovelist
Ġcitizenship
Ġnegotiations
Lock
Soph
mail
##gne
##idan
ĠSony
##istence
ĠVers
##ictory
Ġintersection
ĠPrison
ĠTracy
ĠÃĸ
Ġgaining
Ġheavier
Understand
Ġacknowledge
##imensional
Ġchromos
Pan
pm
##ME
Ġpots
ĠMeanwhile
ĠJes
Ġflown
Ġhumour
Ġinterval
ĠLeft
Ġrulers
Ġgladly
ĠDesert
Ġcontainer
Ġarchitectural
Ġscrub
ĠWarsaw
ĠMercury
Ġoverwhelming
section
ĠTag
ĠBooth
ĠRosa
ĠNCAA
ĠJed
Ġarise
Ġcommemor
ĠFraser
Ġsoundtrack
Ġlegacy
ĠBlues
Ġmessing
Ġboxing
##LEASE
Ġdigit
Ġfocusing
Ġirreg
ĠCONT
Ġgroom
ĠBath
Ġabdu
Ġunch
Ġdiffer
Ġdefect
Ġorigins
##print
Within
ĠMonte
Ġcontacts
Ġsufficiently
Honestly
Ġingredients
Amen
Bobby
##uer
Ġster
ĠAgric
ĠHamburg
ĠWals
##aceous
Ġneedn
Ġcompelled
##eaks
Ġswam
Ġ105
Ġhanged
2002
Ġdetermination
##forward
Ġparticipating
Ġsponsored
79
Making
Po
Ġnig
ĠAer
##olics
Ġrated
Ġsweets
Ġjumps
Ġconsiderably
Ġwilderness
Ġrelaxed
Ġnicknamed
Ġscenario
AII
Hor
Lisa
]:
##ldon
ĠMis
Ġgosp
Ġarrog
##oco
Ġmarching
ĠArctic
##oko
Ġedited
Ġprotocol
Ġpicks
##uku
##ienne
Ġagrees
Ġkisses
150
Ġexecute
Smith
Ġshrine
Ġtortured
ĠUsually
Alexander
Student
Ġunderwear
Ġsimultaneously
Ron
Tre
ever
lf
Ġdy
ĠCinc
##awk
Ġpains
ĠWells
Ġaccepting
##hetti
Ġaudition
ĠTurks
Ġbitterly
Ġreconc
leave
ĠSloven
##oubtedly
Mir
bec
especially
large
##ucc
Ġbolt
ĠSaw
##seen
##antha
ĠPom
##osystem
##idered
##erella
Ġannually
Ġvend
Ġphotography
##coat
Sergeant
Ġdemonstrate
ĠStevens
po
##lings
ĠDylan
Ġamusing
ĠShadow
Ġ171
Marg
Ġmelody
Ġalpha
Doc
hot
##tar
##card
Ġditch
Ġerected
ĠSul
ĠDays
Ġoffended
Ġglue
Ġcomputing
Ġcommands
ĠWHEN
Ġexercises
Ġcomplaining
Ġdearest
Ġrefrigerator
ĠCarr
##urring
ĠWitch
Ġupload
ĠKurd
ĠHeath
Ġparted
ĠPrussia
Ġpromising
Ġpromoting
##psy
Ġdiving
Ġmidfielder
ĠSerbian
Ġpredators
Ġinterviewed
Elizabeth
Ġpoisoned
Ġpermanently
ĠWorks
Ġtelescope
94
Human
##houses
##RS
##onica
##rio
ĠLag
ĠJar
Ġrains
##uclear
Ġlandmark
Ġlesser
ĠPriv
##forced
Ġspeeches
Ġscreamed
ĠSolomon
ĠCuban
Ġelevation
ĠWatson
##Ã¯
##belt
##ÏĤ
##itime
ĠTech
##ceans
##osophy
##ortex
ĠUg
Ġreserves
##hai
Ġconfig
Ġshorts
Ġexams
Ġfocuses
Ġdelegates
Ġsummoned
ĠShanghai
##mighty
##oic
ĠSet
##struct
Ġmeadow
ĠMann
ĠMasters
ĠBog
##iston
##apolis
Ġhash
##ermaid
Ġunm
##uchi
Ġthrows
ĠShel
##rica
##ortunately
Ġvegetable
Ġpupil
Ġavoided
Ġgeometry
88
wife
##mid
##lies
Ġapplying
ĠClint
##ESCO
Ġduo
Ġprofessionals
Ġeliminate
Ġbewild
Goddamn
box
dist
##non
##jun
##+--------
Ġsul
Ġsine
ĠGardens
##ablo
##ishops
Ġfellas
Ġsnack
2005
2016
ĠRepresentative
ĠChapel
formula
ĠElinor
Sex
UH
##eem
##rition
##rative
Ġhometown
ĠHmm
Ġraced
Ġcoaching
Ġtrill
Ġorganisations
Ġbarr
Ġlowered
Around
ĠPalm
Ġimproving
Prot
Ġmanufactured
ĠStandard
ĠSomers
Ya
length
##bin
Ġmold
ĠInformation
##ERT
##veloped
Ġsentiment
ĠAllan
Ġfortress
Ġ1898
##former
Ġconversion
Ġvariations
ĠAlec
Ġinflation
Susan
Ġtattoo
Gee
Na
Ram
TOM
##rd
##bound
##ku
##//
Ġgazing
##seus
ĠCALL
ĠKenny
Ġoverhe
Ġmineral
##angered
ĠConrad
ĠBeing
ĠAdela
Ġdarker
##ENTS
##isphere
Bern
Him
##grave
Ġwaved
Ġdiversity
Ġreef
Ġrendered
ĠLenn
Ġherb
##ickets
##iffs
Ġrealistic
Ġphoned
Ġexcav
Ġveins
ĠHawk
Ġvirtual
Ġlegendary
Ġnitrogen
76
Fer
faced
woo
##FT
Ġgir
ĠFell
Ġrav
##ITE
Ġdolls
Ġemployers
2015
Ġassisted
Ġacquainted
Ġexpanding
Steven
Ġgreedy
Ġstirred
Ġencouraging
82
Tem
poor
Ġharp
##owder
##robe
Ġsho
ĠGay
Ġplains
Ġintensity
Ġcaring
Ġcheated
Ġacute
Ġrevolt
##EAL
##ACT
Ġdimension
ĠRhine
Funny
Lots
bed
hea
##hma
##itic
Ġcalf
##anqu
##idad
ĠBot
ĠRams
ĠNin
ĠKos
Ġdisob
##ullah
##hoes
##ahl
Ġ173
Ġtreasures
Ġdebts
##offee
Ġacquis
Ġrubbed
applause
Ġframework
##indsay
Ġveteran
##unciation
CAR
##ÄŁ
##IFF
##ilo
ĠPere
Ġspont
##ubby
Ġpayments
ĠWeather
ĠXV
Ġcleaner
Ġcelebrity
blood
Ġthriller
Ġcompensation
Taking
bring
ĠTropical
Ġstrap
##urai
ĠHAS
ĠDod
ĠKra
ĠNoel
Ġcalc
Ġpredicted
##quisite
ĠCroatian
Camp
Ġfel
Ġluggage
ĠCord
ĠMarty
Ġcountenance
Ġelite
Ġmetals
Ġdefender
Ġborne
Ġmainstream
Ġprizes
Ġ159
##ancholy
##innati
##backs
actually
Ġsophisticated
Hung
Wanna
_).
yup
##lied
ĠCob
ĠMS
Ġray
ĠNY
Ġbrac
##anca
Ġcourty
Ġgrape
Ġprogrammes
Ġhybrid
##hibition
ĠLiberty
ĠBroadcasting
Ġcasualties
Fel
Lucky
Ryan
##lL
##Å¾
##edia
ĠSent
ĠMow
##iler
Ġsauc
ĠIndies
Ġproposition
Ġcircular
##gli
Ġowing
Ġintegrity
ĠKatie
ĠBulgaria
sy
##KER
Ġbricks
Ġbreach
##iking
Ġinterven
##Ã¼h
Ġ1895
Hum
Sara
##net
##sar
Ġkettle
ĠRacing
ĠNone
Ġmanagers
##ifference
Ġcardiac
Ġutility
Ġcompletion
##engeance
Ġteenage
Ġstripes
Ġlesbian
careful
##vik
##),
Ġtummy
Ġell
ĠMaid
ĠVideo
##guez
ĠManager
ĠOlivia
Ġconducting
##hoebe
DON
Ġweep
ĠBET
Ġshirts
ĠDob
##inderella
Ġpeer
Ġtramp
ĠVilla
Ġrepay
ĠPrice
##ushi
Ġinvested
##Ã¼n
Ġhonorary
Ġnineteenth
Ġrotation
Boys
Ġparadise
Ġunemployed
ĠDawson
89
Disc
bar
Ġmaker
Ġgerm
Ġnina
##idi
ĠTalk
Ġsting
Ġanonymous
ĠPoll
ĠPole
Ġbackward
Ġrealm
ĠAhmed
Ġtightly
ĠPakistani
Ġclinical
!--
Education
UN
offic
Ġmoss
Ġmug
Ġlens
ĠActor
ĠCN
ĠRace
##inked
ĠChang
##ptic
ĠVir
Ġrecruit
##orses
ĠBrussels
Ġpopped
##eresting
Ġoperational
ĠHerbert
Small
Ġrumors
Ġcontempl
European
FOR
Gordon
##cr
ĠTiger
ĠEsc
ĠKi
Ġanytime
Ġsmashed
Chap
Expl
Ġrespective
Ġportfol
##mediately
Ġunsuccessful
Je
pretty
##uity
##LC
##stock
Ġcanoe
Ġspokes
##cheon
Ġprivately
Ġviolet
Ġregistration
polit
rest
##isan
##ithe
Ġgraz
ĠDj
ĠNine
Ġpoets
Ġbooked
Ġmeth
##ANE
ĠMcL
##atinum
ĠIntelligence
##ATHER
GRUNTING
Austral
Ġankle
Rain
##cony
##yu
Ġwig
##onian
Ġbosom
##roo
Ġdont
Ġbutcher
Ġamph
Ġchildish
Ġbrew
Ġbreasts
Ġjoins
##restrial
along
Ġtimid
Ġcalculations
ĠKenneth
Ġteenager
Ġstimulus
Ġmentally
peekaboo
]]
##SD
Ġrehab
ĠPays
Ġcance
ĠFriend
ĠUrugu
Ġtraced
ĠStay
##into
Ġremoving
Ġtraits
Ġadmission
Ġlabels
ĠSchools
Ġadministered
season
ĠEconomic
Dar
##cock
##found
Ġmates
Ġhect
Ġrept
ĠCulture
ĠMeredith
Ġvir
Ġquot
Ġlonged
##manuel
ĠTHING
Ġcongressional
Ġattributed
ĠSuffolk
same
ĠCrit
ĠCIA
ĠCarson
ĠBil
Ġnotation
ĠDoor
##about
Ġproves
Ġrosy
Ġtalkin
ĠMcM
Ġroller
ĠBlacky
Ġdemanding
Ġdiesel
Ġsurvivors
Earth
##ÑĢ
Ġcav
ĠCris
Ġasc
ĠRoth
Ġrh
Ġslower
Ġawoke
Ġ163
Ġ1889
ĠJacques
ĠĠĠĠĠĠĠĠĠĠĠĠĠĠĠĠĠĠĠĠĠĠĠĠĠĠĠĠĠĠĠĠĠĠĠĠĠĠĠĠĠĠĠĠĠĠĠĠĠ
Ġdeceased
Attention
ĠLuxem
soc
##daughter
##puts
Ġtang
Ġps
Ġseiz
ĠStarr
Ġperil
Ġfootsteps
Ġtechnically
2004
Ġ1893
around
Ġtranslate
ĠOthers
Background
Ġlegislative
ĠKenya
Ġrenewed
GRUNTS
Ġteddy
Ġ\
##moon
##vous
Ġsinking
##eded
Ġdangers
##enberg
##advant
##imming
##rift
Ġstain
Ġstump
##urated
ĠDS
Ġaggreg
##ignment
##eyer
Ġexpend
##ELF
ĠDelta
Ġsuspects
Ġmicrosc
Ġattendance
Ġtorch
##osaurus
Ġparameters
Ġnucleus
Japanese
designated
Pierre
father
mil
##PR
##anor
##amen
ĠMik
ĠBuch
ĠPul
ĠWW
Ġplum
Ġscal
Ġinviting
ĠGods
Ġcharter
##eville
Ġpresenter
##oubt
##ambled
##ettes
ĠRecord
Ġgrocery
Ġcrook
Presently
Ġdentist
ĠYugoslavia
ĠBhaer
Jam
coll
##pill
Ġmi
##riented
Ġranges
##astics
Ġleagues
Ġcentim
Ġaddict
ĠBeast
Ġpoorly
Ġloans
Ġcruise
ĠComics
##THER
Ġwheelchair
Ġdisturbing
Ġbrigade
Ġdisplays
##GBT
Dave
Laughing
Sid
read
##that
##ãĥ
Ġwrath
Ġleaped
Ġcontinental
##yeong
Ġvaries
##oneliness
1990
Ġsimpler
Ġinterference
Ġfragr
Knock
ĠGeoffrey
ĠCrawford
Reb
Wood
Âª
##rust
##ndez
ĠTrent
ĠMU
Ġabused
Ġrhe
ĠOct
Ġenabled
Ġdefault
Ġintervals
Ġapron
Ġcalcium
Ġpracticing
Ġobsessed
Ġ1897
Ġtallest
Ġrebel
Ġbalanced
Ġtricky
Ġowed
ĠGrove
##dinand
ĠClarke
move
ĠØ
##opic
ĠPolly
ĠWins
ĠThorn
State
ĠApost
Ġprocession
chief
Ġanthem
Ġfacil
Ġmixing
WHY
ĠFreddy
Gil
Hail
Vill
##eching
Ġshh
ĠTheater
Ġupward
Ġexplode
Ġdemons
ĠLeices
brown
Ġjudged
Ġcelebrating
Ġpredomin
##lamation
Ġgeography
ĠLynn
Ġfestivals
Fant
##front
ĠLiving
Ġvi
ĠVi
Ġnumbered
Strange
Ġdiscrimination
##incorporated
Ġcaution
ĠByz
Ġlogo
Ġjournalists
Ġsprings
ĠMembers
##OUGHT
Ġinheritance
formerly
Gar
find
hy
Ġions
##gas
Ġtourn
##orie
##aden
Ġjohn
ĠLanguage
Ġrash
##asted
Ġoffspring
Ġreceiver
Ġpulls
Ġliking
Ġwarming
ĠPatri
Ġpositively
Ġdemonstrated
Ġbrutal
engine
Ġyogurt
Oper
add
Ġpac
ĠPaddy
##uder
Ġagony
ĠManipur
ĠSchw
Ġrainfall
Ġguardian
ĠStanford
Ġdistinctive
Di
Sad
Together
ls
##Ĥ¬
ĠSold
ĠMIN
##ickers
Ġcompute
##enerally
##aleb
Ġtransf
Ġconfined
Ġ125
Ġcostumes
Ġtourism
Ġgraphic
Ġrented
##achers
##ondissements
Ġsurrendered
Julia
Ġgospel
Ka
MY
##gae
##Ð½
ĠTigers
ĠAFC
##ivic
Ġenlight
Ġflashed
Ġcoaches
##retion
Ġrefere
##heads
Ġcatches
ĠArena
##ADE
Ġhesitated
Ġtubes
Ġcongratulations
Basically
Ġdisguise
Ġtwentieth
lar
sarah
##nu
Ġbod
Ġstag
ĠAna
##gender
Ġsaves
##plant
ĠBritt
Ġstructural
ĠNEVER
ĠAquitaine
Ġorchard
ĠBenedict
.:
##dog
##liest
Ġwi
Ġgob
ĠWake
Ġshiver
ĠOber
ĠYi
##ocene
Ġpatent
Ġcorrected
Ġpleas
Ġverses
##reetings
##ELP
Ġtaller
Ġmeasurements
Ġfulfilled
Ġjewelry
Ġbordered
Hu
##AV
##onation
Ġfiber
ĠSig
ĠTall
ĠMoss
Ġanten
ĠHod
ĠBowser
ĠKw
Ġpepper
Inside
##ommon
Ġsteering
although
##Ã¡s
Ġprinces
ĠDepression
##abbath
Ġadvisor
Ġtransmitter
Ġpandemic
Tis
ĠRange
ĠStella
##olla
ĠArist
Ġhairs
ĠHarper
Ġshoots
Ġhostage
Ġstrangely
Ġancestor
Ġdiplomat
ĠCarey
Ġimprisonment
##enguin
ĠCincinnati
Laura
##mia
##ben
Ġgard
ĠIstanbul
Ġanat
Ġspared
Ġenzy
Ġambit
Ġordering
Ġ167
Ġmerger
Ġsandwic
Ġlicence
Ġinducted
Ġrichest
Ġmanufacturer
Ġtractor
:"
Bast
Desc
Kids
Ġbind
Ġfug
##opal
Ġchore
Ġscout
Ġdecay
ĠIsle
Ġtoured
ĠPresbyter
ĠPlant
Ġscreams
Saturday
ill
Ġfret
Ġdome
Ġonwards
Ġrenown
ĠPenny
##uli
ĠDiane
Ġcane
Ġsucc
##actions
Ġcentres
Ġprobable
Ġdetected
##amboo
Unlike
Plan
ĠBooks
Ġprotested
School
##anie
##etary
##amount
ĠHir
ĠPubl
##ulates
ĠLem
ĠLOOK
ĠStrat
Ġinsight
##prus
ĠEdith
Ġqualifying
scale
Ġboost
ĠBrahm
Ġancestry
##Ã§ois
Ġalgorithms
Ġannoyed
ĠBeatles
Ġimmortal
92
use
Ġtan
Ġcob
Ġcrest
Ġinland
Ġannex
ĠKane
##hoven
Ġthoughtful
Ġskate
ĠButter
Ġthreaten
CHR
ĠFranco
Ġflags
Ġgravely
Ġracist
Ġimplementation
Ġvenue
ĠCruz
81
Russian
SN
Win
next
Ġfoster
##imals
Ġanime
ĠEye
##astasia
ĠChuckles
##ateral
Ġlasts
##cedes
ĠWillie
ĠSwan
ĠBoyd
Ġpowered
Ġthrilled
Ġworkshop
Ġoutdoor
'!
.?
Cat
Rom
Ġlas
Ġeuro
ĠSection
ĠMiles
Ġaspir
##ppen
ĠFant
Ġdiscontin
Ġsleeps
Ġneighboring
ĠSkunk
Ġneighbouring
Ġguaranteed
Previously
ĠWyoming
AS
Sea
view
ĠSEC
##ovo
Ġcompact
Ġrifles
Ġrocky
Ġpostp
Ġlogs
Ġcamel
month
Ġcursed
Ġpeanut
91
Han
##SON
Ġsaints
Ġlace
Ġbeaches
ĠTill
##andin
Ġjustify
##ousing
Ġglove
Ġrestra
Ġdevelopments
Ġbanking
Ġworthless
Ġcourtesy
Ġuttered
Ġphilanthrop
ĠBatman
ĠRhode
Ġupdated
Ġmotivation
Ġlandlord
ĠOriental
ĠFifth
ĠLebanon
Beth
##asma
ĠSoutheast
Ġstool
ĠBM
Ġbypass
ĠEU
##inker
Ġscissors
Inf
ĠArd
Ġsincere
Ġwonders
ĠBeet
Ġloaf
Ġweakened
ĠNaples
Ġcocaine
ĠDIDN
âĶĢ
Ġalex
Ġhmm
Ġpix
##omical
##alus
Ġweighed
##amy
##step
ĠDum
ĠFish
##agar
Ġunincorporated
##ensis
ĠGodd
Ġtestify
ĠHenri
Ġcouncils
Ġtorpedo
Ġverdict
MAR
Rest
selling
Ġpall
Ġheter
ĠAj
##arte
##redit
##quest
Ġflushed
ĠBloom
Ġsuperhero
Ġmassacre
Ġsalvation
2018
Ġhistorically
ĠÃģ
Enter
ĠProvinc
Ġhooked
ĠJessie
##mal
##crow
Ġlag
ĠCock
ĠComb
ĠHumph
ĠDora
Ġmatt
Ġbadge
Ġcharacterized
Ġmouths
ĠArmenian
Jud
LSB
Mount
Rather
Song
Sha
lived
need
table
##mers
##itative
Ġmim
##urable
ĠBast
Ġseals
Ġseize
Ġoutline
Ġvom
Ġbeta
ĠArchie
##LEY
Ġidentification
ĠRepublicans
ĠBrooke
ĠJuliet
Ġbalcony
Glad
ĠChapter
ĠWORK
ĠReynolds
ĠAboriginal
Ren
RSB
##loo
##isb
##owards
ĠFra
ĠKor
Ġtwilight
##awl
##graded
chair
Ġports
Ġharness
Ġanxiously
Ġmaintaining
Ġecosystem
ĠPrague
Ġcomrade
Ġacknowledged
Ġambitious
Makes
yellow
##nings
##cover
##Îµ
Ġaims
Ġdys
Ġasylum
ĠRou
Ġgettin
ĠYo
ĠHein
Ġamused
ĠVERY
##urned
Ġflush
##ottom
Ġauthorized
ĠVietnamese
Barb
ĠAshley
ĠSahib
Ġinferior
##ĪĴ
##oward
ĠMort
Ġcoma
ĠEventually
Ġdelic
Ġvarieties
Ġproductive
Ġnicer
ĠSherman
Ġflexible
Ġslippers
Os
Tar
##eree
##vergne
ĠMumbai
##chy
ĠRush
ĠNAT
##ousy
ĠVent
Ġdisband
ĠElliott
Ġcommented
Trying
contin
Ġforbid
birds
##vonne
##amic
Ġprox
Ġgrams
Ġcompat
Ġflute
Ġmarvellous
Ġacademy
Ġlighthouse
Ġfreight
Ġsuperf
Ġcooling
ĠAngl
Madame
##boys
Commander
Ġimplemented
Quickly
Species
Ġdistracted
ĠBuddhism
Ġvolcanic
Ġsleeve
Ġdusk
ĠHav
##ieve
Ġworsh
##ookie
Ġmane
ĠKem
ĠKids
Ġ172
Ġreasoning
ĠReport
Ġsandy
Ġaffecting
ĠHolmes
##brook
Ġolive
##cliffe
##tra
##las
ĠThings
Ġstability
ĠMick
Ġdozens
Ġjaws
Heh
##perience
##rophe
state
Ġhonors
ĠEdmund
Class
Ġproductions
Ġparked
ĠCircle
Ġspacecraft
Ġirregular
##ãĤ
##edo
##utors
ĠDest
ĠFun
Ġworms
##onson
##enery
Ġsurpl
##eyond
ĠNorfolk
Ġpanels
profit
Ġreactor
Ġinnocence
Ġdiscoveries
Ġtornado
ĠOtto
Ġphysicist
dimensional
went
##MM
Ġgigg
##adier
##rians
ĠTin
Ġhare
ĠHus
ĠPoss
ĠJem
ĠInv
##issy
Ġunderlying
Ġincidents
Ġskies
##ATER
Ġelectro
Ġdescript
Ġtextbook
ĠDawn
ĠGeneva
Ġribs
Ġfragment
ĠCirc
Ġtalents
JUST
##mie
##atured
Ġoval
ĠSOMETHING
ĠHaving
ĠPage
ĠGamb
##ieg
##abol
Ġdisorders
Ġskilled
Ġ102
Ġrocking
Ġilleg
Ġintroducing
Ġsalmon
Ġ1888
##oiselle
Ġestimates
Ġaccordance
ĠManuel
Ġcourtyard
honey
pe
rev
##uil
Ġbou
Ġsoot
ĠLost
ĠRandy
ĠName
Ġtwe
##ocket
ĠAlong
Ġsubstances
##opez
Chuck
Ġimportantly
Ġtenure
##sequently
Ġflooding
ĠArmstrong
Ġmathematician
Greek
Sund
sex
##zheimer
##bn
##erd
Ġbait
Ġmourn
Ġheel
##ameless
Ġstroll
ĠBod
##unct
ĠWu
##olent
Ġshores
ĠLess
ĠKaw
ĠVern
Ġindirect
Ġcrowned
ĠBradford
Ġwelcomed
best
meaning
par
##âĶĢ
Ġbog
##amoto
ĠClyde
Ġchron
##ardi
Ġexcell
Ġintest
Ġunderwater
Ġcheers
Ġinstructor
heart
Ġ155
Ġpresenting
Ġtemp
Ġhairy
ĠSlav
Ġ1864
Ġmelted
Ġquantities
Ġmigration
ĠKazakh
##iblings
250
##adise
##uta
Ġdisadvant
Ġtownship
Ġdragging
Ġobserving
##ijuana
Ġlibraries
##idelines
Ġcrayon
ĠAlberta
ĠSudan
Ġrecycling
Kh
##mag
Ġfres
Ġhoo
Ġnan
ĠAch
ĠMD
##anti
ĠPi
Ġchalk
ĠIng
##ensen
##ATCH
Ġbaron
ĠExchange
##ophone
Ġtouring
Ġ1894
Ġaddressing
Ġreleasing
Ġconsultant
Ġsympathetic
ĠProtection
##||||||||
Ġcrayons
ĠHopkins
Es
Ven
##fu
Ġlick
Ġnil
##uran
ĠLucky
ĠJazz
Ġplac
Ġsmoked
Ġswell
Ġ153
##ieces
ĠCongo
ĠSantiago
ĠHeavy
Ġprofessionally
Ġtasted
Ġassassination
ĠSaxony
ĠAlexandria
ĠEthiopia
Ġphilosophical
Gonna
Wall
##maid
ĠSite
ĠCasey
ĠGret
Ġspat
Ġclause
Ġoffence
##ocate
ĠEuropeans
org
Ġradi
Ġfastened
Ġaddresses
Ġappreciated
ĠEllis
Ġethics
ĠGiants
ĠProductions
Ġtrumpet
ĠAthletic
Cross
Tay
sorry
##elope
ĠLar
##osph
##apy
##arewell
Seeing
Ġdoubles
2003
Ġspreads
ĠWilhelm
Copy
Return
gonna
##zan
Ġsou
##adle
ĠPier
ĠDew
Ġprog
Ġclam
##ansk
Ġboiled
##ristan
Ġcurved
##fortune
Ġhusbands
Ġaccuracy
ĠMachine
ĠOriginal
Ġsovereign
Ġreceipt
Brand
mama
ĠWade
ĠFoot
Ġguided
##yson
##rops
Ġediting
##umping
ĠSoft
order
Ġstretching
Ġelevated
ĠBaden
Ġdiagnosis
ĠCardinal
Fifty
##enzie
Bal
Current
Ty
together
##caster
Ġdictionary
##ammer
ĠSR
ĠTae
ĠBrent
ĠWinn
##olin
ĠRita
Ġprick
ĠShell
##ambig
ĠHarriet
Ġacceptance
Ġneglected
Ġrobber
Ġspells
Ġcigar
ĠĠĠĠĠĠĠĠĠĠĠĠĠĠĠĠĠĠĠĠĠĠĠĠĠĠĠĠĠĠĠĠĠĠĠĠĠĠĠĠĠ
Ġconfidential
Camer
Gi
##lD
##post
##UP
##isive
Ġdaring
##otally
##amus
Ġ161
Ġcopied
##hysical
Ġdeclaration
ĠFinance
Ġsympath
Ġadequate
AL
##DY
##GA
##ingen
Ġtoad
Ġyep
Ġweeping
ĠCinem
##ilis
ĠJur
Ġgenerator
Ġcurves
Ġinsert
Ġfrontier
ĠPresidential
Ġlimb
Ġblessings
ĠEverybody
haired
Ġbarking
Ġmosqu
Ġperfection
Ġtactics
Ġtet
Ġwakes
Ġbaked
Ġrewr
Ġwholes
##anded
##nae
Ġlease
##ocus
Chair
Ġ1862
ĠDOOR
quite
Ġrabbits
Wonderful
##bid
##kets
Ġnodes
Ġbeheld
ĠTrophy
ĠLegend
ĠNak
ĠEvan
##venant
Ġrobe
Ġdislike
Ġappend
Ġtraps
##shi
Order
Ġobjectives
Ġantiqu
Ġ1892
##ategory
Ġjealousy
Ġtournaments
Ġsandwiches
Rachel
Ġbio
ĠSard
##opatra
ĠGus
ĠFellow
Ġconve
##aghetti
Ġropes
Ġlasting
Ġdeepest
##ructive
Ġcomfortably
ĠPrior
Ġcompleting
1999
Ġpilgrim
Ġconflicts
Ġprosecution
ĠSAID
##mus
Ġtrophy
Ġdizzy
Ġpeter
Ġofthe
##ione
##ente
##entric
ĠMing
ĠWee
##ovanni
Ġdisrupt
Ġsyll
##agnetic
Ġwhispering
Ġremembers
##ulsive
ĠAssistant
ĠUNESCO
ĠBonnie
Ġvelvet
##ocaust
Ġnavigation
PR
##enne
Ġlil
##omatic
Ġnathaniel
##imon
Ġhazard
ĠMTV
Ġcanon
##arked
Ġcheque
Ġmonks
Ġhangs
Ġriders
Ġconsumers
Ġstrategies
McC
Ġshovel
ĠLiterature
ĠJamaica
.âĢĶ
Deep
##eat
Ġwhit
##ainting
##pple
##acker
Ġtomato
ĠITV
Ġrepeating
Detective
Ġcomprehensive
Ġorientation
Deb
##dal
##PD
##UG
Ġgoats
##opsy
Ġclap
##ometer
Ġsmash
ĠExpl
Ġstraightforward
Ġindependently
Ġcontacted
ĠOsaka
Ġ360
ĠAvon
##REAMS
Ġtemptation
Ent
FFF
Nin
Siden
Ġbeep
Ġhaunted
ĠBord
##emi
##earn
##seless
Ġendangered
##shore
Ġexcuses
ĠSof
Ġlayout
Ġimaginary
Ġsadness
Ġhalluc
Ġconsumed
Ġdeposits
wheel
Ġextends
Ġmonitoring
ĠCoyote
Ġbungal
ĠAdelaide
Sidenote
Breat
Sax
Ġwoof
##oodles
Ġdee
##ilyn
Ġhandic
Ġcoeffic
##rowd
Ġspecimen
Ġeditions
Ġexploration
Ġ1500
Ġshortest
<mask>
