#version: 0.2
Ġ t
h e
Ġ a
i n
Ġt he
r e
Ġ w
o u
Ġ s
o n
e r
h a
n d
i s
i t
Ġ b
Ġ o
Ġ c
Ġ m
Ġ f
in g
o r
e d
l l
a n
Ġ d
e n
Ġt o
e s
Ġ p
Ġ y
Ġo f
a r
Ġ in
a t
Ġy ou
Ġa nd
Ġ l
ha t
a s
Ġ g
o m
Ġ n
Ġ I
i c
o w
v e
l e
o t
a l
Ġ h
Ġ he
e t
u s
Ġ ha
' s
a y
Ġt h
Ġ it
Ġb e
Ġ is
Ġt hat
Ġ on
i on
i d
Ġ e
g h
l d
en t
Ġ re
Ġw as
u t
i m
a c
Ġw e
v er
a m
T he
Ġf or
Ġ S
l y
. .
s t
r i
r o
a d
s e
i r
k e
Ġs t
Ġ .
o o
' t
gh t
Ġ A
ou t
Ġ C
it h
Ġm e
Ġ M
Ġ k
Ġ u
a ll
Ġa n
Ġw ith
u r
Ġd o
Ġa s
e c
he r
i ll
t er
i f
Ġ Ġ
Ġ H
Ġw h
c h
om e
c e
Ġ 1
Ġ B
Ġa re
i l
Ġha ve
Ġn ot
Ġa t
a nd
Ġth is
ou ld
us t
Ġs e
Ġg o
an t
Ġ T
Y ou
Ġl i
at ion
Ġk n
o p
Ġ P
e a
a in
u n
Ġ W
g e
o l
t h
e ll
u l
r om
Ġh is
Ġ ,
o re
Ġkn ow
Ġ "
Ġ j
Ġ r
.. .
Ġ D
ou r
Ġn e
p p
Ġ G
c t
e l
Ġc an
u m
Ġ ?
is t
Ġs o
Ġyou r
Ġ 2
Ġa ll
Ġthe y
e m
es t
Ġm y
Ġa l
Ġ The
Ġ L
Ġ R
Ġa b
ar t
er s
Ġ F
Ġb y
Ġf rom
es s
Ġw hat
Ġ N
o s
Ġs h
a b
Ġhe r
n t
Ġo r
Ġon e
Ġw he
Ġc on
i e
Ġ J
i ght
i g
Ġu p
on e
re d
Ġthe re
ha n
' re
Ġha d
all y
q u
Ġs u
â Ģ
r y
Ġc om
r a
Ġ out
Ġb ut
ac k
Ġh im
Ġw or
oo d
at e
oo k
ver y
Ġp l
re s
Ġd e
i ve
Ġli ke
Ġ (
Ġ us
a ke
Ġs he
' m
o d
am e
on g
Ġ E
in k
Ġp ro
Ġs a
I t
Ġ1 9
Ġab out
Ġg et
Ġ O
Ġ v
Ġe x
in d
Ġwe re
as t
ou nd
or t
ar d
Ġd on
c k
it y
Ġj ust
A nd
ri ght
b er
Ġs p
e ar
ic h
H e
Ġ2 0
i es
Ġd id
ec t
Ġwh o
Ġhe re
a k
e p
Ġn o
ea h
a p
im e
Ġthe m
Ġw ant
in e
' ll
Ġm an
u d
Ġ if
Ġw ould
Ġth ink
Ġ '
ou s
v en
Ġw ill
W hat
Ġs ome
h ing
ow n
a g
Ġin t
Ġ K
o st
ic e
it t
Ġan y
m ent
ĠĠ ĠĠ
Ġ right
id e
Ġha s
h i
ou gh
Ġg ot
us e
ĠH e
Ġse e
t her
Ġt r
Ġwh ich
Ġwhe n
u re
Ġa r
Ġa g
Ġs ay
a re
Ġt w
e nd
i v
W e
Ġbe en
i an
w ay
Ġt ime
- -
ac e
ĠI t
i a
Ġsa id
o ve
' ve
Ġp e
f f
Ġbe c
ic k
Ġ U
Ġn ow
Ġc l
s o
o se
a use
Ġl ook
l f
op le
n a
is h
Ġl e
re at
Ġm ore
Ġthe ir
ar y
Ġgo ing
ot her
Y eah
Ġthe n
re e
a ge
Ġc ould
S o
N o
u e
Ġo ther
Ġ =
Ġb ack
Ġo ver
on d
Ġof f
it e
ir st
ĠS t
h is
ac t
B ut
Ġpe ople
e w
b le
Ġ qu
Ġg r
or n
Ġ ro
ing s
as s
Ġwor k
O h
Ġ very
p er
Ġtw o
ou nt
0 0
T hat
f ter
p t
or d
Ġg ood
Ġb r
Ġto o
p l
o g
u b
e re
om et
c i
Ġ en
Ġf irst
an s
as e
itt le
k ay
er m
Ġint o
m er
at ed
i re
o v
ion s
he d
o ll
al k
o y
Ġd own
t he
h y
Ġh ow
ad e
Ġt han
Ġy ear
Ġu n
Ġp art
Ġw ay
Ġp r
Ġ our
Ġa m
w e
Ġcom p
i z
ou ght
Ġc all
Ġl ittle
Ġc ome
Ġb l
ĠI n
Ġpl ay
Ġal so
Ġ im
Ġon ly
Ġ V
at er
nd er
c c
Ġwhe re
ac h
an ce
Ġe very
n e
Ġag ain
if e
W ell
n g
ur n
Ġa d
ha r
w n
Ġs omet
o c
Ġ Y
r u
Ġd ay
Ġne ed
Ġb et
Ġ20 1
t y
is s
Ġf e
he re
u ch
. "
res s
a v
Ġa ct
Ġm ake
Ġwe ll
am p
h o
f ore
Ġt ake
en ce
Ġa fter
Ġg u
se lf
I n
or y
o h
ab le
an g
Ġbec ause
ar k
Ġcon t
Ġs c
i p
ic al
a u
Ġd is
Ġt e
ig n
th ing
in t
Ġl et
Ġre ally
or m
Ġsh ould
u ck
Ġp re
ic t
Ġt ell
oo l
Ġha pp
at her
Ġw r
o b
c l
en s
Ġth r
on na
Ġf l
f t
u ll
i ed
Ġa pp
Ġu nder
i al
Ġthe se
Ġm uch
Ġdo es
ul t
Ġsomet hing
T his
Ġne w
i le
Ġre s
Ġp ut
od y
Ġg onna
Ġp o
Ġp er
Ġme an
Ġm ade
The y
he n
l es
on s
if f
Ġl ong
' d
b e
v ed
Ġs er
ĠU n
o ld
v ing
Ġt alk
l and
Ġne ver
Y es
ation s
S he
t e
Ġbe fore
Ġ er
Ġe ven
Ġm ay
k s
d u
i ly
at es
ĠC h
o ck
Ġit s
p s
ou se
Ġc ar
a il
Ġb u
t ing
Ġdid n
Ġre m
Ġ âĢ
Ġcom m
Ġ 3
p ort
Ġ ke
ad y
The re
Ġs m
ver s
Ġyear s
at h
it ion
i ous
y ou
em ber
or s
is e
i x
re n
Ġha nd
w ard
u ally
âĢ Ŀ
it ed
Ġre c
Ġhe l
ve l
Ġman y
Ġthr ough
ri ed
Ġ20 0
I f
Ġo ld
Ġs ec
a w
f ul
g et
r an
Ġc h
Ġth ing
Ġm ost
Ġst art
Ġc han
Ġth ree
d ay
Ġg reat
Ġd iff
p e
in ce
i gh
Ġl ife
Ġth ings
a ve
Ġth ought
Ġf ound
H ow
Ġth ose
Ġbe l
â Ļ
Ġst ill
Ġs ha
v es
Ġa way
w hat
os s
Ġd es
Ġus ed
Ġf ind
t ain
o ot
` `
Ġ' '
Ġl ove
e ver
Ġm ust
Ġh ome
he s
Ġ You
Ġl ast
ri end
Ġhel p
Ġdo ing
Ġ i
e e
Ġc o
im es
Ġas k
ent s
Ġo wn
Ġsh ow
Ġc r
hi ld
Ġl ea
mer ic
le ase
Ġw ent
Ġg ive
Ġ !
u p
Ġc ame
x t
Ġm in
ation al
one y
Ġe nd
âĢ Ļ
ir l
âĻ ª
en ed
Ġbe ing
Ġat t
Ġw on
" .
Ġn ame
ter n
Ġc our
g in
ct ion
ĠM r
ĠS he
Ġc ount
c ed
Ġcall ed
ch ool
m y
n y
Ġm ov
Ġe ar
a it
g an
Ġf am
at ch
D o
ĠĠĠĠ ĠĠĠĠ
al s
m an
Ġ1 8
b ody
Ġs ame
N ow
way s
Ġc hild
I N
Ġd ec
Ġc are
on t
c es
Ġsu ch
n ing
l i
ot h
Ġk ind
ĠM ar
W hy
Ġfe el
id ent
Ġt ry
Ġb ig
u g
ĠA meric
Ġhe ad
Ġl ot
Ġn ight
ak ing
Ġwor ld
an y
Ġsu pp
Ġwh y
i ld
a ir
Ġpl ace
ha m
Ġp ol
f orm
ers on
Ġdiff ere
E R
s ide
Ġw om
Ġar ound
Ġf in
ĠB r
Ġha r
Ġf riend
Ġn um
ut e
Ġm ar
Ġk ill
ĠA r
s s
L et
at ing
ur ing
) .
g r
Ġus e
as ed
ow er
Ġin d
Ġa cc
out h
D on
ub l
Ġm ight
Ġo p
a h
u nd
Ġre g
Ġan other
" ,
Ġ 4
Ġs et
Ġs l
Ġt urn
Ġc he
or ry
Ġe le
p ect
en er
we en
Ġh ouse
Ġal ways
t s
C ome
ic s
Ġre l
y s
Ġf our
Ġa c
cl ud
i ble
Ġany thing
Ġg irl
S t
Ġle ft
) ,
A ll
Ġbet ter
u h
Ġd one
t hat
Ġb it
m b
Ġsu re
Ġp res
v ent
l ed
Ġ19 9
Ġs ur
as on
n ess
a z
ul ar
p h
p le
Ġke ep
Ġb oy
Ġ 5
Ġe l
Ġs y
g g
, "
Ġr un
d er
ĠA nd
i b
au ght
O kay
u al
Ġm on
Ġfor m
Ġre al
Ġbet ween
M y
| |
Ġbel ie
oll ow
ot t
Ġto ld
i o
Ġknow n
Ġsec ond
ĠThe y
e red
ir d
is hed
ter s
a le
ar s
Ġu nt
y es
Ġs chool
Ġc har
Ġwor d
H E
Ġst ud
Ġm oney
Ġd ist
Ġe ver
ĠN ew
j ect
Ġ ent
Ġg l
r ow
Ġo b
hi p
He y
n er
Ġdiffere nt
Ġre t
Ġwh ile
Ġm at
or k
I s
re t
b ut
Ġm om
Ġp erson
Ġb o
ĠA l
ou n
Ġb us
ĠT his
or th
r ic
ak es
Ġin clud
n o
Ġpo int
T han
Ġsu b
y e
Ġcon s
Ġo kay
Ġd r
N ot
Ġm us
Ġcour se
A N
ĠW hat
O U
Ġsp ec
Ġst r
Ġunt il
ĠUn ited
Ġ erm
Ġas s
Ġin v
at ive
ol og
Ġb ook
c y
Ġu h
Ġtoo k
ĠĠ Ġ
l ing
ĠA n
Ġm et
it s
Ġne xt
W hen
in s
t on
Ġm en
Ġst op
un e
Ġc ent
Ġs w
st and
Ġb est
Ġw ar
Ġin st
Ġb oth
Ġse em
is ion
Ġf ar
Ġe ach
Ġs ing
Ġnot hing
Ġf un
a j
Ġde p
Ġwe e
i er
ĠG od
Ġde f
Ġc le
ver n
Ġb re
it ies
Ġc ha
Ġw ater
am es
ce pt
i red
w here
Ġnum ber
u res
op e
Ġf ollow
Ġp ass
Ġf ather
Ġsa w
ĠAmeric an
ĠA s
ĠN o
oh n
Ġm other
Ġl ater
ĠâĢ ľ
i vers
Ġdoes n
c er
m s
t o
âĢ ľ
Ġfam ily
a x
Ġ -
Ġp h
re w
Ġl ist
ea k
Ġte am
re am
an k
un g
o k
Ġpro du
ro ss
Ġl ar
Ġ19 8
e g
b r
Ġc ity
Ġy eah
os ed
Ġin c
Ġ 6
Ġen ough
IN G
in ess
O n
Ġact ually
1 9
is ter
J ust
Ġel se
Ġagain st
m ber
l ess
Ġsm all
Ġw ait
Ġd ied
ct or
ot e
Ġ --
Ġc ap
Ġse en
Ġhar d
in es
Ġpro ble
le t
r ist
ut h
Ġh igh
Ġp op
Ġto get
Ġtoget her
Ġyou ng
Ġim p
ĠE ng
ubl ic
i et
Ã ©
Ġwith out
o f
e x
W ho
if ic
Ġd ire
om m
ab ly
Ġpl an
Ġwant ed
g er
Ġbec ame
Ġre f
Ġs orry
Ġad d
ĠSt ates
Ġf act
Ġf ive
W here
Ġf ew
Ġy es
Ġhe ar
at t
Ġ id
g ed
Ġre p
as h
Ġe m
Ġevery thing
Ġm ind
Ġcom ing
Ġre st
2 0
L ook
The n
Ġro om
Ġb ad
Ġon ce
Ġl oc
Ġs ince
Ġs ix
Ġ19 7
ĠS p
in a
Ġunder stand
u ff
Ġst and
Ġs ign
Ġs im
r al
Ġs k
Ġli ght
Ġli ve
a id
Ġst ay
Ġre ad
b all
ie ld
us s
Ġlea ve
et s
Ġb orn
Ġsay s
ĠB ut
u c
Ġ 7
Ġf r
A T
ur y
n ed
e b
Ġc oll
en se
ere st
ĠI nd
ou p
Ġt ra
Ġbelie ve
Ġt imes
Ġs ide
Ġd uring
Ġlook ing
m e
A re
ec ause
Ġchild ren
Ġe v
Ġhe art
t en
Ġqu ite
st em
Ġpre t
ĠI s
orn ing
Ġim port
Ġdis c
Ġs on
Ġh um
Ġt ri
Ġto day
a ut
00 0
Ġs it
Ġqu est
ow s
O N
Ġin ter
ro p
Ġex p
a red
Ġtr ans
Ġk id
Ġday s
an na
Ġhapp ened
Ġme et
Ġop en
Ġ 8
is ed
Ġ ;
R ight
Ġle ad
Ġm ove
it al
Ġcon f
Ġp lease
âĢ ĵ
Ġf ace
U h
Ġg ener
Ġne ar
Ġe yes
Ġto wn
Ġget ting
a pp
Ġn ice
ie w
ĠT h
Ġis n
A s
Ġex t
Ġth ough
in ed
d y
ab y
re ady
it her
Ġmus ic
er tain
ment s
Ġar t
? "
e y
Ġwho le
i ke
Ġc ol
Ġd ri
Ġs ort
Ġ ed
Ġl and
F or
Ġh our
Ġb ro
le ep
ĠJ ohn
ist s
Ġp oss
i k
o kay
ant s
Ġint erest
T h
Ġwom an
Than k
as ter
ct ed
Ġhe ard
b y
o ber
Ġ Z
Ġbu ild
se l
Ġy et
s on
Ġe as
M m
er y
Ġplay ed
Ġ ri
Ġ [
Ġj ob
e f
ĠP r
y eah
Ġst ate
Ġa ir
Ġha lf
Ġf oot
Ġrem ember
Ġm orning
Ġhim self
Ġstart ed
u es
Ġf il
re en
ec h
Ġ19 6
Ġ1 0
ĠC l
iz e
d o
A R
ĠF r
Ġm ed
Ġw alk
Ġkn ew
ut ion
h m
c hed
Ġha ving
is m
Ġ 9
Ġrec ord
Ġd ra
Ġtalk ing
d d
G ood
Ġsy stem
ivers ity
Ġh old
ri es
Ġm ain
iz ed
ĠJ an
iv es
t a
e v
Ġm od
t ed
Ġde ath
Ġs ir
Ġc ur
Ġal ready
Ġp ay
is on
at s
Ġimport ant
A l
D id
Ġwr ong
C an
Ġso on
Ġs ong
m ost
ĠW e
Ġal ong
Ġm il
ĠG r
Ġsay ing
s h
Ġg i
ĠM ay
Ġp ower
Ġret urn
Ġid ea
G o
Ġ Q
ain s
s p
Ġmon th
n ot
Ġan s
um p
Ġdo or
Ġde ad
Ġg ave
Ġm iss
Ġup on
Ġcount ry
Ġbr other
e ad
vel op
id ed
ag es
n ow
ĠH ow
er ing
Ġp rom
Ġpro b
Ġgo vern
Ġw in
Ġf ull
Ġh ur
Ġme ans
Ġt y
ĠâĢ ĵ
ĠG erm
Ġ âĻª
Ġe ff
Ġe at
Ġpro v
Ġc ase
Ġtry ing
il ity
at ure
Ġg ame
Â ł
Ġr ound
ĠC ount
ĠS o
ĠThe re
aught er
Ġask ed
id d
ci al
et er
L L
Ġw ife
Ġj o
Ġs ound
ward s
ic ally
Ġin f
on y
Ġg one
Ġare a
Ġl aw
O R
Ġbus iness
ĠCh rist
g t
E r
m ed
You r
Ġmat ter
ĠK ing
Ġbe gan
y ing
c ess
Ġex pl
l ish
Ġbr ing
Ġd el
Ġpret ty
i ver
ate ly
ĠA t
Ġf ore
n ce
Ġhand s
Ġto p
ar r
Ġl ear
Ġe qu
Ġw ind
c le
ĠT HE
G et
Ġs ent
r ict
am ed
Ġhapp en
Ġgu y
ĠS c
le ased
Ġst ory
Ġc reat
ur al
. âĢĿ
p r
u ro
Ġsha ll
b orn
Ġl ost
e ed
Ġcont in
Ġser v
Ġab le
Ġmov ie
or row
Ġf uck
it er
A n
Ġl ess
en n
Ġc ertain
i ally
Ġbe aut
Ġm ill
E S
Ġoff ic
u red
ak en
Ġb aby
Ġpart ic
Ġchan ge
Ġpol it
ep t
ect ion
Ġsp eak
or ld
g y
Ġproble m
Ġof ten
Ġw ond
Ġm aking
Ġhis t
Ġgo es
Ġcl ass
Ġp ri
ion al
M ay
c ri
Ġf ell
c he
Ġle g
pp ed
Ġ1 7
Ġb as
Ġfriend s
A t
ĠC ar
Ġw anna
Ġlook ed
Ġmom ent
Ġsome one
Ġ1 5
ĠA ll
Ġwas n
Ġf ight
Ġw atch
O ne
und red
at or
Ġp ain
ĠB l
er v
Ġ19 5
Ġ19 4
ĠO h
He re
ĠBr it
Ġb ody
id es
us h
Ġf ine
ent ly
Ġwom en
E N
Ġyour self
w ell
ar ch
g es
Ġa ge
Ġde velop
are nt
Ġcom es
ra p
st er
Ġ hat
Ġex per
us ed
Ġgr oup
r act
Ġl ine
Ġp at
Ġwee k
Ġgu ys
Ġm ark
Ġp ar
f ess
ac es
Ġs leep
Ġv is
an e
h ow
u ary
i ec
Ġsh ort
Ġp os
o le
Ġb ed
Ġcl ose
et h
ain ed
Ġprob ably
m p
Ġlar ge
T o
Ġag o
e al
er n
ĠT hat
c on
Ġt erm
art ment
Ġgi ven
ell o
Ġwork ing
Ġpr ot
Ġbre ak
ic es
Ġd et
ĠC an
i am
Ġ ...
Ġtr ue
u ly
Ġf ire
le y
ri gin
ent y
g ue
ĠH is
a i
ent ion
B ecause
ĠCount y
Ġ es
ap an
Ġwould n
! "
Ġe ight
Ġh undred
al ity
Ġbec ome
ĠF or
Ġt er
Ġor der
Ġc ut
Ġf all
Ġc a
b um
et y
Ġear ly
o on
w er
ĠC on
Ġde al
c hes
Ġp ick
el s
ul ation
el t
Ġs ol
ur ch
Ġh ope
h ind
Ġha ven
, âĢĿ
am a
ap er
Ġre ce
ĠY es
c ome
il t
re st
aj or
m m
ou ble
Ġc or
Ġal most
s y
Ġa w
ut es
Ġd iv
ĠUn iversity
Ġst re
Ġle ast
Ġp ur
Ġin s
Ġbe gin
Ġor gan
Ġquest ion
Ġt en
ie f
Ġv o
ian s
r on
ro l
if ul
p ed
ĠY ork
Ġa ff
Ġcomp le
Ġbl ack
ĠA p
Ġo cc
Ġmy self
ĠO n
gr am
ri l
Ġwh ite
Ġad v
ĠP ro
Ġo per
Ġp ublic
amp le
iv ed
ĠW orld
Ġcomm un
ra z
ou d
ham p
Ġr an
Ġs qu
Ġre ady
Ġmar ried
al th
Ġl ate
ĠJ apan
Ġ _
Ġv ar
Ġcon st
Ġo pp
Ġmay be
Ġh or
Ġd ad
Ġf ree
um b
re nt
Ġ1 6
ull y
Ġre ason
i um
Ġs we
it ing
ug ust
ang u
Ġal one
os p
c o
Ġkill ed
Ġpres ent
c ent
Ġo h
l er
Ġgovern ment
Ġgu ess
ard s
M r
ĠP ar
ĠJan uary
Ġcomp any
Ġ |
cc ess
he ad
es e
Ġ est
er t
Ġbl ood
en e
o ke
E very
Ġhapp y
P lease
h uh
Ġal bum
Ġ1 2
Ġre leased
Ġre d
Ġbr ought
Ġbe hind
Ġs at
Ġo rigin
sel ves
v ious
Ġse ver
Ġword s
b ed
m en
Ġte le
Ġh on
ĠA ust
Ġdr ink
ĠM an
ne y
ĠW ar
o x
Ġhe ll
I S
Ġm akes
olog y
f or
Ġ Yeah
om p
e or
Ġ19 3
Ġcle ar
Ġt re
R E
ĠEng lish
en g
r ing
Ġt aken
Ġsever al
on es
Ġser ies
Ġex c
ĠFr ance
ha ps
au gh
Ġf ood
Ġfr ont
ĠY OU
c an
i ent
f e
ren ch
ĠE uro
ĠMar ch
em ent
Ġdo g
c ha
Ġm ag
ud e
un t
Ġan im
at ic
T H
b and
ĠS outh
b s
Ġhum an
Ġp ast
Ġt aking
Ġh ot
S ome
b it
ac ed
Ġv al
Ġ $
ĠM in
ĠD ec
S h
Ġsupp ort
ĠM iss
Ġst uff
o or
ept ember
Ġse ason
Ġstr ong
i or
ct ober
Ġan n
ĠF ran
ĠC omm
Ġb and
Ġ ]
ĠA ugust
Ġp ict
Ġe ither
Ġb all
Ġd em
Ġ &
ĠT r
o int
Ġb ar
Ġst at
the re
Ġso ld
Ġres p
e le
Ġen g
Ġchar ac
Ġad m
w o
Ġtr ain
Ġd aughter
ot s
Ġp iec
ĠĠĠĠĠĠĠĠ ĠĠĠĠĠĠĠĠ
Ġr ather
Ġf ig
Ġex ample
Ġthink ing
Ġatt ack
ĠJ une
Ġall ow
id er
B e
ĠW ill
ci ent
Ġmin utes
Ġqu ick
l t
a im
her n
ĠMr s
Ġlook s
i ence
iv ing
Ġcould n
Ġpro gram
Ġre port
Ġother s
ĠBrit ish
Ġro ad
Ġpart y
h ich
Ġin form
Ġt ou
Ġc ou
Ġlist en
z e
Ġwith in
o ver
m ing
Ġt em
Ġhe ld
Ġli ving
Ġbeaut iful
ap e
Ġsu ccess
res ent
en cy
Ġdes ign
o e
Ġn amed
om an
am ent
Ġgr ow
ĠEuro pe
Ġwant s
itt ing
Ġmill ion
Ġres ult
Ġmin ute
ĠS eptember
Ġn ational
Ġn orth
Ġper form
od e
itt en
Ġin side
or ies
Ġst ru
Ġa p
Ġspec ial
ĠT H
ore d
ĠO ctober
act ly
ĠS h
E x
ĠC ol
Ġl angu
Ġn ec
e ge
ĠAp ril
ĠA d
ove mber
A S
ĠB e
a ul
Ġme mber
ĠJ uly
ous and
ĠP res
Ġs um
f ully
Ġturn ed
Ġm ess
Ġre pl
Ġwond er
Ġsing le
m a
Ġ ve
o ad
Ġv ill
ou b
Ġfor mer
ĠN ational
ĠN orth
Ġli ved
Ġro ck
Ġde ar
ran ge
Ġs il
Ġapp ear
un k
Ġinclud ing
May be
Ġk ing
Ġele ct
I I
ĠP l
ang er
Ġthan k
Ġ1 1
Ġt est
ĠG o
al d
ĠC har
O r
ĠB ar
ĠS w
un ch
Ġd ie
A h
f ort
ke y
Ġex pect
Ġd ream
f ect
p ar
us band
-- --
ru ary
ound s
al es
eb ruary
Ġsh ip
u ed
H ello
Ġc amp
qu e
ĠDec ember
Ġcomm on
ĠW hen
Ġf elt
Ġplay ing
id ge
re ad
Ġh it
Ġth ird
Ġvo ice
W ith
v ision
Ġus ing
Ġmonth s
Ġac ross
ĠP h
b o
Ġout side
Ġfoot ball
e en
end ed
H ave
tern ational
as k
ĠN ovember
Ġsomet imes
ĠF rench
Ġd ark
Ġ X
Ġme mb
a ur
Ġwork ed
ech n
Ġche ck
g o
Ġposs ible
Ġ z
idd le
th ough
A fter
c il
Ġhour s
ac hed
Ġeff ect
Ġth ousand
ĠC al
Ġam ong
Ġre v
ain t
Ġha ir
Ġfil m
Ġre qu
Ġd est
it ch
Ġf if
C h
Ġg un
Ġcare er
Ġc op
ĠD o
ove red
Ġcl ub
Ġm ajor
Ġf re
Ġfollow ing
Ġ ill
Ġh usband
Ġpo or
ir th
Ġs un
li ke
Ġd am
at a
Ġpro fess
âĢ Ķ
ĠF l
ov ed
Ġapp ro
Ġ1 3
Ġfor g
Ġt ried
Ġw ish
R e
ĠF ebruary
ea red
Ġst ra
ro du
Ġto t
Ġa f
Ġ1 4
c ing
Ġse nd
Ġto m
ĠC ity
e an
m ore
Ġc ir
l ook
Ġle vel
Ġmov ed
s c
Ġgot ta
Ġse ven
Ġhist ory
Ġbu ilt
air s
A ny
Ġbo x
g est
hi le
Ġgr and
Ġpol ice
Ġ201 0
uth or
att le
Ġpartic ular
i pp
ĠH er
Ġs n
Ġfe et
d e
ĠT O
ĠC ha
ress ed
ou l
ĠA f
Ġbuild ing
Ġpro per
Ġmemb ers
Ġus ually
L E
Ġc re
om in
Ġf a
Ġt ill
1 0
Ġget s
ra id
ro om
r it
Ġp arent
Ġr a
ĠH ar
Ġa v
Ġcomp et
Ġl ay
Ġc ost
s he
Ġoff ice
O M
ro g
Ġd in
Ġt reat
Ġwor ry
ĠO r
ĠG eor
Ġany one
if ied
Ġt on
Ġm ur
ra ph
Ġgo ld
u k
an a
Ġp ull
ag ed
Ġans wer
Ġchan ce
Ġcomple te
ond on
Ġcont rol
Ġt able
Ġf ield
Ġpop ulation
Ġcon cer
O f
Ġswe et
1 8
Ġbu y
ĠL e
Ġst ar
id ence
Ġknow s
Ġwhe ther
Ġte ac
Ġst ation
Ġwork s
Ġr ad
Ġab s
as es
i en
Ġb ased
i od
p or
ay s
Ġor d
ĠG u
Ġeas y
ĠE d
in o
Ġpro p
Ġcan not
w ork
Ġw all
Ġcon d
Ġplay er
Ġ ``
Ġtw enty
Ġwr itten
ĠC ent
ĠR ep
Ġst ep
Ġ3 0
Ġde v
d ing
y n
ĠPres ident
Ġli ves
ir ty
Ġst e
ĠA fter
Ġs ister
Ġe vent
Ġdes cri
ĠI f
ĠA b
so ci
Ġreg ion
Ġf av
Ġloc al
Ġv iew
Ġl a
as ure
Ġseem s
it ions
c om
Ġph one
O W
Ġgener al
ill y
Ġpr act
hy s
an ces
ul a
Ġcou ple
u le
2 1
ur g
Ġm ine
Ġis s
ar a
Ġevery one
Ġcur rent
Ġv ide
C l
Ġd i
Ġaf raid
id ing
Ġl ow
ir on
Ġs outh
Ġcent ury
Ġpro cess
Ġp ost
Ġon es
Ġb ird
Ġf ast
Ġm ot
is ing
Ġwr ote
Ġdra w
Ġde ep
Ġs ense
b ers
um ent
Ġc old
Ġwe ar
ĠW est
hamp ions
ĠL ondon
Ġc al
ĠL ea
Ġdiff ic
ĠD on
Ġinv ol
Ġgr ound
Ġex actly
if t
Ġf air
Ġseem ed
Ġwr ite
Ġtom orrow
ad a
Ġgirl s
Ġc ry
Ġn at
T ake
Ġse a
E D
I T
iss ion
Ġboy s
Ġlong er
Ġinc re
our n
k y
Ġb irth
w ho
C H
Ġf ur
it ive
ect ed
Er m
ĠEng land
un ic
u ri
Ġp aper
og n
Ġdist rict
Ġsu ff
ĠJ ack
Ġcharac ter
Ġh uh
Ġb ott
av y
iz ation
Ġse x
Ġinform ation
ill s
S ee
g ing
oo se
he l
Ġchan ged
o ff
W ait
ord ing
ĠIt al
H is
ri but
Ġtr uth
Ġkid s
ent le
Ġdire ct
ĠAust ral
am b
r ation
Ġdep artment
Ġnew s
Ġrun ning
Ġ2 5
ir t
Ġli k
ĠO ne
Ġsupp osed
u ation
oun cil
in ation
Ġw ood
d om
Ġp ress
Ġc at
Ġserv ice
Ġp ubl
a ff
Ġm er
Ġsome body
ĠGerm an
Ġf ail
Ġl ab
Ġg en
ĠW ell
ĠM ic
Ġfor get
Ġhur t
Ġed uc
Ġton ight
the y
Ġsu per
Ġc ross
Ġtr ouble
Ġsh ot
Ġper iod
G H
Ġd ro
ur s
ill e
Ġ *
ĠL ord
Ġneed s
le x
f ord
ut ure
2 2
Ġrece ived
Ġh ig
Ġt ree
ĠU S
Ġcle an
Ġty pe
ĠAmeric a
Ġa uthor
Ġtele vision
Ġpos ition
Ġ 0
ĠE l
it ary
L ike
ac y
ĠThe n
Ġbl ue
em y
ĠD r
con om
ow ers
Ġrep resent
Ġp le
Ġl uck
p ec
pt ion
ĠA m
Ġtr ad
osp ital
Ġl ady
Ġsec ret
ĠR e
Ġke pt
art y
ĠS chool
il ar
ĠD an
e ople
ĠR uss
Ġcreat ed
Ġt echn
Ġent ire
Ġar ri
Ġm ount
Ġt it
j oy
Ġthem selves
Ġlangu age
Ġtou ch
dd en
Ġser ious
Ġac cept
Ġc os
ĠE x
Ġwait ing
a e
r or
Ġcon n
har d
Ġevery body
l u
ed er
Ġ vers
f er
Ġse ll
Ġvill age
Than ks
Ġwhat ever
k en
U S
l a
u z
av id
pl oy
O K
i ol
v an
ĠAf ric
Ġh y
Ġob ject
S orry
Ġsur pr
ĠT om
Ġfuck ing
Ġset t
Ġsu dden
Ġstra ight
Ġc ook
iv il
Ġsu gg
Ġsugg est
ĠD e
U n
Ġab ove
ĠSt ate
in al
Ġf ly
Ġm ist
Ġparent s
Ġspec ies
ol ution
Ġper haps
ic ian
es tern
w ith
ĠP eter
Ġp ot
Ġg reen
ĠM y
Ġr ul
p ing
A r
ress ion
Ġf uture
th is
Ġre se
Ġhow ever
st it
te en
end ing
Ġpict ure
ag er
Ġpri v
Ġl im
v al
Ġres pect
Ġcomp ut
ci ence
r ay
Ġc ell
Ġinst ead
Ġt akes
Ġdec ided
Ġproble ms
Ġex ist
re et
Ġinclud e
Ġfeel ing
Ġv ol
T ell
op s
om b
ĠS ha
Ġsh oot
Ġbook s
at ter
Ġit self
ro y
ĠM c
Ġcar ry
Ġpiec e
Ġl ed
Ġst ri
ĠW h
Ġper fect
Ġm outh
Ġan g
Ġfin ished
ist en
land s
Ġp ort
Ġim ag
Ġher self
ĠS y
oc r
ĠP ol
Ġinv est
Ġlear n
Ġc ult
al t
Ġcha ir
Ġl augh
ĠN ot
raz y
I C
Ġdo ctor
Ġpop ular
iv id
ĠO F
Ġlet ter
ener al
1 5
Ġc ho
The se
Ġser ved
ĠE ar
Ġd ue
ha el
Ġdo ll
Ġf ix
o es
W ill
Ġp en
Ġare n
Ġpro ject
ĠHow ever
Ġpr in
Ġhapp ens
unic ip
Ġdiffic ult
l in
Ġwor th
Ġch urch
Ġtr ust
re g
Ġear th
Ġvide o
A Y
Ġco ver
St op
Ġme m
p es
ĠH ouse
Ġsp ace
og rap
Ġ2 4
am er
H i
Ġfin al
ol ute
ĠPh il
ĠLea gue
Ġn orm
Ġa in
Ġtr ack
y le
Ġact iv
Ġhe alth
Ġbe ar
Ġl ad
se e
Ġpr ison
vious ly
Ġes c
Ġtell ing
Ġsh it
Ġhor se
p ha
ĠA N
ĠC ap
Ġsl ow
Ġb ri
Ġany way
Ġar m
1 7
Ġrec ogn
Ġn ine
Ġe ye
er ry
Ġsa fe
Ġrel ations
Ġpres ident
Ġso ft
Ġha ng
ĠT o
ci ety
ru g
em pt
im ent
ear s
Ġg entle
Ġwee ks
Ġ201 4
Ġcom pl
ere nce
Ġso cial
it or
Ġm iddle
ĠThe se
Ġri ver
ĠC oll
Ġd oub
Ġpass ed
ro ll
ep end
Ġfig ure
Ġc orn
l s
om es
Ġsp ir
Ġe p
Ġ1 00
Ġd anger
itt ed
Ġs us
l ine
t ime
Ġme ant
ĠGerm any
E T
Ã ¡
a ha
Ġph ot
A L
? âĢĿ
le ct
as hing
Ġsa ve
iv al
1 2
M ar
n el
Ġcount y
b or
Ġp hys
Ġeng ine
Ġj ud
ĠInd ian
Ġen joy
u el
Ġg ames
ĠP aul
Ġa head
and er
ĠP ark
Ġest ab
Ġcour t
r is
Ġfun ny
Ġ201 8
Ġmeet ing
Ġcl ot
Ġeven ing
Ġh op
Ġse at
Ġfam ous
Ġter ri
Ġv ict
Ġfur ther
Ġ19 2
Ġc ast
ĠS ec
Ġgo d
Ġan t
Ġe conom
k ing
ĠJ o
A M
c her
Ġex cept
Ġm is
ri age
Ġgl ad
er gy
Ġ201 1
is hing
ĠĠĠĠ Ġ
i us
Ġf ish
Ġc razy
Ġop ened
if orn
Ġ #
Ġm ach
Ġd a
Ġs ick
Ġ ide
Ġcr it
Ġne g
um e
Ġreturn ed
ce ed
Ġqu iet
Ġf ill
Ġ( "
Ġa ut
ĠQ ue
ĠS e
f ield
Ġst ood
Ġu m
Ġc ool
Ġlea ving
Ġgr ad
Ġse lf
p ut
Ġcap ital
Ġro le
1 6
o ly
Ġn in
Ġthr ow
ĠWill iam
han k
et t
iforn ia
l ight
ce ll
Ġdis app
Ġr ing
ain ing
Ġbegin ning
Ġc atch
Ġdin ner
er ve
O T
Ġacc ount
he m
i ers
Ġb reat
V E
Ġm ad
Ġfor ce
Ġm ult
Ġsub ject
ĠW hy
Ġann oun
ĠS ome
Ġ201 3
G ive
i res
Ġh ospital
Ġfe at
Ġsim ilar
Ġwh om
ra ve
Ġb urn
Ġfl oor
Ġcomm une
Ġcl aim
Ġag re
Ġ x
u ge
T ER
Ġapp l
Ġpolit ical
Ġ201 7
Ġ `
ĠS am
med i
I D
ĠR iver
Ġcir c
Ġm ass
ĠI N
Ġcl os
it z
re y
1 4
Ġn on
Ġpart s
" )
Ġs itting
Ġsh ut
Ġg iving
Ġfor ward
ĠH igh
Ġnec ess
Ġcommun ity
Ġ ident
pl es
om ing
Ġresp ons
ĠS m
Ġv iol
n ight
m in
n s
Ġint rodu
ra ft
Ġcom b
ell ow
Ġm ention
Ġorigin al
Ġdri ve
Ġc ause
Ġst ick
Ġ20 20
Ġre ached
m on
Ġtot al
Ġinterest ing
Ġstud ents
ĠP er
Ġcount ries
re me
5 0
Ġbe at
Ġm ater
Ġquest ions
Ġb ank
Ġf em
ĠE ast
w as
Ġb ag
p ly
Ġke y
n es
ĠR oman
1 3
c han
ic a
Ġse par
ĠM us
Ġrel ig
ĠG ood
Ġf ing
ĠCal ifornia
Ġpl aces
ĠGeor ge
B y
b l
Ġprodu ct
Ġind ivid
im ate
ic ation
hi ps
Ġm atch
ĠS u
Ġyour s
Ġquick ly
Ġh oney
Ġl ose
Ġf ear
Ġne igh
Ġst age
Ġh ung
Ġam ount
ĠM ary
es us
S omet
ĠR ed
Ġapp eared
A C
Ġstud y
Ġst ore
Ġ201 2
E ven
pec ially
Ġh ost
Ġmark et
Ġwho se
m as
Ġto wards
ĠRep ublic
Ġsim ple
ci ous
w ood
Ġk iss
in ite
Ġp ark
ock ed
Ġal ive
h ood
ĠInd ia
Ġtra vel
Ġin n
Ġm id
Ġ201 5
Ġob s
in c
ĠJapan ese
Ġmov ing
Ġen ergy
oll y
Ġwind ow
Ġsupp ose
ic o
Ġro ll
Ġde g
j ust
G od
Ġ200 8
Ġloc ated
ut y
k a
Ġc ried
Ġpubl ished
Ġb en
Ġcol or
up id
F rom
ad es
ĠQ u
Ġp al
Ġany more
Ġfollow ed
a f
Ġnat ural
Ġcons ider
ĠB y
ard en
Ġpol ic
Ġind ust
ru ction
Ġc aught
ĠGo vern
ĠC or
Ġw ide
ĠG reat
he t
Ġr is
ĠL ou
Not hing
ĠE m
ĠJ ust
A P
it es
Ġvis it
ĠP arty
Ġbe ha
il i
B l
oy al
ĠS an
Re ally
ĠG l
Ġway s
e xt
Ġ201 6
Ġneed ed
il ed
Ġexper ience
Ġbel ong
Ġcertain ly
Ã Ń
ri an
is c
ort s
a ven
ĠM e
Ã ¶
Ġ )
ĠM ed
Ġr ace
Ġb ill
ens ive
Ġteac her
Ġm unicip
Ġ2 1
Ġ ver
d id
Ġsit uation
Ġs har
in y
L isten
Ġli e
Ġs ad
Ġp erm
Ġd ress
om en
Ġterm s
us es
ag o
in ary
we red
3 0
Ġal right
Ġany body
Ġ200 7
Ġfin ally
ro ad
Ġf ac
ber t
Ġallow ed
as ons
ist ic
re l
ĠI I
Ġstop ped
in ing
Ġmil es
ĠI T
Ġdisc uss
Ġsh op
f l
Ġst range
f ace
c use
Ġprot ect
Ġ2 2
T r
g ar
ir m
ĠM ad
s ha
Ġ200 9
ĠĠĠĠ ĠĠ
Ġstre et
Ã ¼
Ġem ploy
Ġequ al
pp er
ud d
Ġshow s
Ġex am
Ġvar ious
Ġ200 6
er o
Ġf ool
Ġen c
Ġanim als
b ye
ition al
ort hern
Ġes pecially
Ġbo ard
Ġwr iting
2 00
ho ld
Ġinf lu
ĠM on
ur ity
k i
Ġval ue
M an
ens us
Ġpe ace
Ġbro ad
Ġj ump
g u
Ġis land
Ġsur v
Ġear li
. ,
Ġinvol ved
in ct
Ġmil itary
d on
A D
Ġmater ial
Ġ ice
y a
ĠB en
ĠW ith
Ġr id
Ġp aid
Ġqu ar
ĠD avid
Ġ2 3
Ġb ull
ĠA ir
Ġd ance
Ġ Â
st r
ĠJ ames
Ġe mb
Ġmod ern
Ġcon v
Ġdest roy
Ġplay s
Ġsp ent
ĠM art
. '
Ġw ild
n ers
ĠC hampions
en ces
Ġp ack
O ur
ĠA re
Ġb ought
ĠS er
ict ion
eng th
ust om
ain e
Ġ201 9
sy ch
Ġt ax
hi re
Ġjo ined
Ġe gg
ĠC up
id s
Ġask ing
Ġprodu ced
ĠN ow
el p
Ġprofess ional
Ġs oul
ic ed
ge l
olute ly
Ġd rug
Ġact ion
Ġlar gest
out hern
ĠW ho
Ġhat e
Ġd ate
.. ..
ri e
il ing
Ġw at
k n
Ġm ix
Ġ5 0
Ġfav or
ĠCh urch
Ġc and
Ġn et
Ġal though
1 1
Ġref er
Ġsee ing
Ġatt empt
Ġb ase
Ġans wered
e ep
Ġw est
h ouse
ĠC o
Ġ19 0
ff ic
Ġgl ass
Ġc ivil
ic hard
M e
Ġsum mer
U T
ĠHe y
Ġr ain
ort un
Ġcon side
Ġim medi
Ġconside red
ĠM or
c ast
Ġoffic ial
ĠD ad
ĠD em
Ġ2 6
Ġg ives
ĠJ im
ĠT V
Ġco ff
ib ility
S p
Ġfor t
P l
h od
s hip
Ġe ast
ober t
Ġbro ke
T wo
ock s
ll en
Ġsome where
Ġg rew
Ġ :
ĠGr and
Ġar ms
ree k
Ġb an
s u
if y
Ġdevelop ment
Ġl oved
Ġstand ing
Ġs our
bo ard
Ġpl ant
Ġd ata
it ude
Ġpoint s
ograp hy
re m
Ġnum bers
P ro
Ġc ard
Ġr ail
W hich
Ġen v
Ġtit le
et her
Ġare as
Ġpolit ician
il s
ist rict
F F
b ack
Ġ2 8
w hich
al a
Ġs ize
Ġh ous
ou ps
is es
ĠG eneral
an cy
B r
Ġn ature
Ġt end
Ġcomp an
ĠEurope an
ĠL et
ĠL u
Ġperson al
Ġstru ct
b our
Ġt ired
ent ial
Ġ2 7
Ġm aster
Ġa ud
Ġp ers
Ġg as
ic le
Ġd ig
Ġar my
Ġpur p
Ġro b
W ould
Ġl o
! âĢĿ
Ġpr im
our t
Ġs al
Ġclot hes
at ors
l ie
ur t
ab ility
A b
ar i
act ion
Ġbr ain
w ise
Ġf und
Ġfun ction
Ġinclud ed
H er
r am
ter day
Q u
Ġst ars
P er
ir gin
Ġcomput er
pl ay
Â ´
c hen
Ġst upid
Ġcoll ege
Ġadd ed
ly mp
Ġmom my
ound ed
Ġeduc ation
Ġhe avy
Do es
ist ory
v ille
U m
Ġsha re
Ġs ight
Ġcomplete ly
re ct
Ġrese arch
ĠE n
Ġa ver
ĠC ouncil
Ġcomm and
Ġpriv ate
te red
ra v
v iew
as c
Ġsim ply
Ġspir it
Ġbo at
ol ic
gr ound
ĠW here
ĠEar th
Ġnear ly
no on
ic ated
Ġtre es
ĠMin ister
ĠP al
Ġdire cted
ĠL a
Ġind eed
en a
Ġse arch
g ress
G r
S ure
Ġmod el
Ġcont ract
Ġimp ro
og raph
Ġs cient
V ery
Ġca used
ant ic
Ġdad dy
ĠB el
Ġn ames
b ing
Ġev idence
s et
Ġthan ks
Ġdoub t
Ġt ea
Ġdiffere nce
i que
ĠFran k
ĠSt e
res h
ĠPar is
ĠA g
ra w
ĠBl ack
Ġele ction
R O
Ġc y
i ber
ri ll
Ġt ick
Ġpre p
Ġcontin ued
Ġpr ay
p en
Ġtalk ed
ail s
ĠH en
id ay
b urg
ĠO kay
ĠAustral ia
Ġa ward
os ing
om as
an c
Ġav ail
olog ical
Ġs ens
se c
Ġt our
ĠS ir
Ġw ed
Ġb ow
ru ct
ch ie
p ro
st on
ord s
ĠM ex
ist ics
ĠO lymp
ive ly
Ġbro ken
l o
Ġapp oint
ast ic
Ġfore st
ĠD ep
ĠO K
Ġhist or
Ġind epend
Ġb ud
Ġprom ise
ĠC omp
Ġsound s
ashing ton
Ġgr oups
Ġrad io
ĠS en
Ġwatch ing
Ġno body
Ġwe l
ous ly
Ġatt ention
Ġas soci
AN D
Ġim m
Ġcom fort
Ġhelp ed
Ġwonder ful
Ġsudden ly
led ge
Ġb ur
Ġreg ular
Ġu r
Ġb attle
Ġf oc
Ġl iter
am m
ĠS ch
ĠP at
Ġf le
Ġchar ge
Ġp ath
Ġar rest
il es
n ie
Ġper cent
op h
Ġmar ry
ĠB E
Ġshould n
us hed
ant ly
Ġ20 00
Ġvers ion
az ing
ines e
use um
Ġwar m
Ġth irty
in ist
Ġright s
Ġmean ing
ill a
Ġsp end
Ġestab l
ĠS im
ĠA c
Ġdef e
Ġs and
Ġre ach
Ġbott om
ĠUn ion
Ġbl ow
Ġext ra
ĠA nt
Ġfif ty
Ġshow ed
ĠR eg
ĠC ome
u nder
Ġhappen ing
Ġf it
Ġinterest ed
Ġdo c
Ġr ich
ĠSt reet
ĠMic hael
ER E
L D
Ġar ch
Ġfin ish
itt ee
Ġth reat
Ġ et
Ġl ength
est s
Ġannoun ced
Ġcl osed
Ġre du
Ġopp ortun
Ġl og
ĠColl ege
c ul
he st
ick s
ĠCh ina
Ġp ounds
Ġform ed
Ġf at
us ion
Ġafter noon
Ġn or
Ġfound ed
Ġwe ap
l or
id a
e k
ĠH all
Ġcho ice
ab les
Ġ( )
Ġdis e
Ex cuse
an ish
ĠChrist ian
Ġcall ing
ĠB o
Ġd en
ĠB er
ĠP ort
Ġhig her
T HE
Ġ2 9
Ġbel ow
Ã ³
iron ment
ri a
I M
J ohn
Ġin it
Ġtrain ing
el ve
Ġsp eed
Ġdire ctor
Ġbirth day
ber g
Ġnorm al
Ġwere n
Ġmar riage
ele br
av es
Ġstre ng
i el
ĠG reen
ak er
Ġno vel
ĠO N
os ition
b on
C ar
Ġact or
ĠN or
ĠD istrict
Ġmur der
A m
S T
ot ed
ib ly
y ear
Ġtem per
Ġt ast
il ities
Ġdec l
Ġmet hod
is f
Ġstart ing
ran k
ĠJ ew
Ġfell ow
Ġha ll
am n
s es
or ing
Ġ200 5
ific ation
ĠC r
Ġb right
as ion
at ives
ord er
z a
Ġs cience
Ġsp oke
ap ers
Ġst ories
Ġ Ã
ĠP enn
Ġ18 9
Ġcar ried
Ġacc ident
Ġdevelop ed
ĠIn ternational
Ġl ower
Ġman age
Ġs ite
pp ing
Ġoff er
Ġlove ly
Ġend ed
Ġcent er
al y
all ey
ap t
Ġwor se
Ġchan ges
ĠW ashington
Ġdet erm
Ġcoff ee
Ġp sych
o id
w est
ar ies
ĠP ri
ĠIt s
Ġavail able
ra g
Ġex ec
Ġl if
ar ily
ent al
Ġso ciety
ĠYou r
ĠChrist mas
Ġlead er
Ġh uge
Ġass ist
ĠCan ada
Ġw a
t r
Ġst ates
ph one
i j
Ġdec ision
Ġfe ed
ĠN e
ĠAr my
U N
Ġs now
Ġin j
Ġreg ard
Ġearli er
Ġaver age
Ġp un
ĠT ur
Ġmach ine
Ġte xt
Ġput ting
ĠM a
W as
ĠA lex
Ġschool s
Ġexpl ain
Ġcap t
se qu
w hy
Ġb i
Ġu nd
Ġyes terday
Ġmess age
Ġbus y
Ġacc ess
Ġl ines
Ġde b
Ġh ol
Ġr out
ĠQue en
Ġb es
ut s
Ġsp read
P eople
ĠO ld
Ġc ustom
Ġpl us
On ly
ĠM al
Ġep is
Ġmov ies
Ġmove ment
ĠAfric a
A LL
Ġag ree
an n
e es
f ast
Ġsong s
ĠC he
l van
ĠT ex
Ġno se
Ġcre ate
ĠAN D
Ġlear ned
Ġmil k
Ġr ide
inite ly
ol f
um mer
D ad
Ġc ases
F irst
oss ible
I GH
Ġp age
Ġrelations hip
Ġ4 0
Ġcon du
Ġcare ful
Ġhe ro
Ġestabl ished
Ġm or
Ġocc ur
ar m
S ir
Ġhon est
ĠM ark
Ġin ternational
Ġ ..
Ġ200 4
Ġg arden
Ġc elebr
Ġlea ves
li ament
Ġb ath
ĠM E
Ġy ellow
ha d
Ġdem and
au g
Ġsu it
Ġh un
w r
r at
Ġr ule
ĠA ward
od ay
Ġst yle
Ġleg s
Ġlik ed
Ġjo in
Ġfa ith
ac ing
Ġsqu are
Ġd an
Ġsing er
ĠLou is
Ġp red
ourn al
ov es
Ġterri ble
lvan ia
Ġn one
em s
S E
Ġinvest ig
Ġnec k
it a
Ġc ensus
u x
Ġbr an
ens ion
Ġev ents
Ġprodu ction
ĠS at
Ġsk y
Ġk it
Ġsc ared
Ġfa ult
ĠItal ian
Ġcorn er
Ġmunicip ality
k es
ĠCap tain
Ġprin ci
S c
Ġ ought
Ġg ar
Ġst one
Ġcont act
W h
am s
ĠWh ite
se y
Ġd ry
Ġsm ell
Ġc up
ĠR ichard
Ġe ating
ess ion
in n
Ġd rop
Ġanim al
ĠR ob
Ġche m
l im
ĠCh inese
ĠIs land
Ġide as
on el
Ġthere fore
ap s
hi b
a ign
ick ed
Ġpro f
ight s
ĠO f
eder al
ru pt
ĠK ore
M hm
Ġc oun
et ic
Ġf ol
er c
y ond
Ġw it
ha nd
Ġimmedi ately
uz z
il ies
ĠP et
Ġfl owers
as ing
Ġsk in
ĠF rom
Ġc ow
G u
Ġhe y
in i
ce an
Ġ18 6
ĠB ill
ĠM ont
Ġc red
cc ording
Ġlike ly
Ġ20 21
ĠV irgin
le ar
Ġbe ll
Ġt all
Ġcl im
us ing
Ġsign ed
Ġwel come
Ġfar m
sy lvania
W H
ic ago
ott en
Ġra ised
Ġl ying
Ġpiec es
Ġdist ance
it ation
b an
Ġold er
st airs
os es
o om
kn own
Ġmost ly
Ġbelie ved
Ġf rog
ĠC ong
er ved
Ġben ef
Ġ ir
Ġthe ory
Ġc amer
W E
Ġnecess ary
y er
ĠRuss ian
Ġspec ific
it ar
Ġar g
Ġch ief
g en
as ant
Ġse vent
ist an
Ġac qu
oo p
Ġdisc overed
ĠR es
ĠâĢ ĺ
Ġco ast
A K
i ot
d a
Ġcontin ue
ĠM il
raz il
Ġserv ices
st e
m hm
Ġr u
ĠTex as
ĠM ag
Ġarri ved
Ġdep end
k er
Ġst orm
Ġcon vers
N ever
ĠSw ed
Ġcr ime
ĠPr ince
Ġwalk ed
ver t
k in
Ġtr uck
Ġ ut
Ġele cted
g ood
Ġbe yond
Ġsuccess ful
k et
Ġre pe
Ġsp l
ut ch
ĠJ esus
Ġsc ene
Ġag ed
at ory
ĠR ec
ĠS T
ĠW H
Ġform ula
Ġsw im
ĠB ro
Ġindivid ual
ĠS und
D r
ĠT e
Ġimag ine
Ġfight ing
w are
ĠC ourt
Ġwe ak
ol s
Ġ199 0
f ather
Ġd ouble
ĠAn ge
Ġoffic er
y l
Ġint ell
ĠPenn sylvania
Ġsp ot
Ġc overed
t t
C ould
Ġrev iew
Ġm oon
Ġ200 1
ĠR obert
Ġpract ice
ĠA ct
Ġgo al
ore s
Ġcoll ect
Ġenv ironment
Ġadd ress
ate g
Ġatt ract
Ġt ar
Ġread ing
Ġc ab
Ġ ess
ĠĠĠĠ ĠĠĠ
Ġcr ow
Ġpr ice
Ġap art
Ġpartic ip
Ġre ve
Ġtell s
ĠAr t
ĠD uring
ĠDem ocr
g l
Ġb le
or ks
Ġph il
Ġspeak ing
Ġb oss
Ġhold ing
um ents
ĠSc ott
Ġdist ribut
Ġwed ding
ĠM ac
4 0
or a
Ġwalk ing
Ġdescri bed
ist ed
i ation
ĠI S
Ġre lease
w h
ĠChar les
Ġfour th
Ġpurp ose
Ġm ic
Ġe mer
Ġp an
Ġpr int
Ġrul es
ĠKing dom
Ġadm inist
Ġiss ue
Ġfem ale
Ġpict ures
Ġ18 8
Ġang ry
Ġt ail
ac hing
ĠM ount
i ant
w ould
Ġp ig
ĠJ ul
; &
Ã ¤
Ġmount ain
Ġr ap
Ġfor ces
and a
Ġsh own
ĠSp anish
it iz
Ġsett le
Ġran ge
Ġtw ice
Ġpos itive
e ff
Ġo il
N A
Ġrepl ied
Ġen emy
ar ling
Ġ198 0
Ġf resh
i ents
c is
ri f
ul f
Ġt ro
ĠHen ry
v a
c a
at in
Ġsl ight
Y OU
ri al
ĠL aw
ed y
Ġtr ade
I R
Ġlot s
ĠB razil
ĠC han
ian a
Ġsur face
B C
Ġstreng th
Ġ200 3
Ġs le
Ġdanger ous
Ġr ate
Ġb ound
le cted
Ġacc ording
Ġch ick
ict or
Ġa chie
Ġdire ction
P ut
Ġl ink
Ġsold iers
u f
Ġsat isf
Ġh ide
Ġl oss
all ed
Ġeas ily
C he
ĠB ob
Ġde but
Ġmem ory
Ġlet ters
u ke
W ow
is ters
Ġcall s
ĠS ov
ic ate
Ġknow ledge
ĠG old
ash ion
Ġrecord ed
u pp
L A
Ġpress ure
Ġs ac
Ġdes p
ĠBr own
Ġr ub
Ġproper ty
Ġnot ice
ĠM at
iz ing
ad emy
Ġ200 2
Ġmiss ing
ĠTH AT
Ġm ir
m ar
ĠSov iet
an ge
ĠD O
Ġstud ent
2 5
l am
Ġnew sp
Ġtw elve
Ġem pt
Ġsp e
Ġc ru
c ause
Ġd er
Ġyou th
Ġhas n
Ġro se
ul ations
d en
et te
ĠD ay
Ġl oad
ir ing
ĠD el
ot a
Ġ20 22
Ġch oose
Ġp et
Ġfre qu
R em
Ġpr oud
Ġan cient
Ġteam s
ĠItal y
Ġpl aced
ĠCh icago
S ha
Ġcar s
ĠAn ne
is ions
Ġre b
Ġbr idge
Ġent ered
Ġthink s
Every thing
G ot
ose ph
U R
ĠR oyal
ĠS al
Ġh ors
ĠT own
C on
on a
r s
Ġco ach
Ġhon or
Ġplay ers
ab or
Ġsign ific
ent h
Ġdoll ars
ve re
d own
Ġin tern
Ġkit chen
Ġany where
Ġext reme
Ġsp ring
Ġmist ake
Ġcamp aign
Ġdro pped
z en
ĠHe re
Th ose
m ark
idd en
Ġfl at
Ġrem ain
Ġre n
ad ian
Ġforg ot
F uck
B ye
ve y
om s
Ġsec urity
el ess
Ġ18 7
Ġdeg ree
S ince
ĠK en
ĠP e
Ġop in
se mb
Ġwe ight
Ġbr own
Ġthrough out
Ġcond ition
Ġdise ase
Ġl unch
b ecause
K eep
A meric
H istory
Ġcap tain
ign ed
our s
Ġbig ger
EN T
A d
Ġbird s
Ġb ab
Ġwh is
ĠF irst
Ġinclud es
Ġlead ing
Ġqu al
gy pt
ĠCar ol
Ġpolic y
Ġt aught
L e
Ġabs olutely
Ġvict im
Ġun less
s ing
it ect
Ġdam n
Ġgrad u
Ġopportun ity
L ea
V ER
Ġwr iter
G reat
Ġfam ilies
ĠP eople
Ġcent ral
iet y
Ġhous es
al ed
Ġsystem s
Ġm um
ĠS ar
H old
stit ute
ĠAs soci
Ġsurpr ise
ip e
Ġbl ock
ĠT hank
Ġcor rect
Ġmag az
Ġgu ard
Ġstud ied
Ġst aff
Ġevent ually
Ġ rom
Ġsur r
ĠD iv
ĠG O
Ġsh oes
ĠJ oe
iver se
Ġris k
ĠF red
at o
ĠI ll
Ġc ities
w in
ic ious
ub e
Ġfor ty
Ġg e
g n
ĠC ath
Ġprov ince
Ġob viously
19 9
Ġnot e
Ġgrow ing
Ġpr ince
Ġmed ical
Ġwor ried
E n
ant a
Ġ197 0
ha l
Ġsmall er
Ġconst it
Ġbe g
est y
Ġv an
T om
ot ion
Ġbec omes
ro at
Ġm m
Ġesc ape
Ġpo ck
Ġdri ving
w hen
Ġus es
Ġmur d
re ci
ĠD es
Ġmag n
b es
Ġth ou
um ber
Ġte ach
Ġfor ced
ĠW il
est ival
Ġrem ained
Ã ¨
ĠS ing
Ġl aid
Ġcan cer
Ġman ager
Ġtri p
Ġent er
Ġrun s
as y
Ġhig hest
Ġslow ly
Ġresult s
Ġstud io
Ġdis p
ĠB ay
Ġty pes
Ġocc up
Ġsc reen
ĠSc ot
Ġprov ide
ĠM any
Ġp ush
Ġagre ed
Ġmult ip
---- ----
_ ,
S e
ru it
Ġcha llen
Ġsm ile
Ġbrother s
Ġmention ed
Ġimp ossible
Ġpick ed
Ġparticular ly
Ġam azing
m it
Ġluck y
ĠSm ith
Ġkind s
k ins
Al right
Ġn ation
Ġopen ing
Ġbreat h
Ġgr ass
ed om
y r
Ġth us
Ġ 00
tain ed
Ġinter view
ĠC om
C K
ĠH E
ic les
Ġexpect ed
N ew
Ġact ress
Ġn omin
od es
h ost
Ġhe aven
ĠE r
ac hes
ĠM o
Ġcurrent ly
Ġsa ved
Ġpl ans
Ġart ist
ĠJ er
ra el
r ough
l aw
Ġc ro
g ent
Ġv ote
Ġun iversity
Ġm a
ic ations
' .
be red
Ġwear ing
Ġplan et
Somet hing
ok en
Ġin vent
M om
ul ous
Ġhung ry
im in
O oh
Ġwe ird
uck y
Ġbre ad
Ġc ode
and y
Ġple asure
Ġhe at
Ġplan e
r ang
Ġfor th
Ġadd ition
Ġperform ance
Ġf irm
Ġh ole
ĠL ittle
Ġun cle
ĠW in
Ġelect ric
Ġcompet ition
ha ve
I ON
P r
ak ed
M iss
ip s
Ġlar ger
Ġsha d
Ġmiss ion
Ġlead ers
Ġmin us
Ġindust ry
w ill
Ġsh out
Ġbreak fast
Ġh ill
Ġty p
Ġwin ter
Ġcon cept
ĠE gypt
ist ry
Ġdesign ed
A ct
ar row
ĠB ur
Ġgener ally
Ġr ough
as tern
Ġreport ed
Ġbl ind
ĠCent ral
Ġstart s
C har
Ġpo et
the n
Ġsha pe
Ġrel ated
ĠB et
Ġsus p
Ġto ward
Ġfing er
Ġst uck
ĠS un
Ġstruct ure
ĠR ock
st ood
ĠF ather
Ġcompan ies
ve ll
Ġ199 9
Ġbri ef
ic an
Ġpre vent
Ġlik es
v i
ĠTh omas
Ġsm art
f riend
Ġhur ry
ĠI r
Ġwe ather
Ġcomp let
ĠPr in
i qu
Ġt ape
ĠL ee
Ġpain t
igh s
ag n
Ġc itiz
6 0
âĻ «
Ġs ides
Ġgreat est
Ġlear ning
is l
Ġfin an
ĠM om
Ġstru gg
Ġdef initely
ĠAc ademy
os h
Ġy a
Ġfeat ures
ce nd
Ġhot el
Ġperform ed
is hes
Ġf right
Ġb al
Ġtrans l
Th ree
ĠVirgin ia
Ġcult ure
ĠM et
Ġaw are
fess or
Ġcent re
Ġhors es
Ġform s
Ġs en
Ġp air
Ġ iron
Ġfore ign
ans as
Ġneg ative
Ġpl ants
Ġiss ues
Ġspe ech
ĠAt l
ol a
Ġrem ark
Ġs ch
H uh
Ġpower ful
Ġv ac
Ġev il
Ġret ired
en ing
Ġsil ver
ĠR oad
Ġfill ed
Ġjud ge
Ġs ection
ĠG reek
he red
Ġsour ce
as hed
Ġpat ient
Ġc rew
Ġth ick
ĠB oy
Ġgreat er
b re
Ġd uty
im a
ĠE mp
IGH T
Ġinst r
Ġcomple x
Ġphil os
ĠM ost
Ġcrow d
Ġsing ing
Ġcha p
Ġord ers
ut en
Ġcond itions
Ġcal m
Ġbl ess
Ġhand le
Ġhar m
ell e
os ite
w ar
OM E
Ġbas ket
Ġempt y
Ġturn s
S ay
f rom
ĠF il
Ġl ack
Ġex cl
Ġcr ack
ĠMex ico
Ġr ank
ĠD id
cl ock
ĠAfric an
ĠChampions hip
On ce
ĠAr ab
Ġblood y
ic ine
Ġquar ter
Ġte eth
Ġhead s
Ġser ve
Ġm ut
ec k
Ġst eal
Ġoff ered
gg ed
Ġre asons
im ately
ĠF ore
L Y
ur ry
ĠH ill
z z
Ġme re
ĠC ont
Ġed ge
ĠF ox
I F
Ġbeaut y
Ġorigin ally
Ġwit ness
ĠC H
our ney
Ġsp ell
Ġstand ard
Ġincre ase
Ġreal ize
y an
ut ive
ĠF in
ĠMart in
Ġj oy
ĠCong ress
Ġo pt
Ġbig gest
Ġour selves
ĠW estern
Ġne ither
ĠFl or
Ġm ale
Ġbec oming
fort un
c ons
oc key
b a
Ġbas ically
s m
us ic
od ies
Ġ3 1
ĠSund ay
Ġ196 0
Ġmiss ed
Ġneigh bor
Ġs ake
Ġ199 8
Ġtar get
om a
Ġcharac ters
Ġme asure
Ġord ered
Ġdiv ided
ĠAustral ian
Ġc hampions
Ġr are
Ġsy mb
Be fore
2 4
2 3
C E
Ġgr own
Ġbit ch
c raft
l ow
ĠH i
ĠSu per
ian o
Ġhard ly
Ġsus pect
O ther
ur day
Ġlad ies
ĠS ea
ĠPro v
Ġmed ia
Ġ199 6
Ġsepar ate
O D
per or
Ġtrans fer
ĠSp ain
Ġdog s
Ġj ournal
ĠV ictor
Ġrespons ible
ĠA pp
ro s
Ġc ere
ĠM other
ur b
ĠFran cis
it an
Ġdec ide
Ġ ign
ĠM aster
an ced
ĠW ood
ĠCan adian
Ġd are
ĠT wo
Ġkill ing
b ur
Ġrepl aced
Ġt ight
ed s
Ġn orthern
Ġstat istics
ĠSec ret
b ook
r id
Ġnet work
Ġad ult
Ġact ive
Ġtot ally
Ġv ot
Ġact ing
Ġrem ind
on ed
g a
ĠC at
r ate
re es
Ġme chan
Per haps
Ġg ay
Ġfore ver
ad o
ĠAssoci ation
Ġleg al
Ġpre vious
Ġconn ect
u an
ĠL os
Ġcom mer
Ġdirect ly
ri b
ĠRuss ia
ĠT or
ag ing
Ġo x
oot h
ĠR ome
Ġegg s
Ġdoc ument
Ġun it
Ġprom ised
Ġphys ical
Ġli es
are t
r ated
Ġc ouncil
um n
Ġam b
Ġcrit ic
Mr s
Ġwas te
Ġter rit
Ġgentle men
Ġw ine
Ġwill ing
Ġpro ve
ish op
Ġturn ing
ĠCath olic
m ay
Ġc uri
Ġarch itect
Ġclear ly
b oy
a ult
s aid
he art
Ġno ise
Ġfail ed
Ġme at
Ġcop y
ĠI re
Ġorgan ization
Ġs illy
Ġw ake
Ġsa f
is her
ld er
Ġj u
Ġdel ight
ĠJ ud
E E
ĠG et
hi a
Ġlaw yer
Ġcamer a
Ġfl ight
im p
ĠCon f
Ġon to
Ġres our
Ġinst it
Ġz ero
Ġsecond s
Ġcont ribut
Ġrelig ious
Ġtast e
Ġim age
Ġtrans port
Ġcont ent
8 0
Ġsc ream
aug hed
Ġear s
Ġappoint ed
um an
I nd
Ġcont r
ĠF ar
Ġmot or
Ġsu c
Ġfly ing
C T
p re
ĠB ig
Ġinflu ence
ig er
al i
ct ions
ĠR ev
ĠIs rael
Ġnin et
Ġapp reci
Ġsurpr ised
Ġb other
Ġprodu ce
el come
ĠH am
Ġtechn ology
Ġintrodu ced
Is n
Ġcand id
Ġk ick
Ġl ock
Ġro of
Ġpull ed
" ?
s ome
os en
l ig
R I
Ġdiv ision
ĠM aj
Ġconcer ned
ian ce
ĠK ar
c omm
Ġpat tern
ell y
B et
Ġkeep ing
Ġbuild ings
Ġli br
Ġindepend ent
Ġs outhern
H elp
Ġw et
ĠN at
Ġsuc ceed
Ġeas ier
N ice
ad ed
arent ly
Ġepis ode
k m
ar ry
ĠD en
ur a
Ġdestroy ed
ĠW I
Ġlangu ages
Ġprep ared
2 7
C os
res p
Ġ199 5
ĠL ady
ino is
Ġl oud
ag on
Ġopin ion
Ġas leep
M ost
ĠM ill
ĠCent er
n ces
A g
y our
ĠM el
pl ace
Ġad op
Ġ199 4
ĠComp any
Ġdr unk
Ġcry ing
Ġp it
Ġme as
Rem ember
ri g
Ġlisten ing
Ġb omb
an i
id ents
p art
c ol
F ine
Ġrec ently
Ġsp orts
Ġrem em
h im
Ġdem on
Ġexper ien
Ġqu ality
ĠGovern ment
us hing
Ġpal ace
Ġan al
ĠAnge les
ĠD a
Ġsc ar
Ġp il
Ġin sp
Ġpl at
O ver
ow ed
ĠFlor ida
s ed
Ġteac hing
u als
ĠD is
Ġlaugh ing
Ġc art
Ab out
Ġl aughed
Ġact ual
D uring
E ar
Ġlea gue
Ġve h
ĠCh ief
Ġo dd
ell a
Ġcl oud
ond s
end er
H a
M ic
ĠL ake
ĠB ecause
Ġmet al
Ġj ourney
Ġgr ant
Ġsw ear
Ġ6 0
ĠThe ir
uten ant
ab eth
or ter
ĠM er
a ud
O k
Ġd ying
ke nd
enn is
P h
r ick
w ing
Ġwor st
Ġth rew
ĠB est
Ġmag ic
Ġfav our
ad d
Ġman aged
Ġmain ly
az z
Ġrecord s
Ġm aid
ter ing
No body
Ġkn ock
Ġtri al
ard on
ĠR ay
Ġfix ed
Ġsleep ing
Ġappear s
qu ar
Ġposs ibly
at re
ĠU K
rop ical
ĠS erv
Ġdream s
D e
Ġp ound
Ġstep s
Ġse qu
ac hel
y m
al right
Ġplan ning
u ries
Ġp ure
Ġres ist
Ġadv ant
Ġwat ched
ĠS aint
ĠGovern or
t wo
oo per
ĠW omen
ou red
ĠD utch
Ġst ream
ea re
ĠD ick
Ġus ual
ic ide
av ing
ol es
j o
AN T
ĠDep artment
Ġaw ful
A pp
Ġsc ore
Ġshow ing
cell ent
Ġd rew
ĠB u
Ġprov ided
Ġpl ain
v is
Ġ199 2
N e
on se
Ġhad n
Ġlaw s
Ġdam age
ĠS l
he ll
Ġf ashion
ĠBrit ain
u a
T oday
Ġb uck
b el
Ġpart ner
Americ an
ct ors
ĠH aw
Ġ199 7
ĠC ast
Ġbu ried
ur ance
Ġg ir
Ġend s
ĠO ther
ĠF OR
Ġco at
Ġknow ing
Ġcirc um
en ced
itz er
ĠS il
al ent
ious ly
m other
ĠEmp ire
Ġman ner
Ġg ro
Â ¶
ĠW al
Ġg rave
Ġstay ed
cl es
Ġfeel s
Ġyoung er
Ġn uc
Ġsp oken
ĠYou ng
ri er
Ġevery where
Ġexp ression
Ġoffic ers
ĠR E
Ġfeel ings
Ġappear ance
Ġin ha
Ġconst ruction
aur a
ow ing
Ġown ed
Ġfing ers
y o
Ġrem ains
Ġconvers ation
Ġwall s
Ġa st
Ġd om
Ġstud ies
Ġg ift
Ġmagaz ine
oc ol
Ġass um
r ance
Ġnot iced
Ġdra g
Ġpock et
j a
Ġrequ ired
Ġme l
or ough
ĠR ad
ov ing
Ġexp ress
im um
ĠCl ub
Ġan x
ĠD ev
he ast
he y
Ġeconom ic
ĠGeor g
2 6
M ake
Ġpre m
Ġsm oke
og ether
Ġr at
Ġt ong
Ġloc ation
O H
Ġst ock
ĠSt an
Ġd irty
Ġbut ter
Ġ199 3
Ġs ect
Ġal t
Ġre act
Ġd uck
Ġup set
Ġtro ops
Ġc hamp
ly n
ĠA h
ĠS ummer
ĠA ng
i os
ly ing
Ġc e
Ġc ous
ut ions
ĠIll inois
O P
ĠM ur
Ġgun s
Ġp apers
Ġl oves
le g
Ġocc asion
t ies
Ġwin ning
A VE
Somet imes
k o
Ġsc rew
Ġrequ ire
or ial
Ġl osing
ĠP ak
Ġpre fer
ourn ament
O S
Ġrequ est
p a
Ġst ret
Ġdr ama
Ġcoll ection
Ġreal ity
Ġopp osite
ĠSt ud
N OW
An other
ĠW E
ĠT han
ĠPar liament
Ġse m
Ġoper ation
Ġrelig ion
Lea ve
ĠR og
Ġwhe el
Ġrest aur
ĠIre land
semb ly
ĠA unt
Sh ut
I E
Ġthe e
ĠAmeric ans
ing u
ĠT im
Ġmin or
M ore
ĠH a
Ġby e
Ġaut om
ar ing
ce l
Ġimpro ve
Th ink
f oot
Ġun its
ĠK ent
ĠG ames
ĠH on
Ġbott le
Ġpro gress
Ġc ake
Ġenc our
Ġf ile
l ict
Ġdep art
Ġcomplet ed
and s
Ġsc r
Ġfind ing
Ġcell s
Ġinn oc
ĠV er
i est
Ġtr ick
Ġmus ical
Ġintell ig
en ny
ĠM ajor
Ġdri ver
Act ually
ĠB a
ul ty
Ġrel ative
Ġs li
ĠP an
ĠG re
Ġg all
St ay
Ġexc use
ĠM ass
ĠC amp
Ġtreat ment
Ġpre c
Ġfavor ite
Ġtrad itional
ĠL ook
Ġab ility
Ġra ise
Ġhelp ing
ĠPr ime
ke ep
Ġeff ort
ĠS qu
ok ing
ĠJan e
Ġf ought
Ġhum ans
Ġjo ke
ĠB as
Every one
Any way
ch ing
ĠR ail
Ġex erc
Ġm o
ĠDiv ision
ar ian
... ?
Ġmic ro
o is
u it
Ġj ack
Ġgi ant
ow a
Ġdrug s
Ġ199 1
ĠG ar
ast y
Ä ģ
en c
Ġmat ches
ĠScot land
Ġthousand s
Ġwee kend
em ic
ond er
Ġf an
Ġbas is
Ġthought s
Ġadv ice
Ġphilos op
Ġt iny
stit ution
ĠC le
Ġfl ag
ĠAn n
ĠE very
N ext
Ġg ate
Ġstru ck
Ġf ro
ir a
Ġb ast
an ing
Ġwe bs
ap a
Ġgu itar
b et
Ġlight s
il a
ĠR ight
2 8
r ain
Ġstat ement
Ġaff ect
Ġfl ower
C ause
ĠS us
Ġchem ical
ig g
Ġuse ful
Ġt im
ac le
Did n
Ġw estern
ab out
Ġjob s
US T
av al
ĠPrin cess
ob ile
f all
st ead
Ġship s
7 0
i ven
Ġal tern
ĠGr oup
Ġ18 5
Ġforg otten
Ġmat ters
j i
Ġs in
ut ed
ĠO ff
w ater
Ġn erv
Ġsaf ety
uf act
Ġt un
ĠG e
ĠC ons
er al
st ra
ac he
Ġet c
W hile
Ġth y
E l
Ġy e
ĠC am
th ur
Ġclos er
Ġatt end
e gr
Ġfl o
Ġsw ord
ĠMus ic
an o
ĠB ell
aim ed
Ġfre edom
ab b
2 9
ĠCar l
G E
m ond
lf riend
ig an
ĠOlymp ics
w hile
Ġb odies
ĠSat urday
R A
Ġeffect s
Ġaward ed
ĠD ire
Ġnin ety
Ġf al
ĠDo ctor
D amn
S m
ĠH el
Ġrece ive
i as
ĠH ot
Ġpres ence
Ġmot ion
ili ar
C all
Ġfoc us
Ġspl it
R Y
Ġr ise
ĠR ose
Ġdecl ared
ad or
ĠL atin
ĠM ike
Ġgentle man
How ever
Ġaccept ed
M any
Ġgold en
Ġexc han
ĠM ax
Ġn ative
st ances
ol ved
l oad
Ġmin ister
Ġear n
Ġbring ing
ĠDemocr atic
Ġse lected
Ġl ect
Ġth in
M AN
ĠW ind
g or
erm an
Ġb are
Ġtemper ature
ab bit
Ġd ressed
4 5
ad s
ĠIn stitute
Ġt ears
Ġfinan cial
Ġg ri
il ty
oo ps
ail ed
Ġhear ing
Ġcred it
ĠF oot
Ġb order
Ġsign al
Ġresp onse
ĠK im
Ġg raph
ĠJ oseph
Ġc ash
Ġd arling
Ġc ream
ĠMaj esty
Ġweap ons
Every body
Ġentire ly
Ġrec omm
Ġaff ord
ĠComm ittee
Ġbroad cast
Ġsa il
Ġm ate
Ġrec ent
O ut
Ġm ort
am ing
Ġwork ers
Ġcont ains
Ġnewsp aper
ĠW hile
z er
ect ive
Ġdiv or
Ġli ps
r d
ic ient
w an
ur se
. )
b ury
Ġ198 9
Ġexc ited
Ġchick en
Ġf ired
ham ber
arr ing
Ġfif teen
u ous
im inal
Ġauthor ity
Ġsil ence
ĠL ove
Ġ195 0
Some one
Ġperfect ly
Ġhy d
c ar
Ġb oo
Ġfall ing
Ġexper iment
v in
Ġcast le
p ret
erv ation
Ġbill ion
Ġl ic
What ever
Ch rist
Ġsignific ant
ys is
is a
Ġf aster
ĠI m
Ġmanage ment
ell ing
Ġa im
Ġdes ire
Ġactiv ity
ĠI ran
ri ble
se ll
3 5
t hank
Ġr ow
Ġstre ets
T w
ĠH ol
ĠF er
o ch
Ġsu gar
vent ion
Ġmajor ity
Ġdraw ing
ul ated
Ġappro ach
ĠS ince
Ġcom ment
Ġb oot
Ġlab or
cha nt
Ġcare fully
Ġdrink ing
in et
ar ia
Ġvar i
. ]
Ġf ruit
Ġconn ected
ĠSo ciety
Ġsol ution
Ġninet een
B E
ĠEd ward
Ġp ool
c ont
Ġsix ty
Ġbe ach
r ant
p et
ven ue
Ġpain ting
Ġsu ck
ĠSecret ary
Ġcon cent
st ant
Ġp in
Ġqu een
ĠO s
Ġmed icine
P E
Ġre nt
ĠT w
i pped
Ġd iam
Ġar range
ĠPro fessor
ĠD ou
od d
Ġele ment
Ġkeep s
Ġsett led
Ġrem oved
Ġunder stood
Ġa h
Ġf ant
e er
ĠF re
. _
L a
Ġu pper
ĠS ee
Ġkid ding
um my
Ġplan ned
Ġt ough
Ġfull y
Ġpot ential
Ġl ake
Ġshar p
er ves
ul ate
ac ter
Ġbran ch
iz abeth
O L
z y
ĠY ear
Ġcom edy
ĠPl ay
Ġincre ased
Ġbas ic
Ġbes ide
Ġad vent
ĠTr ans
J ack
Ġl ord
ON E
Ġha bit
Sh ould
ĠB illy
Ġprim ary
Ġsc ored
Ġnum er
s pect
C ap
em an
Ġother wise
Ġter ror
Ġmix ed
Ġdef end
Ġhigh ly
Ġprogram s
Ġm ap
Ġd im
19 8
Ġaud ience
Ġf ederal
Ġro y
Ġap artment
Ġc hat
Ġsex ual
w ers
Ġj ail
ĠR os
W elcome
p al
Ġfig ures
ĠW AS
ĠJack son
Ġgo als
Who a
ill ed
ĠH ello
l ar
v est
H mm
Ġmount ains
Ġpre gn
Ġpri or
Ġro les
Ġd u
Ġvict ory
Ġp leased
ob al
Ġcons um
Ġstat us
Ġforg ive
port s
ing er
A H
n am
ĠM useum
Ġking dom
ĠSt ar
Ġpass ing
Ġcomfort able
Ġt or
het ic
Ġfail ure
ĠP ac
uck les
Ġpay ing
Ġfif th
w orth
ell ed
Ġgr ab
app y
Ġsuggest ed
or se
os aur
Ġarrest ed
Ġchan ging
Ġdefe ated
por ary
3 7
iv ity
Ġeight y
Ġrap id
K E
Ġ( ;
Ġrail way
ad ium
ost on
Ġpro ceed
un ny
... "
Ġag ent
Ġinv ited
L ove
Ġf aces
Ġm useum
rop ri
Ġt ap
ĠN orthern
w ant
w a
Ġch osen
Ġele ments
Ġnerv ous
Ġh iding
ha s
itzer land
Ġkn ife
ĠG irl
Ġstri ke
ĠSwed en
g ment
am ily
Ġprodu cer
ĠJew ish
Ġ198 8
Ġap olog
Ġrepresent ed
Ġchan nel
Ġcir cle
ĠL y
ind a
Ġav oid
Ġextreme ly
Ġposs ess
Ġgrow th
Ġdan cing
Ġcont roll
Ġprofess or
ste in
Ġgir lfriend
Ġp ra
Ġ8 0
Ġd omin
es sel
ish ment
Ġe h
Ġman ufact
du c
S te
Ġw id
Ġche st
Ġactiv ities
Ġsch ol
Ġlibr ary
Ġwind ows
T ry
ĠFr iday
Ġwas h
Ġpl enty
Ġwe alth
" ).
g ency
Ġsome how
Ġdis play
k ed
ĠHar ry
ic i
Ġnot es
Ġrout e
ĠPak istan
B ack
Ġsell ing
D an
oc al
w ere
Ġfle w
ri ff
Ġu lt
d es
Ġm ax
iz es
ĠAs ia
Ġup stairs
z o
Ġse es
Ġpur cha
aw a
s ay
Ġshoot ing
Ġadvant age
ĠZ eal
Ġtong ue
, '
is ation
Ġcol our
Ġcomp os
ub b
Ġbelie f
Ġfield s
Ġunderstand ing
Ġmultip le
Ġb unch
ĠJ ean
Ġproduct s
Ġs ons
Ġun f
ĠCol umb
Ġcarry ing
Ġsold ier
Ġinst ance
Ġs ales
Ġair craft
Ġgu ilty
Ġachie ve
w ide
Ġslight ly
do es
Ġcal cul
v ior
Ġo cean
ĠS outhern
Ġsh r
ond ay
b ably
ĠĠĠĠĠĠĠĠĠĠĠĠĠĠĠĠ ĠĠĠĠĠĠĠĠ
Ġshe ll
Ġown er
Ġp owers
um s
Ġcons ist
Ġk il
Ġfil ms
P S
Ġw ha
ha pp
Ġtra ffic
Ġd ed
Ġg host
Ġli ber
Ġcons cious
Ġres c
pha nt
Ġdo ors
ĠMus lim
S er
ĠD ar
Ġhang ing
Ġpro of
Ġserious ly
Ġpo ison
N O
ĠM ore
ĠC orn
ĠW ay
Ġsc ale
if orm
ĠP re
Ġsc hed
Ġd ust
ĠB ang
Ġ198 7
Ġmat hem
Ġn arrow
Ġent ertain
Ġl atter
augh s
Ġconn ection
Ġrev olution
Ġesc ap
ĠI owa
Ġt one
Ġcoun ter
Ġqu ant
Ġresour ces
ĠO k
ĠSw itzerland
Ġb rave
le ction
ĠJ ac
ult ure
) :
ĠL ong
Ġp ink
at i
Ġfam iliar
ĠZeal and
Ġca uses
Ġha m
Ġexp ensive
H urry
ĠT er
Ġsupport ed
Ġreal ized
Ġt ask
Ġg ang
ĠChar lie
Ġscient ific
ĠUn cle
Ġsp ect
Ġem p
Ġcitiz ens
Ġhe av
ĠIr ish
h in
ĠT y
Ġc ant
ic y
Ġpl ate
ĠM os
Ġ9 0
ĠL ike
ho le
ĠM Y
Ġsupp ly
Ġrecord ing
Ġim pl
Ġb at
Ġcha in
Ġ eth
Ġun ion
es h
Ġweap on
M ove
Ġappro x
Ġem ot
ĠCarol ina
ĠThan ks
Ġstr ing
Ġun iverse
Ġdet ails
ver se
we et
ger y
ĠH an
ĠA my
Ġche er
ĠCol onel
Ġremem bered
s k
Ġd iss
am in
Ġbl ame
Ġcost s
Ġg ather
ĠS H
ĠSt ep
Ġpre par
Ġlevel s
' ,
U GH
Ġw ave
Ġgu est
eak ing
Ġ198 4
ĠCha ir
o very
ĠJohn son
ac her
Ġinc red
Ġw ings
ĠA wards
amp s
ĠL and
St ill
Ġfair ly
Sh it
Ġtrad ition
ĠK e
ĠL ight
Ġwond ering
Ġsh ore
Ġsil ent
ĠN E
3 6
Ġre ck
ur d
ord in
Ġ3 5
sp ec
Ġsp ort
Ġtrans form
Ġr ac
Ġlab el
Ġh idden
ĠIs lam
a fter
Ġclass es
ĠW all
Ġold est
4 7
3 9
ro ke
Ġsh irt
on ia
Ġse asons
Ġhy p
ĠJ un
E d
W atch
Î ¿
ĠE ll
Ġm ental
Ġstay ing
Ġat e
Ġcommer cial
C ol
Ġsp in
ep ing
own ed
ĠU nder
Ġafter wards
Ġm ole
ĠComm ission
ĠO l
Ġ197 9
Ġplat form
ot o
Ġshe ep
Ġv essel
Ġth roat
ĠA T
Ġrespons ibility
Ġroy al
Ġdisapp oint
Ġh ook
ack s
ĠV alley
ea u
Ġv irt
A ccording
Ġp ha
Ġad vert
ĠAr ch
Ġcap ac
Ã ±
AP TER
C A
Ġc ards
Ġbud get
Ġhell o
ĠT ri
Ġeas tern
Ġsol id
Ġprin cess
l ong
g ie
ĠH y
I L
Ġ /
Ġlim ited
Ġcous in
av a
ict ed
Ġ198 1
Ġcol on
Ġfe ature
Ġpresent ed
r as
Ġp ill
Ġfind s
ĠL ab
Ġab and
Ġbre aking
Ġtra vell
Ġun ivers
be y
the m
C are
Ġw ise
ed ing
Ġbr and
A ye
Ġ197 2
Ġshould er
Ġsha me
Ġeconom y
3 8
S it
stand ing
Ġt ournament
ĠO ut
Ġ198 6
Ġattack ed
Ġat h
Ġch ose
Ġrock s
U p
Ġd read
fortun ately
ĠS el
Ġfol ks
ĠM iddle
Ġ7 0
Ġ <
Ġtr oub
ren ce
Ġart ists
Ġpart ies
Ġ-- &
Ġref used
Ġwa ited
ĠKore a
ĠK at
Ġcont ain
un ched
Ġpass ion
Ġtown s
ĠProv ince
Ġl at
Ġexp and
H as
Ġp oll
ĠTH IS
ĠS k
ĠRepublic an
ĠR am
ri pt
the w
Ġmed al
O pen
Ġh om
Ġrel ax
Ġjust ice
Ġint egr
Ġfl u
Ġant i
ĠB re
Ġli qu
Ġst ated
Ġche ese
19 7
ĠJ eff
are n
ĠS ol
Ġw ire
Ġsuff ered
Ġst ations
ur ally
Ġoccur red
ov a
C ha
Ġdeterm ined
Ġb atter
ick et
quar ters
ĠC O
Ġbegin s
Ġchallen ge
ĠW ales
un s
ĠS ur
Ġ198 3
Ġed itor
Ġpolit ics
4 9
ĠR od
ĠU N
en ger
Ġdisapp eared
i ac
on ly
Ġbl ank
ĠFoot ball
is se
ĠC y
ins on
Ġgener ation
es ides
n ic
ent ially
g ive
Ġtele phone
Ġvar iety
Ġadm it
Ġgo dd
Ġdra wn
st one
eg al
Ġnorm ally
b ow
Ġfal se
le m
ĠComm un
a res
ĠF ort
Ġatt ended
Al though
Ġhapp iness
Ġrid ic
S am
en es
Ġ198 5
ĠYOU R
Ġtem ple
Ġhel ps
ar io
Ġinnoc ent
er k
U nder
m et
ang ers
Ġcontin ues
Ġprot ection
le nd
Ġele ven
Ġconf lict
Ġ198 2
iec e
Ġun us
Ġf urn
ĠV al
Ġprop osed
R B
Ġl ocked
Ġl one
im ents
d is
ast s
age ment
Ġh omes
Ġleg isl
Ġda ily
Ġv ent
ang le
Ġid iot
Ġexist ence
olog ist
Ġart icle
Ġb ite
ĠIn ter
er a
ĠE ven
u ps
s it
ĠB ook
Ġcar bon
ĠSec ond
Ġc ateg
ron ic
Ġdeg rees
ag ue
Ġsw itch
Ġtou ched
e z
ĠU k
Ġa x
Ġbri ll
Ġback ground
Ġrefer red
S ec
Ġn urs
al f
Ġon line
Ġcl imate
ĠS and
Ġve get
Ġf old
Ġstand s
ES S
Ġsub s
Ġsent ence
ĠN ick
Ġequ ip
Ġoper ations
Ġhon our
4 8
ĠT ony
cri pt
Ġinha bit
Ġresp ond
Ġco al
M ad
ĠL ib
B ar
Ġto wer
Ġimp act
ĠSen ate
r ont
our se
Ġkill er
Ġcon c
Ġfl ood
Look s
Cl ub
Ġp a
Ear ly
ĠN az
Ġtreat ed
Ġincre asing
Ġple asant
ĠT re
Ġsu icide
Ġbut ton
Ġv ision
Ġwr it
J esus
r ical
el a
ĠF our
Ġun known
Ġjo int
Ġcr iminal
Ġcomm ittee
b ec
ĠD i
Ġd yn
Ġhe ight
Ġp iano
Ġc ig
ad ing
Ġset ting
5 00
G l
Ġor ange
d ad
Ġestab lish
P eter
Ġl oose
M other
ist or
ĠâĢ Ķ
ĠI II
Ġassoci ated
c est
ra ham
ep s
Ġobject s
c oh
Ġt ied
cept ion
ĠS hi
D es
it o
Ġas pect
Ġval ues
Ġc as
ge ant
br idge
g le
Ġf ancy
Ġsymb ol
Ġterrit ory
ĠTh ree
Ġfall en
ĠB oston
P aul
or por
ĠT ra
ul s
Ġhundred s
ĠFor ce
T urn
Ġqu it
Ġeng aged
Ġrecogn ized
ec e
Ġfr ame
Ġ197 6
" ),
J o
Ġh orn
* *
Ġpre viously
Ġc ute
id ae
Ġinc ome
3 3
Ġsee k
Ġfollow s
OU LD
hi o
Ġinstr ument
i at
Ġ5 00
ĠK ansas
ĠK NOW
Ġse vere
ene ath
in ent
Ġju ice
g ly
Ġhun ting
Ġ197 8
Ġviol ence
Ġneigh bour
Ġcon sequ
ĠA S
Ġboy friend
Ag ain
Ġcl ock
ĠL ater
F l
Ġtr uly
I A
ĠS a
se x
Ġhop ing
Ġsac rif
Ġappreci ate
b ar
Ġb ra
Ġdisc over
Ġc ott
Ġroom s
sh ould
n at
Ġser ving
G e
F ather
Ġt ie
Ġs isters
Ġbenef it
nt il
u ce
ĠK ong
ĠPort ug
om er
Ġdro ve
Ġcl ient
Ġhands ome
che ster
Ġfeat ured
Ġmy st
Ġcomm ission
ĠA ss
Ġpri est
sha ll
r ich
om pl
ĠH ave
ĠL ife
Ġt ur
ĠJ ones
Ġsuff ering
Ġarg ument
f ive
itt y
ric ane
ĠN orm
ĠJohn ny
Ġshad ow
Ġsen ior
un te
ĠN OT
Ġbe er
ound ing
Ġh o
ĠA ccording
ĠM u
ĠV en
ok es
Ġmain tain
ĠM en
ĠT ay
osp here
9 0
Ġcondu ct
Ġapp le
Ġa unt
b u
v y
ĠG al
ĠJim my
AC K
ĠU p
Ġord inary
ĠD or
L ittle
Ġcomp ared
Ġcle ver
ĠEm peror
F ran
Ġest im
Ġl it
Ġsh ock
ak a
pe red
p oint
Ġw o
for ce
Ġapp eal
Ġrecogn ize
r ad
ll a
se ct
Ġdist inct
L ast
Ġb orrow
i ro
ĠM em
ust ration
em ies
Ġsurv ive
Ġf ate
Ġm ail
re al
and om
ĠE astern
ĠSo cial
Ġrepe ated
Ġg ain
Ġproper ly
Ġ197 4
B ill
Ġdes cend
Ġbeha vior
le v
em ents
Ġ197 3
Ġadminist r
Ġin qu
ol k
Ġcour age
Ġl in
ĠCh ris
ĠRec ords
is er
ĠL iber
Ġlim it
Ġp ale
Ġha st
Ġdel iver
Ġrestaur ant
I V
-- "
F our
Ġo k
al so
Ġche ap
wr iter
ĠS how
T V
eal ous
s ure
Ġover all
IS T
Ġear ned
19 6
Ġcreat ure
ie utenant
arr ass
ĠJer sey
4 6
ĠAl an
st ers
Ġr um
Ġcont est
ven ge
Ġwebs ite
ust ed
a ire
Ġun ique
ĠH ind
ĠS on
Ġex cellent
Ġapp arently
ocol ate
1 00
S u
Ġnot ed
is y
ĠC a
hm m
Ġagre ement
Ġb att
Ġburn ing
Ġindivid uals
Ġequip ment
ir ation
ĠT ime
al m
ĠF estival
ĠPhil ipp
M a
ĠH AVE
ge nd
Ġsign s
Ġreport s
w ich
Ġp ushed
ĠCon n
b ox
Ġcons ult
Ġconv in
c r
an ks
ach us
Ġchamp ion
Ġcircum stances
Ġhold s
A B
rop ol
im al
Ġsome what
B ig
ĠC hild
ĠR on
ak i
Ġpart ners
Ġex act
ĠT ele
Ġcomm itted
Å į
ot ic
he im
ER S
Ġoffic ially
Ġgood ness
Ġconst ant
c ase
ĠH u
Ġbr ings
Ġpat ients
ĠH ome
ĠF air
Ġob vious
Ġgovern or
ĠM onday
ĠB ank
iz ations
Ġbud dy
Ġbast ard
cons cious
Ġdis m
Ġlist ed
ar ant
et ch
ea ks
Ġr ot
Ġsoft ware
ather ine
ĠV an
Ġ4 5
Ġnuc lear
duc ation
un ting
ĠJ r
Ġo w
Ġmult i
ĠBel g
m o
S im
U L
Ġre ject
Ġint ended
The ir
ol t
Ġimport ance
Ġconf erence
Ġ196 9
w orks
Ġexpl ained
ĠAl though
Ġpret end
Ġcr is
ĠSte ve
Ġme al
ĠAs ian
Ġadd itional
Ġbab ies
ĠO x
Ġmov es
Ġtra il
ĠH oly
ĠMar ia
omet imes
oo h
Ġadv ance
Ġ196 8
Ã ´
oo f
ĠB us
Ġ197 5
Ġexchan ge
ir al
ĠM od
Ġla unched
Ġ0 1
Ġdes k
Ġsle pt
Ġwood s
ie ve
Ġeat en
look ing
ĠBl ue
Ġdepend s
Ġwith d
Ġnomin ated
l ife
Ġconcer t
op p
Ġassist ant
ĠServ ice
ĠF e
Ġperm an
b ased
Ġwe b
Ġ197 1
ĠD et
Ġro ot
Ġst om
ĠEl izabeth
Ġw rest
Ġke ys
P res
Ġst ole
Ġsol ve
b ell
Ġn ut
et ts
az e
l ers
Ġsub t
inc ol
Ġsc ript
Ġ197 7
ink ing
Ġcomm it
Ġb ang
Ġdark ness
Ġhor rible
ĠB ern
ĠT em
ĠN avy
Ġshe l
ĠGeorg ia
ot al
Ġclaim ed
Ġteacher s
Ġhistor ical
ĠBr other
Ġgood s
mp at
m om
ĠH ea
D avid
ĠR om
ĠAtl antic
B oth
Ġar rang
ĠMar g
ĠM ich
ĠAnd rew
Ġ193 0
Ġcommon ly
H L
Ġswim ming
Ġneighbor hood
b ly
0 1
ev in
s ur
Ġre action
ĠC ivil
Ã© e
Ġdescri be
ĠTur k
as m
Ġo we
Ġat m
Ġact ions
Ġclose ly
ĠPac ific
ĠB on
aw s
Ġwin ner
Ġbed room
ĠD ef
AR T
Ġtrack s
Ġacc omp
Ġsa v
ĠIn tern
Ġsy m
B S
Ġele phant
Ġcompet ed
P re
in ity
as p
Ġpr ime
it able
Ġfriend ly
est ic
k now
Ġphot ograph
ĠP L
ol en
Ġmy th
Ġsit u
Ġ194 0
ĠBer lin
U M
ĠH ung
ing ing
Ġall ows
Ġw ished
am i
ĠB ull
Ġdef in
Ã §
un ts
Ġan cest
ĠT a
Ġr ang
Ġexpl os
om y
ear ch
Ġcor resp
ĠPri ze
P ol
at ics
Ġpro ved
hes s
ĠFrancis co
OU T
Ġemb arrass
Ġbasket ball
Ġsp ite
Ġindust rial
achus etts
F in
Ġhol iday
Ġsettle ment
S aint
ing ly
Ġret ire
Ġal coh
Ġfl ow
Ġ196 4
f ish
ob e
Ġc ock
c os
Ġrem aining
ĠL uc
Ġcor por
Ġrom antic
Ġd ies
ĠG il
ĠH arr
Ġgot ten
app ing
Ġcuri ous
Ġ â
Ġsp lend
ere r
Ġdr am
che stra
Ġf ishing
Ġas ide
Ġacc ompl
Ġmark ed
Ġb on
ĠAr thur
Ġins urance
Ġinvestig ation
ile y
Ġanal ysis
ĠE v
Ġcomp osed
Ġw ing
Ġl ift
Ġcon qu
Ġsp r
Ġridic ulous
G R
Ġfright ened
c omp
Ġp uzz
Ġbath room
Ġmere ly
s en
Ġv alley
Ġtend er
3 4
ĠO pen
ham ed
CH APTER
ĠWI TH
f le
Ġste el
e very
ĠN ether
ot i
Ġfall s
G eor
ar n
ch ild
Ġemer gency
Ġdev il
bur gh
W he
Ġso ci
Ġdes per
Ġnear by
Ġgod s
3 2
ĠP en
ropri ate
ĠD un
L ife
om i
Ġsend ing
Ã³ n
Ġlone ly
y ard
Ġn urse
Ġb ones
ĠOn ly
Ġg al
ier ce
t han
Ġto ols
ĠW ater
Ġt ort
3 1
ĠR aj
Ġexam ples
Ġstrong er
Ġmaterial s
g ues
ĠI nt
ĠS ant
Ġset s
Ġcrit ical
Ġpr ote
Ġappl ication
ĠBo ard
ĠD E
ask ed
ĠT ok
Ġreg ret
C omm
t ake
Ġmon ster
Ġw ore
Ġb eneath
Ġre ward
ir med
ĠB av
Ġdec or
Ġeff orts
ĠB oth
ĠU h
Any thing
ask a
F ive
ott ed
Ġcapt ured
ĠAb out
ĠB ea
Ġj un
ons ense
N G
ou ri
Ġh ired
ĠC ub
iqu es
Ġpregn ant
ĠFil m
Ġac id
Ġest ate
ĠC AN
ĠG all
ĠN ob
ru ce
out s
, --
ĠB attle
Ġmethod s
og ue
l ot
Ġour s
Ġsha red
ord on
Ġpr ide
Ġsweet ie
Ġprot est
Ġen emies
go ing
Ġair port
Sha ll
Ġexerc ise
Ġm ile
Ġsure ly
ĠKore an
Ġm ood
T oo
ay a
Ġ196 7
un ning
ĠLe on
p ass
ĠO ver
Ġland s
Ġconcer n
Ġstom ach
re ck
Ġun iform
Ġs alt
Ġdefe at
Ġ( ,
Ġattack s
Ġcop ies
Ġenjoy ed
Ġt alent
Ġto ys
Ġsh ook
Ġapp ly
Ġliter ature
ĠDire ctor
ar ah
ĠT imes
do or
Ġadop ted
enc ies
t i
ĠB ible
os is
Ġu gly
Ġnumer ous
Ġbrill iant
Ġcol ors
ĠN O
Cap tain
5 5
Ġso il
ch ief
Ġbut t
Ġdeal ing
Ġinhabit ants
w ait
Ġsur gery
Ġph r
Ġsim pl
Ġappl ied
ĠOff ice
on ent
Ġr ug
Ġob lig
Ġauthor ities
ĠA v
ate ful
U CK
Ġsk ills
ĠBar b
ĠJ on
Ġpro ced
ĠD av
pt on
Ġsort s
if ying
Ġag ric
Ġbu g
' ?
Ġr ings
Ġdev ice
Ġorgan ized
Ġg ained
Ġse ats
Ġdistribut ed
Ġthem e
in ter
Ġre form
or i
Ġsa le
Ġsp o
Ġmay or
gg ing
Ġfact ory
Ġbur st
B oy
ĠSim on
om ed
Ġdel ay
Ġthr own
ĠRep resent
Ġs am
ĠScott ish
ĠMich igan
ĠD ON
ĠN ight
ĠDan iel
c ow
ost er
ĠL O
B I
Ġy ard
cri ption
Ġprop os
ĠTom my
t urn
Ġveh icle
Ġcon cl
Ex actly
T e
Ġdis ci
ĠAs sembly
app ed
Ġfort une
Ġfol k
ĠAl ice
ik a
E ng
Ġdet ail
I m
rog en
b ird
Ġmy ster
ĠAr ts
Ġtick et
Ġunus ual
4 4
B O
N E
ult ural
ĠT ha
T ime
Ġtr ains
Ġcompl icated
ĠA ri
st ance
Ġt ear
ĠA ny
Ġann ual
ĠL I
ĠD NA
Ġeffect ive
ic ing
Ġbl ocks
may be
as ters
ru cted
Ġinst ant
Ġhouse hold
Ġpri ze
ĠAd am
ĠMass achusetts
Ġcon ce
Ġg rav
Ġ194 5
Ġscient ists
l ittle
Ġdem ocr
Ġa id
ĠNether lands
ith m
Ġinc ident
S C
ĠAr gent
Ġdra ft
ĠS har
ĠS up
Ġburn ed
Ġinit ial
ĠV iet
Ġbull et
Ġp ity
at hered
ch o
ain ts
Ġoper a
Ġdisapp ear
ĠOlymp ic
Ġdo ctors
ive red
ĠBe fore
m ony
Ġhar der
Ġstr anger
Ġele v
à ¸
un a
ĠR o
Ġpl ot
Ġte en
Ġdes ert
p o
B ring
re ts
ĠG er
ĠR a
Ġcr own
U D
or gan
Ġobs erved
Ġt a
ĠD uke
Ġpar ish
Ġsix th
Ġelect ions
Ġperm ission
B el
Ġbr ide
Ġcons ists
Ġun able
Ġatt itude
Ġsuff er
ĠWH AT
ĠN et
Ġheart s
Ġf uel
Ġwar ning
Ġcult ural
Ġle gend
Ġbad ly
ĠSar ah
Ġp eak
ĠB ad
ĠL es
um es
Ġp ow
ĠL ew
th ree
it ors
Ġr andom
Ġcru el
Ġcandid ate
G eneral
Ä ĩ
Ġsupp l
Some body
Ġroad s
Ġchampions hip
Y ep
Ġh ills
ĠN ic
Ġadv anced
ĠE ve
ollow ing
Ġsub sequ
Â Ĵ
Ġp upp
ĠB ab
ĠO hio
Ġcreat ing
ĠB road
ES T
eng ers
M art
Ġsp are
Ġstrugg le
i ar
w ick
f our
ut ies
ad elp
Ġwhen ever
Ġnight s
Ġis lands
Ġst ress
Ġown ers
Ġass ume
ĠPr ot
ĠM ir
Ġd un
ĠB ra
WH AT
Ġconf ess
Ġphot o
omet hing
c alled
ge on
Ġbal ance
p ol
t ell
|| ||
Ġr iding
Ġpoint ed
Ġbelong s
Ġbit s
Ġang le
ĠT am
ĠB all
Ġact s
Ġexpl an
Ġless on
incol n
Ġj ealous
Ġident ity
um a
ĠE s
Ġlead s
Ġsevent y
ran ch
ipp ing
ĠWilliam s
ĠChampions hips
Ġp ages
ea rest
C ong
Ġd ish
Ġj ew
orn ey
ord ers
Ġvol ume
Ġg re
er g
Ġv ia
adelp hia
Ġvis ited
ĠM id
Ġbu ying
ĠR oss
cl ass
ĠDan ny
ĠS C
Ġball s
ĠHe ad
Ġar med
n i
al ing
ak s
ĠAust ria
ard o
Ġcap able
J im
p ress
Ġst airs
Ġv en
ere nt
Ġchar ges
Ġe ager
Ġw aves
F rank
Ġoper ating
Ġimp ress
Ġy ards
per ial
Ġsm ooth
Ġrul ed
on ic
ĠL eg
ĠEn ter
Ġdeb t
M on
ĠS ub
c ould
m outh
Ġd ump
Ġsp ending
aught ers
n on
Ġcr ash
ĠCl ass
ent ed
Ġsqu ared
Mic hael
Ġm ud
ĠH ong
ĠG i
Ġ3 00
Ġapprox imately
Ġp ants
ĠN ations
Ġchar t
Ġt ropical
ĠFore st
Ġcon ver
ke l
il ton
Ġvol unte
Ġreve aled
Ġw ounded
ĠAl so
Ġaff ected
ĠO cean
4 2
I LL
ĠV ol
Ġmet ers
Ġrecomm end
Ġtr ained
II I
ĠChair man
ĠG en
Ġ3 6
ĠA li
OU N
Ġquiet ly
Ġwat ers
Ġmor al
y gen
augh ing
Ġcapac ity
C om
erv ative
b ra
Ġpain ted
en ess
ne ver
w estern
Ġe lder
ure au
es ome
Ġreg ions
ĠP as
Ġcon clud
ĠVictor ia
Ġintrodu ce
he w
ĠA B
Ġsc he
urs day
Ġwh ist
Ġdesp ite
ok ed
ut ation
Ġla unch
Ġcook ing
m es
the ir
Ġcre ation
Ġtalk s
Ġexper t
Ġphilosop hy
ing ton
Ġstud ying
Ġmurd ered
w ow
Ġb one
n al
Ġvo ices
han g
ĠE ach
Ġinter rupt
Ġg rey
ĠL ine
ĠF ound
Ġsha ke
ci p
Ġref erence
Ġp ump
Ġdo zen
Ġgl obal
Ġm ouse
Ġlect ure
Ġh ockey
Ġch ocolate
Ġinterest s
Ġprogram me
Ġacc ur
Ġdistribut ion
Ġw and
ĠM eg
Ġer a
Ġsy mpat
ĠRev olution
Ġgu ests
Ġac ad
Ġfun eral
Ġhealth y
Ġlist ened
Ġexc iting
E h
Ã ¦
Ġbase ball
it ure
ck s
ĠNew s
cher s
i i
ou ch
Ġdes erve
Ġref lect
Ġmunicip al
B en
Ġb om
Ġal gor
Ġrel ief
R ed
ĠT ake
Ġgradu ated
7 5
Ġp ed
Ġst olen
ick y
Ġgr ay
Ġans wers
Ġsour ces
Ġgu arant
ot hy
ro vers
ens ity
happ y
Ġ196 6
Ġc ert
Ġcross ed
Ġar ts
Ġtre m
ĠGold en
Ġf ond
M usic
Ġsm iled
Ġf art
Ġalbum s
st ate
AR D
ĠA LL
Ġcent uries
Ġgen us
ĠS anta
ond isse
Ġmill ions
Ġmark s
ĠO per
ĠAr k
ĠB udd
ĠAlex ander
e qu
u able
ĠC ross
ĠO ffic
ĠU P
Ġgrand father
Ġfe ather
ran e
Ġhead quarters
Ġto ile
Ġsec ure
Ġinter pret
mm a
ere nces
ĠF ord
ĠÂ £
Ã ¢
Ġv ast
Ġ196 3
Ġfun ctions
ĠP art
Ġdistrict s
ĠH olly
ĠIs lands
I nt
Ġbet ray
ĠPol and
Ġw itch
Ġr hy
Ġshop ping
ĠT ed
ir us
Ġcoll ea
IN D
Ġsucceed ed
Ġno ble
ick ing
Ġcut ting
Ġlo an
P ar
r aine
B esides
is ms
Ġd ude
Ġatm osphere
S ix
o cc
Ġh i
Ġsit es
Ġsqu ad
Ġr acing
az ed
re te
Ġprison ers
Ġinj ury
ĠTown ship
I ll
Ġs ang
h us
ber ry
Ġjump ed
Ġshould ers
el ine
ĠSwed ish
Ġb ul
ĠW at
Ġent rance
Ġext ended
eder ation
Ġst ir
ĠL o
ĠA RE
th ony
ĠHe alth
Ġban ks
Ġst ones
ild ing
Ġ196 5
9 9
ad u
Ġpil ot
ĠColumb ia
p ite
ĠMiss ouri
Ġwide ly
r ary
al o
bs olutely
ĠBrazil ian
ob by
Br other
Ġmir ror
Ġs an
Ġc rap
ĠG ran
ĠP lease
ĠO b
Ġaff air
i y
Ġinter f
Ġl ion
Ġass ign
Ġfact or
T O
m ade
ha b
Ġfact s
c ut
ir k
ps on
ĠAn other
Ġprov ides
Ġbran ches
Ġ194 8
Ġcorresp ond
Ġth rill
Ġpers ons
Ġdemon str
4 1
Ġf ans
Ġbit ter
Ġglass es
ĠS ong
Ġgr ade
Ġcheck ed
Ġit ems
Ġan ger
Ġn ick
ĠW ed
Ġgr ace
Ġill ust
i ri
Ġall eg
ord an
Ġim ple
hen s
Ġarrang ed
F L
W ant
ĠE p
Ġsl ide
g ot
Ġse lect
Ġfig ured
Ġre ar
ropol itan
E LL
ĠF ederal
ĠPol ice
Ġur ban
Ġed ition
TH AT
ĠMex ican
ĠOx ford
H ar
Ġw ound
ĠS ure
ul pt
Ġpo ly
Ġconf used
ĠDis ney
Ġproject s
Ġexec utive
Ġvictim s
ĠW ait
Ġins pect
Â °
Ġt ip
Ġf ra
E m
Ġput s
Ġev olution
Ġdec isions
ea ble
ĠK han
Ġste am
Ġdiscuss ion
Ġsurr ounded
Ġin du
as er
ĠB C
ues day
it ter
Ġchild hood
ul ed
Ġdist ingu
ec ess
C or
Ġex hib
Ġconf idence
Ġkn ees
Ġrem ove
Ġco vers
Al so
ĠTay lor
Ġreview s
Ġdef ense
F oot
Ġg athered
ĠW alk
th ose
Ġ" "
ier re
ĠDad dy
J an
Ġst arring
Ġpl astic
Gr and
Ġp iss
ĠS O
ĠĠĠĠĠĠĠĠĠĠĠĠĠĠĠĠ ĠĠĠĠĠĠĠĠĠĠĠĠĠĠĠĠ
ograp her
b al
Ġpract ical
4 3
Ġinst ruct
J ul
ĠNot hing
ĠF C
ĠF ire
Ġinj ured
Ġkn ocked
ĠJ erry
âĢ ĺ
Ã¡ n
M A
in em
Ġescap ed
ĠI ra
cer tain
Ġprofess ion
P at
Ġl oyal
ĠB or
Ġr ising
Ġiss ued
Ġconstit ution
Ġintellig ence
um in
Ġview s
in er
Ġnorth west
Ġindepend ence
c us
f ire
ĠAnd y
Ġto w
ri ve
Ġa wards
We re
Ġhead ed
Ġsupp er
on ents
ĠAs h
Ġr ush
Ġ3 2
Ġcommun ication
Ġfair y
Ġsubject s
Ġredu ced
op her
el ia
Ġsm iling
Ġdep th
int o
Ġaff airs
Ġterri f
ind er
Ġposs ibility
Ġtri es
ĠP ope
O ld
Ġmod els
; /
m usic
at ically
all s
ĠE le
cc er
ĠSup reme
b ro
ap h
Ġcomp ar
ĠBr ad
D O
Ġn uts
With out
er able
ĠF el
ĠD am
Ġsoon er
J ames
Ġ +
Ġserv ant
ĠCo ast
e h
Ġ19 20
Ġsum m
v ia
Ġdiffic ulty
ĠSy stem
D ear
Ġcommun ities
Ġgrant ed
Ġbe ating
Ġprep are
ĠJew s
A w
D own
Ġ ing
Ġbeg un
oo s
Ġ195 6
Ġclaim s
an es
Ġlet ting
5 6
et ime
oun ce
ĠF R
Ġbre ast
ĠPhil adelphia
Ġ196 2
Ġs ed
ned y
ĠÂ ¶
ĠT ell
Ġdi agn
I G
it age
ĠD ave
ony m
Ġda wn
Pro bably
S O
ĠG ET
Ġchar ged
ĠSp ec
Ġreturn ing
li ver
u er
Ġto y
Ġcoll abor
Ġpar liament
cul es
Ġadminist ration
ĠRad io
ch i
AK E
ad ies
hing s
nes day
ant ry
Ġmom ents
ĠPol ish
ab s
Ġsecret ary
ĠA lf
ĠO UT
Ġ195 8
Ġrepl ace
Ġill ness
Ġnecess arily
Ġheav ily
ĠIntern et
ĠBav aria
Ġprov in
Ġd umb
= =
r ons
Ġs ust
if er
ord inary
Ġcere mony
L ES
ĠS E
ĠC z
Ġbes ides
int end
Ġl ung
ac on
ĠP ers
ĠMat thew
A ren
Ġf iction
if ts
m ad
Ġaw ake
Ġt orn
Ġin put
ĠS cience
Ġas hamed
ip ed
Ġ18 0
um ps
ĠO w
k ind
p ir
ĠC D
ens es
ĠN ever
Ġcont em
Ġchair man
Ġast ron
Ġp ul
Ġ193 9
g reat
ĠG reg
uck er
Ġsl ave
Ġconf irmed
Ġpoet ry
ĠC hi
Ġex ha
Ġun like
Ġdri ven
Ġcustom ers
hell o
ĠB BC
enn es
Ġf estival
Ġend ing
B A
it led
Ġform al
Ġsepar ated
ĠWal ter
g reg
Ġthe atre
Ġf ox
Ġperson ally
Ġpers u
Ġcont ext
ug g
ĠGu ard
Ġcontin u
Ġpresident ial
R ec
ri x
ĠR ich
ĠE ducation
Ġdef ined
Ġfool ish
u y
ĠW as
ag ger
Ġstr ict
Ġmass ive
Ġc ats
ĠAt t
Ġshort ly
Ġtre asure
A nt
ter y
ĠP ublic
Ġg ra
Ġfor b
Ġch oo
man n
Ġdec k
T S
Ã £
Ġalcoh ol
n ote
Ġn est
Ġcop s
rat ulations
ro se
all el
Ġreg ist
hat t
S w
ur ches
Ġrec on
Ġapp ropriate
Ġ194 7
out heast
Ġ196 1
ĠWin ter
ĠSus an
Ġsplend id
a way
Ġd aughters
Ġsol o
Ġmach ines
Ġsym pt
For get
ĠKent ucky
Ġl ap
Ġ195 7
Ġaltern ative
Ġs orrow
en ly
R ep
Ġb ass
S H
n et
Ġfriends hip
Ġexcl aimed
Ġjournal ist
C ont
u v
Ġc hamber
ĠS av
ades h
Ġassoci ation
d r
Ġp or
ust ing
ĠJ ess
Ġocc as
Ġy o
em on
ĠTe am
ĠB ow
ak ers
Ġbo ats
Ġext ent
A lex
es c
Ġn ic
Ġdeep ly
Ġmind s
Ġide al
int on
Ġopp osed
Ġvot es
le ts
ĠJ os
Ġfl ash
Ġlea f
ĠMay or
Ġspirit ual
/ &
Ġl over
iz z
ĠWil son
p at
Ġpo em
Ġinit i
Ġ7 5
Ġlif ted
Ġgr ateful
Ġsche me
Ġri vers
ĠCon stitution
Ġf asc
Ġcol umn
p ers
Ġtick ets
j an
ĠP ict
Ġpr on
Mm m
Ġimple ment
Ġm ama
Ġp itch
ir s
Ġwond ered
Ġexist ing
Ġepis odes
Ġreck on
U ntil
ĠG ro
ĠL i
Ġdi pl
el f
ĠN a
Ġimp ression
Ġ194 4
Ġclub s
Ġprinci ple
b us
Ġw ra
ub ble
Ġengine er
Ġident ified
nes ota
Ġinsp ired
Ġus er
ĠCor por
Ġox ygen
h h
Ġsn ake
S how
Ġclim b
erson al
ipp i
ĠA D
ag s
Ġcomb ined
Ġs oup
Ġp ir
Ġst im
ĠSt one
9 7
Ġd ating
Ġwor n
Ġcomput ers
v o
Ġne ut
Ġliter ally
s l
Ġin ner
Ġinvent ed
Ġj ury
int s
ret ty
oun ced
Ġg or
um ph
Ġsh ift
ĠK y
ĠE ric
f it
ĠM ot
Ġcont rovers
Ġthrow ing
Ġcris is
h u
w he
Ġ vel
Ġ âĻ«
Ġabs or
ir teen
Ġen orm
Ġim ages
Ġprison er
l ast
Ġd ates
ĠP ot
art s
Ġpass age
ĠAir port
Ġcomb ination
ĠTok yo
s an
Ġanx ious
er ick
ĠL ieutenant
Ġschol ars
ĠL A
Bl ack
ĠMos cow
T alk
f ly
qu es
ĠSt ation
Ġreg ional
Ġstra w
H appy
row s
Ġev ident
Ġengine ering
ĠL incoln
L ong
S on
ĠRe ally
ĠJust ice
Ġconvin ced
E F
Ġhur ts
M ark
R el
ĠH ans
ĠK a
Ġincred ible
ci ences
Ġshow er
Ġpos itions
TH ER
Ġstop s
ĠH ay
Ġal pha
Ġn arr
Ġrep ly
Ġatt ached
Ġorgan izations
Ġtest s
com ing
Ġvide os
Ġnat urally
Ġin sect
Ġh m
Che ck
Ġc ooper
Ġprinci pal
ll y
at oes
ĠC ard
Ġresc ue
A ha
Ġviol ent
ĠN i
ĠBro ok
pr ise
Ġhor ror
Ġsc ulpt
Ġperson ality
Ġtransfer red
Ġadministr ative
Ġn aked
ĠS her
Ġan gel
Ġtrans m
Ġmusic ian
Ġoccup ied
Ġkil omet
T A
ĠCast le
C O
Ġr ice
IN K
Ġn ort
ĠU t
ĠBr idge
Ġst able
ĠSte ven
Ġprec ise
Ġmyst ery
Will iam
Ġ195 2
ĠMc C
] .
us ive
un es
Ġ194 9
Ġacqu ired
Ġsatisf ied
Ġfrequ ently
oo re
ĠA M
ĠB rian
at ures
ac c
ĠT echn
Ġpre cious
Ġp ie
Ġh unt
ont o
Ġ194 2
Ġgreat ly
Ġpick ing
ĠRog er
It s
l ock
m aster
Ġbe ings
id ers
ĠP op
Ġpur ple
ĠA k
Ġro pe
Ġsur re
Ġpro sec
Ġpun ishment
Ġb old
ho ot
ĠIra q
o z
Ġoper ated
Ġill egal
Ġhop ed
Ġst ab
ie v
ag ers
Ġp our
Ġin her
ĠIn c
Ġkind a
ĠMin nesota
ĠT op
p ent
ĠF a
Ġmon key
Ġm al
os ity
ort ed
ĠSt r
Ġinit ially
Ġb ark
Ġvis ual
ir it
Ġproper ties
P oor
ic ial
ate gy
Ġtechn ical
e el
Ġt ank
ĠR us
Ġtyp ical
âĢ İ
K ing
R obert
l ah
t ical
Ġb ike
le te
Ġarri ve
Ġbow l
ĠMarg aret
iff erent
ĠSer ies
ic it
and al
ĠBet ty
er ted
Ġart icles
Ġregard ed
R un
ĠH ospital
ĠCent re
em et
or ation
ĠW ild
Ġdown stairs
Ġer ror
Ġdec re
Ġpass es
ament al
Ġtest ing
Ġadvent ure
e ven
ac les
ĠAust rian
Ġcontroll ed
Ġl ately
th rough
Ġv ice
pect ed
ale m
Ġstr ategy
E ach
ag a
Ġsw all
Ġadm itted
ĠLouis iana
st al
Ġfe ver
IN E
Ġrest rict
l on
nd ar
Ġto ol
Ġca using
T en
ia h
Ġro de
Ġsy n
i Äĩ
Ġb ond
Ġgu ide
velop ment
ĠGre ece
Ġexplan ation
Ġw icked
Ġm ent
eare r
ne ath
Ġofficial s
Ġ195 4
EN D
_ .
n old
Ġre venge
Ġnow here
ala is
ung le
ra it
Ġ3 8
Ġval uable
Ġw ishes
Ġas ks
B i
Ġw ins
Ġdescri ption
Ġdig ital
Ġb acter
Ġh ug
ut her
St and
Ġ194 1
TH ING
Ġexpect ing
Ġimm ig
ĠN ap
Ġag es
ot es
Ġprom oted
Dad dy
s a
Ġd iet
Ġint ention
Ġp up
Ġequ ation
Ġ195 9
ĠS ab
Ġcl in
ĠInd ians
ĠLew is
Ġdec e
Ġperman ent
Ġp hen
u ct
hed ral
H ang
ĠC op
L O
d ney
ĠR em
Ġsp ark
Ġdisc overy
dd ie
Ġc ore
Ġre ign
ĠSp ring
Ġann oy
ĠB art
ĠTh ursday
Ġpull ing
5 8
A p
Ġmem ories
Ġn ations
it ched
Ġf ulf
Ġcreat ures
Ġconstit u
w anna
res ents
In ternational
Ġthr one
Ġvill ages
g ers
m ic
so ft
b ie
n ame
on ze
Ġact ed
d s
Ġrapid ly
the se
Ġport ion
Ġdefin ition
Ġn ap
Ġ194 6
Ġcamp us
Ġgar age
Ġr aces
ĠCol or
H oney
Ġp i
5 9
ĠD own
g han
Ġne at
Ġcy cl
Ġl t
n els
ĠK h
Ġdevelop ing
Ġaband oned
w oman
ic ians
Ġe ld
ĠF orm
Ġacc used
Ġpray er
d ie
pha s
Ġhous ing
Ġhol es
Ġess entially
Ġresist ance
ĠFound ation
Ġsur vey
z es
ĠJ UST
ens ions
Ġphot os
Ġintell ect
gin es
Ġf ed
ĠB al
ĠH it
ĠMiss iss
es ter
at han
Ġth orough
Ġshe et
Ġcomm ander
Ġintern al
ĠC ur
Ġarchitect ure
ĠB at
Ġass ault
K ill
P P
Å ¡
Ġan aly
A V
ha w
ĠLab our
ĠCz ech
O w
Ġbel t
Ġbreat hing
r ison
Ġf aint
ĠH ERE
ry ing
Geor ge
6 6
T otal
Ġad apt
sh it
ĠJac ob
ĠStep hen
Ġliqu id
H en
gg y
s er
Ġout er
uk i
L ou
or f
Ġrep utation
gl as
S ub
an ed
ĠS id
Ġsa ving
Ġsk ill
Ġeight een
Ġdom estic
ĠP a
Ġalong side
Ġcompos er
Ġtoile t
ĠT est
Ġdis g
Ġo oh
ar o
ĠS n
Ġref ers
ĠOr der
Ġphr ase
. [
Ġst roke
ol as
Ġless ons
Ġt iss
kes p
d og
Ġdrag on
Ġmax imum
Ġab road
Ġcy cle
ri or
Good bye
Ġprot ected
Ġste pped
Ġkiss ed
Ġvers ions
Ã£ o
b age
ut t
ĠG ame
ĠE nd
u i
ĠV ill
Ġbag s
Bet ter
c are
Ġfl ows
rag on
ĠO t
ĠMar ie
Ġexp ed
ĠIndian a
ard ens
Ġwho a
ag le
Ġp ipe
ĠC ON
OU GH
min ist
ĠTur key
Ġc raw
ĠR oy
Ġbr ush
ab ad
ĠH oll
Ġded icated
Ġf ence
Ġin cl
Ġn onsense
Ġpass engers
. âĢĻ
Ġmess ages
Ġabs olute
5 7
Ġm obile
te enth
Ġestim ated
pe ople
Ġscar ce
A F
f ound
Ġel imin
ĠConf erence
Ġbenef its
Ġpro port
ib ilities
Ġob st
Ġstore s
Ġredu ce
Ġleaders hip
keep er
V D
ĠHon or
ĠE st
Ġgen ius
Ġboot s
f in
w all
ĠB ir
ĠW he
ĠR IGHT
Ġopp osition
L S
Ġnot able
ĠP ost
av ed
ik i
Ġdin osaur
Ġsweet heart
. --
Y E
Ġ Î
Ġis ol
ĠB alt
ret t
Ġdel ivered
Ġrepe at
Ġfil es
Ġbreat he
Ġgrand mother
ĠChan nel
Ġd at
the less
Ġfac ilities
Ġo ption
ĠT uesday
ĠO ur
R es
Ġc ave
Ġwood en
S uch
a a
ha i
Ġappear ances
Ġz one
C r
f irst
ĠV ery
Ġwhis pered
Ġexperien ced
C omp
ĠT urn
Ġlast ed
Ġconf ident
ĠL au
Ġ4 00
Ġr ural
Ġappoint ment
Ġath let
Ġrel ation
Ġs ought
Ġcrit ics
M ust
Ġ ||
ĠS P
Ġhor iz
Ġneg oti
ĠHea ven
kesp eare
Ġs ke
ĠH al
Ph il
Ġsem i
Ġup d
Ġent ry
Ġmer chant
p ool
Ġfound er
Ġyoung est
Ġdoc uments
Ġh its
Ġdel icious
Ġlarge ly
Ġident ify
Ġelectric ity
F ind
ĠLI KE
ĠH ell
ĠB ul
Ġsix teen
ien na
ut iful
ĠH ard
Ġcar riage
Ġfle et
emet ery
ak h
St ep
Ġsurv ived
Ġsequ ence
A bsolutely
ĠI ce
Ġwant ing
ĠH as
Ġwhe els
hi bit
Ġrep resents
Ġbeha vi
Ġgal ax
th y
Ġoff ers
Ġpurp oses
Ġrelative ly
ĠPl an
N one
N orm
p ur
Ġre in
Ġex ists
Ġsing les
Ġf o
Ġut ter
D a
nd a
Ġsh oe
end ment
ĠKen nedy
ĠV ice
Ġhead ing
Ġfell ows
ĠT ai
ĠJ ay
Ġus ers
we ight
Ġind ic
gg ie
r ome
Ġen gines
Ġtra p
Ġins ult
on i
Ġdep os
Ġenvironment al
r ace
ĠR el
b urn
es se
Ġ195 5
Ġdet ect
Ġvol can
Ġf ab
ĠT our
Ġob tained
Ġs ession
Ġm ig
Ġland ed
ĠCl ark
Ġlat est
oo gle
Ġposs ession
Does n
Ġsouth west
Ġmar gin
Ġthreat ened
ĠGr ant
L aughter
b ach
Ġc attle
Ġamong st
ut er
Ġwor ship
Ġsp ons
Ġworld wide
An n
sc ape
Ġinvol ve
m ont
ĠA le
og y
Ġpur s
Qu ick
w orld
Ġs na
o ard
p her
ir ts
ĠC ab
ĠW y
Ġtyp ically
Ġsli pped
Ġdivor ce
ag ain
Ġcr imes
Ġexp ressed
ĠReg ion
Ġexperien ces
tern al
ut or
Do ctor
ĠRail way
Ġh oly
ĠS ara
Ġfour teen
OR E
s uch
Ġr abbit
ot y
Ġdoll ar
Ġcloud s
Ġacad emic
it als
Ġrep rodu
Ä ±
be en
tain ment
d in
or ious
am ma
ĠH or
re c
ĠP rem
Ġag ency
Ġ15 0
Ġf oss
Ġf aced
ic ity
Ġinc hes
Ġru ined
Ġf ake
Ġd ial
Ġexpl ore
" ;
Ġc oc
all ing
Ġru in
ĠWed nesday
ĠG ive
Ġt ale
as hi
os a
umb ling
Ġspir its
Ġre aching
ond e
Ġsl ip
Ġ194 3
ĠJ am
De ath
Ġequ als
Ġcapt ure
Ġse lection
ĠGerm ans
h um
ĠM att
Ġfoc used
Ġcondu cted
us ter
ĠP o
ever al
Ġmeet ings
p an
Ġdist ant
Ġaw esome
ĠMill er
Ġt ent
ĠM ah
os l
ie ur
Ġ3 7
lah oma
c har
Ġf rag
Ġfact ors
Ġri val
ĠSt op
Ġdiffere nces
Ġhat ed
Ġ4 8
Ġser ves
B ER
Ġal arm
Ġus eless
z ing
Ġl oving
Ġer r
Ġmer ged
Ġto ast
ĠMississ ippi
f a
s ub
Ġcon ven
D ec
Ġmight y
Ġdeb ate
Ġfant astic
O b
Ġd ow
ĠR yan
Ġcant on
Care er
9 5
R S
rom ise
ĠBe ach
LA UGH
Ġdisci pl
) ;
Ġt ennis
Ġun conscious
Ġ195 3
Ġannoun ce
Ġinstit ution
ott a
Ġem phas
Ġband s
Ġpha se
end y
ĠAl bert
As k
a us
Ġb ot
Ġp ardon
Ġt ub
Ġb ent
ĠH ockey
ĠF ree
su it
Ġprim arily
Tom orrow
Ge ography
lot te
ĠRepresent atives
Ġp ushing
ĠB and
Ġso ap
ĠK r
Ġpart ly
L ord
Ġsl aves
Ġw oke
Ġbe nd
ĠG ot
ĠR h
Ġprov iding
H ad
ĠS ix
ĠN ord
Ġwhere ver
anna h
ul es
Ġref use
Su per
re ally
ou st
ĠC E
ĠV o
A G
it ement
Ġb id
Ġin ch
ĠG a
be fore
Ġsub m
ĠJ ason
Ġpres ents
Ġm ath
ĠI V
Ġfl esh
iven ess
l an
Ġst adium
ĠW eb
og an
Ġaccount s
Ġroll ed
M ary
s ky
le ton
id ering
Ġprof it
Ġnewsp apers
ood y
Ġunder neath
her ry
ĠP y
iz za
Ġinc orpor
Ġchap ter
Ġdrink s
Ġcook ie
Ġsac red
mom my
ĠK evin
Ġinter act
ĠAnt on
à ¤
M S
r un
al u
ĠB ishop
ĠB ud
ĠW el
um ble
Ġble w
# #
Ġun happy
sh ine
Ġdam aged
r idge
Ġbe ast
io let
Ġreason able
ĠCha p
Y et
ĠT en
Ġpen al
ĠA R
Ġad just
Ġch op
Ġrece iving
H y
Ġthe rap
Ġres idents
ĠViet nam
ĠB i
ol ve
ol ves
Ġcab in
Ġsurr ounding
Ġf rank
ĠB aby
ĠV in
ĠD er
Ġmove ments
FF FF
or age
Ġas h
ĠP oint
Ġfuck in
S l
t w
ha ll
ter m
ĠD ie
Ġass ess
ĠHolly wood
L ING
Ġw reck
ĠE lect
Ġtem pt
Ġparticip ated
Ġpaint ings
Ġmyster ious
W est
Ġd uties
Ġinstr uments
Ill ustration
Ġcr icket
ale ndar
in ction
ĠComm on
ĠSy dney
Ġstr ateg
Ġ193 8
Cong ratulations
w alk
ans ion
M en
ĠH istory
ĠAf ghan
Ġconcl usion
Ġenorm ous
ĠBar ry
Ġtun nel
ĠTurk ish
Ġretire ment
Ġsympt oms
re ll
on ne
ĠK night
Ġdis aster
Ġdec ent
rib ute
Ġro ots
Ġform at
d i
r um
ĠIn f
Ġstand ards
Ġprob ability
Ġrequ ires
less ly
l ause
ĠF le
Ġun ex
Ġca res
Ġbox es
Ġstar ing
Ġadult s
w ind
ĠC ir
ĠB O
Ġv on
pl ane
Ġsc are
Ġphen omen
Ġkn ee
en cer
ĠM un
ĠJ ordan
ap ore
Ġwar n
ĠPe ace
Ġclass ic
ĠPhil ip
Ġa er
Ġg reet
form ation
Ġkid na
Ġimmedi ate
Ġextra ordinary
Ġdread ful
Ġint ent
ons ieur
ĠW ANT
r in
Ġsc enes
St ar
ĠS OME
ab el
Ġjud gment
Ġemot ional
Ġsacrif ice
Ġinst inct
as hes
ĠO nce
Ġdis ag
Ġass igned
ĠCar ter
ac ement
Ġcont ained
Ġroll ing
C alais
L ater
ĠS ometimes
Ġse ed
oc ated
Ġp ec
Ġtax es
Ġlic ense
ĠOk lahoma
Ġalgor ithm
Ġto oth
em ploy
ck now
ĠAn gel
ivers ary
s ix
Ġw is
st ream
ĠA L
Ġd ign
Ġgo sh
Ġrem ote
hes is
Ġadd ing
G O
ĠW OR
C C
Ġs ample
om ic
ĠP ic
St art
Ġapolog ize
ĠTem ple
B re
H on
T ING
g on
or ous
sc ar
Ġk itt
ĠD og
Ġco ordin
Ġop ens
olog ists
Ġvisit ors
Ġwrit ers
g un
Ġ eter
ĠA ff
ig hed
Ġcom ic
Ġstrong ly
Ġtit les
D is
w atch
ig en
Ġland ing
Ġdeterm ine
Ġ193 4
A ah
ov ie
ons in
ĠCh uck
Ġjo ining
ĠDav is
ĠB eth
Ġoff ering
Ġstruct ures
bour ne
es ar
ĠM oon
Ġsm oking
Ġmed ium
ĠA venue
Ġpar allel
Ġconst antly
Ġc od
id el
se a
ĠC reek
Ġrese ar
Tr ans
Ġa ston
Ġli ed
ud es
Ġserv ants
Ġbeat en
ĠSpec ial
ud ge
Ġag ents
Ġpr ices
Ġinvest ment
ĠPhilipp ines
Ġint ense
Ġb ay
Ġr aid
Ġass ass
eg as
Ġreturn s
Ġthe ore
re cted
Ġw olf
Ġtw in
Ar t
Ġhistor ic
Ġscream ing
ondisse ment
ĠB ase
ĠAr m
ean while
Ġcelebr ate
Ġm amm
or p
Ġ195 1
S ch
Ġsect or
e enth
Ġdep ending
udd enly
Ġinstruct ions
m ill
ist ol
ĠMor gan
Ġachie ved
Ġcontr ast
7 6
Ġnew ly
ĠColor ado
ĠH uman
ĠR oll
ĠMay be
Ġanim ated
isc onsin
ĠB urn
Ġar gue
Ġstar red
Ġmid night
Ġpred ict
Ġfrequ ency
c ill
{ \
am an
Ġwind s
Ġarri val
pect ive
9 8
Ġgo in
ĠThe atre
Ġch urches
Foot note
b i
ĠH ug
ĠF ield
Ġtr unk
ĠG OT
gg er
ues e
n ew
ĠU s
Ġrec over
" ...
Ġp y
ĠO tt
Ġdiv ide
Ġ193 6
M aster
g as
ĠM m
Ġsw ing
Ġequ ival
v or
all as
ĠL ind
Ġcur tain
Al ways
Ġwr ites
Ġclass ical
od ge
Ġsevent h
C o
d am
Ġm ob
Ġl aughter
Ġdist ur
Ġfootball er
ĠW ars
ĠSt ory
Ġbare ly
Ġit em
ĠT an
ĠG ordon
Ġrail road
Tw enty
Ġd irt
st an
ĠC ape
ĠH un
ĠP R
Ġfac ing
Ġwas hing
ĠL at
Ġcount ies
Ġ193 3
Ġshout ed
ĠH IM
ĠL E
Ġcour ts
Ġent hus
Ġprodu cing
Ġprom inent
ĠC L
Ġclot hing
ĠSen ator
ubb les
nt ario
Ġstr ings
angu age
Ġexcept ion
Ġearli est
Ġalt ogether
r im
Ġpre f
R ob
Ġc am
Ġcoll ected
ĠCor ps
ALL Y
ĠM aine
oy d
Ġtri be
Ġimpro ved
ĠS ay
ĠW olf
Ġappro ved
ĠAn thony
Ġdri ft
ĠPal ace
Ġdism iss
Ġal ien
ag ne
IC E
Ġemploy ed
Ġrough ly
Ġjack et
M in
ea f
Un cle
Ġsoft ly
ĠS U
ĠAn na
ĠInd epend
ertain ly
] ,
o a
Ġallow ing
Ġattempt ed
Sec ond
ink s
ĠRed dy
Ġregard ing
e ks
el son
Ġgr ows
Un less
Ġemploy ees
ĠDe ath
M c
z ed
wh ite
ĠCorpor ation
Ġa irl
ur ation
Pl ay
Ġcross ing
ĠGr ace
ke ys
ĠEng ine
AT H
ĠAll en
Ġins ane
cha e
Ġth irteen
ĠA y
ol i
Ġcompet e
Ġimag ination
Ġspecific ally
Ġv oc
ru its
Ġess ential
Ġsh ining
Ġdesper ate
% .
0 6
ĠJ oy
ĠV ar
Ġeduc ational
Ġclos ing
AT E
t op
ĠC ho
Ġfound ation
Ġappl ications
Ġearth qu
Ġring ing
B UT
Ġthe ater
Ġv ain
Ġres ident
Ġcur ve
Ġocc urs
ipp er
Ġpan el
u j
ĠMin istry
Ġcover ing
C ut
Ġw ars
Ġsh ops
Ġsupport ing
Ġper ce
Ġv ul
Ġaff ection
Ġclean ing
5 1
Ġse ized
ber y
Ġsc ary
AT ION
ĠMan chester
ennes see
Ġret reat
Ġperform ing
WE LL
ĠC ro
Ġcom ed
ĠConn ect
ĠK elly
Ġcl oth
pe ed
Ġcle ared
Ġc raft
ĠA z
fect ure
Ġr ust
Ġinv ite
ĠNor way
bre ak
E L
m ind
ĠH old
Ġsh y
Ġphys ics
ĠHaw ai
p lease
S pec
m orrow
Ġb ump
ĠC hile
Ġmet res
ĠComm ander
Re ady
ĠRes earch
an ny
ĠM ain
Ġoffic es
Ġt ack
Ġa cknow
or ters
Ġad j
Ġdipl om
M um
is ha
st ar
ail ing
Ġinv asion
Ġext ensive
Ġmot iv
Ġvac ation
Ã¼ r
ĠMount ain
D ef
ĠM unicip
Ġequ ally
Ġgrad ually
Ġcomb at
ri v
ĠA dd
ĠT oday
Ġfl our
on ight
ĠH art
ĠUS A
US E
Ġfem ales
-------- --------
ec ca
ass ador
Ġlong est
Ġob tain
At t
uri ous
Ġren amed
m iral
Ġth ief
ĠS orry
ĠTh us
ĠSha kespeare
ĠH istor
com fort
Ġexist ed
" '
Ã ª
Ġw ow
Ġn erve
ĠB an
Ġmar ch
Ġent itled
Ġinflu enced
ĠTor onto
Ġconscious ness
ĠM P
ĠB ruce
ĠW isconsin
Ġsecond ary
Ġexc itement
Ġdivor ced
Ġbatter y
ĠOffic er
re hens
Ġassum ed
Ġaccomp an
l ad
Ġm ales
ĠD u
ĠD ak
Ġcl ick
Ġstop ping
Ġeduc ated
Ġfart her
est ion
Ġmaid en
5 3
ĠH ER
Ġab use
Ġgood bye
av ig
Ġform ation
Ġbelie ves
ĠPet e
p op
Ġc ub
AR S
Ġ193 5
Ġdelight ed
F ire
ic op
ĠP ower
Ġdri ll
IC K
ĠQue ens
I P
ĠL ead
Ġbr id
Ġprom pt
Ġvis ible
Ġtroub les
Ġr ic
Ġprogram ming
Ġp ip
Ġk icked
ant e
Ġtr ace
ĠSt and
uss y
Ġexp osed
ĠSec urity
T y
Ġst iff
Ġdest ruction
Ã º
Ġfe e
ON G
ĠHow ard
Ġsound ed
ĠW ork
ĠD omin
Ġabs ence
Ġprint ed
Ġd ull
Ġout put
ĠON E
Ġterm in
spec ially
Ġ3 3
ĠĠĠĠĠĠĠĠ Ġ
Ġmer cy
Ġinstit utions
Ġsched ule
B ad
ĠF amily
Ġgl ory
W ar
Ġgu ards
Ġconst ructed
F C
Ġri b
Ġmeas ures
Ġveh icles
Ġmanufact ure
ĠH ur
ĠR en
qu is
Ġne p
Ġmin imum
Ġgl ance
Ġinf l
Ġconsider able
0 7
9 6
R ichard
g ian
Ġo bey
ĠY e
ĠDon ald
ĠR O
Ġrelations hips
Ġco inc
0 8
Ġsw ift
Ġbreak s
Å Ĥ
Ġcour ses
Ġhur ricane
am my
ĠT R
Ġab st
ĠV ienna
AR E
Ġdiscuss ed
Ġprinci ples
B aby
W ork
ĠI D
ĠP itt
act or
up on
Ġlay er
Ġcompan ion
Fin ally
ĠAB OUT
En ough
id en
ĠA mb
pp ers
Ġgr ounds
Ġhigh way
umb led
ĠCont in
, âĢĻ
5 4
ĠT ar
Ġres igned
Ġbrief ly
ĠSqu are
Ġb oring
Ġl amp
ĠC amer
il st
che ll
S il
ic ut
if ted
ab led
ĠO ntario
clud ing
Ġinform ed
Ġbeha lf
ĠLu cy
o ons
Ġt ube
ĠH o
ĠP ad
ĠWh it
ĠSing apore
! !
ĠR abbit
ree ze
ĠBr and
ĠK n
Ġdisappoint ed
d iv
Ġto ss
at tered
un ction
ĠH im
Ġsat ell
Ġsuff icient
Ġth read
Ġbe ars
ĠM ess
per t
Ġchan ces
Ġ193 7
Ġforest s
m ates
Ġto x
ĠH ills
Ġfar mer
An ne
W r
r ine
ri ot
in ations
Ġb unny
Ġf ierce
Ġh id
nt own
ĠMary land
Ġfac ility
dad dy
t own
Ġchar ming
Ġmer ry
ĠDou glas
c ular
st ruction
Ġan ch
Ġimp ressed
Ġgrand ma
b ors
Ġp ant
ĠC all
ĠC are
Ġpl ates
ill ery
Ġintern et
Ġfurn iture
ĠUk raine
Ġact ors
AR R
Ġdev ices
r ants
z ona
Ġch uck
Ġtechn ique
p ower
Ġd well
im b
P ardon
ĠH ou
ist inct
Ġunder ground
Ġoper ate
d ef
Ġbe et
ĠK er
Ġrec all
cha ir
S ur
Ġres erve
Ġpolic ies
ĠLib rary
L ist
Ġh ip
ĠL in
ĠF ive
Ġrecogn ition
s ong
Ġv oted
Ġsp aces
Ġhand ed
Ġhop es
Ġevery day
Ġeth nic
Ġcateg ory
Ġtrem end
Ġnep hew
b ian
an ch
Ġsh ield
Ġsol ar
Ġgo lf
Ġso le
m i
an cing
ĠG R
ĠO liver
Ġfl ed
Ġcop per
ĠHel en
Ġb ore
ĠR ober
ĠR achel
Ġc ord
ĠT ennessee
per ing
ob b
Ġbr onze
Ġmist akes
r m
Ġe c
ĠB ol
Ġv irus
Ġint end
Ġsec rets
ĠS om
Ġres ign
Ġrepresent ing
Ġb ars
Ġto mb
ad os
ĠC art
ct ic
Ġde leg
Ġhur ried
Ġtem porary
ĠStan ley
7 8
ĠH ad
Ġbel oved
Ġdist ract
AN K
Ġsens itive
war f
Ġt ables
Ġr ates
ham mad
M Y
ĠMar s
Ġcha se
Ġins ist
ar c
le ment
ĠA ud
You ng
Ġchar ity
ge ous
ĠBe at
Ġsuper ior
ĠBob by
c ount
Ġwas hed
ac ious
ain ted
Ġj azz
Ġwho ever
Ġpass enger
AS T
Ġsearch ing
D S
Ġth under
Ġmusic ians
ĠSil ver
ĠEnter tainment
Ġc alendar
Ġn earer
iv ia
ult an
Y o
or al
ĠA ut
Ġvis iting
as ia
Ġbelong ed
Ġm os
Ġf are
or ia
ĠM O
ab ama
Ġsk i
u art
Ġ Å
Ġrepresent ative
ĠConf eder
ĠM AN
Ġse al
ĠPat rick
Ġopportun ities
ĠPortug uese
Ġn a
Ġg ently
ĠB os
Ġwha le
M P
ĠC hamp
ur ther
Ġr ude
os ure
Ġscient ist
IF A
Ġhyp ot
ĠG ary
pl ess
ĠComm and
Ġattempt s
Ġscr atch
ass es
Ġ6 5
ĠB ureau
Ġcitiz en
h ol
l aughs
re ls
Ġpro s
HE N
Ġsil k
Ġentertain ment
lev ant
? '
B rit
L u
t oo
Ġoccasion ally
Ġdram atic
S ounds
et ers
Ġdis hes
i very
w ord
ĠW ould
ul iar
ĠG ab
Ġsp oon
Ġfl av
Ġcom ments
Ġdeath s
Pres ident
ha lf
ĠB uck
Ġmus cle
Ġext end
Ġhe sit
ĠS ports
az a
Ġdef ence
Ġlif etime
Ġdemand ed
r ating
ab ilities
ĠK al
ug s
Ġve ctor
ich i
Ġcount ing
ĠSw iss
ograph ic
oph ie
Ġproced ure
ĠArk ansas
Ġg ig
Ã© n
ĠB ush
Ġke en
Ġtop ic
Ġelect rical
ĠChild ren
Ġpropos al
ĠTai wan
Ġst y
Ġc ure
ĠD ID
ĠSt ock
ĠTH ERE
Ġliter ary
Ġremark able
r ound
Ġa ye
ce ler
art ial
Ġmon arch
ĠF ame
Ġprote in
M E
ill ing
Ġ3 4
Ġt une
ĠA qu
ous es
Ġcustom er
lem n
Ġsh ots
Ġmur m
Ġmis erable
ĠF ederation
Ġinn it
PE AK
G irl
Ġc able
P retty
ĠI an
ag u
ĠPh ill
c ried
Ġdep ression
Ġhost ed
E v
ĠL l
iam i
Ġtre mb
Ġm ac
Ġy ield
C han
j e
ĠS um
ĠP ress
Ġse eds
Ġsy nt
Ġlim its
ĠA the
Ġconcer ns
C L
ĠW ee
av ia
Ġ193 1
Ġhonest ly
U E
if est
op er
Ġj am
Ġyour selves
Ġsp eaks
re r
ĠR eb
Ġab oard
han e
Ġpro spect
Ġshar ing
Ġfund s
Ġsee king
Ġwork er
g irl
ĠC ra
J ean
y ep
Ġre jo
ĠHit ler
B ea
Ã ¥
at ical
ĠN ort
Ġdis order
Ġstat ue
Ġpenal ty
p ack
as ks
Ġk ings
Ġsu p
Ġwar ned
Ġder iv
B LE
ro it
U s
Ġlet s
S P
m ight
Ġpre ced
Ġdr um
Ġem otion
eed s
Ġreb u
3 00
5 2
at ers
Ġn earest
Ġher s
So on
Ġqu e
Ġann iversary
Ġbuck s
ĠBang l
ĠNet work
RE AM
i pt
Ġbo om
ĠSy l
8 6
r ings
ut ter
Ġbr ains
Ġdyn am
T hings
p rodu
op y
Ġcheck ing
ĠLaw rence
s omething
se ction
Ġcl iff
Ġrec overed
Ġa ired
ĠU r
Ġref uge
ĠEgypt ian
d ale
ul ating
Ġsp y
Ġelse where
Ġval id
ĠOr gan
Ġfarm ers
ot ing
ĠN ative
Ġfavour ite
Ġemp ire
Ġw ard
ĠG ib
Ġ192 9
Ġshel ter
Ġor chestra
st op
S y
Ġpe as
Ġresult ed
Ġm ask
Ġble eding
Ġult imately
Ġcirc uit
at us
ir y
ĠP ur
em ed
chan ge
orks hire
Ġ( _
ĠK ings
Ġqu eer
ele ct
Ġr ushed
ĠN iger
Ġent ering
Ã© s
Ġdel iber
Ġelect ron
Ġassist ance
Ġlink ed
Ġl oop
ic ip
ĠC ensus
ĠP ra
Ġsa uce
ru ption
Ġequival ent
N at
Ġst ages
ĠF inn
Ġintrodu ction
Ġvari able
ĠConnect icut
S al
ĠB ert
Ġbusiness man
Ġobs erv
Ġpattern s
Ġu na
ĠInd ones
Ġrhy th
7 7
i ate
op es
ĠN HL
ast e
Ġcont aining
ars on
Ġdun no
A c
Ġbu ff
Ġstret ched
us hes
for mer
Ġpriv ile
r ot
is p
ĠZ e
Ġsuggest s
Ġblow ing
M at
ac hi
ĠT al
ho e
Ġgodd amn
ĠC ass
iss a
Ġdec ades
Ġconf irm
ĠJun ior
Ġsuppl ies
P ersonal
Ġto es
ĠM oore
ĠD VD
Ġpen cil
Ġfrog s
ate ur
Ġhelp ful
ĠChrist ians
Ġformer ly
Ġ192 8
ad ays
ill es
Ġmon itor
c at
Ġbusiness es
Ġsafe ly
Ġdebut ed
g i
Ġcon gress
Th ough
Ġclim bed
M ed
ĠE X
u ght
Ġb orders
Ġh ollow
ĠTh om
Ġquar ters
Ex cept
Ġmir acle
Ġbehavi our
Ġt act
Ġs its
or ig
ĠF BI
Ġign or
Ġfro zen
Ġme ets
ĠP ut
St ud
cent ury
Ġth irst
ĠPark er
V ID
i ens
ĠS ky
ĠFrank lin
Bill board
j amin
In stead
Ġper f
Ġelect ronic
ask et
ĠSer geant
ĠLa ure
Ġt urt
âĻª âĻª
ĠFran ces
as ha
omm od
Ġrob ot
ĠAlex and
Gu ys
Ġgri ef
H el
Ġl yr
th ink
Ġatt orney
0 3
ĠS in
ĠN ich
t es
Ġc aut
Ġto ler
Ġst amp
Ġsur f
A ugust
he ld
ĠD ean
Ġad ap
Ġemploy ment
ĠLu ke
F ar
ĠI F
A ss
C le
Ġt ons
ĠM ead
ĠG oogle
Ġcons idering
AP P
Ġattract ed
I VE
d le
t ra
Ġs ack
id ency
im ore
ĠP ass
ĠD iana
Ġun s
Ġconc rete
0 5
S R
Å Ł
Ġd ensity
Ġh itting
Ġattract ive
ĠPL AY
hatt an
Ġl es
ri k
ri et
Ġkn ight
Ġj ur
ĠD ennis
ĠPro du
ĠDe velopment
oc ation
az y
spect or
Ġb ored
Ġp ile
ĠS uch
ft en
Ġass hole
ins ula
Ġrep air
Ġfr act
IT T
ĠEar l
Wh oo
ĠHarr is
Ġcar pet
Ġben ch
Ġhe m
Ġfl ies
Ġguarant ee
Ġs ink
Ġe ase
ĠN ag
oc a
Ġpack age
Ġgradu ate
ĠNorm an
m ail
th ought
Ġout ta
Ġtiss ue
S ame
t ure
Ġbe ard
Ġgr at
ĠMad ame
Ġconv ince
0 4
M ind
ve t
un n
ĠL aura
Ġtouch ing
Ġweak ness
8 8
b les
d ed
est ly
ĠN ar
Ġste ady
Ġdeep er
Ġunivers ities
ĠL ion
Ġ6 4
ĠRob inson
he astern
ĠW endy
Ġsy nd
ream ing
rop hy
Ġ193 2
ĠBelg ium
F red
Ġha l
Ġdifficult ies
m ake
ĠO ri
Ġfund ing
ĠDak ota
x ual
Ġv ib
Ġri fle
Ġtest ed
Ġrad iation
ĠIslam ic
j ud
p han
Ġp ension
ov ak
ĠY orkshire
ĠMic ro
S weet
Ġg est
ĠB ack
ĠL yn
Ġappro aching
Ġfund amental
Ġdesp air
Char lie
B ob
h op
Ġor g
Ġpres ently
Ġcollea gues
k ward
s ighs
is k
Ġshe d
0 9
Ġg ym
Ġsp ots
Ġwhere as
Ġbar n
re f
Ġb ubble
Ġg ifts
all e
Ġ4 2
Ġcreat ive
Ġg ear
Ġg ap
Ġth umb
Ġcl ar
Ġimp rison
ĠX X
uel a
Ġneigh bors
Ġfeed ing
ĠH IS
ĠAl abama
Ġspeak er
achel or
Ġexpand ed
L adies
Ġh osp
ver ty
Ġse ated
ĠP un
ul ance
ĠC OM
qu et
ĠMar ian
Ġunex pected
ĠC ooper
Ġres olution
Ġwalk s
Ġworth y
Ġexec ution
m ate
ro b
ĠB eng
ell er
Ġperform ances
Ġbear ing
ur u
ĠG ir
Ġpain ter
Hen ry
ing o
ĠC ost
ĠC ole
ĠK ate
Ġwithd raw
ĠB rig
ide o
Gu ess
Ġsubsequ ently
Ġdirect ions
ĠWind ows
ad er
ĠD eb
ab e
Ġv ocal
ĠSt adium
Ġac celer
Ġprem ie
Ġp ond
ĠL ane
Ġpo verty
rem ember
ĠM ove
ple te
Ġexper iments
ĠIm perial
Ġb ills
ĠC as
ĠY et
ĠJo an
Ġfaith ful
Ġrank ed
u ine
ĠM it
ĠN ep
ĠInd ust
Ġgen etic
ĠO ak
Ġwis dom
and o
Ġso lemn
ĠF rog
Ġfin ishing
Ġsub stant
ĠUn ivers
Ġkind ly
ĠTH INK
Ġjump ing
Ġsatisf action
Ġopt ions
L RB
S outh
v als
od ox
Ġfre ak
Ġra ising
op les
Ġcoun sel
ĠCam bridge
h ill
m ph
ĠM s
Ġmod e
Ġprom ote
Ġpar am
co ver
Ġbacter ia
ĠLau rie
l ings
Ġd ick
ĠB ha
ĠL ev
Ġem peror
Ġexp ansion
Mart in
e ight
h our
or us
ĠL eb
Other wise
v ard
Ġd ict
ĠT ower
ĠL im
Ġdescri bes
ĠAri zona
ĠHigh ness
og en
Ġsqu ee
Ġpow der
ĠC roat
ag ram
Ġf ict
Ġhope fully
Ġreject ed
Bi ography
K n
Ġconf ront
Ġsuccess fully
Ġrare ly
Ġvessel s
Ġm ild
Ġl os
ĠâĢ Ļ
Ġstay s
Ġmicro phone
Ġo l
Ġ192 7
Ġpurcha sed
D ude
M al
ro ck
ĠN ev
od s
p resent
Ġpo le
Ġstri p
Ġpark ing
Ġdocument ary
Ġtw ist
ount ain
Ġacc ommod
Ġsun shine
odd ed
Ġmathem atics
ri el
ĠF IFA
ĠTr ust
Ġtechn iques
Ġsitu ations
ĠD oc
ĠN ature
Ġcon vent
ĠE conom
Ġ19 18
Ġsomet ime
Ġpol ite
Ġsk ull
AT OR
Ġself ish
Ġnovel s
Ġf er
ĠR y
ĠE ddie
Ġpoint ing
ĠPro ject
R RB
g ro
Ġf ert
Ġl ux
ĠM i
Ġ19 22
Ġcl ients
Ġbu zz
i per
l NG
id ays
E ight
ĠC re
be ing
Ġ3 9
ĠRob in
S an
Ġham mer
Ġaspect s
c od
ĠC ru
Ġex ceed
Ġfe ast
Ġport ray
D P
gr at
ĠBar on
Ġphilosop her
p ot
Ġf ires
Ġcl own
Ġdes cent
Ġrel atives
reg on
ĠHot el
Ġdiam ond
M ike
ĠM as
Ġ4 6
ĠSp ace
Ġcut s
Ġdise ases
K en
Ġbe gged
ĠW oman
ĠChrist opher
Ġmunicipal ities
R ay
et e
ĠB ry
ĠAg ain
Ġpec uliar
Ġs outheast
Ġd rank
ĠM um
ĠG U
ĠG ra
ĠTh ose
Ġg a
Ġcond em
Ġ192 6
Ġren ew
Ġmurd erer
! '
y ay
Ġre le
ĠL am
oll ey
bor ough
Ġpuzz le
d ist
Ġcom r
Ġencour age
Ġjun ior
ĠJ ake
Ġbl ast
i op
Ġde er
Ġch rist
Ġregular ly
Ġcelebr ated
Ġbatt les
ĠArgent ina
ĠS i
ĠA st
Ġpre y
Ġunder t
Th rough
sh ot
Ġfasc in
Ġexped ition
ĠPrem ier
Ġ Ð
Ġ ic
Ġconst ruct
Ġsteal ing
S ighs
ĠSp irit
Ġmist ress
Ġcas ual
C hild
Ġn it
Ġst orage
Ġun fortunately
we alth
Ġsc re
D el
E specially
r ous
Ġg ross
ĠD allas
ĠN ik
bo at
Ġtit led
im m
ĠJ enn
Ġex cess
Ġch im
Ġintellig ent
Ġadvert ising
T E
g iving
Ġbell y
O ff
Ġpe e
ĠV egas
Ġsha king
ĠJo han
Ġpers pective
ve land
ĠG ulf
Ġabst ract
nd ered
an other
Ġactiv ist
ĠMed ia
Ġcand y
Qu ite
Ġtr icks
Ġpar ad
Ġqual ified
Ġload ed
Ġce ased
Ġgodd ess
Ġhel icop
Ġadv is
Ġ192 4
Ġnort heast
Ġp unch
ay e
Ġ19 17
Ġkill s
Wh ite
ru ck
Ġinst antly
Ġwid ow
Ġgrav ity
comfort able
p res
Ġh ire
ĠD yn
Ġ19 19
ag an
ian e
Ġapp les
Ġtri bes
Ġprom otion
Ġprocess es
Ġexec uted
Ġinj uries
ĠI da
ĠJ u
Ġterri bly
aret te
Ġadop t
ĠGil bert
Ġconclud ed
H alf
ĠR ick
Ġste ep
ĠMount ains
Ġmeas ured
ĠPict ures
Ġp izza
un ted
Ġen sure
Ġav o
w ear
Ġc inem
Ġdef ine
ĠAd ams
ĠAN Y
ĠPal est
Ġt el
Ġf etch
ĠR at
ĠF ine
Ġv ary
ific ations
cri bed
Ġ192 5
P art
Â ²
ia lect
Ġsur ve
Ġpain ful
Ġinn ov
Ġcab inet
Ġconsequ ences
ge ls
ap se
ire ct
Ġconsider ation
M O
o j
us alem
Ġle ather
ming ham
roll ed
ĠPet ers
ĠApp le
Ġemot ions
Ġdat ab
Ġf ranch
Ġbe ef
Ġun employ
gr im
Ġarg ued
ĠMuslim s
f ight
ific ent
Ġsurpr ising
ĠMed ical
Ġden ied
ĠJud ge
Ġb in
ig a
ĠE N
Ġv ig
ud a
Ġpay ment
IS H
Ġtransl ated
S at
S upp
ĠP in
ĠSh ut
Ġden y
E asy
r ac
AN S
Ġinst all
ged y
Ġresult ing
ĠA th
Ġbr ick
Ġmother s
C oll
Ġdri ves
Ġdel ivery
ĠDep uty
Ġdemand s
Char les
is ible
Ġwar rant
eg ro
m aking
ĠA irl
pl ed
not hing
ĠCount ry
entle men
Ġlog ic
ĠFar mer
D ER
H ope
Q ue
ĠB ear
Ġfore head
ĠChar lotte
room s
os hi
ab oo
Ġsa iled
YE AH
8 9
ĠM erc
ĠR oc
we gian
Ġshout ing
s hi
Ġb ind
Ġsha res
ĠNob el
Ġregist ered
Ġoccas ions
Ġg ender
Ġr age
Ġdev oted
Ġtra pped
Ġtri angle
Ġbed s
C lear
c H
r ations
as ures
ĠS now
ĠT s
ĠD ark
Ġgovern ments
OM AN
Ġlad s
ĠHam ilton
P e
Ġt um
Ġt iger
ĠR io
ak u
Ġsect ions
re ction
ed ge
ic ular
ĠB R
ĠW rest
ĠF riend
Ġgar bage
Ġfeather s
Ġc ared
ear l
Ġstret ch
Ġp ub
ĠB ye
Ġar row
ĠSt orm
ix on
ĠCol in
AC E
IM E
Ġst ared
Ġres idence
Ġdist urb
eg a
Ġtravel ing
c u
ĠJ uan
ream s
Ġair plane
Ġrese mb
ĠSu pp
K now
Ġb ust
Ġin ject
ĠO p
ĠK az
au nd
Ġchair s
ĠB ird
ĠL ow
Ġext ract
Go ing
Ġaw kward
Ġcook ies
Ġenjoy ing
Ġbeha ve
Ġflo ating
0 2
Ġli p
Ġacc ent
ĠAl aska
N or
W on
Ġw ives
ĠSt ill
Ġ4 9
Ġswe at
ĠCub a
F OR
Ġo m
ĠD C
em en
ĠR ights
Be ing
ĠFore ign
c ers
Ġf iring
ĠM iami
op en
Ġche eks
Ġland scape
ĠNaz i
n ity
Ġc ust
Ġso ccer
ĠE th
ĠAnd erson
Ġpubl isher
b ig
b ia
d ec
w w
it ical
id i
Ġback wards
OU R
olog ies
c hard
d Ã©
z i
ar se
Ġl amb
ol o
Ġgener ations
ĠCl are
arr ator
Ġsn eak
Ġlab our
Ġpossess ed
ĠHou ston
e at
Ġw ounds
ĠAb d
Ġkitt ie
Ġtremend ous
ĠS EE
ĠW ard
Ġj ungle
Ġsuggest ion
Ġbur den
l ines
Ġc hess
Ġd eaf
ro v
Ġtrans ition
Ġsoul s
k ers
Ġf isher
Ġn odded
Ġha ck
ĠL ist
Ġinf ection
Ġcott on
C ons
Ġf ir
Ġl un
ific ial
Ġpen ny
Ġparticip ate
Ġprovin ces
K im
Ġt ag
Ġa uth
um ed
Ġdra gged
Ġamount s
ĠS A
Ġse ar
ĠD ur
Ġreg ister
ik o
ĠLe o
Ġcott age
Ġaccur ate
Ġearthqu ake
op ed
Ġpo ems
ran ean
Ġcre ep
P H
it i
or g
ĠC ook
ick en
Ġdesign s
Ġappro ached
c ond
Ġl aura
ig s
Ġun certain
Ġcomp ound
oc ity
Ġpre v
Ġlyr ics
R ock
ĠA uthor
Ġmad am
Ġcamer as
intend o
ĠRus sell
H igh
al ph
Ġre ception
head ed
l ia
il ia
Ġdiv ine
Ġpig s
ĠL abor
Ġt in
Ġsc an
Ġch lor
Sh h
ĠFl ore
Ġinsect s
M orning
f are
g age
Ġw ipe
out e
ĠL ot
Ġv ital
ĠK am
Ġdisc har
m at
Ġnot ion
ort ion
ĠCr own
Ġsurre nder
j u
Ġn asty
ĠJul ia
Ġhyd rogen
ĠAff airs
Ġaccompan ied
Ġgen uine
ÃŃ a
Ġpeace ful
ĠWay ne
Eng lish
Ġsympat hy
R eg
S a
g ate
h ot
ĠI van
Ġre he
ĠJ ose
oun ter
Ġpract ically
ĠMet ropolitan
Ġcandid ates
E ver
F if
ĠR eal
og a
Ġser ial
uss ian
Th omas
Ġdro pping
Ġmount ed
Ġstick s
Ġlin ear
re pre
Ġmus cles
gress ive
Ġsuit able
R og
Å «
Ġr it
Ġbri g
bel iev
= "
n est
Ġj oking
Ġpresent ation
Ġlad der
Ġpurcha se
ĠAfghan istan
ĠR ub
Ġconf usion
Ġfeat uring
ĠWI LL
Ġveget ables
Ġexplos ion
Ä į
Ġhe n
Ġre un
Ġsal ary
ĠCO VID
ĠS cient
ian g
Ġsusp icious
M o
S n
T im
w hel
re a
Ġc ough
ĠT el
op hy
Ġsh ove
Ġcon grat
Ġass ure
Ġpartic les
Ġhistor ian
repre ne
g reen
Ġb ishop
Ġhuman ity
ĠWel sh
Ġw agon
ors hip
Ġdifferent ly
? !
C ertainly
P op
ell ig
Tr ust
ĠJul ie
GR UN
C al
or able
Ġst ake
Ġcon vention
Ġcomp ass
Ġsub stance
Ġdel icate
ĠTHE Y
Ġchem istry
Ġalpha bet
ĠB our
ag ine
Ġcol ours
Ġdro ps
su ccess
ĠChristian ity
Ġbless ed
A dd
p erson
ĠW alt
Ġmat rix
Ġext ension
U se
p iece
Ġc ows
Ġn avig
ec utive
ĠO regon
Ġcons cience
Ġexpl o
Ġcontr ary
hell e
H ell
le vel
Ġco in
Ġvers us
6 8
M ag
x ide
Ġs ore
Ġpe asant
Ġconcer ning
Ġ192 3
ĠPortug al
f ree
ĠS ax
ĠP ant
Ġed ges
ĠHigh way
ĠMal ays
H ard
Ġs igh
Ġn aught
Ġj e
ĠDet roit
Ġcontem porary
Ġcon sec
Ġqu ote
ĠV ik
har m
Ġins isted
ĠC os
ĠD ong
ĠN elson
Ġsmall est
ruct ure
Ã «
Ġchan nels
Ġarrange ment
ĠHind u
" :
Ġt u
Ġdis pl
Ġmain tained
Ġeffect ively
Ġagric ulture
ie ved
ĠE mma
Ġchar m
Ġinter ior
Un fortunately
Ġtravell ing
n ecess
p se
ĠA ge
AM E
Ser iously
f r
m are
Ġn erves
ĠN am
Ġcr ay
Ġrom ance
N umber
P R
Ã ĺ
Ġas sembly
For give
VER Y
Ġl end
Ġ19 21
Ġcl ay
Ġdown load
ĠCommun ist
Ġg le
Ġli ver
ĠL as
ĠTh rough
Ġhun ter
Ġdow ntown
Ġd ough
Ġdo ggie
Ġchar ts
Ġclos et
child ren
) }
ac ent
ul u
act ive
Ġbar g
w ald
Ġf its
ar on
ah n
Ġplan ets
Ġcommun icate
ĠMor ris
Î ±
Ġthe ories
Fuck ing
Ġblank et
H oly
n amed
Ġre ci
Ġse as
ĠF ace
Any one
ĠPer haps
us ions
ĠAl b
Ġcap s
Ġrest ored
Ġz oo
rel ated
sha ped
Ġbull shit
r Ã©
Ã ¸
ou g
ĠH orn
ĠR ap
ab et
Ġex ternal
ĠEm ily
Ġsched uled
A ir
n ut
ĠT un
ici ency
B as
B est
b its
l ove
â Ķ
Ġtr ash
Ġcol ony
ĠTr ump
ĠAd minist
off s
Ġmist aken
ĠMad rid
Ġoblig ed
ĠMar shall
Ġder ived
nat ural
ĠUt ah
ĠM and
Ġbus h
Ġpolic eman
Pl us
Ġlink s
Ġsuspect ed
Ġwe igh
Ġor bit
ĠSo on
Ġlie utenant
Ġrout es
M ax
Ġeight h
ĠDen mark
is n
ol ph
Ġrespect ively
wh oops
ĠSt at
Ġcons ent
Ġcho ices
Ġtrust ed
Ġpack ed
Ġestablish ment
M er
S us
Ġd ialect
ect or
AN G
Ġloc ations
Ġsatell ite
u its
Ä «
us k
ell s
Ġsp rang
Ġch in
Ġfound ing
ĠCl inton
Ġpublic ation
Ġpill ow
ĠC ec
il and
ĠL ast
il ation
th rop
Ġmust n
Ġround s
Ġo ri
ĠL isa
ott o
Ġscarce ly
Ġbu nd
Ġdesign ated
aly mp
- +
C R
C alm
Ġdo in
ĠL ower
ie val
Ġ4 7
Ġche ek
Ġinvol ves
ĠBalt imore
z ard
Ġp ressed
Ġex it
Ġeff icient
Ġpur se
Ġcow ard
Ġamb ulance
Ġconcent ration
et he
Ġst ead
ĠP RO
ĠJ a
Ġsp ider
gr and
ĠRoman ia
M ur
v ation
Ġe y
RE E
Ġimm ense
Ġsand wich
ĠTam il
ĠAlf red
G old
N ational
ĠB Y
Ġv oy
OW N
Ġincre ases
ĠAre a
Ġdyn asty
Ġconver ted
Ġexhib ition
Ġsust ain
Ġf et
Ġp airs
ĠH op
Ġbar rel
Ġve ter
Ġdream ing
J oe
Ġ19 14
Ġdec ade
Ġri g
Ġeng agement
ĠNor wegian
Ġpan ic
Ġshad ows
Ġpra ise
Ġschol ar
Ġconstitu ency
Ġbe ans
out ing
ĠL inda
Ġdest iny
Ġsusp ic
ĠMem orial
ĠWalk er
Ġwra pped
b aby
ac ha
th odox
Ġadv oc
Ġoccup ation
Ind eed
N orth
p arent
ĠM ember
Ġcontrol s
Ġbur nt
Ġc hips
Ġre tain
ĠO rigin
ĠU pper
ows er
Ġcommand ed
ĠCa esar
Ġimpress ive
B u
im ens
ĠJ osh
Ġ19 00
Ġdet ective
M arch
ĠC row
Ġbott les
Ġassign ment
p hy
ar med
Ġk m
Ġcomp are
Ġjud ges
ĠGreat er
ĠAirl ines
in ea
ĠR ain
H it
i able
Ġc ents
Ġg ates
Ġst ro
Ġsw ept
ĠPar alymp
on ies
ĠT erry
Ġpe oples
Ġgr ain
Ġind ex
Ġind icate
ĠL ive
ig ious
Ġinv itation
Ġdream ed
ĠW right
ink le
ĠO R
Ġdr own
fe ld
9 2
ĠG on
Ġsh orter
ab l
Ġmis under
ĠMed al
Ġclim bing
ĠJer usalem
ĠAtl anta
Ġtravel ed
Ġtransl ation
t it
y ers
Ġp ace
if ies
ore n
in burgh
ur rent
Ġpl ug
Ġadd ressed
Ġdan ced
aps ed
Ġmechan ical
Ġnuc le
s chool
Ġman ifest
Ġvot ing
y cl
ay an
ĠP hys
oll o
Ġwhist le
C oming
v as
Ġt id
ut o
Ġsl ope
ĠDo es
Ġbound ary
Ġdemocr acy
P A
Ġacc ord
Ġfort un
Ġwrest ling
Ġintellect ual
Ġd ated
ac o
Ġun comfortable
Ġbl own
iss ance
ock ing
ĠTele vision
Ġagric ultural
ĠBir mingham
F re
ha nt
Ġc age
ĠR u
Ġcompan ions
Ġrout ine
Ġanx iety
pher d
cill or
Ð °
ĠS ri
Ġal ike
ĠN intendo
Ġcar ries
Ġgener ous
... !
be at
Ġrock et
Ġrev ol
fortun ate
an ia
Ġe ats
Ġover come
Ġtri b
Ġfuck ed
Ġdesign er
ett le
ĠMil an
ĠOb ama
M ont
it ated
Ġb ury
om o
ĠS ciences
Ġcl ue
Ġro ses
Ġgl oom
ank a
Ġmod er
Ġcult iv
Ġmum my
Ġprepar ing
L aughs
s qu
be an
Ġsign als
Ġobs er
Ġfant asy
icy cle
W AY
l est
ĠT ak
Ġorgan isation
Ġcou ch
ĠAb b
Ġshar k
Ġevident ly
believ able
M et
M el
im ony
ĠH and
Ġ1 20
Ġor phan
Ġrul er
Ġhyd ro
EF A
H aving
c ia
Ġshe ets
ĠY outh
Ġprodu ces
Ġorgan ic
ĠPro gram
ĠFin land
Ne ither
Ġdom ain
Ġd ared
ĠCol omb
igen ous
on ing
ha ra
ĠL ang
iz er
Ġsleep y
Ġeld est
A f
Ġd ot
le ans
Ġr ack
gu ing
th s
ĠL arry
Ġcritic ism
ĠBangl adesh
ĠC ow
ĠT it
ĠR ey
ess ions
Ġsend s
OUN D
Ġp atch
Ġp unk
sh ow
ĠAg ent
ĠCle veland
Ġadap ted
g us
Ġover whel
ob s
Ġpat ience
ĠAd miral
Ġperiod s
J une
b oth
ĠDes pite
G A
P ull
n ik
Ġwh ilst
ace y
ĠAr men
Ġmer c
Ġsevent een
F ollow
T onight
act s
iss ions
uff y
Ġo ven
Ġf ame
Ġdo ct
Ġr aw
ĠIn n
Ġdin ing
T er
om ot
Ġcr imin
Ġdep uty
ĠSam uel
str ong
ĠMel bourne
ĠDor othy
Ġ1 000
od a
orn e
ten ance
AS E
6 7
s n
Ġcomp osition
Ġ4 4
Ġcharacter istics
r ise
Ġf lex
ĠN an
Ġsh ocked
ĠMunicip ality
D E
Ġdes ired
Ġcons isted
Ġtrad ing
ĠPri x
Ġmagaz ines
Ġmechan ism
al ie
Ġal ert
eg es
ĠMan hattan
Ġfict ional
ĠG as
ĠG arden
ĠF ern
Ġ( ),
Any body
ograph ical
Ġs ung
ĠF at
ra h
Ġcamp s
ĠCha nd
l aughter
urn ame
Ġsc attered
Don ald
Ġmil it
Ġexpl ains
ri ver
8 7
Ġ {
Ġprov ision
ĠV erm
Ġown s
Ġneut ral
ĠHoll and
j ab
or o
ĠS HE
Ġun ited
Ġrecord er
Ġleg it
Ġcook ed
Ġver se
D R
al ion
Ġst ern
ĠG rey
ĠWar ren
Ġrepresent ation
S S
W ater
Ġf eared
ro id
az ine
Ġviol in
? ?
ic ia
am ous
ĠC atherine
Ġso d
Ġlist s
U gh
Ġm ast
Ġd warf
ĠS ally
act ory
Ġind icated
ene z
âĢİ .
b ish
c ap
ĠH at
iz ard
ark s
Ġhapp ily
Ġsl a
Ġ8 5
ĠP ed
Ġne uro
Ġint r
Ġcomp ens
Ġsc andal
app er
Ġcol ored
ĠRober ts
m ble
v ol
Ġre li
ra k
Ġhel pless
ĠMar io
Ġhigh light
At l
I d
U RE
ĠR ud
Ġapp et
Ġplan es
Ã¨ re
Ġencour aged
Ġgather ing
Ġcig arette
ar ms
iter ranean
Ġprop ose
ĠSam my
Ġpray ers
H ome
Ġtreat y
ĠSe ven
Ġmid st
Ġrequire ments
ĠLiber al
p in
Ġb ubbles
Ġp ic
al ia
od ed
Ġcl o
Ġhum ili
Ġmarket ing
ĠBul gar
ĠK eep
ĠSt ew
ĠSt uart
og s
Ġthr ust
Ġadm ire
Ġpract ices
US IC
Ġtherap y
G ee
Ġg ene
ĠR i
Ġdest ro
Ġappro val
Ġwitness es
Ġcuri osity
heart ed
Ġlegisl ation
Ġso cks
ĠIn stead
Ġ5 5
who a
âĶ Ģ
Ã Ļ
ĠGr ammy
sp eaking
int erest
ĠSp encer
Ġhero es
ĠI mp
his m
Ġsha pes
Ġbre ed
Ġmeant ime
ĠTer rit
Ġthorough ly
id o
ĠSt aff
Ġqu id
Ġ8 8
Ġwa ist
ĠCommun ity
o ir
Ġm and
Ġcan cell
Ġv ic
Ġdistingu ished
W oman
Ġp ills
Ġgo at
ĠW es
cl aimed
Ġsent enced
Ġla wn
ĠQue bec
ĠCarl os
Ġphotograph s
ĠHun ter
I AN
l ater
s il
it ches
Ġf est
un o
ĠG raham
Ġstri king
Ġant icip
Ġcatch ing
Ġmultip ly
Ġunivers al
T ube
Ä ĥ
ĠB ACK
ĠW hich
Ġbl ows
Ġdiv isions
ĠAm ong
Ġsitu ated
it ate
en cing
ar ter
ĠR and
Ġneed le
Ġdis gr
Ġmin i
Ġlow est
ĠWH O
ĠServ ices
á ¹
ĠA hm
Ġu mb
um ns
ĠTh ird
Ġign ore
Ġliber ty
Ġball oon
Ch ief
ĠCent ury
Ġfill ing
Ġrub ber
Se ven
ĠFR OM
u ction
if ully
ho en
Ġstat ements
Ġdress ing
Ġreve al
Ġmagn etic
Ġcr iter
Ġimag ined
Ġscrew ed
Ġtravell ed
us cript
Ġre levant
Ġr ape
ĠR un
ĠK an
Ġcons ervative
Ġaff ili
Car l
Ġfranch ise
K ar
P ER
Ġt ide
ear ly
ĠEd inburgh
Ġvan ished
omed ay
Ġdign ity
ĠHawai i
il ight
Ġreal ise
Ġperson nel
Ġir rit
Ġgalax y
Ġpret ending
arr ondissement
ĠSh ort
ĠJust in
ĠFred erick
at on
Ġre aches
ĠB enn
Ġdec ides
cy cle
Ġtroub led
n ia
w ife
Ġp ier
ag raph
Ġsc oring
Ġce iling
l ic
Ġwe lf
ĠB L
ĠHe b
ĠSing h
Ġcomed ian
Ġwelf are
ac co
Ġj erk
ĠN ext
Ġwhe at
hi gh
ĠU EFA
ret ched
ĠOr leans
Ġprotect ing
W alk
Ġex hibit
Ġatt ribut
ĠAn cient
B a
Ġd ent
ar us
ill er
Ġsent iment
Ġmulti pl
Ġsub ur
ĠHar vard
F rance
ĠM ust
Ġart istic
Ġpercent age
6 5
ol ine
ul um
Ġsu its
Ġreg iment
Ġclass ified
Ġest imate
ĠHer itage
Ġpopular ity
oc ese
vent ually
E ast
et ing
ĠC hat
ĠW r
ĠG y
ĠL en
pl ain
Ġev alu
Ġdiam eter
B o
U H
it is
Ġg ardens
ĠW onder
ist a
Ġover se
ĠV is
Ġcar go
Ġkind ness
ĠJan et
Ġmark ets
ĠMont real
ĠAnton io
b ai
Ġd iver
ĠC ad
Ġtr ump
Ġcha sing
Ġcult ures
ĠBet ween
Ġopt im
Ġinsp iration
Ġwas ted
Ġst ub
ĠMar illa
ĠGr ay
Ġdan cer
ĠBus iness
S end
Ġp ad
Ġl ou
Ġh int
Ġfil ed
Al most
Ġobs ervation
Ġnomin ation
ĠBelg ian
C ool
ĠSh ir
Ġmole cules
ha us
an im
ad i
ul se
ĠY an
Ġass ured
Ġremark ed
Pol ice
Ġprecise ly
c ourse
Ġc hip
ĠB ri
ĠCon stant
B orn
on om
Ġst ew
ĠC hamber
ul us
Ġmus h
eng u
Ġath lete
ĠBrook lyn
Ġdisg usting
ĠPitt s
9 4
Ġre ct
ĠR ea
ĠAn nie
iver pool
Ġcontribut ion
ĠMicro soft
C ount
I X
est yle
Ġ19 10
Ġpun ished
Ġdiagn osed
olley ball
D et
ĠD ead
ear ing
Ġno on
ĠK il
ik es
amm ar
Ġsla very
is ne
ĠS ound
ĠB ed
Ġ9 5
Ġfat al
tr ack
Ġf ears
Ġph ones
ĠFr ont
Ġident ical
Ġwealth y
ĠDie go
ĠV I
Ġapp arent
ING S
Ġeng age
ĠGu y
Ġobject ive
Ġbless ing
Ġflu id
in ch
Ġaw ait
uer to
L and
Ġo ath
Ġd oo
ol ished
Ġsmell s
Ġreb ell
ĠCamp bell
aval ry
6 4
H aven
vern ment
Ġcoll ar
ey ed
Ġdri vers
ĠCommon wealth
R ose
Ġf ruits
Ġre verse
ĠG or
ĠJ ournal
Ġland l
Ġbull ets
Ġjew el
Ġproport ion
S A
ĠK it
Ġfight er
Ġlay ing
Ġrad ical
Ġ25 0
Ġdepart ure
Whe ther
l ace
Ġp ian
st eps
ĠR et
Ġfew er
Ġsign ature
Ġfra ud
, ...
Ġ19 12
ang led
Ġform ing
Ġsuccess or
ĠPl ace
Ġver te
h r
l ay
at hy
ĠHe art
ne um
Ġhar sh
Ġwin ners
Pro fessor
amps hire
bird s
Ã ī
Ġl ane
Ġbutt ons
ĠBarb ara
Ġs ank
is en
Ġin aug
ĠM olly
um i
Ġman ip
Ġres olved
Ġfood s
ĠNe il
ĠLeon ard
Ġvel ocity
F rench
Ġro d
gr ade
Ġdef ensive
P L
Ġha y
ĠB ec
Ġent reprene
ĠTechn ology
Ġst ack
ĠA cc
un ks
Ġkilomet ers
z el
am ents
ĠB uzz
ach t
av an
Ġconv icted
Ġliber al
Ġc ul
un ity
ĠY ug
ens on
Ġlea p
Ġabs urd
8 5
G B
M ight
Ġt enth
Ġj okes
Ġsp ray
ere my
Ġfl ame
eb ast
Ġeconom ics
Ġhung er
ĠGrand father
b ishop
Ġw ax
Ġre venue
Ġab und
Ġev olved
su pp
Ġcondu ctor
Bet ween
Ġbelief s
4 00
m el
ĠP il
ĠD ragon
Ġpe ep
ens ed
Ġcontin uous
ĠBen jamin
Ġg amb
ĠF ollowing
ĠE li
iv a
Ġhome work
uss ia
Ġaut umn
ĠS ue
Ġsa iling
OU S
P ass
ĠS em
Ġrec overy
ib i
Ġdead ly
Ġobs erve
Ġcivil ization
Ġacqu aint
Ġtruck s
Ġresour ce
Ġpartners hip
n um
w ed
ab a
Ġro ss
iz a
ĠY E
a ver
um per
li er
Ġgen es
Ġsurv ival
Ġdiscipl ine
ĠCE O
f s
Ġm ant
Ġp ause
Ġp apa
Ġch rom
Ġhar vest
Ġ5 2
Ġart ificial
Ġtax i
Ġbab e
T R
d el
ar ge
rav o
t ail
is d
ĠC R
ea e
Ġj unk
Ġgl oves
ĠEx cuse
Ġmem orial
hand ed
V al
Ġp ion
ch uckles
ĠN ice
Ġcomp onents
Ġsc rap
Ġsc ores
Ġfollow ers
Ġancest ors
Ġpros per
Ã ł
ĠH ampshire
ĠN ed
ĠJ en
ud son
Ġar chae
Ġbr ut
ative ly
Ġaccompl ished
Ġtort ure
Ġv ague
ud ible
ĠSt ri
Brit ish
E nd
W ake
m und
Ġf og
Ġam ateur
ach ine
Ġext inct
Ġdet ailed
Ġsol itary
Ġprocess ing
Ġload s
ĠHu gh
ĠGl en
Ġhol idays
an ne
ĠB aker
ol ar
est ed
ĠL anc
Ġcol umns
uro pe
Ġpot atoes
Ġplant ed
l en
Ġb urg
il er
ĠP apa
Ġsp an
Ġpa used
Ġvul ner
B ro
D em
Ġr ating
Ġso b
ard ed
Ġdis gu
Ġmembers hip
Ġphys ician
ĠMed iterranean
Ġemploy ee
Ġfrequ ent
ĠBoy s
Ġguitar ist
Ġmother f
ĠSe attle
Ġarg uments
i ge
ĠI l
ĠN OW
Ġun fortunate
Ġstr angers
AR K
Cl ose
Ġaud io
Ġbom bs
, .
W al
Ġd ug
hy l
There fore
ĠGirl s
Ġprepar ation
H arry
R et
Ġc ra
ri um
ĠR uth
Ġmin ing
Ġev ac
Ġnice ly
Ġvis its
Ġdeal t
Ġrub bish
Ġmagn ificent
ĠIsrael i
ĠHarr ison
Ġalleg ed
onym ous
" "
t alk
Ġn om
ec hes
ĠD AY
ĠO d
ĠO z
pt ions
Ġpolit icians
ĠFa ith
Ġrehe ars
9 3
Ġhe nce
ac re
Ġar ray
Ġrep orter
Ġcur se
Ġcreat es
Per fect
Ġpsych iat
boy s
col m
zer bai
B R
v ar
st able
Ġpal m
Ġpock ets
Ġcontribut ed
Ap ril
Rog er
E at
L es
Ġs urname
Ġm artial
Ġman s
ĠAl ber
Ġass ets
Ġcir cles
Ġport rait
Ġperm it
Ġgro cer
Ġm ice
ist ical
ĠJ e
ose xual
Ġinst alled
iet h
Ġ7 2
Ġtre nd
Ġfem in
Ġsequ el
Ġprefer red
ĠTrans port
Ġtra gedy
Ġsurv iv
Ġpsych ology
ĠBroad way
O ctober
pr on
ĠDan ish
Ġrul ing
l ist
Ġp ine
Ġpres um
Ġmon ument
ĠOr chestra
Ġarrange ments
Ġinterrupt ed
E ither
in ery
Ġl azy
ĠT ob
ĠV ic
Ġcre pt
Ġlung s
Ġexha usted
c row
Ġm aj
ĠC urt
ĠB ass
ant on
ĠK u
Ġsw itched
Ġloc ality
Ġmix ture
Ġrat io
M L
g ic
t le
Ġf ib
Ġal ter
han a
Ġim per
ps y
ane ous
Ġrob bery
Ġchallen ges
ĠMo z
Ġcro ps
Ġnurs ing
Ġfoss il
W A
w ering
ĠM ort
Ġdo ck
ĠD al
Ġoff ensive
au x
ial s
Ġpres erved
Ġball et
ele ction
Ġnet works
Ġconnect ions
ĠPers ian
S hoot
W omen
m od
ĠW ag
ass y
eak er
Ch uckles
Ġsle e
Ġcorpor ate
b ound
s ki
w ent
ĠS ultan
Ġcr ashed
sel s
unt ary
Ġpost ed
Ġhorn s
M ac
ĠK aren
Ġen force
Ġpra ised
A unt
f ront
Ġp anc
Ġh ood
Ġhe d
ĠA isne
ĠM R
Ġj olly
ĠJ enny
Ġde als
App arently
Ob viously
O l
c s
Ġse gment
Ġinst ruction
Ġtri umph
Ġart illery
Ġcand le
IGH S
Ġprof ile
Ġbetray ed
_ _
m ers
ĠP ap
ĠG ill
ie ves
Ġsub mar
Ġvis itor
Ġappear ing
ĠAb raham
Ġcontinu ing
p ost
Ġst ored
Ġ19 15
Ġun e
Ġhum or
ĠProt est
S eptember
Ġgr in
E P
Ġm ister
Ġwe ary
se ud
ant h
Ġbl oss
Ġco ins
Ġ6 6
Ġinf ect
L ight
Ġa rose
ĠT reat
Ġr ag
ig o
Bel ieve
Ġmamm als
Ġb onds
ĠI ron
ĠN AS
ere k
Ġ4 3
Ġhat es
ĠEx press
G reen
L ee
on ce
Ġc odes
ĠYou Tube
rain ian
Ġhelicop ter
ĠD uck
Ġ19 16
Ġcomp onent
ne ys
Ġsens es
Ġpun ish
y ears
Ġt ales
ĠG un
aw are
Ġ5 1
mm et
Ġtrad itions
ĠGO ING
Ġnow adays
Ġattack ing
Ġdatab ase
u is
ĠR ow
Ġman uscript
ild a
Ġmar ine
ID E
Ġge omet
ĠGe off
ĠCra ig
Ġrhyth m
F ollowing
Ġmed als
M s
Ġw ider
ri ors
ro st
Ġwh ore
ess a
Ġsc en
Ġcount ed
Ġphot ographer
Ġcirc us
Ġfac ulty
J uly
o vers
Ġst em
Ġdist inction
ĠPr im
Ġweek ly
ici ently
B ur
Ġc ries
st ick
ĠT IME
ĠW ant
Ġj er
ie u
Ġv ow
az on
Ġinv isible
ĠFor ces
Ġran ks
ĠBu ilding
Ġbug s
Ġcontrovers ial
ĠS lo
ell i
ig ers
Ġfar ming
Ġtrans mit
Ġcor on
Ġclos est
Ġdelight ful
w right
is ons
st ill
op l
ple x
Ġel abor
tt es
W O
c al
n ames
Ð µ
Ð ¾
Ġd ried
ir able
ib bean
Ġinf inite
itar ian
Ġpupp y
Rel ax
M or
p os
Ġb er
ke e
Ġas semb
el ing
ĠCal v
Ġvol t
Ġthreat ening
ĠLA UGH
ri pp
and ed
Ġwill iam
Ġmain tenance
Ġsouth western
T ony
t in
Ġsh one
ub s
ĠY am
gin s
br aska
Qu iet
Ġcheer ful
Ġbot hered
7 2
M eanwhile
ĠW OULD
Ġr ational
Ġele g
Ġ7 8
Ġ9 9
Ġtem por
Ġelect rons
ĠEx ecutive
yl an
Che ers
ĠMet ro
Ġcommit ment
ĠLeg isl
D ev
ĠB att
ort ing
ĠK l
ress ing
Ġfin est
AT TER
ĠCl ay
CH UCK
Ġstrugg ling
ĠCons ervative
ĠRom ans
M il
re lla
Ġin ev
Ġst alk
Ġun c
cl ose
br id
Ġopin ions
Ġch ir
Ġob sc
Ġbas ement
ĠCon vention
Ġhe els
ĠM ack
ĠL uther
ra wn
Ġopp onent
Ġderiv ative
c ott
Ġwe ars
ĠR ic
ĠN ancy
Ġsh ine
Ġgr an
ase y
Ġper pet
Ġsec ured
Ġcount s
Ġsum mon
C HE
S ister
i u
j ack
ree ks
ang a
Ġche aper
Ġread er
Ġut il
ĠGO OD
Ġcrimin als
A ust
g al
Ġfl ung
Ġinvol ving
Ġcompl ain
ĠMart ha
C ent
d ro
ĠD aw
ĠK now
Ġcoll apse
aster y
Ġdig ging
I O
ok u
Ġexp ense
Ġ8 3
Ġpat ron
af a
Ġorg ans
v ironment
Ġw oo
Ġf itted
as per
ĠS aud
with out
ĠPal mer
Ġbi ological
Ġquant ity
Jan uary
ĠS ean
Ġst ove
ĠN av
RE AT
Ġclean ed
ĠMur ray
ĠWrest ling
ĠFlore nce
se en
ĠMar ine
ss on
Ġbell s
A A
is ure
Ġun l
vent h
ĠTh ough
Ġpri ests
Ġaccomp any
ĠForm ula
B oss
J apan
Ġlo vers
k h
Ġm oth
Ġm aps
Ġso ber
Ġ5 6
Ġhur ting
ĠCat hedral
Ġv irgin
Ġman ners
ĠV enez
ubl in
ener ation
Ġcol onel
Ġbound aries
ĠB und
Ġr ats
Look ing
ĠThom pson
J ac
Ġan gels
ĠH appy
ĠL isten
Ġup side
ĠĠĠĠĠĠĠĠ ĠĠĠ
Ġpsych ological
Ġcrowd ed
Ġrequest ed
ld om
ĠS op
ĠH annah
ing le
Ġh ind
Ġtw ins
Ġgr im
Ġfree ly
Tr ue
Ġgor geous
Ġn aval
ĠW ol
ĠY ang
Ġrest ing
arr ison
ĠOF F
Ġsubsequ ent
Ġisol ated
A ng
J ane
M oney
R eal
V I
ĠM aur
ĠW atch
ess ed
Ġmin es
Ġlaw yers
mark et
Ġbuck et
ĠHung ary
Ġpurs ue
ĠAth let
m aid
s hire
as a
om on
ĠC hel
ĠR ena
ĠF itz
han iel
res a
ĠK id
Ġad am
ane ously
Ġprop he
Ġterrit ories
E p
I mp
ĠS uz
Ġsign ing
m ovie
Ġw ages
at ra
Ġen han
ĠCl aire
Ġsol utions
Ġvent ure
f ashion
Î ½
Ġli ar
ĠF all
Ġmar ble
Ġ7 7
Ġclass ification
ĠAg ency
THE Y
Ġprof ound
w on
Â Ŀ
ach ment
Ġappl ause
R ad
S HE
S arah
l og
on n
ĠF uck
Ch ris
Ġsusp ended
ĠKar l
G erman
H m
o qu
Ġt ies
it ness
ĠTh or
Ġvac c
Ġsur geon
Ġspeak ers
Ġsol ved
adu ate
Ġeter nal
Que en
Q U
Ġst air
ĠL iverpool
Ġ4 1
Ġdep ressed
ĠCl ar
sh op
ĠPar ish
ĠHar vey
Ġcost ume
Ġsuggest ing
Ġrefer ring
ĠBrother s
Ġnick name
N ARR
m ust
ru p
Ġnin th
Bl ue
Ġincorpor ated
on ge
Ġbe am
ĠS AY
ĠP rop
Ġne ur
ĠR an
Ġri p
tr ans
Ġâ Ķ
Ġt al
Ġh ut
ĠH ob
ĠF if
ĠE xt
Ġlight er
Ġfirm ly
Ġautom atic
8 3
ĠS everal
ia o
Ġstr ain
Ġpar agraph
r ast
th row
ĠE llen
Ġpen et
Ġcompl ications
Ġsam ples
Ġt ed
Ġcons pir
fl ies
Ġgradu ating
ĠCat al
Dan ny
ĠNep al
i h
at ched
Ġwas ting
ad v
ĠC oun
op ing
Ġj et
ĠJ in
Ġlight ning
Al pes
uk a
Ġcateg ories
ot he
ĠB uff
Ġall iance
Ġwor m
Ġbutter fly
opp y
Ġpup ils
Ġcust ody
S ave
Ġhe ap
Ġout come
ner gy
Ġconsist ent
d em
Ġt ire
Ġme ad
ĠM ind
if ting
ĠO range
born e
Ġrepl acement
ĠPun jab
R a
Ġt anks
Ġc emetery
ĠA P
ĠR oute
20 10
ĠIs a
Ġlear nt
Ġrestaur ants
ĠJeff erson
Ġbatter ies
Jim my
NARR ATOR
F eel
it udes
Ġb ail
ri ly
ĠB ox
Ġrep ublic
ON NA
Ġhop eless
Ġmurd ers
ĠPitts burgh
b ad
m us
ĠI d
Ġcan cel
Ġinterpret ation
Ġtow el
; :
D C
Ġreg ulations
Ġref lected
ĠTr ade
Ġstick ing
Ġban ana
Ġinvestig ate
ĠDel hi
Ġqual ities
Dan iel
Ġcolon ial
Ġcert ific
R ead
s w
Ġtravel s
cel ona
7 3
ctor al
Ġorgan isms
Ġsn ap
Ã¶ n
Ġcelebr ation
Ġhosp itals
. !
C ON
C AR
s ometimes
ĠM ans
cl osed
Un ited
Ġult imate
J eff
am ples
se ven
ĠL t
Ã© t
Ġmed ic
Ġtast es
L uc
Ġt urb
ĠP uerto
ĠR angers
ĠR alph
ra ke
Ġv amp
Dec ember
A in
ch io
ĠN FL
Ġdi ary
Ġsex y
AL K
Ġassoci ate
Ad am
App lause
Ġrespond ed
ĠFair y
á »
ĠE ight
ham bers
Ġ8 6
Ġmed ieval
ĠAll ah
co at
Ġsupport s
Ġpubl ishing
Ġcover age
M I
N Y
Ġans wering
Ġarri ves
Ġadvent ures
S uddenly
h ou
Â ¡
in th
Ġs oph
Ġme als
ĠH orse
ty pe
Ġswe ep
b one
ĠA in
ĠE P
Ġsha de
Ġtemper atures
Ġtur key
Ġt ab
Ġt roll
im ation
ĠM ama
ge red
ĠF al
ĠAr nold
Ġunt o
Ġ6 00
Ã© es
Ġexper ts
Ġre cept
ol id
ik h
for ward
Ġcharacter istic
Col onel
8 4
b en
Ġat oms
Ġsha ped
ster dam
wr iting
Ġtransport ation
H am
ĠC OULD
ĠLord s
Ã¶ r
ĠMag azine
Ġodd s
Ġautom atically
Ġimprove ment
Ġauth ors
L ady
g raph
cl iff
Ġsymb ols
Ġfold ed
Ġnaught y
H ot
W onder
m ag
ĠA zerbai
ĠM ouse
ĠP el
ber ries
ug ar
Ġhon ored
Ġperm itted
Ġembarrass ing
Ġembarrass ed
ĠB ah
Ġcompl aint
ĠBase ball
B Y
M ajor
P al
ĠW WE
Ġ19 13
Ġag encies
Ġrel ieved
Ġ8 2
Im agine
ĠP C
ist ant
em ale
Ġreg ime
Ġdr ain
Ġban ned
Ġrecomm ended
Ġcompar ison
ĠMit chell
ĠEth iop
P ort
an che
Ġgo ss
ĠP A
Ġcon j
are r
Ġpay s
Ġsqu ir
ÃŃ n
Ġlect ures
Ġpiss ed
Ġpeas ants
J oseph
t ree
ĠB urg
Not e
Ġdef ending
Ġdest ination
Ġphys ically
Ġto e
Ġn ail
ut ing
ĠP ierre
ĠP hoen
ĠW ik
ov al
Ġtri but
An s
Ġrecogn ised
op ard
ĠJ ill
qu er
Ġbi ology
N ovember
ill o
ĠF u
ĠIn spector
Ġur gent
ĠArab ic
ĠHung arian
n or
Ġ q
Ġl akes
Ġcent ers
Ġsince re
Ġfight s
ĠGall ery
Ġing red
ĠPic ard
ĠâĶ Ĥ
F ore
Y S
Ġp orn
ĠT ro
ĠT odd
Ġr att
ĠO scar
Ġser ver
ĠHar old
Ġcompet ing
Ġannounce ment
Ġdisag re
Ġacknow led
i ors
er ts
Ġhe ir
Ġbe w
im o
ie ge
Ġpe an
OR Y
TH IS
ĠDev on
Ġtransm ission
Ġdistur bed
H OW
Ġd ub
Ġto b
Ġp neum
st ad
Ġgu id
Ġsc ales
Ġdec line
ph ones
Th us
ĠCar ibbean
Ġkiss ing
Ġdepend ent
Ġshell s
Ġconsist ing
Ġinher it
ĠAthe ns
g om
art ed
Ġsecret ly
Ġcontribut ions
Des pite
ĠYug osl
ĠD in
ina udible
Ġprom ises
Ġpar as
Ġconcer ts
ĠMic hel
Ġshar ply
ĠRog ers
9 1
B on
Ġr ows
ĠK ang
Would n
asc al
E urope
F ort
b ul
Ġ Ä
Ġw ag
Ġbe e
st orm
ĠC hen
ĠT ol
ĠUn iverse
Ġread ers
bl ue
t ry
he nd
he nt
is hi
ĠG riff
Ġcomp ounds
ting ham
Ġconf ession
Ph one
K e
g il
Ġ19 11
Ġbl oke
In ter
Ġreg ards
bl ack
Ġwhis per
Ġmo ist
Ġc rop
Ġun re
St ation
Ġsens ible
Ġproceed ed
M od
S en
z burg
Ġd ense
ĠRay mond
Ġincred ibly
Ġthe at
Ġan k
ĠP oly
ood le
Ġman kind
are ttes
Ġbr ass
Ġpol ar
Ġpres erve
min ute
Ġpure ly
Ġunf air
ĠMod ern
ĠLl oyd
ĠHeb rew
T Y
Ġro ast
Ġres ort
Ġend ea
ING ING
Ġguess ed
Ġbelong ing
ĠMalays ia
n orm
Ġp od
Ġhe al
ĠB ey
au c
ĠWar ner
Ġrepresent atives
Ġcorn ers
ĠStud ies
G AS
d aughter
ĠH ank
Ġhand ling
Ġgl orious
Ġbus hes
Ġdr ums
Ġlaugh s
apt ist
Ġcoast al
part ement
Ġchemical s
Ġstrateg ic
Ġthe rm
Ġsurv iving
ĠJon athan
Ġturt le
N ick
Ġw rap
Ġb icycle
Ġgrand son
Ġwall et
Ġspin ning
ĠCalv ados
W in
Ġs ins
en os
Ġg oose
Ġe cho
Ġde ploy
ĠK ir
Ġday light
Ġsum mit
Ġris es
ri ers
Ġbelie ving
Ġpat rol
Ġpit cher
ĠSel ena
ĠSyl via
ĠIndones ia
G entlemen
Ġt att
Ġc hi
ĠS andy
Ġas hes
est one
Ġv ag
Ġen s
ĠBl ake
ĠIran ian
ĠNap ole
ĠVill age
Ġhoriz ont
Ġt ens
ĠC our
ĠM ong
ĠM orning
Ġfr ust
Ġ8 7
Ġsepar ation
Ġconcent rate
Ste ve
I ES
Ġm r
ed a
Ġl emon
ĠNe braska
bet ween
Ġconsequ ence
P as
ud dy
Ġtri als
Ġelect ro
Ġindust ries
Ġdress es
Ġ190 8
Ġterror ist
Ġrug by
ĠLead er
Ġsty les
d ig
ol is
ĠD ream
Ġtr ous
ple asant
Ġemer ged
Ġmanufact uring
Ġquant um
Ġphenomen on
m ir
Â §
Ġt ension
ic he
iv an
ier ra
ĠSy ria
Ġcritic ized
F riend
N ope
ou ver
Ġb orough
Ġhum ble
Ġtri gger
Ġsun set
ĠSha w
Ġvari ables
ĠWee k
Ġd io
ĠM A
Ġform ally
Ġ7 6
ai ries
ĠMu hammad
J on
S low
Ġs ighed
ing ham
ĠS ud
ĠC old
Ġback s
Ġqu ad
ĠY u
Ġcont ents
Ġdr owned
Ġbank rupt
u ing
ĠG ard
ĠL ud
ci o
Ġgl anced
Ġ9 6
Ġcompet itive
C ast
Ġb isc
ar in
ri ved
ĠE mer
ud ding
av in
Ġnight mare
Ġequ ations
ĠCamer on
Ġsynd rome
ĠStew art
e ast
ĠM all
ĠL ily
ĠR oom
ip ur
Ġfl ats
ye h
Th ought
Ġoper ates
Ġdi agram
Ġcy l
Ġru ins
ker chief
ay er
Ġor n
Ġ5 4
ok o
ĠSh in
Ġknock ing
Ġlabor atory
Ġelimin ated
C OME
D ON
L aw
a o
c or
t or
Ġp oured
ri ger
Ġcry stal
Ġpot ato
ĠMon te
Ġprim itive
ĠMil itary
Ġess ay
n ell
p it
Ġs aint
th ings
ag en
Ġam bit
vel ope
ĠMar c
Ġ8 4
Ġsn akes
Ġmagn et
Ġthirst y
necess ary
et ies
st ory
ĠP erry
ĠL eeds
Ġexam ination
Ġloyal ty
A y
Oh h
Ġlight ing
Ġcorrect ly
IF E
ĠUk rainian
ĠGran ny
Ġp ap
Ġn iece
ĠC ould
ĠM oses
ĠB ou
th ird
ĠN ash
Ġshe riff
ĠAl bum
Ġcompet itions
OD Y
Ġwrit ings
Ġairl ine
ĠAuthor ity
h ist
h ouses
Ġb ats
Ġf ran
Ġl ob
se ason
Ġcon vert
ink y
Ġtw isted
Ġgrand pa
Ġtap es
in ian
Ġcha ins
ĠMont ana
Ġheaven s
Ġchap el
ĠEvery thing
Ġfro st
ĠCommission er
ĠNaz is
Ġincreasing ly
Ġsear ched
D rop
W OMAN
Ã Ł
Ġal oud
ĠSha d
Ġkidna pped
Ġvoy age
ebast ian
c ame
he ard
Ġre vers
Ġman aging
ĠK irk
Ġcl erk
Ġfin ance
clud e
Ġwar rior
---- --
Ġfre ed
Ġcat al
Ġprior ity
Ġsubstant ial
dÃ© partement
g io
t able
Ġd ess
Ġto re
am o
ĠThere fore
AS S
Ġmass es
Ġcere mon
Ġcoinc idence
er ies
er ness
ent on
ĠS ophie
Ġint u
Ġ5 3
Ġ5 7
Ġem ail
Ġ9 2
Ġdirect ors
Ġdepart ed
ĠVen us
Ġowners hip
ĠRea gan
E ric
J ess
Ġp add
ous ed
Ġer u
Ġfar ms
Ġpret t
Ġver tical
Ġsal ad
sm ith
Ġdismiss ed
ĠVerm ont
M ENT
R ef
in f
ĠA BC
ĠG ONNA
ĠF arm
so le
ĠSt ra
Ġwand ering
8 1
Ġb ob
ed ed
ĠM es
ĠH aut
Ġcart oon
Ġtox ic
ĠParalymp ics
V er
n ine
st ep
Ġj aw
Ġ- &
Ġposs ibilities
Ġrecord ings
fess ional
Ġlog ical
Ġsignific ance
Ġelder ly
Ġbarg ain
G ro
h uman
p ow
ĠB oo
har t
Ġ6 7
ev a
Ġloss es
Ġremind ed
Ġvirt ue
Ġfrank ly
Ġbeet le
I r
Ġw age
ĠA ld
ĠM ake
ĠM aha
pl ant
here nt
Ġalt itude
Ġforb idden
ĠJoy ce
Ġtel esc
Ġstub born
8 00
F ebruary
M uch
T ra
Ġt asks
Ġm all
ĠB U
ĠN umber
ĠE nt
uff s
oe ing
Ġmess enger
ĠOr thodox
Ġtour ist
h or
ĠH udson
Al ice
Ġlay ers
John ny
Ġdecl are
Ġremind s
H o
f old
m un
Ġl oo
ĠP ay
Ġcan al
gu ard
ĠDef ense
ĠChamp ion
K at
Ġw are
ĠH em
up iter
Ġatt ending
Ġexp osure
Ġcommun ications
Ġspread ing
Ġcollect ing
Ġborrow ed
oty pe
ĠIda ho
I RE
s is
he e
he ro
Ġse ldom
Ġj ar
ĠF inal
Ġag gressive
Ġdef inite
ats u
ĠAm sterdam
Ġfare well
Ġre ly
Ġre vel
im s
ĠW oo
ĠBar celona
ĠBas il
ĠDet ective
ĠEv ans
Ġfab ric
Ġadj acent
c oll
Ġg um
ĠMan agement
Ġtrad ed
ĠLO OK
Ġabsor bed
ĠMun ich
V EN
W il
in cluding
Ġso ck
Ġso vere
Ġar guing
Ġfl ights
ition ally
form ed
ĠConfeder ate
Ġtremb ling
ic ism
Ġli ly
Ġrest ore
Ġfle e
Ġtext s
Ġdepart ments
M em
N ah
W orld
ant ine
ack ing
ĠK ey
Ġpart ial
Ġsub stitute
cy cl
Ġstrong est
Ġdisp ute
ITT LE
ĠMove ment
R on
ĠC OME
ĠT oy
ĠAust in
Ġworry ing
Ġg own
ĠS af
ĠB omb
ĠG w
ĠL aughing
Ġam endment
ren cy
Ġmet er
Ġtop ics
Ġpat hetic
Ġe go
ĠP am
ĠF alls
iz zy
Ġgu ilt
ĠCha se
Ġforget ting
Ġinflu ential
Ġpoll ution
D en
og ram
no x
Ġpark s
mill ion
8 2
H and
o ks
r ors
Ġcan n
ov ich
Ġstri kes
Ġcivil ian
Ġrob bed
anc ouver
ek aboo
Ġinher ited
P ick
f amily
h ur
ip her
Ġfoot age
Ġcor rid
ĠStud ios
Ġgest ure
er ie
Ġbe gging
Ġr aining
ĠF ried
Ġcl an
Ġloc omot
Sim on
ĠTurn er
N ight
e ffic
ge ons
ĠE van
Ġhard ware
ĠSp rings
Ġcoll eges
Ġdoor way
Ġinf er
unic ations
Ġexam ined
ĠBern ard
Ġdraft ed
ĠD ig
Ġle aning
Ġredu ction
Ġir re
ĠOper a
Ġt ires
ul k
Ġbl ocked
vel t
Ġbus es
Ġcontin ent
Ġpublic ly
Ġprop ag
ĠPer u
Ġsurr ound
Ġin k
Ġher itage
Ġpop ulations
Ġaw fully
IS S
ĠJack ie
WH O
Ġpor ch
Ġathlet es
Ġpy ram
Ġjur isd
Ġcancell ed
gom ery
f olk
Ġc oup
Ġp ony
ĠD ear
ig uel
Ġhel met
Ġlight ly
Dr ink
Ġdo l
Ġrec re
Ġopen ly
Ġtest imony
Ġsatisf y
Ġrevolution ary
ĠBow l
Ġperce ived
ĠCost a
Ġo ct
Ġbe hold
ĠS S
ĠS ac
ĠA ges
Ġun success
Ġrec ycl
Ġmar vel
Ġquestion ed
ĠNev ada
B ull
M ine
Ġt ha
Ġc ups
es y
ix ed
Ġret ail
ĠJul ian
orig inal
Ġconsec utive
G as
H ea
Ġl aund
ĠM erry
ĠH amm
ĠB right
Ġv ine
ang es
ĠEar ly
Ġmeas uring
lar ge
Ġmathem atical
Ġdelay ed
Ġvolunte er
Ġassass in
Ġsuspic ion
b ot
c ard
Ġb apt
ĠB ee
ĠR ead
ĠK o
ord ered
Ġche ating
Ġvol umes
Ġpeak ed
Ġtob acco
W ay
p ush
Ġh ipp
ist ent
ĠL an
Ġbl ade
Ġfl ip
Ġcr ust
air y
EN CE
ĠMed icine
Ġconcept s
Lou is
ĠQueens land
e ous
Ġc her
ĠC BS
ĠH O
ĠK i
ĠK on
Ġpre cip
Ġind ign
arch y
ĠNot tingham
Ġesc ort
Ġgall ery
ĠSqu ad
ĠNich olas
c orn
l oe
Ġs essions
ĠL is
Ġint eg
ĠU m
ire n
Ġfl owing
Ġdisc ont
Ġpar ade
Ġsun light
Ġ190 5
Ġimm ort
ĠDemocr at
ĠLes lie
" !
h on
m oon
p m
im ir
res pect
ĠE agle
ĠO VER
ĠK ay
ĠU l
Ġ8 1
Ġmod ified
ĠCan al
Ġstar ving
com es
y ah
am ation
ĠV iv
Ġbo ards
Ġdr ummer
Ġfil med
Ġdisplay ed
F R
P et
âĢĿ .
eth od
Ġhost s
sec ond
Ġprint ing
Child ren
C at
le e
ĠN ation
ham pton
ept ion
Ġengine ers
bl ast
Ġaband on
Ġresident ial
D ead
n an
ri ages
ĠH AD
ge bra
Ġshe lf
Ġle aned
ere n
Ġfl ames
Ġprot ests
wr itten
Ġphilos oph
Ġmotor cycle
Ġprote ins
Ġash ore
Ġl od
ĠL iter
Ġtw ent
ID S
ĠGrand ma
Ġdomin ant
Ġsevere ly
Ġstrict ly
F r
Ġs izes
Ġb ade
Ġd orm
as i
ob i
ij i
Ġvolt age
Ġguid ance
Ġc akes
Ġl y
ĠP H
Ġorgan ised
Ġswall ow
ĠSid ney
Ġsp ill
ble m
Ġcar n
ful ness
Ġexp enses
Ġsn iff
Ġo ak
ing e
en burg
ĠC amb
ĠB ond
ĠJ ama
ble ep
Ġsupp orters
Ġadv ise
Ġreport ing
Could n
ĠFin ally
greg ation
Ġcriter ia
c m
p ose
Ġt ails
os om
ak o
Ġbl ues
Ġcr ush
sp ring
Ġcor ps
Ġcopy right
H ur
N arrator
f ar
in stein
Ġo d
om ers
ĠH erm
un ty
Ġwor ries
Ġclass room
con f
Ġabs ent
ĠLou ise
Ġdiscuss ing
Ġden omin
Ġstream s
Ġmyth ology
Ġspo il
Ġeager ly
abet es
l N
ow ell
ĠT ib
ĠW ing
Ġr ays
ĠD uc
ĠD ublin
ĠK um
ĠK yle
Ġhapp ier
Ġhome less
Ġ8 9
ĠReg iment
Ġdisp os
Se ems
Ġdemocr atic
Ġanch or
L y
st ration
ĠP ir
Ġout fit
you ng
Ġche f
Ġsub urb
Ġ8 00
Ġcor ruption
reg ular
ĠSim pson
Ġprint s
G reg
m aker
Ġs ulf
Ġat om
Ġam id
Ġarri ving
Sp eak
Ġpip es
p ine
Ġdist ress
Ġterm inal
look ed
Ġconv iction
Ġsubt le
ĠVin cent
hol m
ĠSaud i
D ay
us ively
ro d
ĠH ig
ab ul
Ġv it
ĠV as
Ġfather s
ustom ed
ĠPre fecture
) "
C I
Ġdon key
pl ing
hel p
gl ass
ĠDes ign
Ġreact ions
Ġax is
ĠPot ter
ĠHistor ic
Ġcinem a
Ġdisgr ace
6 2
c ule
um m
Ġint im
ond a
cl aim
Ġread s
ĠSha h
Ġconvers ations
Ġbrid ges
Ġchim ney
D ick
á ½
or ph
Ġl ocks
Ġwh ip
ĠP E
ĠF und
Ġapp rent
man y
Ġmag ical
Ġ190 9
Ġinterf ere
am ine
Ġpriv acy
Ġ189 0
Ġminor ity
Ġtim ing
Ġvolunte ers
. &
S IGHS
ĠP sych
ĠR ound
Ġcont empt
Ġsc ra
ob a
Ġent ers
Ġnurs ery
6 3
G ar
V o
m id
Ġa ster
ĠD J
our ce
Ġdis k
Ġpur su
Ġtreat ing
ĠAm endment
ĠWith out
Sp eaking
ĠCarol ine
Ġsail or
ĠLo ire
Ġresear chers
A z
E X
d et
t ic
ĠE ver
oun cer
Ġmot ive
Ġhy per
ĠTha iland
ĠJos Ã©
Ġpron ounced
2 000
Ġf uss
Ġbe es
ĠBr id
Ġshall ow
head s
Ġmis ery
Pr ince
Ġchampions hips
Ġcollabor ation
== ==
c ore
u ver
Ġsp it
Ġbl oom
Ġinf ant
ĠPen insula
Ġenthus i
J ake
s im
Ġb reeze
ĠW ERE
pp en
Ġsc hem
ias m
ĠDou g
Ġindic ates
S k
Ġw ides
Ġm asc
Ġbe ats
Ġr abb
Ġsong writer
idd ing
Ġarm ies
En joy
book s
Ġconsum ption
ĠSocial ist
Ġmans ion
Ġdio xide
us a
Ġr ushing
ĠG ate
qu al
Ġman ual
uck ed
Ġcr ushed
Ġgener ated
Ġadv ised
min ster
Ġdiam onds
ĠArgent ine
Bea utiful
k u
m uch
ar ity
Ġk in
ĠH uh
Ġbr u
Ġche w
Ġgl ow
LE T
Ġexam ine
Ġcollea gue
Ġconven ient
ĠPeters burg
Ġfir ms
u um
Ġy elling
ation ally
Ġsl ap
ex p
Ġref lection
Ġ9 1
Ġghost s
Ġcontrovers y
Ġf u
ĠM ason
ĠD raft
Ġnever theless
ĠAl pha
Ġ7 4
Ġcontract s
hib ition
Ġse aled
Ġcon vey
iv als
pr int
Ġdev ast
Ġkick ing
Christ ian
Ġterrif ic
T ur
Ġn ails
le ft
Ġst ere
ec raft
Ġex port
20 11
AR Y
Ġtransform ation
Ġcig arettes
Ġcommission ed
ĠLeb an
Ġoverse as
ou x
Ġ9 3
Ġmain land
ĠPl at
oose velt
Ġtransform ed
Ġinqu ired
e em
is ode
Ġhe ars
Ġaim ed
cont in
ĠShir ley
a is
j in
p read
ĠI ike
Ġre tained
ĠA C
Ġch ill
Ġ7 3
Ġaw hile
ĠAd vent
Ġappro aches
Ar thur
Ġclaim ing
iction ary
Ġsettle ments
b ank
Ġfor k
ĠC raw
ĠG and
ĠNew ton
Ġsit com
Ġhat red
Ġneg ro
ĠMil ton
Ġaffect s
Ġchoo sing
ĠTest ament
ĠJam ie
ĠNiger ia
M M
Ġn od
Ġre ass
Ġle an
ĠV alent
Ġacc um
aim a
Ġrelig ions
ĠFel ix
ĠIce land
ĠWag ner
A my
at ar
ĠS ic
ĠS omething
ĠT alk
ok er
Ġgen re
bour g
Ġexcl usive
Ġmort al
Ġpir ate
