{"<pad>":0,"<s>":1,"</s>":2,"<unk>":3,"!":4,"\"":5,"#":6,"$":7,"%":8,"&":9,"'":10,"(":11,")":12,"*":13,"+":14,",":15,"-":16,".":17,"/":18,"0":19,"1":20,"2":21,"3":22,"4":23,"5":24,"6":25,"7":26,"8":27,"9":28,":":29,";":30,"<":31,"=":32,">":33,"?":34,"@":35,"A":36,"B":37,"C":38,"D":39,"E":40,"F":41,"G":42,"H":43,"I":44,"J":45,"K":46,"L":47,"M":48,"N":49,"O":50,"P":51,"Q":52,"R":53,"S":54,"T":55,"U":56,"V":57,"W":58,"X":59,"Y":60,"Z":61,"[":62,"\\":63,"]":64,"^":65,"_":66,"`":67,"a":68,"b":69,"c":70,"d":71,"e":72,"f":73,"g":74,"h":75,"i":76,"j":77,"k":78,"l":79,"m":80,"n":81,"o":82,"p":83,"q":84,"r":85,"s":86,"t":87,"u":88,"v":89,"w":90,"x":91,"y":92,"z":93,"{":94,"|":95,"}":96,"~":97,"¡":98,"¢":99,"£":100,"¤":101,"¥":102,"¦":103,"§":104,"¨":105,"©":106,"ª":107,"«":108,"¬":109,"®":110,"¯":111,"°":112,"±":113,"²":114,"³":115,"´":116,"µ":117,"¶":118,"·":119,"¸":120,"¹":121,"º":122,"»":123,"¼":124,"½":125,"¾":126,"¿":127,"Â":128,"Ã":129,"Ä":130,"Å":131,"Æ":132,"Ç":133,"È":134,"É":135,"Ê":136,"Ë":137,"Ì":138,"Í":139,"Î":140,"Ï":141,"Ð":142,"Ñ":143,"Ò":144,"Ó":145,"Ô":146,"Õ":147,"Ö":148,"×":149,"Ø":150,"Ù":151,"Ú":152,"Û":153,"Ü":154,"Ý":155,"Þ":156,"à":157,"á":158,"â":159,"ã":160,"ä":161,"å":162,"æ":163,"ç":164,"è":165,"é":166,"ê":167,"ë":168,"ì":169,"í":170,"î":171,"ï":172,"ð":173,"ĉ":174,"Č":175,"Ġ":176,"ġ":177,"Ģ":178,"ģ":179,"Ĥ":180,"ĥ":181,"Ħ":182,"ħ":183,"Ĩ":184,"ĩ":185,"Ī":186,"ī":187,"Ĭ":188,"ĭ":189,"Į":190,"į":191,"İ":192,"ı":193,"Ĳ":194,"ĳ":195,"Ĵ":196,"ĵ":197,"Ķ":198,"ķ":199,"ĸ":200,"Ĺ":201,"ĺ":202,"Ļ":203,"ļ":204,"Ľ":205,"ľ":206,"Ŀ":207,"ŀ":208,"Ł":209,"ł":210,"Ń":211,"Ġt":212,"he":213,"Ġa":214,"in":215,"Ġthe":216,"re":217,"Ġw":218,"ou":219,"Ġs":220,"on":221,"er":222,"ha":223,"nd":224,"is":225,"it":226,"Ġb":227,"Ġo":228,"Ġc":229,"Ġm":230,"Ġf":231,"ing":232,"or":233,"ed":234,"ll":235,"an":236,"Ġd":237,"en":238,"Ġto":239,"es":240,"Ġp":241,"Ġy":242,"Ġof":243,"ar":244,"Ġin":245,"at":246,"Ġyou":247,"Ġand":248,"Ġl":249,"hat":250,"as":251,"Ġg":252,"om":253,"Ġn":254,"ĠI":255,"ic":256,"ow":257,"ve":258,"le":259,"ot":260,"al":261,"Ġh":262,"Ġhe":263,"et":264,"us":265,"Ġha":266,"'s":267,"ay":268,"Ġth":269,"Ġit":270,"Ġbe":271,"Ġis":272,"Ġthat":273,"Ġon":274,"ion":275,"id":276,"Ġe":277,"gh":278,"ld":279,"ent":280,"Ġre":281,"Ġwas":282,"ut":283,"im":284,"ac":285,"Ġwe":286,"ver":287,"am":288,"The":289,"Ġfor":290,"ĠS":291,"ly":292,"..":293,"st":294,"ri":295,"ro":296,"ad":297,"se":298,"ir":299,"ke":300,"Ġst":301,"Ġ.":302,"oo":303,"'t":304,"ght":305,"ĠA":306,"out":307,"ĠC":308,"ith":309,"Ġme":310,"ĠM":311,"Ġk":312,"Ġu":313,"all":314,"Ġan":315,"Ġwith":316,"ur":317,"Ġdo":318,"Ġas":319,"ec":320,"her":321,"ill":322,"ter":323,"if":324,"ĠĠ":325,"ĠH":326,"Ġwh":327,"ch":328,"ome":329,"ce":330,"Ġ1":331,"ĠB":332,"Ġare":333,"il":334,"Ġhave":335,"Ġnot":336,"Ġat":337,"and":338,"Ġthis":339,"ould":340,"ust":341,"Ġse":342,"Ġgo":343,"ant":344,"ĠT":345,"You":346,"Ġli":347,"ation":348,"Ġkn":349,"op":350,"ĠP":351,"ea":352,"ain":353,"un":354,"ĠW":355,"ge":356,"ol":357,"th":358,"ell":359,"ul":360,"rom":361,"Ġhis":362,"Ġ,":363,"ore":364,"Ġknow":365,"Ġ\"":366,"Ġj":367,"Ġr":368,"...":369,"ĠD":370,"our":371,"Ġne":372,"pp":373,"ĠG":374,"ct":375,"el":376,"Ġcan":377,"um":378,"Ġ?":379,"ist":380,"Ġso":381,"Ġyour":382,"Ġ2":383,"Ġall":384,"Ġthey":385,"em":386,"est":387,"Ġmy":388,"Ġal":389,"ĠThe":390,"ĠL":391,"ĠR":392,"Ġab":393,"art":394,"ers":395,"ĠF":396,"Ġby":397,"Ġfrom":398,"ess":399,"Ġwhat":400,"ĠN":401,"os":402,"Ġsh":403,"ab":404,"Ġher":405,"nt":406,"Ġor":407,"Ġone":408,"Ġwhe":409,"Ġcon":410,"ie":411,"ĠJ":412,"ight":413,"ig":414,"Ġup":415,"one":416,"red":417,"Ġthere":418,"han":419,"'re":420,"Ġhad":421,"ally":422,"qu":423,"Ġsu":424,"âĢ":425,"ry":426,"Ġcom":427,"ra":428,"Ġout":429,"Ġbut":430,"ack":431,"Ġhim":432,"Ġwor":433,"ood":434,"ate":435,"ook":436,"very":437,"Ġpl":438,"res":439,"Ġde":440,"ive":441,"Ġlike":442,"Ġ(":443,"Ġus":444,"ake":445,"Ġshe":446,"'m":447,"od":448,"ame":449,"ong":450,"ĠE":451,"ink":452,"Ġpro":453,"Ġsa":454,"It":455,"Ġ19":456,"Ġabout":457,"Ġget":458,"ĠO":459,"Ġv":460,"Ġex":461,"ind":462,"Ġwere":463,"ast":464,"ound":465,"ort":466,"ard":467,"Ġdon":468,"ck":469,"ity":470,"Ġjust":471,"And":472,"right":473,"ber":474,"Ġsp":475,"ear":476,"ich":477,"He":478,"Ġ20":479,"ies":480,"Ġdid":481,"ect":482,"Ġwho":483,"Ġhere":484,"ak":485,"ep":486,"Ġno":487,"eah":488,"ap":489,"ime":490,"Ġthem":491,"Ġwant":492,"ine":493,"'ll":494,"Ġman":495,"ud":496,"Ġif":497,"Ġwould":498,"Ġthink":499,"Ġ'":500,"ous":501,"ven":502,"Ġwill":503,"What":504,"Ġsome":505,"hing":506,"own":507,"ag":508,"Ġint":509,"ĠK":510,"ost":511,"ice":512,"itt":513,"Ġany":514,"ment":515,"ĠĠĠĠ":516,"Ġright":517,"ide":518,"Ġhas":519,"hi":520,"ough":521,"Ġgot":522,"use":523,"ĠHe":524,"Ġsee":525,"ther":526,"Ġtr":527,"Ġwhich":528,"Ġwhen":529,"ure":530,"Ġar":531,"Ġag":532,"Ġsay":533,"are":534,"Ġtw":535,"end":536,"iv":537,"We":538,"Ġbeen":539,"ian":540,"way":541,"Ġtime":542,"--":543,"ace":544,"ĠIt":545,"ia":546,"Ġsaid":547,"ove":548,"'ve":549,"Ġpe":550,"ff":551,"Ġbec":552,"ick":553,"ĠU":554,"Ġnow":555,"Ġcl":556,"so":557,"ose":558,"ause":559,"Ġlook":560,"lf":561,"ople":562,"na":563,"ish":564,"Ġle":565,"reat":566,"Ġmore":567,"Ġtheir":568,"ary":569,"Ġgoing":570,"other":571,"Yeah":572,"Ġthen":573,"ree":574,"age":575,"Ġcould":576,"So":577,"No":578,"ue":579,"Ġother":580,"Ġ=":581,"Ġback":582,"Ġover":583,"ond":584,"Ġoff":585,"ite":586,"irst":587,"ĠSt":588,"his":589,"act":590,"But":591,"Ġpeople":592,"ew":593,"ble":594,"Ġqu":595,"Ġgr":596,"orn":597,"Ġro":598,"ings":599,"ass":600,"Ġwork":601,"Oh":602,"Ġvery":603,"per":604,"Ġtwo":605,"ount":606,"00":607,"That":608,"fter":609,"pt":610,"ord":611,"Ġgood":612,"Ġbr":613,"Ġtoo":614,"pl":615,"og":616,"ub":617,"ere":618,"omet":619,"ci":620,"Ġen":621,"Ġfirst":622,"ans":623,"ase":624,"ittle":625,"kay":626,"erm":627,"Ġinto":628,"mer":629,"ated":630,"ire":631,"ov":632,"ions":633,"hed":634,"oll":635,"alk":636,"oy":637,"Ġdown":638,"the":639,"hy":640,"Ġhow":641,"ade":642,"Ġthan":643,"Ġyear":644,"Ġun":645,"Ġpart":646,"Ġway":647,"Ġpr":648,"Ġour":649,"Ġam":650,"we":651,"Ġcomp":652,"iz":653,"ought":654,"Ġcall":655,"Ġlittle":656,"Ġcome":657,"Ġbl":658,"ĠIn":659,"Ġplay":660,"Ġalso":661,"Ġim":662,"Ġonly":663,"ĠV":664,"ater":665,"nder":666,"cc":667,"Ġwhere":668,"ach":669,"ance":670,"Ġevery":671,"ne":672,"Ġagain":673,"ife":674,"Well":675,"ng":676,"urn":677,"Ġad":678,"har":679,"wn":680,"Ġsomet":681,"oc":682,"ĠY":683,"ru":684,"Ġday":685,"Ġneed":686,"Ġbet":687,"Ġ201":688,"ty":689,"iss":690,"Ġfe":691,"here":692,"uch":693,".\"":694,"ress":695,"av":696,"Ġact":697,"Ġmake":698,"Ġwell":699,"amp":700,"ho":701,"fore":702,"Ġtake":703,"ence":704,"Ġafter":705,"Ġgu":706,"self":707,"In":708,"ory":709,"oh":710,"able":711,"ang":712,"Ġbecause":713,"ark":714,"Ġcont":715,"Ġsc":716,"ip":717,"ical":718,"au":719,"Ġdis":720,"Ġte":721,"ign":722,"thing":723,"int":724,"Ġlet":725,"Ġreally":726,"orm":727,"Ġshould":728,"uck":729,"Ġpre":730,"ict":731,"Ġtell":732,"ool":733,"Ġhapp":734,"ather":735,"Ġwr":736,"ob":737,"cl":738,"ens":739,"Ġthr":740,"onna":741,"Ġfl":742,"ft":743,"ull":744,"ied":745,"Ġapp":746,"Ġunder":747,"ial":748,"Ġthese":749,"Ġmuch":750,"Ġdoes":751,"ult":752,"Ġsomething":753,"This":754,"Ġnew":755,"ile":756,"Ġres":757,"Ġput":758,"ody":759,"Ġgonna":760,"Ġpo":761,"Ġper":762,"Ġmean":763,"Ġmade":764,"They":765,"hen":766,"les":767,"ons":768,"iff":769,"Ġlong":770,"'d":771,"be":772,"ved":773,"Ġser":774,"ĠUn":775,"old":776,"ving":777,"Ġtalk":778,"land":779,"Ġnever":780,"Yes":781,"ations":782,"She":783,"te":784,"Ġbefore":785,"Ġer":786,"Ġeven":787,"Ġmay":788,"ks":789,"du":790,"ily":791,"ates":792,"ĠCh":793,"ock":794,"Ġits":795,"ps":796,"ouse":797,"Ġcar":798,"ail":799,"Ġbu":800,"ting":801,"Ġdidn":802,"Ġrem":803,"ĠâĢ":804,"Ġcomm":805,"Ġ3":806,"port":807,"Ġke":808,"ady":809,"There":810,"Ġsm":811,"vers":812,"Ġyears":813,"ath":814,"ition":815,"ious":816,"you":817,"ember":818,"ors":819,"ise":820,"ix":821,"ren":822,"Ġhand":823,"ward":824,"ually":825,"âĢĿ":826,"ited":827,"Ġrec":828,"Ġhel":829,"vel":830,"Ġmany":831,"Ġthrough":832,"ried":833,"Ġ200":834,"If":835,"Ġold":836,"Ġsec":837,"aw":838,"ful":839,"get":840,"ran":841,"Ġch":842,"Ġthing":843,"Ġmost":844,"Ġstart":845,"Ġchan":846,"Ġthree":847,"day":848,"Ġgreat":849,"Ġdiff":850,"pe":851,"ince":852,"igh":853,"Ġlife":854,"Ġthings":855,"ave":856,"Ġthought":857,"Ġfound":858,"How":859,"Ġthose":860,"Ġbel":861,"âĻ":862,"Ġstill":863,"Ġsha":864,"ves":865,"Ġaway":866,"what":867,"oss":868,"Ġdes":869,"Ġused":870,"Ġfind":871,"tain":872,"oot":873,"``":874,"Ġ''":875,"Ġlove":876,"ever":877,"Ġmust":878,"Ġhome":879,"hes":880,"ĠYou":881,"Ġlast":882,"riend":883,"Ġhelp":884,"Ġdoing":885,"Ġi":886,"ee":887,"Ġco":888,"imes":889,"Ġask":890,"ents":891,"Ġown":892,"Ġshow":893,"Ġcr":894,"hild":895,"Ġlea":896,"meric":897,"lease":898,"Ġwent":899,"Ġgive":900,"Ġ!":901,"up":902,"Ġcame":903,"xt":904,"Ġmin":905,"ational":906,"oney":907,"Ġend":908,"âĢĻ":909,"irl":910,"âĻª":911,"ened":912,"Ġbeing":913,"Ġatt":914,"Ġwon":915,"\".":916,"Ġname":917,"tern":918,"Ġcour":919,"gin":920,"ction":921,"ĠMr":922,"ĠShe":923,"Ġcount":924,"ced":925,"Ġcalled":926,"chool":927,"my":928,"ny":929,"Ġmov":930,"Ġear":931,"ait":932,"gan":933,"Ġfam":934,"atch":935,"Do":936,"ĠĠĠĠĠĠĠĠ":937,"als":938,"man":939,"Ġ18":940,"body":941,"Ġsame":942,"Now":943,"ways":944,"Ġchild":945,"IN":946,"Ġdec":947,"Ġcare":948,"ont":949,"ces":950,"Ġsuch":951,"ning":952,"li":953,"oth":954,"Ġkind":955,"ĠMar":956,"Why":957,"Ġfeel":958,"ident":959,"Ġtry":960,"Ġbig":961,"ug":962,"ĠAmeric":963,"Ġhead":964,"Ġlot":965,"Ġnight":966,"aking":967,"Ġworld":968,"any":969,"Ġsupp":970,"Ġwhy":971,"ild":972,"air":973,"Ġplace":974,"ham":975,"Ġpol":976,"form":977,"erson":978,"Ġdiffere":979,"ER":980,"side":981,"Ġwom":982,"Ġaround":983,"Ġfin":984,"ĠBr":985,"Ġhar":986,"Ġfriend":987,"Ġnum":988,"ute":989,"Ġmar":990,"Ġkill":991,"ĠAr":992,"ss":993,"Let":994,"ating":995,"uring":996,").":997,"gr":998,"Ġuse":999,"ased":1000,"ower":1001,"Ġind":1002,"Ġacc":1003,"outh":1004,"Don":1005,"ubl":1006,"Ġmight":1007,"Ġop":1008,"ah":1009,"und":1010,"Ġreg":1011,"Ġanother":1012,"\",":1013,"Ġ4":1014,"Ġset":1015,"Ġsl":1016,"Ġturn":1017,"Ġche":1018,"orry":1019,"Ġele":1020,"pect":1021,"ener":1022,"ween":1023,"Ġhouse":1024,"Ġalways":1025,"ts":1026,"Come":1027,"ics":1028,"Ġrel":1029,"ys":1030,"Ġfour":1031,"Ġac":1032,"clud":1033,"ible":1034,"Ġanything":1035,"Ġgirl":1036,"St":1037,"Ġleft":1038,"),":1039,"All":1040,"Ġbetter":1041,"uh":1042,"Ġdone":1043,"that":1044,"Ġbit":1045,"mb":1046,"Ġsure":1047,"Ġpres":1048,"vent":1049,"led":1050,"Ġ199":1051,"Ġsur":1052,"ason":1053,"ness":1054,"az":1055,"ular":1056,"ph":1057,"ple":1058,"Ġkeep":1059,"Ġboy":1060,"Ġ5":1061,"Ġel":1062,"Ġsy":1063,"gg":1064,",\"":1065,"Ġrun":1066,"der":1067,"ĠAnd":1068,"ib":1069,"aught":1070,"Okay":1071,"ual":1072,"Ġmon":1073,"Ġform":1074,"Ġreal":1075,"Ġbetween":1076,"My":1077,"||":1078,"Ġbelie":1079,"ollow":1080,"ott":1081,"Ġtold":1082,"io":1083,"Ġknown":1084,"Ġsecond":1085,"ĠThey":1086,"ered":1087,"ird":1088,"ished":1089,"ters":1090,"ale":1091,"ars":1092,"Ġunt":1093,"yes":1094,"Ġschool":1095,"Ġchar":1096,"Ġword":1097,"HE":1098,"Ġstud":1099,"Ġmoney":1100,"Ġdist":1101,"Ġever":1102,"ĠNew":1103,"ject":1104,"Ġent":1105,"Ġgl":1106,"row":1107,"Ġob":1108,"hip":1109,"Hey":1110,"ner":1111,"Ġdifferent":1112,"Ġret":1113,"Ġwhile":1114,"Ġmat":1115,"ork":1116,"Is":1117,"ret":1118,"but":1119,"Ġmom":1120,"Ġperson":1121,"Ġbo":1122,"ĠAl":1123,"oun":1124,"Ġbus":1125,"ĠThis":1126,"orth":1127,"ric":1128,"akes":1129,"Ġinclud":1130,"no":1131,"Ġpoint":1132,"Than":1133,"Ġsub":1134,"ye":1135,"Ġcons":1136,"Ġokay":1137,"Ġdr":1138,"Not":1139,"Ġmus":1140,"Ġcourse":1141,"AN":1142,"ĠWhat":1143,"OU":1144,"Ġspec":1145,"Ġstr":1146,"Ġuntil":1147,"ĠUnited":1148,"Ġerm":1149,"Ġass":1150,"Ġinv":1151,"ative":1152,"olog":1153,"Ġbook":1154,"cy":1155,"Ġuh":1156,"Ġtook":1157,"ĠĠĠ":1158,"ling":1159,"ĠAn":1160,"Ġmet":1161,"its":1162,"Ġnext":1163,"When":1164,"ins":1165,"ton":1166,"Ġmen":1167,"Ġstop":1168,"une":1169,"Ġcent":1170,"Ġsw":1171,"stand":1172,"Ġbest":1173,"Ġwar":1174,"Ġinst":1175,"Ġboth":1176,"Ġseem":1177,"ision":1178,"Ġfar":1179,"Ġeach":1180,"Ġsing":1181,"Ġnothing":1182,"Ġfun":1183,"aj":1184,"Ġdep":1185,"Ġwee":1186,"ier":1187,"ĠGod":1188,"Ġdef":1189,"Ġcle":1190,"vern":1191,"Ġbre":1192,"ities":1193,"Ġcha":1194,"Ġwater":1195,"ames":1196,"cept":1197,"ired":1198,"where":1199,"Ġnumber":1200,"ures":1201,"ope":1202,"Ġfollow":1203,"Ġpass":1204,"Ġfather":1205,"Ġsaw":1206,"ĠAmerican":1207,"ĠAs":1208,"ĠNo":1209,"ohn":1210,"Ġmother":1211,"Ġlater":1212,"ĠâĢľ":1213,"ivers":1214,"Ġdoesn":1215,"cer":1216,"ms":1217,"to":1218,"âĢľ":1219,"Ġfamily":1220,"ax":1221,"Ġ-":1222,"Ġph":1223,"rew":1224,"Ġlist":1225,"eak":1226,"Ġteam":1227,"ream":1228,"ank":1229,"ung":1230,"ok":1231,"Ġprodu":1232,"ross":1233,"Ġlar":1234,"Ġ198":1235,"eg":1236,"br":1237,"Ġcity":1238,"Ġyeah":1239,"osed":1240,"Ġinc":1241,"Ġ6":1242,"Ġenough":1243,"ING":1244,"iness":1245,"On":1246,"Ġactually":1247,"19":1248,"ister":1249,"Just":1250,"Ġelse":1251,"Ġagainst":1252,"mber":1253,"less":1254,"Ġsmall":1255,"Ġwait":1256,"Ġdied":1257,"ctor":1258,"ote":1259,"Ġ--":1260,"Ġcap":1261,"Ġseen":1262,"Ġhard":1263,"ines":1264,"Ġproble":1265,"let":1266,"rist":1267,"uth":1268,"Ġhigh":1269,"Ġpop":1270,"Ġtoget":1271,"Ġtogether":1272,"Ġyoung":1273,"Ġimp":1274,"ĠEng":1275,"ublic":1276,"iet":1277,"Ã©":1278,"Ġwithout":1279,"of":1280,"ex":1281,"Who":1282,"ific":1283,"Ġdire":1284,"omm":1285,"ably":1286,"Ġplan":1287,"Ġwanted":1288,"ger":1289,"Ġbecame":1290,"Ġref":1291,"Ġsorry":1292,"Ġadd":1293,"ĠStates":1294,"Ġfact":1295,"Ġfive":1296,"Where":1297,"Ġfew":1298,"Ġyes":1299,"Ġhear":1300,"att":1301,"Ġid":1302,"ged":1303,"Ġrep":1304,"ash":1305,"Ġem":1306,"Ġeverything":1307,"Ġmind":1308,"Ġcoming":1309,"Ġrest":1310,"20":1311,"Look":1312,"Then":1313,"Ġroom":1314,"Ġbad":1315,"Ġonce":1316,"Ġloc":1317,"Ġsince":1318,"Ġsix":1319,"Ġ197":1320,"ĠSp":1321,"ina":1322,"Ġunderstand":1323,"uff":1324,"Ġstand":1325,"Ġsign":1326,"Ġsim":1327,"ral":1328,"Ġsk":1329,"Ġlight":1330,"Ġlive":1331,"aid":1332,"Ġstay":1333,"Ġread":1334,"ball":1335,"ield":1336,"uss":1337,"Ġleave":1338,"ets":1339,"Ġborn":1340,"Ġsays":1341,"ĠBut":1342,"uc":1343,"Ġ7":1344,"Ġfr":1345,"AT":1346,"ury":1347,"ned":1348,"eb":1349,"Ġcoll":1350,"ense":1351,"erest":1352,"ĠInd":1353,"oup":1354,"Ġtra":1355,"Ġbelieve":1356,"Ġtimes":1357,"Ġside":1358,"Ġduring":1359,"Ġlooking":1360,"me":1361,"Are":1362,"ecause":1363,"Ġchildren":1364,"Ġev":1365,"Ġheart":1366,"ten":1367,"Ġquite":1368,"stem":1369,"Ġpret":1370,"ĠIs":1371,"orning":1372,"Ġimport":1373,"Ġdisc":1374,"Ġson":1375,"Ġhum":1376,"Ġtri":1377,"Ġtoday":1378,"aut":1379,"000":1380,"Ġsit":1381,"Ġquest":1382,"ows":1383,"ON":1384,"Ġinter":1385,"rop":1386,"Ġexp":1387,"ared":1388,"Ġtrans":1389,"Ġkid":1390,"Ġdays":1391,"anna":1392,"Ġhappened":1393,"Ġmeet":1394,"Ġopen":1395,"Ġ8":1396,"ised":1397,"Ġ;":1398,"Right":1399,"Ġlead":1400,"Ġmove":1401,"ital":1402,"Ġconf":1403,"Ġplease":1404,"âĢĵ":1405,"Ġface":1406,"Uh":1407,"Ġgener":1408,"Ġnear":1409,"Ġeyes":1410,"Ġtown":1411,"Ġgetting":1412,"app":1413,"Ġnice":1414,"iew":1415,"ĠTh":1416,"Ġisn":1417,"As":1418,"Ġext":1419,"Ġthough":1420,"ined":1421,"dy":1422,"aby":1423,"ready":1424,"ither":1425,"Ġmusic":1426,"ertain":1427,"ments":1428,"Ġart":1429,"?\"":1430,"ey":1431,"Ġwhole":1432,"ike":1433,"Ġcol":1434,"Ġdri":1435,"Ġsort":1436,"Ġed":1437,"Ġland":1438,"For":1439,"Ġhour":1440,"Ġbro":1441,"leep":1442,"ĠJohn":1443,"ists":1444,"Ġposs":1445,"ik":1446,"okay":1447,"ants":1448,"Ġinterest":1449,"Th":1450,"Ġwoman":1451,"Thank":1452,"aster":1453,"cted":1454,"Ġheard":1455,"by":1456,"ober":1457,"ĠZ":1458,"Ġbuild":1459,"sel":1460,"Ġyet":1461,"son":1462,"Ġeas":1463,"Mm":1464,"ery":1465,"Ġplayed":1466,"Ġri":1467,"Ġ[":1468,"Ġjob":1469,"ef":1470,"ĠPr":1471,"yeah":1472,"Ġstate":1473,"Ġair":1474,"Ġhalf":1475,"Ġfoot":1476,"Ġremember":1477,"Ġmorning":1478,"Ġhimself":1479,"Ġstarted":1480,"ues":1481,"Ġfil":1482,"reen":1483,"ech":1484,"Ġ196":1485,"Ġ10":1486,"ĠCl":1487,"ize":1488,"do":1489,"AR":1490,"ĠFr":1491,"Ġmed":1492,"Ġwalk":1493,"Ġknew":1494,"ution":1495,"hm":1496,"ched":1497,"Ġhaving":1498,"ism":1499,"Ġ9":1500,"Ġrecord":1501,"Ġdra":1502,"Ġtalking":1503,"dd":1504,"Good":1505,"Ġsystem":1506,"iversity":1507,"Ġhold":1508,"ries":1509,"Ġmain":1510,"ized":1511,"ĠJan":1512,"ives":1513,"ta":1514,"ev":1515,"Ġmod":1516,"ted":1517,"Ġdeath":1518,"Ġsir":1519,"Ġcur":1520,"Ġalready":1521,"Ġpay":1522,"ison":1523,"ats":1524,"Ġimportant":1525,"Al":1526,"Did":1527,"Ġwrong":1528,"Can":1529,"Ġsoon":1530,"Ġsong":1531,"most":1532,"ĠWe":1533,"Ġalong":1534,"Ġmil":1535,"ĠGr":1536,"Ġsaying":1537,"sh":1538,"Ġgi":1539,"ĠMay":1540,"Ġpower":1541,"Ġreturn":1542,"Ġidea":1543,"Go":1544,"ĠQ":1545,"ains":1546,"sp":1547,"Ġmonth":1548,"not":1549,"Ġans":1550,"ump":1551,"Ġdoor":1552,"Ġdead":1553,"Ġgave":1554,"Ġmiss":1555,"Ġupon":1556,"Ġcountry":1557,"Ġbrother":1558,"ead":1559,"velop":1560,"ided":1561,"ages":1562,"now":1563,"ĠHow":1564,"ering":1565,"Ġprom":1566,"Ġprob":1567,"Ġgovern":1568,"Ġwin":1569,"Ġfull":1570,"Ġhur":1571,"Ġmeans":1572,"Ġty":1573,"ĠâĢĵ":1574,"ĠGerm":1575,"ĠâĻª":1576,"Ġeff":1577,"Ġeat":1578,"Ġprov":1579,"Ġcase":1580,"Ġtrying":1581,"ility":1582,"ature":1583,"Ġgame":1584,"Âł":1585,"Ġround":1586,"ĠCount":1587,"ĠSo":1588,"ĠThere":1589,"aughter":1590,"Ġasked":1591,"idd":1592,"cial":1593,"eter":1594,"LL":1595,"Ġwife":1596,"Ġjo":1597,"Ġsound":1598,"wards":1599,"ically":1600,"Ġinf":1601,"ony":1602,"Ġgone":1603,"Ġarea":1604,"Ġlaw":1605,"OR":1606,"Ġbusiness":1607,"ĠChrist":1608,"gt":1609,"Er":1610,"med":1611,"Your":1612,"Ġmatter":1613,"ĠKing":1614,"Ġbegan":1615,"ying":1616,"cess":1617,"Ġexpl":1618,"lish":1619,"Ġbring":1620,"Ġdel":1621,"Ġpretty":1622,"iver":1623,"ately":1624,"ĠAt":1625,"Ġfore":1626,"nce":1627,"Ġhands":1628,"Ġtop":1629,"arr":1630,"Ġlear":1631,"Ġequ":1632,"Ġwind":1633,"cle":1634,"ĠTHE":1635,"Get":1636,"Ġsent":1637,"rict":1638,"amed":1639,"Ġhappen":1640,"Ġguy":1641,"ĠSc":1642,"leased":1643,"Ġstory":1644,"Ġcreat":1645,"ural":1646,".âĢĿ":1647,"pr":1648,"uro":1649,"Ġshall":1650,"born":1651,"Ġlost":1652,"eed":1653,"Ġcontin":1654,"Ġserv":1655,"Ġable":1656,"Ġmovie":1657,"orrow":1658,"Ġfuck":1659,"iter":1660,"An":1661,"Ġless":1662,"enn":1663,"Ġcertain":1664,"ially":1665,"Ġbeaut":1666,"Ġmill":1667,"ES":1668,"Ġoffic":1669,"ured":1670,"aken":1671,"Ġbaby":1672,"Ġpartic":1673,"Ġchange":1674,"Ġpolit":1675,"ept":1676,"ection":1677,"Ġspeak":1678,"orld":1679,"gy":1680,"Ġproblem":1681,"Ġoften":1682,"Ġwond":1683,"Ġmaking":1684,"Ġhist":1685,"Ġgoes":1686,"Ġclass":1687,"Ġpri":1688,"ional":1689,"May":1690,"cri":1691,"Ġfell":1692,"che":1693,"Ġleg":1694,"pped":1695,"Ġ17":1696,"Ġbas":1697,"Ġfriends":1698,"At":1699,"ĠCar":1700,"Ġwanna":1701,"Ġlooked":1702,"Ġmoment":1703,"Ġsomeone":1704,"Ġ15":1705,"ĠAll":1706,"Ġwasn":1707,"Ġfight":1708,"Ġwatch":1709,"One":1710,"undred":1711,"ator":1712,"Ġpain":1713,"ĠBl":1714,"erv":1715,"Ġ195":1716,"Ġ194":1717,"ĠOh":1718,"Here":1719,"ĠBrit":1720,"Ġbody":1721,"ides":1722,"ush":1723,"Ġfine":1724,"ently":1725,"Ġwomen":1726,"EN":1727,"Ġyourself":1728,"well":1729,"arch":1730,"ges":1731,"Ġage":1732,"Ġdevelop":1733,"arent":1734,"Ġcomes":1735,"rap":1736,"ster":1737,"Ġhat":1738,"Ġexper":1739,"used":1740,"Ġgroup":1741,"ract":1742,"Ġline":1743,"Ġpat":1744,"Ġweek":1745,"Ġguys":1746,"Ġmark":1747,"Ġpar":1748,"fess":1749,"aces":1750,"Ġsleep":1751,"Ġvis":1752,"ane":1753,"how":1754,"uary":1755,"iec":1756,"Ġshort":1757,"Ġpos":1758,"ole":1759,"Ġbed":1760,"Ġclose":1761,"eth":1762,"ained":1763,"Ġprobably":1764,"mp":1765,"Ġlarge":1766,"To":1767,"Ġago":1768,"eal":1769,"ern":1770,"ĠThat":1771,"con":1772,"Ġterm":1773,"artment":1774,"Ġgiven":1775,"ello":1776,"Ġworking":1777,"Ġprot":1778,"Ġbreak":1779,"ices":1780,"Ġdet":1781,"ĠCan":1782,"iam":1783,"Ġ...":1784,"Ġtrue":1785,"uly":1786,"Ġfire":1787,"ley":1788,"rigin":1789,"enty":1790,"gue":1791,"ĠHis":1792,"ai":1793,"ention":1794,"Because":1795,"ĠCounty":1796,"Ġes":1797,"apan":1798,"Ġwouldn":1799,"!\"":1800,"Ġeight":1801,"Ġhundred":1802,"ality":1803,"Ġbecome":1804,"ĠFor":1805,"Ġter":1806,"Ġorder":1807,"Ġcut":1808,"Ġfall":1809,"Ġca":1810,"bum":1811,"ety":1812,"Ġearly":1813,"oon":1814,"wer":1815,"ĠCon":1816,"Ġdeal":1817,"ches":1818,"Ġpick":1819,"els":1820,"ulation":1821,"elt":1822,"Ġsol":1823,"urch":1824,"Ġhope":1825,"hind":1826,"Ġhaven":1827,",âĢĿ":1828,"ama":1829,"aper":1830,"Ġrece":1831,"ĠYes":1832,"come":1833,"ilt":1834,"rest":1835,"ajor":1836,"mm":1837,"ouble":1838,"Ġcor":1839,"Ġalmost":1840,"sy":1841,"Ġaw":1842,"utes":1843,"Ġdiv":1844,"ĠUniversity":1845,"Ġstre":1846,"Ġleast":1847,"Ġpur":1848,"Ġins":1849,"Ġbegin":1850,"Ġorgan":1851,"Ġquestion":1852,"Ġten":1853,"ief":1854,"Ġvo":1855,"ians":1856,"ron":1857,"rol":1858,"iful":1859,"ped":1860,"ĠYork":1861,"Ġaff":1862,"Ġcomple":1863,"Ġblack":1864,"ĠAp":1865,"Ġocc":1866,"Ġmyself":1867,"ĠOn":1868,"gram":1869,"ril":1870,"Ġwhite":1871,"Ġadv":1872,"ĠPro":1873,"Ġoper":1874,"Ġpublic":1875,"ample":1876,"ived":1877,"ĠWorld":1878,"Ġcommun":1879,"raz":1880,"oud":1881,"hamp":1882,"Ġran":1883,"Ġsqu":1884,"Ġready":1885,"Ġmarried":1886,"alth":1887,"Ġlate":1888,"ĠJapan":1889,"Ġ_":1890,"Ġvar":1891,"Ġconst":1892,"Ġopp":1893,"Ġmaybe":1894,"Ġhor":1895,"Ġdad":1896,"Ġfree":1897,"umb":1898,"rent":1899,"Ġ16":1900,"ully":1901,"Ġreason":1902,"ium":1903,"Ġswe":1904,"iting":1905,"ugust":1906,"angu":1907,"Ġalone":1908,"osp":1909,"co":1910,"Ġkilled":1911,"Ġpresent":1912,"cent":1913,"Ġoh":1914,"ler":1915,"Ġgovernment":1916,"Ġguess":1917,"ards":1918,"Mr":1919,"ĠPar":1920,"ĠJanuary":1921,"Ġcompany":1922,"Ġ|":1923,"ccess":1924,"head":1925,"ese":1926,"Ġest":1927,"ert":1928,"Ġblood":1929,"ene":1930,"oke":1931,"Every":1932,"Ġhappy":1933,"Please":1934,"huh":1935,"Ġalbum":1936,"Ġ12":1937,"Ġreleased":1938,"Ġred":1939,"Ġbrought":1940,"Ġbehind":1941,"Ġsat":1942,"Ġorigin":1943,"selves":1944,"vious":1945,"Ġsever":1946,"Ġwords":1947,"bed":1948,"men":1949,"Ġtele":1950,"Ġhon":1951,"ĠAust":1952,"Ġdrink":1953,"ĠMan":1954,"ney":1955,"ĠWar":1956,"ox":1957,"Ġhell":1958,"IS":1959,"Ġmakes":1960,"ology":1961,"for":1962,"ĠYeah":1963,"omp":1964,"eor":1965,"Ġ193":1966,"Ġclear":1967,"Ġtre":1968,"RE":1969,"ĠEnglish":1970,"eng":1971,"ring":1972,"Ġtaken":1973,"Ġseveral":1974,"ones":1975,"Ġseries":1976,"Ġexc":1977,"ĠFrance":1978,"haps":1979,"augh":1980,"Ġfood":1981,"Ġfront":1982,"ĠYOU":1983,"can":1984,"ient":1985,"fe":1986,"rench":1987,"ĠEuro":1988,"ĠMarch":1989,"ement":1990,"Ġdog":1991,"cha":1992,"Ġmag":1993,"ude":1994,"unt":1995,"Ġanim":1996,"atic":1997,"TH":1998,"band":1999,"ĠSouth":2000,"bs":2001,"Ġhuman":2002,"Ġpast":2003,"Ġtaking":2004,"Ġhot":2005,"Some":2006,"bit":2007,"aced":2008,"Ġval":2009,"Ġ$":2010,"ĠMin":2011,"ĠDec":2012,"Sh":2013,"Ġsupport":2014,"ĠMiss":2015,"Ġstuff":2016,"oor":2017,"eptember":2018,"Ġseason":2019,"Ġstrong":2020,"ior":2021,"ctober":2022,"Ġann":2023,"ĠFran":2024,"ĠComm":2025,"Ġband":2026,"Ġ]":2027,"ĠAugust":2028,"Ġpict":2029,"Ġeither":2030,"Ġball":2031,"Ġdem":2032,"Ġ&":2033,"ĠTr":2034,"oint":2035,"Ġbar":2036,"Ġstat":2037,"there":2038,"Ġsold":2039,"Ġresp":2040,"ele":2041,"Ġeng":2042,"Ġcharac":2043,"Ġadm":2044,"wo":2045,"Ġtrain":2046,"Ġdaughter":2047,"ots":2048,"Ġpiec":2049,"ĠĠĠĠĠĠĠĠĠĠĠĠĠĠĠĠ":2050,"Ġrather":2051,"Ġfig":2052,"Ġexample":2053,"Ġthinking":2054,"Ġattack":2055,"ĠJune":2056,"Ġallow":2057,"ider":2058,"Be":2059,"ĠWill":2060,"cient":2061,"Ġminutes":2062,"Ġquick":2063,"lt":2064,"aim":2065,"hern":2066,"ĠMrs":2067,"Ġlooks":2068,"ience":2069,"iving":2070,"Ġcouldn":2071,"Ġprogram":2072,"Ġreport":2073,"Ġothers":2074,"ĠBritish":2075,"Ġroad":2076,"Ġparty":2077,"hich":2078,"Ġinform":2079,"Ġtou":2080,"Ġcou":2081,"Ġlisten":2082,"ze":2083,"Ġwithin":2084,"over":2085,"ming":2086,"Ġtem":2087,"Ġheld":2088,"Ġliving":2089,"Ġbeautiful":2090,"ape":2091,"Ġsuccess":2092,"resent":2093,"ency":2094,"Ġdesign":2095,"oe":2096,"Ġnamed":2097,"oman":2098,"ament":2099,"Ġgrow":2100,"ĠEurope":2101,"Ġwants":2102,"itting":2103,"Ġmillion":2104,"Ġresult":2105,"Ġminute":2106,"ĠSeptember":2107,"Ġnational":2108,"Ġnorth":2109,"Ġperform":2110,"ode":2111,"itten":2112,"Ġinside":2113,"ories":2114,"Ġstru":2115,"Ġap":2116,"Ġspecial":2117,"ĠTH":2118,"ored":2119,"ĠOctober":2120,"actly":2121,"ĠSh":2122,"Ex":2123,"ĠCol":2124,"Ġlangu":2125,"Ġnec":2126,"ege":2127,"ĠApril":2128,"ĠAd":2129,"ovember":2130,"AS":2131,"ĠBe":2132,"aul":2133,"Ġmember":2134,"ĠJuly":2135,"ousand":2136,"ĠPres":2137,"Ġsum":2138,"fully":2139,"Ġturned":2140,"Ġmess":2141,"Ġrepl":2142,"Ġwonder":2143,"Ġsingle":2144,"ma":2145,"Ġve":2146,"oad":2147,"Ġvill":2148,"oub":2149,"Ġformer":2150,"ĠNational":2151,"ĠNorth":2152,"Ġlived":2153,"Ġrock":2154,"Ġdear":2155,"range":2156,"Ġsil":2157,"Ġappear":2158,"unk":2159,"Ġincluding":2160,"Maybe":2161,"Ġking":2162,"Ġelect":2163,"II":2164,"ĠPl":2165,"anger":2166,"Ġthank":2167,"Ġ11":2168,"Ġtest":2169,"ĠGo":2170,"ald":2171,"ĠChar":2172,"Or":2173,"ĠBar":2174,"ĠSw":2175,"unch":2176,"Ġdie":2177,"Ah":2178,"fort":2179,"key":2180,"Ġexpect":2181,"Ġdream":2182,"fect":2183,"par":2184,"usband":2185,"----":2186,"ruary":2187,"ounds":2188,"ales":2189,"ebruary":2190,"Ġship":2191,"ued":2192,"Hello":2193,"Ġcamp":2194,"que":2195,"ĠDecember":2196,"Ġcommon":2197,"ĠWhen":2198,"Ġfelt":2199,"Ġplaying":2200,"idge":2201,"read":2202,"Ġhit":2203,"Ġthird":2204,"Ġvoice":2205,"With":2206,"vision":2207,"Ġusing":2208,"Ġmonths":2209,"Ġacross":2210,"ĠPh":2211,"bo":2212,"Ġoutside":2213,"Ġfootball":2214,"een":2215,"ended":2216,"Have":2217,"ternational":2218,"ask":2219,"ĠNovember":2220,"Ġsometimes":2221,"ĠFrench":2222,"Ġdark":2223,"ĠX":2224,"Ġmemb":2225,"aur":2226,"Ġworked":2227,"echn":2228,"Ġcheck":2229,"go":2230,"Ġpossible":2231,"Ġz":2232,"iddle":2233,"though":2234,"After":2235,"cil":2236,"Ġhours":2237,"ached":2238,"Ġeffect":2239,"Ġthousand":2240,"ĠCal":2241,"Ġamong":2242,"Ġrev":2243,"aint":2244,"Ġhair":2245,"Ġfilm":2246,"Ġrequ":2247,"Ġdest":2248,"itch":2249,"Ġfif":2250,"Ch":2251,"Ġgun":2252,"Ġcareer":2253,"Ġcop":2254,"ĠDo":2255,"overed":2256,"Ġclub":2257,"Ġmajor":2258,"Ġfre":2259,"Ġfollowing":2260,"Ġill":2261,"Ġhusband":2262,"Ġpoor":2263,"irth":2264,"Ġsun":2265,"like":2266,"Ġdam":2267,"ata":2268,"Ġprofess":2269,"âĢĶ":2270,"ĠFl":2271,"oved":2272,"Ġappro":2273,"Ġ13":2274,"Ġforg":2275,"Ġtried":2276,"Ġwish":2277,"Re":2278,"ĠFebruary":2279,"eared":2280,"Ġstra":2281,"rodu":2282,"Ġtot":2283,"Ġaf":2284,"Ġ14":2285,"cing":2286,"Ġsend":2287,"Ġtom":2288,"ĠCity":2289,"ean":2290,"more":2291,"Ġcir":2292,"look":2293,"Ġlevel":2294,"Ġmoved":2295,"sc":2296,"Ġgotta":2297,"Ġseven":2298,"Ġhistory":2299,"Ġbuilt":2300,"airs":2301,"Any":2302,"Ġbox":2303,"gest":2304,"hile":2305,"Ġgrand":2306,"Ġpolice":2307,"Ġ2010":2308,"uthor":2309,"attle":2310,"Ġparticular":2311,"ipp":2312,"ĠHer":2313,"Ġsn":2314,"Ġfeet":2315,"de":2316,"ĠTO":2317,"ĠCha":2318,"ressed":2319,"oul":2320,"ĠAf":2321,"Ġbuilding":2322,"Ġproper":2323,"Ġmembers":2324,"Ġusually":2325,"LE":2326,"Ġcre":2327,"omin":2328,"Ġfa":2329,"Ġtill":2330,"10":2331,"Ġgets":2332,"raid":2333,"room":2334,"rit":2335,"Ġparent":2336,"Ġra":2337,"ĠHar":2338,"Ġav":2339,"Ġcompet":2340,"Ġlay":2341,"Ġcost":2342,"she":2343,"Ġoffice":2344,"OM":2345,"rog":2346,"Ġdin":2347,"Ġtreat":2348,"Ġworry":2349,"ĠOr":2350,"ĠGeor":2351,"Ġanyone":2352,"ified":2353,"Ġton":2354,"Ġmur":2355,"raph":2356,"Ġgold":2357,"uk":2358,"ana":2359,"Ġpull":2360,"aged":2361,"Ġanswer":2362,"Ġchance":2363,"Ġcomplete":2364,"ondon":2365,"Ġcontrol":2366,"Ġtable":2367,"Ġfield":2368,"Ġpopulation":2369,"Ġconcer":2370,"Of":2371,"Ġsweet":2372,"18":2373,"Ġbuy":2374,"ĠLe":2375,"Ġstar":2376,"idence":2377,"Ġknows":2378,"Ġwhether":2379,"Ġteac":2380,"Ġstation":2381,"Ġworks":2382,"Ġrad":2383,"Ġabs":2384,"ases":2385,"ien":2386,"Ġbased":2387,"iod":2388,"por":2389,"ays":2390,"Ġord":2391,"ĠGu":2392,"Ġeasy":2393,"ĠEd":2394,"ino":2395,"Ġprop":2396,"Ġcannot":2397,"work":2398,"Ġwall":2399,"Ġcond":2400,"Ġplayer":2401,"Ġ``":2402,"Ġtwenty":2403,"Ġwritten":2404,"ĠCent":2405,"ĠRep":2406,"Ġstep":2407,"Ġ30":2408,"Ġdev":2409,"ding":2410,"yn":2411,"ĠPresident":2412,"Ġlives":2413,"irty":2414,"Ġste":2415,"ĠAfter":2416,"Ġsister":2417,"Ġevent":2418,"Ġdescri":2419,"ĠIf":2420,"ĠAb":2421,"soci":2422,"Ġregion":2423,"Ġfav":2424,"Ġlocal":2425,"Ġview":2426,"Ġla":2427,"asure":2428,"Ġseems":2429,"itions":2430,"com":2431,"Ġphone":2432,"OW":2433,"Ġgeneral":2434,"illy":2435,"Ġpract":2436,"hys":2437,"ances":2438,"ula":2439,"Ġcouple":2440,"ule":2441,"21":2442,"urg":2443,"Ġmine":2444,"Ġiss":2445,"ara":2446,"Ġeveryone":2447,"Ġcurrent":2448,"Ġvide":2449,"Cl":2450,"Ġdi":2451,"Ġafraid":2452,"iding":2453,"Ġlow":2454,"iron":2455,"Ġsouth":2456,"Ġcentury":2457,"Ġprocess":2458,"Ġpost":2459,"Ġones":2460,"Ġbird":2461,"Ġfast":2462,"Ġmot":2463,"ising":2464,"Ġwrote":2465,"Ġdraw":2466,"Ġdeep":2467,"Ġsense":2468,"bers":2469,"ument":2470,"Ġcold":2471,"Ġwear":2472,"ĠWest":2473,"hampions":2474,"ĠLondon":2475,"Ġcal":2476,"ĠLea":2477,"Ġdiffic":2478,"ĠDon":2479,"Ġinvol":2480,"Ġground":2481,"Ġexactly":2482,"ift":2483,"Ġfair":2484,"Ġseemed":2485,"Ġwrite":2486,"Ġtomorrow":2487,"ada":2488,"Ġgirls":2489,"Ġcry":2490,"Ġnat":2491,"Take":2492,"Ġsea":2493,"ED":2494,"IT":2495,"ission":2496,"Ġboys":2497,"Ġlonger":2498,"Ġincre":2499,"ourn":2500,"ky":2501,"Ġbirth":2502,"who":2503,"CH":2504,"Ġfur":2505,"itive":2506,"ected":2507,"Erm":2508,"ĠEngland":2509,"unic":2510,"uri":2511,"Ġpaper":2512,"ogn":2513,"Ġdistrict":2514,"Ġsuff":2515,"ĠJack":2516,"Ġcharacter":2517,"Ġhuh":2518,"Ġbott":2519,"avy":2520,"ization":2521,"Ġsex":2522,"Ġinformation":2523,"ills":2524,"See":2525,"ging":2526,"oose":2527,"hel":2528,"Ġchanged":2529,"off":2530,"Wait":2531,"ording":2532,"ĠItal":2533,"His":2534,"ribut":2535,"Ġtruth":2536,"Ġkids":2537,"entle":2538,"Ġdirect":2539,"ĠAustral":2540,"amb":2541,"ration":2542,"Ġdepartment":2543,"Ġnews":2544,"Ġrunning":2545,"Ġ25":2546,"irt":2547,"Ġlik":2548,"ĠOne":2549,"Ġsupposed":2550,"uation":2551,"ouncil":2552,"ination":2553,"Ġwood":2554,"dom":2555,"Ġpress":2556,"Ġcat":2557,"Ġservice":2558,"Ġpubl":2559,"aff":2560,"Ġmer":2561,"Ġsomebody":2562,"ĠGerman":2563,"Ġfail":2564,"Ġlab":2565,"Ġgen":2566,"ĠWell":2567,"ĠMic":2568,"Ġforget":2569,"Ġhurt":2570,"Ġeduc":2571,"Ġtonight":2572,"they":2573,"Ġsuper":2574,"Ġcross":2575,"Ġtrouble":2576,"Ġshot":2577,"Ġperiod":2578,"GH":2579,"Ġdro":2580,"urs":2581,"ille":2582,"Ġ*":2583,"ĠLord":2584,"Ġneeds":2585,"lex":2586,"ford":2587,"uture":2588,"22":2589,"Ġreceived":2590,"Ġhig":2591,"Ġtree":2592,"ĠUS":2593,"Ġclean":2594,"Ġtype":2595,"ĠAmerica":2596,"Ġauthor":2597,"Ġtelevision":2598,"Ġposition":2599,"Ġ0":2600,"ĠEl":2601,"itary":2602,"Like":2603,"acy":2604,"ĠThen":2605,"Ġblue":2606,"emy":2607,"ĠDr":2608,"conom":2609,"owers":2610,"Ġrepresent":2611,"Ġple":2612,"Ġluck":2613,"pec":2614,"ption":2615,"ĠAm":2616,"Ġtrad":2617,"ospital":2618,"Ġlady":2619,"Ġsecret":2620,"ĠRe":2621,"Ġkept":2622,"arty":2623,"ĠSchool":2624,"ilar":2625,"ĠDan":2626,"eople":2627,"ĠRuss":2628,"Ġcreated":2629,"Ġtechn":2630,"Ġentire":2631,"Ġarri":2632,"Ġmount":2633,"Ġtit":2634,"joy":2635,"Ġthemselves":2636,"Ġlanguage":2637,"Ġtouch":2638,"dden":2639,"Ġserious":2640,"Ġaccept":2641,"Ġcos":2642,"ĠEx":2643,"Ġwaiting":2644,"ae":2645,"ror":2646,"Ġconn":2647,"hard":2648,"Ġeverybody":2649,"lu":2650,"eder":2651,"Ġvers":2652,"fer":2653,"Ġsell":2654,"Ġvillage":2655,"Thanks":2656,"Ġwhatever":2657,"ken":2658,"US":2659,"la":2660,"uz":2661,"avid":2662,"ploy":2663,"OK":2664,"iol":2665,"van":2666,"ĠAfric":2667,"Ġhy":2668,"Ġobject":2669,"Sorry":2670,"Ġsurpr":2671,"ĠTom":2672,"Ġfucking":2673,"Ġsett":2674,"Ġsudden":2675,"Ġstraight":2676,"Ġcook":2677,"ivil":2678,"Ġsugg":2679,"Ġsuggest":2680,"ĠDe":2681,"Un":2682,"Ġabove":2683,"ĠState":2684,"inal":2685,"Ġfly":2686,"Ġmist":2687,"Ġparents":2688,"Ġspecies":2689,"olution":2690,"Ġperhaps":2691,"ician":2692,"estern":2693,"with":2694,"ĠPeter":2695,"Ġpot":2696,"Ġgreen":2697,"ĠMy":2698,"Ġrul":2699,"ping":2700,"Ar":2701,"ression":2702,"Ġfuture":2703,"this":2704,"Ġrese":2705,"Ġhowever":2706,"stit":2707,"teen":2708,"ending":2709,"Ġpicture":2710,"ager":2711,"Ġpriv":2712,"Ġlim":2713,"val":2714,"Ġrespect":2715,"Ġcomput":2716,"cience":2717,"ray":2718,"Ġcell":2719,"Ġinstead":2720,"Ġtakes":2721,"Ġdecided":2722,"Ġproblems":2723,"Ġexist":2724,"reet":2725,"Ġinclude":2726,"Ġfeeling":2727,"Ġvol":2728,"Tell":2729,"ops":2730,"omb":2731,"ĠSha":2732,"Ġshoot":2733,"Ġbooks":2734,"atter":2735,"Ġitself":2736,"roy":2737,"ĠMc":2738,"Ġcarry":2739,"Ġpiece":2740,"Ġled":2741,"Ġstri":2742,"ĠWh":2743,"Ġperfect":2744,"Ġmouth":2745,"Ġang":2746,"Ġfinished":2747,"isten":2748,"lands":2749,"Ġport":2750,"Ġimag":2751,"Ġherself":2752,"ĠSy":2753,"ocr":2754,"ĠPol":2755,"Ġinvest":2756,"Ġlearn":2757,"Ġcult":2758,"alt":2759,"Ġchair":2760,"Ġlaugh":2761,"ĠNot":2762,"razy":2763,"IC":2764,"Ġdoctor":2765,"Ġpopular":2766,"ivid":2767,"ĠOF":2768,"Ġletter":2769,"eneral":2770,"15":2771,"Ġcho":2772,"These":2773,"Ġserved":2774,"ĠEar":2775,"Ġdue":2776,"hael":2777,"Ġdoll":2778,"Ġfix":2779,"oes":2780,"Will":2781,"Ġpen":2782,"Ġaren":2783,"Ġproject":2784,"ĠHowever":2785,"Ġprin":2786,"Ġhappens":2787,"unicip":2788,"Ġdifficult":2789,"lin":2790,"Ġworth":2791,"Ġchurch":2792,"Ġtrust":2793,"reg":2794,"Ġearth":2795,"Ġvideo":2796,"AY":2797,"Ġcover":2798,"Stop":2799,"Ġmem":2800,"pes":2801,"ĠHouse":2802,"Ġspace":2803,"ograp":2804,"Ġ24":2805,"amer":2806,"Hi":2807,"Ġfinal":2808,"olute":2809,"ĠPhil":2810,"ĠLeague":2811,"Ġnorm":2812,"Ġain":2813,"Ġtrack":2814,"yle":2815,"Ġactiv":2816,"Ġhealth":2817,"Ġbear":2818,"Ġlad":2819,"see":2820,"Ġprison":2821,"viously":2822,"Ġesc":2823,"Ġtelling":2824,"Ġshit":2825,"Ġhorse":2826,"pha":2827,"ĠAN":2828,"ĠCap":2829,"Ġslow":2830,"Ġbri":2831,"Ġanyway":2832,"Ġarm":2833,"17":2834,"Ġrecogn":2835,"Ġnine":2836,"Ġeye":2837,"erry":2838,"Ġsafe":2839,"Ġrelations":2840,"Ġpresident":2841,"Ġsoft":2842,"Ġhang":2843,"ĠTo":2844,"ciety":2845,"rug":2846,"empt":2847,"iment":2848,"ears":2849,"Ġgentle":2850,"Ġweeks":2851,"Ġ2014":2852,"Ġcompl":2853,"erence":2854,"Ġsocial":2855,"itor":2856,"Ġmiddle":2857,"ĠThese":2858,"Ġriver":2859,"ĠColl":2860,"Ġdoub":2861,"Ġpassed":2862,"roll":2863,"epend":2864,"Ġfigure":2865,"Ġcorn":2866,"ls":2867,"omes":2868,"Ġspir":2869,"Ġep":2870,"Ġ100":2871,"Ġdanger":2872,"itted":2873,"Ġsus":2874,"line":2875,"time":2876,"Ġmeant":2877,"ĠGermany":2878,"ET":2879,"Ã¡":2880,"aha":2881,"Ġphot":2882,"AL":2883,"?âĢĿ":2884,"lect":2885,"ashing":2886,"Ġsave":2887,"ival":2888,"12":2889,"Mar":2890,"nel":2891,"Ġcounty":2892,"bor":2893,"Ġphys":2894,"Ġengine":2895,"Ġjud":2896,"ĠIndian":2897,"Ġenjoy":2898,"uel":2899,"Ġgames":2900,"ĠPaul":2901,"Ġahead":2902,"ander":2903,"ĠPark":2904,"Ġestab":2905,"Ġcourt":2906,"ris":2907,"Ġfunny":2908,"Ġ2018":2909,"Ġmeeting":2910,"Ġclot":2911,"Ġevening":2912,"Ġhop":2913,"Ġseat":2914,"Ġfamous":2915,"Ġterri":2916,"Ġvict":2917,"Ġfurther":2918,"Ġ192":2919,"Ġcast":2920,"ĠSec":2921,"Ġgod":2922,"Ġant":2923,"Ġeconom":2924,"king":2925,"ĠJo":2926,"AM":2927,"cher":2928,"Ġexcept":2929,"Ġmis":2930,"riage":2931,"Ġglad":2932,"ergy":2933,"Ġ2011":2934,"ishing":2935,"ĠĠĠĠĠ":2936,"ius":2937,"Ġfish":2938,"Ġcrazy":2939,"Ġopened":2940,"iforn":2941,"Ġ#":2942,"Ġmach":2943,"Ġda":2944,"Ġsick":2945,"Ġide":2946,"Ġcrit":2947,"Ġneg":2948,"ume":2949,"Ġreturned":2950,"ceed":2951,"Ġquiet":2952,"Ġfill":2953,"Ġ(\"":2954,"Ġaut":2955,"ĠQue":2956,"ĠSe":2957,"field":2958,"Ġstood":2959,"Ġum":2960,"Ġcool":2961,"Ġleaving":2962,"Ġgrad":2963,"Ġself":2964,"put":2965,"Ġcapital":2966,"Ġrole":2967,"16":2968,"oly":2969,"Ġnin":2970,"Ġthrow":2971,"ĠWilliam":2972,"hank":2973,"ett":2974,"ifornia":2975,"light":2976,"cell":2977,"Ġdisapp":2978,"Ġring":2979,"aining":2980,"Ġbeginning":2981,"Ġcatch":2982,"Ġdinner":2983,"erve":2984,"OT":2985,"Ġaccount":2986,"hem":2987,"iers":2988,"Ġbreat":2989,"VE":2990,"Ġmad":2991,"Ġforce":2992,"Ġmult":2993,"Ġsubject":2994,"ĠWhy":2995,"Ġannoun":2996,"ĠSome":2997,"Ġ2013":2998,"Give":2999,"ires":3000,"Ġhospital":3001,"Ġfeat":3002,"Ġsimilar":3003,"Ġwhom":3004,"rave":3005,"Ġburn":3006,"Ġfloor":3007,"Ġcommune":3008,"Ġclaim":3009,"Ġagre":3010,"Ġx":3011,"uge":3012,"TER":3013,"Ġappl":3014,"Ġpolitical":3015,"Ġ2017":3016,"Ġ`":3017,"ĠSam":3018,"medi":3019,"ID":3020,"ĠRiver":3021,"Ġcirc":3022,"Ġmass":3023,"ĠIN":3024,"Ġclos":3025,"itz":3026,"rey":3027,"14":3028,"Ġnon":3029,"Ġparts":3030,"\")":3031,"Ġsitting":3032,"Ġshut":3033,"Ġgiving":3034,"Ġforward":3035,"ĠHigh":3036,"Ġnecess":3037,"Ġcommunity":3038,"Ġident":3039,"ples":3040,"oming":3041,"Ġrespons":3042,"ĠSm":3043,"Ġviol":3044,"night":3045,"min":3046,"ns":3047,"Ġintrodu":3048,"raft":3049,"Ġcomb":3050,"ellow":3051,"Ġmention":3052,"Ġoriginal":3053,"Ġdrive":3054,"Ġcause":3055,"Ġstick":3056,"Ġ2020":3057,"Ġreached":3058,"mon":3059,"Ġtotal":3060,"Ġinteresting":3061,"Ġstudents":3062,"ĠPer":3063,"Ġcountries":3064,"reme":3065,"50":3066,"Ġbeat":3067,"Ġmater":3068,"Ġquestions":3069,"Ġbank":3070,"Ġfem":3071,"ĠEast":3072,"was":3073,"Ġbag":3074,"ply":3075,"Ġkey":3076,"nes":3077,"ĠRoman":3078,"13":3079,"chan":3080,"ica":3081,"Ġsepar":3082,"ĠMus":3083,"Ġrelig":3084,"ĠGood":3085,"Ġfing":3086,"ĠCalifornia":3087,"Ġplaces":3088,"ĠGeorge":3089,"By":3090,"bl":3091,"Ġproduct":3092,"Ġindivid":3093,"imate":3094,"ication":3095,"hips":3096,"Ġmatch":3097,"ĠSu":3098,"Ġyours":3099,"Ġquickly":3100,"Ġhoney":3101,"Ġlose":3102,"Ġfear":3103,"Ġneigh":3104,"Ġstage":3105,"Ġhung":3106,"Ġamount":3107,"ĠMary":3108,"esus":3109,"Somet":3110,"ĠRed":3111,"Ġappeared":3112,"AC":3113,"Ġstudy":3114,"Ġstore":3115,"Ġ2012":3116,"Even":3117,"pecially":3118,"Ġhost":3119,"Ġmarket":3120,"Ġwhose":3121,"mas":3122,"Ġtowards":3123,"ĠRepublic":3124,"Ġsimple":3125,"cious":3126,"wood":3127,"Ġkiss":3128,"inite":3129,"Ġpark":3130,"ocked":3131,"Ġalive":3132,"hood":3133,"ĠIndia":3134,"Ġtravel":3135,"Ġinn":3136,"Ġmid":3137,"Ġ2015":3138,"Ġobs":3139,"inc":3140,"ĠJapanese":3141,"Ġmoving":3142,"Ġenergy":3143,"olly":3144,"Ġwindow":3145,"Ġsuppose":3146,"ico":3147,"Ġroll":3148,"Ġdeg":3149,"just":3150,"God":3151,"Ġ2008":3152,"Ġlocated":3153,"uty":3154,"ka":3155,"Ġcried":3156,"Ġpublished":3157,"Ġben":3158,"Ġcolor":3159,"upid":3160,"From":3161,"ades":3162,"ĠQu":3163,"Ġpal":3164,"Ġanymore":3165,"Ġfollowed":3166,"af":3167,"Ġnatural":3168,"Ġconsider":3169,"ĠBy":3170,"arden":3171,"Ġpolic":3172,"Ġindust":3173,"ruction":3174,"Ġcaught":3175,"ĠGovern":3176,"ĠCor":3177,"Ġwide":3178,"ĠGreat":3179,"het":3180,"Ġris":3181,"ĠLou":3182,"Nothing":3183,"ĠEm":3184,"ĠJust":3185,"AP":3186,"ites":3187,"Ġvisit":3188,"ĠParty":3189,"Ġbeha":3190,"ili":3191,"Bl":3192,"oyal":3193,"ĠSan":3194,"Really":3195,"ĠGl":3196,"Ġways":3197,"ext":3198,"Ġ2016":3199,"Ġneeded":3200,"iled":3201,"Ġexperience":3202,"Ġbelong":3203,"Ġcertainly":3204,"ÃŃ":3205,"rian":3206,"isc":3207,"orts":3208,"aven":3209,"ĠMe":3210,"Ã¶":3211,"Ġ)":3212,"ĠMed":3213,"Ġrace":3214,"Ġbill":3215,"ensive":3216,"Ġteacher":3217,"Ġmunicip":3218,"Ġ21":3219,"Ġver":3220,"did":3221,"Ġsituation":3222,"Ġshar":3223,"iny":3224,"Listen":3225,"Ġlie":3226,"Ġsad":3227,"Ġperm":3228,"Ġdress":3229,"omen":3230,"Ġterms":3231,"uses":3232,"ago":3233,"inary":3234,"wered":3235,"30":3236,"Ġalright":3237,"Ġanybody":3238,"Ġ2007":3239,"Ġfinally":3240,"road":3241,"Ġfac":3242,"bert":3243,"Ġallowed":3244,"asons":3245,"istic":3246,"rel":3247,"ĠII":3248,"Ġstopped":3249,"ining":3250,"Ġmiles":3251,"ĠIT":3252,"Ġdiscuss":3253,"Ġshop":3254,"fl":3255,"Ġstrange":3256,"face":3257,"cuse":3258,"Ġprotect":3259,"Ġ22":3260,"Tr":3261,"gar":3262,"irm":3263,"ĠMad":3264,"sha":3265,"Ġ2009":3266,"ĠĠĠĠĠĠ":3267,"Ġstreet":3268,"Ã¼":3269,"Ġemploy":3270,"Ġequal":3271,"pper":3272,"udd":3273,"Ġshows":3274,"Ġexam":3275,"Ġvarious":3276,"Ġ2006":3277,"ero":3278,"Ġfool":3279,"Ġenc":3280,"Ġanimals":3281,"bye":3282,"itional":3283,"orthern":3284,"Ġespecially":3285,"Ġboard":3286,"Ġwriting":3287,"200":3288,"hold":3289,"Ġinflu":3290,"ĠMon":3291,"urity":3292,"ki":3293,"Ġvalue":3294,"Man":3295,"ensus":3296,"Ġpeace":3297,"Ġbroad":3298,"Ġjump":3299,"gu":3300,"Ġisland":3301,"Ġsurv":3302,"Ġearli":3303,".,":3304,"Ġinvolved":3305,"inct":3306,"Ġmilitary":3307,"don":3308,"AD":3309,"Ġmaterial":3310,"Ġice":3311,"ya":3312,"ĠBen":3313,"ĠWith":3314,"Ġrid":3315,"Ġpaid":3316,"Ġquar":3317,"ĠDavid":3318,"Ġ23":3319,"Ġbull":3320,"ĠAir":3321,"Ġdance":3322,"ĠÂ":3323,"str":3324,"ĠJames":3325,"Ġemb":3326,"Ġmodern":3327,"Ġconv":3328,"Ġdestroy":3329,"Ġplays":3330,"Ġspent":3331,"ĠMart":3332,".'":3333,"Ġwild":3334,"ners":3335,"ĠChampions":3336,"ences":3337,"Ġpack":3338,"Our":3339,"ĠAre":3340,"Ġbought":3341,"ĠSer":3342,"iction":3343,"ength":3344,"ustom":3345,"aine":3346,"Ġ2019":3347,"sych":3348,"Ġtax":3349,"hire":3350,"Ġjoined":3351,"Ġegg":3352,"ĠCup":3353,"ids":3354,"Ġasking":3355,"Ġproduced":3356,"ĠNow":3357,"elp":3358,"Ġprofessional":3359,"Ġsoul":3360,"iced":3361,"gel":3362,"olutely":3363,"Ġdrug":3364,"Ġaction":3365,"Ġlargest":3366,"outhern":3367,"ĠWho":3368,"Ġhate":3369,"Ġdate":3370,"....":3371,"rie":3372,"iling":3373,"Ġwat":3374,"kn":3375,"Ġmix":3376,"Ġ50":3377,"Ġfavor":3378,"ĠChurch":3379,"Ġcand":3380,"Ġnet":3381,"Ġalthough":3382,"11":3383,"Ġrefer":3384,"Ġseeing":3385,"Ġattempt":3386,"Ġbase":3387,"Ġanswered":3388,"eep":3389,"Ġwest":3390,"house":3391,"ĠCo":3392,"Ġ190":3393,"ffic":3394,"Ġglass":3395,"Ġcivil":3396,"ichard":3397,"Me":3398,"Ġsummer":3399,"UT":3400,"ĠHey":3401,"Ġrain":3402,"ortun":3403,"Ġconside":3404,"Ġimmedi":3405,"Ġconsidered":3406,"ĠMor":3407,"cast":3408,"Ġofficial":3409,"ĠDad":3410,"ĠDem":3411,"Ġ26":3412,"Ġgives":3413,"ĠJim":3414,"ĠTV":3415,"Ġcoff":3416,"ibility":3417,"Sp":3418,"Ġfort":3419,"Pl":3420,"hod":3421,"ship":3422,"Ġeast":3423,"obert":3424,"Ġbroke":3425,"Two":3426,"ocks":3427,"llen":3428,"Ġsomewhere":3429,"Ġgrew":3430,"Ġ:":3431,"ĠGrand":3432,"Ġarms":3433,"reek":3434,"Ġban":3435,"su":3436,"ify":3437,"Ġdevelopment":3438,"Ġloved":3439,"Ġstanding":3440,"Ġsour":3441,"board":3442,"Ġplant":3443,"Ġdata":3444,"itude":3445,"Ġpoints":3446,"ography":3447,"rem":3448,"Ġnumbers":3449,"Pro":3450,"Ġcard":3451,"Ġrail":3452,"Which":3453,"Ġenv":3454,"Ġtitle":3455,"ether":3456,"Ġareas":3457,"Ġpolitician":3458,"ils":3459,"istrict":3460,"FF":3461,"back":3462,"Ġ28":3463,"which":3464,"ala":3465,"Ġsize":3466,"Ġhous":3467,"oups":3468,"ises":3469,"ĠGeneral":3470,"ancy":3471,"Br":3472,"Ġnature":3473,"Ġtend":3474,"Ġcompan":3475,"ĠEuropean":3476,"ĠLet":3477,"ĠLu":3478,"Ġpersonal":3479,"Ġstruct":3480,"bour":3481,"Ġtired":3482,"ential":3483,"Ġ27":3484,"Ġmaster":3485,"Ġaud":3486,"Ġpers":3487,"Ġgas":3488,"icle":3489,"Ġdig":3490,"Ġarmy":3491,"Ġpurp":3492,"Ġrob":3493,"Would":3494,"Ġlo":3495,"!âĢĿ":3496,"Ġprim":3497,"ourt":3498,"Ġsal":3499,"Ġclothes":3500,"ators":3501,"lie":3502,"urt":3503,"ability":3504,"Ab":3505,"ari":3506,"action":3507,"Ġbrain":3508,"wise":3509,"Ġfund":3510,"Ġfunction":3511,"Ġincluded":3512,"Her":3513,"ram":3514,"terday":3515,"Qu":3516,"Ġstars":3517,"Per":3518,"irgin":3519,"Ġcomputer":3520,"play":3521,"Â´":3522,"chen":3523,"Ġstupid":3524,"Ġcollege":3525,"Ġadded":3526,"lymp":3527,"Ġmommy":3528,"ounded":3529,"Ġeducation":3530,"Ġheavy":3531,"Does":3532,"istory":3533,"ville":3534,"Um":3535,"Ġshare":3536,"Ġsight":3537,"Ġcompletely":3538,"rect":3539,"Ġresearch":3540,"ĠEn":3541,"Ġaver":3542,"ĠCouncil":3543,"Ġcommand":3544,"Ġprivate":3545,"tered":3546,"rav":3547,"view":3548,"asc":3549,"Ġsimply":3550,"Ġspirit":3551,"Ġboat":3552,"olic":3553,"ground":3554,"ĠWhere":3555,"ĠEarth":3556,"Ġnearly":3557,"noon":3558,"icated":3559,"Ġtrees":3560,"ĠMinister":3561,"ĠPal":3562,"Ġdirected":3563,"ĠLa":3564,"Ġindeed":3565,"ena":3566,"Ġsearch":3567,"gress":3568,"Gr":3569,"Sure":3570,"Ġmodel":3571,"Ġcontract":3572,"Ġimpro":3573,"ograph":3574,"Ġscient":3575,"Very":3576,"Ġcaused":3577,"antic":3578,"Ġdaddy":3579,"ĠBel":3580,"Ġnames":3581,"bing":3582,"Ġevidence":3583,"set":3584,"Ġthanks":3585,"Ġdoubt":3586,"Ġtea":3587,"Ġdifference":3588,"ique":3589,"ĠFrank":3590,"ĠSte":3591,"resh":3592,"ĠParis":3593,"ĠAg":3594,"raw":3595,"ĠBlack":3596,"Ġelection":3597,"RO":3598,"Ġcy":3599,"iber":3600,"rill":3601,"Ġtick":3602,"Ġprep":3603,"Ġcontinued":3604,"Ġpray":3605,"pen":3606,"Ġtalked":3607,"ails":3608,"ĠHen":3609,"iday":3610,"burg":3611,"ĠOkay":3612,"ĠAustralia":3613,"Ġaward":3614,"osing":3615,"omas":3616,"anc":3617,"Ġavail":3618,"ological":3619,"Ġsens":3620,"sec":3621,"Ġtour":3622,"ĠSir":3623,"Ġwed":3624,"Ġbow":3625,"ruct":3626,"chie":3627,"pro":3628,"ston":3629,"ords":3630,"ĠMex":3631,"istics":3632,"ĠOlymp":3633,"ively":3634,"Ġbroken":3635,"lo":3636,"Ġappoint":3637,"astic":3638,"Ġforest":3639,"ĠDep":3640,"ĠOK":3641,"Ġhistor":3642,"Ġindepend":3643,"Ġbud":3644,"Ġpromise":3645,"ĠComp":3646,"Ġsounds":3647,"ashington":3648,"Ġgroups":3649,"Ġradio":3650,"ĠSen":3651,"Ġwatching":3652,"Ġnobody":3653,"Ġwel":3654,"ously":3655,"Ġattention":3656,"Ġassoci":3657,"AND":3658,"Ġimm":3659,"Ġcomfort":3660,"Ġhelped":3661,"Ġwonderful":3662,"Ġsuddenly":3663,"ledge":3664,"Ġbur":3665,"Ġregular":3666,"Ġur":3667,"Ġbattle":3668,"Ġfoc":3669,"Ġliter":3670,"amm":3671,"ĠSch":3672,"ĠPat":3673,"Ġfle":3674,"Ġcharge":3675,"Ġpath":3676,"Ġarrest":3677,"iles":3678,"nie":3679,"Ġpercent":3680,"oph":3681,"Ġmarry":3682,"ĠBE":3683,"Ġshouldn":3684,"ushed":3685,"antly":3686,"Ġ2000":3687,"Ġversion":3688,"azing":3689,"inese":3690,"useum":3691,"Ġwarm":3692,"Ġthirty":3693,"inist":3694,"Ġrights":3695,"Ġmeaning":3696,"illa":3697,"Ġspend":3698,"Ġestabl":3699,"ĠSim":3700,"ĠAc":3701,"Ġdefe":3702,"Ġsand":3703,"Ġreach":3704,"Ġbottom":3705,"ĠUnion":3706,"Ġblow":3707,"Ġextra":3708,"ĠAnt":3709,"Ġfifty":3710,"Ġshowed":3711,"ĠReg":3712,"ĠCome":3713,"under":3714,"Ġhappening":3715,"Ġfit":3716,"Ġinterested":3717,"Ġdoc":3718,"Ġrich":3719,"ĠStreet":3720,"ĠMichael":3721,"ERE":3722,"LD":3723,"Ġarch":3724,"Ġfinish":3725,"ittee":3726,"Ġthreat":3727,"Ġet":3728,"Ġlength":3729,"ests":3730,"Ġannounced":3731,"Ġclosed":3732,"Ġredu":3733,"Ġopportun":3734,"Ġlog":3735,"ĠCollege":3736,"cul":3737,"hest":3738,"icks":3739,"ĠChina":3740,"Ġpounds":3741,"Ġformed":3742,"Ġfat":3743,"usion":3744,"Ġafternoon":3745,"Ġnor":3746,"Ġfounded":3747,"Ġweap":3748,"lor":3749,"ida":3750,"ek":3751,"ĠHall":3752,"Ġchoice":3753,"ables":3754,"Ġ()":3755,"Ġdise":3756,"Excuse":3757,"anish":3758,"ĠChristian":3759,"Ġcalling":3760,"ĠBo":3761,"Ġden":3762,"ĠBer":3763,"ĠPort":3764,"Ġhigher":3765,"THE":3766,"Ġ29":3767,"Ġbelow":3768,"Ã³":3769,"ironment":3770,"ria":3771,"IM":3772,"John":3773,"Ġinit":3774,"Ġtraining":3775,"elve":3776,"Ġspeed":3777,"Ġdirector":3778,"Ġbirthday":3779,"berg":3780,"Ġnormal":3781,"Ġweren":3782,"Ġmarriage":3783,"elebr":3784,"aves":3785,"Ġstreng":3786,"iel":3787,"ĠGreen":3788,"aker":3789,"Ġnovel":3790,"ĠON":3791,"osition":3792,"bon":3793,"Car":3794,"Ġactor":3795,"ĠNor":3796,"ĠDistrict":3797,"Ġmurder":3798,"Am":3799,"ST":3800,"oted":3801,"ibly":3802,"year":3803,"Ġtemper":3804,"Ġtast":3805,"ilities":3806,"Ġdecl":3807,"Ġmethod":3808,"isf":3809,"Ġstarting":3810,"rank":3811,"ĠJew":3812,"Ġfellow":3813,"Ġhall":3814,"amn":3815,"ses":3816,"oring":3817,"Ġ2005":3818,"ification":3819,"ĠCr":3820,"Ġbright":3821,"asion":3822,"atives":3823,"order":3824,"za":3825,"Ġscience":3826,"Ġspoke":3827,"apers":3828,"Ġstories":3829,"ĠÃ":3830,"ĠPenn":3831,"Ġ189":3832,"Ġcarried":3833,"Ġaccident":3834,"Ġdeveloped":3835,"ĠInternational":3836,"Ġlower":3837,"Ġmanage":3838,"Ġsite":3839,"pping":3840,"Ġoffer":3841,"Ġlovely":3842,"Ġended":3843,"Ġcenter":3844,"aly":3845,"alley":3846,"apt":3847,"Ġworse":3848,"Ġchanges":3849,"ĠWashington":3850,"Ġdeterm":3851,"Ġcoffee":3852,"Ġpsych":3853,"oid":3854,"west":3855,"aries":3856,"ĠPri":3857,"ĠIts":3858,"Ġavailable":3859,"rag":3860,"Ġexec":3861,"Ġlif":3862,"arily":3863,"ental":3864,"Ġsociety":3865,"ĠYour":3866,"ĠChristmas":3867,"Ġleader":3868,"Ġhuge":3869,"Ġassist":3870,"ĠCanada":3871,"Ġwa":3872,"tr":3873,"Ġstates":3874,"phone":3875,"ij":3876,"Ġdecision":3877,"Ġfeed":3878,"ĠNe":3879,"ĠArmy":3880,"UN":3881,"Ġsnow":3882,"Ġinj":3883,"Ġregard":3884,"Ġearlier":3885,"Ġaverage":3886,"Ġpun":3887,"ĠTur":3888,"Ġmachine":3889,"Ġtext":3890,"Ġputting":3891,"ĠMa":3892,"Was":3893,"ĠAlex":3894,"Ġschools":3895,"Ġexplain":3896,"Ġcapt":3897,"sequ":3898,"why":3899,"Ġbi":3900,"Ġund":3901,"Ġyesterday":3902,"Ġmessage":3903,"Ġbusy":3904,"Ġaccess":3905,"Ġlines":3906,"Ġdeb":3907,"Ġhol":3908,"Ġrout":3909,"ĠQueen":3910,"Ġbes":3911,"uts":3912,"Ġspread":3913,"People":3914,"ĠOld":3915,"Ġcustom":3916,"Ġplus":3917,"Only":3918,"ĠMal":3919,"Ġepis":3920,"Ġmovies":3921,"Ġmovement":3922,"ĠAfrica":3923,"ALL":3924,"Ġagree":3925,"ann":3926,"ees":3927,"fast":3928,"Ġsongs":3929,"ĠChe":3930,"lvan":3931,"ĠTex":3932,"Ġnose":3933,"Ġcreate":3934,"ĠAND":3935,"Ġlearned":3936,"Ġmilk":3937,"Ġride":3938,"initely":3939,"olf":3940,"ummer":3941,"Dad":3942,"Ġcases":3943,"First":3944,"ossible":3945,"IGH":3946,"Ġpage":3947,"Ġrelationship":3948,"Ġ40":3949,"Ġcondu":3950,"Ġcareful":3951,"Ġhero":3952,"Ġestablished":3953,"Ġmor":3954,"Ġoccur":3955,"arm":3956,"Sir":3957,"Ġhonest":3958,"ĠMark":3959,"Ġinternational":3960,"Ġ..":3961,"Ġ2004":3962,"Ġgarden":3963,"Ġcelebr":3964,"Ġleaves":3965,"liament":3966,"Ġbath":3967,"ĠME":3968,"Ġyellow":3969,"had":3970,"Ġdemand":3971,"aug":3972,"Ġsuit":3973,"Ġhun":3974,"wr":3975,"rat":3976,"Ġrule":3977,"ĠAward":3978,"oday":3979,"Ġstyle":3980,"Ġlegs":3981,"Ġliked":3982,"Ġjoin":3983,"Ġfaith":3984,"acing":3985,"Ġsquare":3986,"Ġdan":3987,"Ġsinger":3988,"ĠLouis":3989,"Ġpred":3990,"ournal":3991,"oves":3992,"Ġterrible":3993,"lvania":3994,"Ġnone":3995,"ems":3996,"SE":3997,"Ġinvestig":3998,"Ġneck":3999,"ita":4000,"Ġcensus":4001,"ux":4002,"Ġbran":4003,"ension":4004,"Ġevents":4005,"Ġproduction":4006,"ĠSat":4007,"Ġsky":4008,"Ġkit":4009,"Ġscared":4010,"Ġfault":4011,"ĠItalian":4012,"Ġcorner":4013,"Ġmunicipality":4014,"kes":4015,"ĠCaptain":4016,"Ġprinci":4017,"Sc":4018,"Ġought":4019,"Ġgar":4020,"Ġstone":4021,"Ġcontact":4022,"Wh":4023,"ams":4024,"ĠWhite":4025,"sey":4026,"Ġdry":4027,"Ġsmell":4028,"Ġcup":4029,"ĠRichard":4030,"Ġeating":4031,"ession":4032,"inn":4033,"Ġdrop":4034,"Ġanimal":4035,"ĠRob":4036,"Ġchem":4037,"lim":4038,"ĠChinese":4039,"ĠIsland":4040,"Ġideas":4041,"onel":4042,"Ġtherefore":4043,"aps":4044,"hib":4045,"aign":4046,"icked":4047,"Ġprof":4048,"ights":4049,"ĠOf":4050,"ederal":4051,"rupt":4052,"ĠKore":4053,"Mhm":4054,"Ġcoun":4055,"etic":4056,"Ġfol":4057,"erc":4058,"yond":4059,"Ġwit":4060,"hand":4061,"Ġimmediately":4062,"uzz":4063,"ilies":4064,"ĠPet":4065,"Ġflowers":4066,"asing":4067,"Ġskin":4068,"ĠFrom":4069,"Ġcow":4070,"Gu":4071,"Ġhey":4072,"ini":4073,"cean":4074,"Ġ186":4075,"ĠBill":4076,"ĠMont":4077,"Ġcred":4078,"ccording":4079,"Ġlikely":4080,"Ġ2021":4081,"ĠVirgin":4082,"lear":4083,"Ġbell":4084,"Ġtall":4085,"Ġclim":4086,"using":4087,"Ġsigned":4088,"Ġwelcome":4089,"Ġfarm":4090,"sylvania":4091,"WH":4092,"icago":4093,"otten":4094,"Ġraised":4095,"Ġlying":4096,"Ġpieces":4097,"Ġdistance":4098,"itation":4099,"ban":4100,"Ġolder":4101,"stairs":4102,"oses":4103,"oom":4104,"known":4105,"Ġmostly":4106,"Ġbelieved":4107,"Ġfrog":4108,"ĠCong":4109,"erved":4110,"Ġbenef":4111,"Ġir":4112,"Ġtheory":4113,"Ġcamer":4114,"WE":4115,"Ġnecessary":4116,"yer":4117,"ĠRussian":4118,"Ġspecific":4119,"itar":4120,"Ġarg":4121,"Ġchief":4122,"gen":4123,"asant":4124,"Ġsevent":4125,"istan":4126,"Ġacqu":4127,"oop":4128,"Ġdiscovered":4129,"ĠRes":4130,"ĠâĢĺ":4131,"Ġcoast":4132,"AK":4133,"iot":4134,"da":4135,"Ġcontinue":4136,"ĠMil":4137,"razil":4138,"Ġservices":4139,"ste":4140,"mhm":4141,"Ġru":4142,"ĠTexas":4143,"ĠMag":4144,"Ġarrived":4145,"Ġdepend":4146,"ker":4147,"Ġstorm":4148,"Ġconvers":4149,"Never":4150,"ĠSwed":4151,"Ġcrime":4152,"ĠPrince":4153,"Ġwalked":4154,"vert":4155,"kin":4156,"Ġtruck":4157,"Ġut":4158,"Ġelected":4159,"good":4160,"Ġbeyond":4161,"Ġsuccessful":4162,"ket":4163,"Ġrepe":4164,"Ġspl":4165,"utch":4166,"ĠJesus":4167,"Ġscene":4168,"Ġaged":4169,"atory":4170,"ĠRec":4171,"ĠST":4172,"ĠWH":4173,"Ġformula":4174,"Ġswim":4175,"ĠBro":4176,"Ġindividual":4177,"ĠSund":4178,"Dr":4179,"ĠTe":4180,"Ġimagine":4181,"Ġfighting":4182,"ware":4183,"ĠCourt":4184,"Ġweak":4185,"ols":4186,"Ġ1990":4187,"father":4188,"Ġdouble":4189,"ĠAnge":4190,"Ġofficer":4191,"yl":4192,"Ġintell":4193,"ĠPennsylvania":4194,"Ġspot":4195,"Ġcovered":4196,"tt":4197,"Could":4198,"Ġreview":4199,"Ġmoon":4200,"Ġ2001":4201,"ĠRobert":4202,"Ġpractice":4203,"ĠAct":4204,"Ġgoal":4205,"ores":4206,"Ġcollect":4207,"Ġenvironment":4208,"Ġaddress":4209,"ateg":4210,"Ġattract":4211,"Ġtar":4212,"Ġreading":4213,"Ġcab":4214,"Ġess":4215,"ĠĠĠĠĠĠĠ":4216,"Ġcrow":4217,"Ġprice":4218,"Ġapart":4219,"Ġparticip":4220,"Ġreve":4221,"Ġtells":4222,"ĠArt":4223,"ĠDuring":4224,"ĠDemocr":4225,"gl":4226,"Ġble":4227,"orks":4228,"Ġphil":4229,"Ġspeaking":4230,"Ġboss":4231,"Ġholding":4232,"uments":4233,"ĠScott":4234,"Ġdistribut":4235,"Ġwedding":4236,"ĠMac":4237,"40":4238,"ora":4239,"Ġwalking":4240,"Ġdescribed":4241,"isted":4242,"iation":4243,"ĠIS":4244,"Ġrelease":4245,"wh":4246,"ĠCharles":4247,"Ġfourth":4248,"Ġpurpose":4249,"Ġmic":4250,"Ġemer":4251,"Ġpan":4252,"Ġprint":4253,"Ġrules":4254,"ĠKingdom":4255,"Ġadminist":4256,"Ġissue":4257,"Ġfemale":4258,"Ġpictures":4259,"Ġ188":4260,"Ġangry":4261,"Ġtail":4262,"aching":4263,"ĠMount":4264,"iant":4265,"would":4266,"Ġpig":4267,"ĠJul":4268,";&":4269,"Ã¤":4270,"Ġmountain":4271,"Ġrap":4272,"Ġforces":4273,"anda":4274,"Ġshown":4275,"ĠSpanish":4276,"itiz":4277,"Ġsettle":4278,"Ġrange":4279,"Ġtwice":4280,"Ġpositive":4281,"eff":4282,"Ġoil":4283,"NA":4284,"Ġreplied":4285,"Ġenemy":4286,"arling":4287,"Ġ1980":4288,"Ġfresh":4289,"ients":4290,"cis":4291,"rif":4292,"ulf":4293,"Ġtro":4294,"ĠHenry":4295,"va":4296,"ca":4297,"atin":4298,"Ġslight":4299,"YOU":4300,"rial":4301,"ĠLaw":4302,"edy":4303,"Ġtrade":4304,"IR":4305,"Ġlots":4306,"ĠBrazil":4307,"ĠChan":4308,"iana":4309,"Ġsurface":4310,"BC":4311,"Ġstrength":4312,"Ġ2003":4313,"Ġsle":4314,"Ġdangerous":4315,"Ġrate":4316,"Ġbound":4317,"lected":4318,"Ġaccording":4319,"Ġchick":4320,"ictor":4321,"Ġachie":4322,"Ġdirection":4323,"Put":4324,"Ġlink":4325,"Ġsoldiers":4326,"uf":4327,"Ġsatisf":4328,"Ġhide":4329,"Ġloss":4330,"alled":4331,"Ġeasily":4332,"Che":4333,"ĠBob":4334,"Ġdebut":4335,"Ġmemory":4336,"Ġletters":4337,"uke":4338,"Wow":4339,"isters":4340,"Ġcalls":4341,"ĠSov":4342,"icate":4343,"Ġknowledge":4344,"ĠGold":4345,"ashion":4346,"Ġrecorded":4347,"upp":4348,"LA":4349,"Ġpressure":4350,"Ġsac":4351,"Ġdesp":4352,"ĠBrown":4353,"Ġrub":4354,"Ġproperty":4355,"Ġnotice":4356,"ĠMat":4357,"izing":4358,"ademy":4359,"Ġ2002":4360,"Ġmissing":4361,"ĠTHAT":4362,"Ġmir":4363,"mar":4364,"ĠSoviet":4365,"ange":4366,"ĠDO":4367,"Ġstudent":4368,"25":4369,"lam":4370,"Ġnewsp":4371,"Ġtwelve":4372,"Ġempt":4373,"Ġspe":4374,"Ġcru":4375,"cause":4376,"Ġder":4377,"Ġyouth":4378,"Ġhasn":4379,"Ġrose":4380,"ulations":4381,"den":4382,"ette":4383,"ĠDay":4384,"Ġload":4385,"iring":4386,"ĠDel":4387,"ota":4388,"Ġ2022":4389,"Ġchoose":4390,"Ġpet":4391,"Ġfrequ":4392,"Rem":4393,"Ġproud":4394,"Ġancient":4395,"Ġteams":4396,"ĠItaly":4397,"Ġplaced":4398,"ĠChicago":4399,"Sha":4400,"Ġcars":4401,"ĠAnne":4402,"isions":4403,"Ġreb":4404,"Ġbridge":4405,"Ġentered":4406,"Ġthinks":4407,"Everything":4408,"Got":4409,"oseph":4410,"UR":4411,"ĠRoyal":4412,"ĠSal":4413,"Ġhors":4414,"ĠTown":4415,"Con":4416,"ona":4417,"rs":4418,"Ġcoach":4419,"Ġhonor":4420,"Ġplayers":4421,"abor":4422,"Ġsignific":4423,"enth":4424,"Ġdollars":4425,"vere":4426,"down":4427,"Ġintern":4428,"Ġkitchen":4429,"Ġanywhere":4430,"Ġextreme":4431,"Ġspring":4432,"Ġmistake":4433,"Ġcampaign":4434,"Ġdropped":4435,"zen":4436,"ĠHere":4437,"Those":4438,"mark":4439,"idden":4440,"Ġflat":4441,"Ġremain":4442,"Ġren":4443,"adian":4444,"Ġforgot":4445,"Fuck":4446,"Bye":4447,"vey":4448,"oms":4449,"Ġsecurity":4450,"eless":4451,"Ġ187":4452,"Ġdegree":4453,"Since":4454,"ĠKen":4455,"ĠPe":4456,"Ġopin":4457,"semb":4458,"Ġweight":4459,"Ġbrown":4460,"Ġthroughout":4461,"Ġcondition":4462,"Ġdisease":4463,"Ġlunch":4464,"because":4465,"Keep":4466,"Americ":4467,"History":4468,"Ġcaptain":4469,"igned":4470,"ours":4471,"Ġbigger":4472,"ENT":4473,"Ad":4474,"Ġbirds":4475,"Ġbab":4476,"Ġwhis":4477,"ĠFirst":4478,"Ġincludes":4479,"Ġleading":4480,"Ġqual":4481,"gypt":4482,"ĠCarol":4483,"Ġpolicy":4484,"Ġtaught":4485,"Le":4486,"Ġabsolutely":4487,"Ġvictim":4488,"Ġunless":4489,"sing":4490,"itect":4491,"Ġdamn":4492,"Ġgradu":4493,"Ġopportunity":4494,"Lea":4495,"VER":4496,"Ġwriter":4497,"Great":4498,"Ġfamilies":4499,"ĠPeople":4500,"Ġcentral":4501,"iety":4502,"Ġhouses":4503,"aled":4504,"Ġsystems":4505,"Ġmum":4506,"ĠSar":4507,"Hold":4508,"stitute":4509,"ĠAssoci":4510,"Ġsurprise":4511,"ipe":4512,"Ġblock":4513,"ĠThank":4514,"Ġcorrect":4515,"Ġmagaz":4516,"Ġguard":4517,"Ġstudied":4518,"Ġstaff":4519,"Ġeventually":4520,"Ġrom":4521,"Ġsurr":4522,"ĠDiv":4523,"ĠGO":4524,"Ġshoes":4525,"ĠJoe":4526,"iverse":4527,"Ġrisk":4528,"ĠFred":4529,"ato":4530,"ĠIll":4531,"Ġcities":4532,"win":4533,"icious":4534,"ube":4535,"Ġforty":4536,"Ġge":4537,"gn":4538,"ĠCath":4539,"Ġprovince":4540,"Ġobviously":4541,"199":4542,"Ġnote":4543,"Ġgrowing":4544,"Ġprince":4545,"Ġmedical":4546,"Ġworried":4547,"En":4548,"anta":4549,"Ġ1970":4550,"hal":4551,"Ġsmaller":4552,"Ġconstit":4553,"Ġbeg":4554,"esty":4555,"Ġvan":4556,"Tom":4557,"otion":4558,"Ġbecomes":4559,"roat":4560,"Ġmm":4561,"Ġescape":4562,"Ġpock":4563,"Ġdriving":4564,"when":4565,"Ġuses":4566,"Ġmurd":4567,"reci":4568,"ĠDes":4569,"Ġmagn":4570,"bes":4571,"Ġthou":4572,"umber":4573,"Ġteach":4574,"Ġforced":4575,"ĠWil":4576,"estival":4577,"Ġremained":4578,"Ã¨":4579,"ĠSing":4580,"Ġlaid":4581,"Ġcancer":4582,"Ġmanager":4583,"Ġtrip":4584,"Ġenter":4585,"Ġruns":4586,"asy":4587,"Ġhighest":4588,"Ġslowly":4589,"Ġresults":4590,"Ġstudio":4591,"Ġdisp":4592,"ĠBay":4593,"Ġtypes":4594,"Ġoccup":4595,"Ġscreen":4596,"ĠScot":4597,"Ġprovide":4598,"ĠMany":4599,"Ġpush":4600,"Ġagreed":4601,"Ġmultip":4602,"--------":4603,"_,":4604,"Se":4605,"ruit":4606,"Ġchallen":4607,"Ġsmile":4608,"Ġbrothers":4609,"Ġmentioned":4610,"Ġimpossible":4611,"Ġpicked":4612,"Ġparticularly":4613,"Ġamazing":4614,"mit":4615,"Ġlucky":4616,"ĠSmith":4617,"Ġkinds":4618,"kins":4619,"Alright":4620,"Ġnation":4621,"Ġopening":4622,"Ġbreath":4623,"Ġgrass":4624,"edom":4625,"yr":4626,"Ġthus":4627,"Ġ00":4628,"tained":4629,"Ġinterview":4630,"ĠCom":4631,"CK":4632,"ĠHE":4633,"icles":4634,"Ġexpected":4635,"New":4636,"Ġactress":4637,"Ġnomin":4638,"odes":4639,"host":4640,"Ġheaven":4641,"ĠEr":4642,"aches":4643,"ĠMo":4644,"Ġcurrently":4645,"Ġsaved":4646,"Ġplans":4647,"Ġartist":4648,"ĠJer":4649,"rael":4650,"rough":4651,"law":4652,"Ġcro":4653,"gent":4654,"Ġvote":4655,"Ġuniversity":4656,"Ġma":4657,"ications":4658,"'.":4659,"bered":4660,"Ġwearing":4661,"Ġplanet":4662,"Something":4663,"oken":4664,"Ġinvent":4665,"Mom":4666,"ulous":4667,"Ġhungry":4668,"imin":4669,"Ooh":4670,"Ġweird":4671,"ucky":4672,"Ġbread":4673,"Ġcode":4674,"andy":4675,"Ġpleasure":4676,"Ġheat":4677,"Ġplane":4678,"rang":4679,"Ġforth":4680,"Ġaddition":4681,"Ġperformance":4682,"Ġfirm":4683,"Ġhole":4684,"ĠLittle":4685,"Ġuncle":4686,"ĠWin":4687,"Ġelectric":4688,"Ġcompetition":4689,"have":4690,"ION":4691,"Pr":4692,"aked":4693,"Miss":4694,"ips":4695,"Ġlarger":4696,"Ġshad":4697,"Ġmission":4698,"Ġleaders":4699,"Ġminus":4700,"Ġindustry":4701,"will":4702,"Ġshout":4703,"Ġbreakfast":4704,"Ġhill":4705,"Ġtyp":4706,"Ġwinter":4707,"Ġconcept":4708,"ĠEgypt":4709,"istry":4710,"Ġdesigned":4711,"Act":4712,"arrow":4713,"ĠBur":4714,"Ġgenerally":4715,"Ġrough":4716,"astern":4717,"Ġreported":4718,"Ġblind":4719,"ĠCentral":4720,"Ġstarts":4721,"Char":4722,"Ġpoet":4723,"then":4724,"Ġshape":4725,"Ġrelated":4726,"ĠBet":4727,"Ġsusp":4728,"Ġtoward":4729,"Ġfinger":4730,"Ġstuck":4731,"ĠSun":4732,"Ġstructure":4733,"ĠRock":4734,"stood":4735,"ĠFather":4736,"Ġcompanies":4737,"vell":4738,"Ġ1999":4739,"Ġbrief":4740,"ican":4741,"Ġprevent":4742,"Ġlikes":4743,"vi":4744,"ĠThomas":4745,"Ġsmart":4746,"friend":4747,"Ġhurry":4748,"ĠIr":4749,"Ġweather":4750,"Ġcomplet":4751,"ĠPrin":4752,"iqu":4753,"Ġtape":4754,"ĠLee":4755,"Ġpaint":4756,"ighs":4757,"agn":4758,"Ġcitiz":4759,"60":4760,"âĻ«":4761,"Ġsides":4762,"Ġgreatest":4763,"Ġlearning":4764,"isl":4765,"Ġfinan":4766,"ĠMom":4767,"Ġstrugg":4768,"Ġdefinitely":4769,"ĠAcademy":4770,"osh":4771,"Ġya":4772,"Ġfeatures":4773,"cend":4774,"Ġhotel":4775,"Ġperformed":4776,"ishes":4777,"Ġfright":4778,"Ġbal":4779,"Ġtransl":4780,"Three":4781,"ĠVirginia":4782,"Ġculture":4783,"ĠMet":4784,"Ġaware":4785,"fessor":4786,"Ġcentre":4787,"Ġhorses":4788,"Ġforms":4789,"Ġsen":4790,"Ġpair":4791,"Ġiron":4792,"Ġforeign":4793,"ansas":4794,"Ġnegative":4795,"Ġplants":4796,"Ġissues":4797,"Ġspeech":4798,"ĠAtl":4799,"ola":4800,"Ġremark":4801,"Ġsch":4802,"Huh":4803,"Ġpowerful":4804,"Ġvac":4805,"Ġevil":4806,"Ġretired":4807,"ening":4808,"Ġsilver":4809,"ĠRoad":4810,"Ġfilled":4811,"Ġjudge":4812,"Ġsection":4813,"ĠGreek":4814,"hered":4815,"Ġsource":4816,"ashed":4817,"Ġpatient":4818,"Ġcrew":4819,"Ġthick":4820,"ĠBoy":4821,"Ġgreater":4822,"bre":4823,"Ġduty":4824,"ima":4825,"ĠEmp":4826,"IGHT":4827,"Ġinstr":4828,"Ġcomplex":4829,"Ġphilos":4830,"ĠMost":4831,"Ġcrowd":4832,"Ġsinging":4833,"Ġchap":4834,"Ġorders":4835,"uten":4836,"Ġconditions":4837,"Ġcalm":4838,"Ġbless":4839,"Ġhandle":4840,"Ġharm":4841,"elle":4842,"osite":4843,"war":4844,"OME":4845,"Ġbasket":4846,"Ġempty":4847,"Ġturns":4848,"Say":4849,"from":4850,"ĠFil":4851,"Ġlack":4852,"Ġexcl":4853,"Ġcrack":4854,"ĠMexico":4855,"Ġrank":4856,"ĠDid":4857,"clock":4858,"ĠAfrican":4859,"ĠChampionship":4860,"Once":4861,"ĠArab":4862,"Ġbloody":4863,"icine":4864,"Ġquarter":4865,"Ġteeth":4866,"Ġheads":4867,"Ġserve":4868,"Ġmut":4869,"eck":4870,"Ġsteal":4871,"Ġoffered":4872,"gged":4873,"Ġreasons":4874,"imately":4875,"ĠFore":4876,"LY":4877,"urry":4878,"ĠHill":4879,"zz":4880,"Ġmere":4881,"ĠCont":4882,"Ġedge":4883,"ĠFox":4884,"IF":4885,"Ġbeauty":4886,"Ġoriginally":4887,"Ġwitness":4888,"ĠCH":4889,"ourney":4890,"Ġspell":4891,"Ġstandard":4892,"Ġincrease":4893,"Ġrealize":4894,"yan":4895,"utive":4896,"ĠFin":4897,"ĠMartin":4898,"Ġjoy":4899,"ĠCongress":4900,"Ġopt":4901,"Ġbiggest":4902,"Ġourselves":4903,"ĠWestern":4904,"Ġneither":4905,"ĠFlor":4906,"Ġmale":4907,"Ġbecoming":4908,"fortun":4909,"cons":4910,"ockey":4911,"ba":4912,"Ġbasically":4913,"sm":4914,"usic":4915,"odies":4916,"Ġ31":4917,"ĠSunday":4918,"Ġ1960":4919,"Ġmissed":4920,"Ġneighbor":4921,"Ġsake":4922,"Ġ1998":4923,"Ġtarget":4924,"oma":4925,"Ġcharacters":4926,"Ġmeasure":4927,"Ġordered":4928,"Ġdivided":4929,"ĠAustralian":4930,"Ġchampions":4931,"Ġrare":4932,"Ġsymb":4933,"Before":4934,"24":4935,"23":4936,"CE":4937,"Ġgrown":4938,"Ġbitch":4939,"craft":4940,"low":4941,"ĠHi":4942,"ĠSuper":4943,"iano":4944,"Ġhardly":4945,"Ġsuspect":4946,"Other":4947,"urday":4948,"Ġladies":4949,"ĠSea":4950,"ĠProv":4951,"Ġmedia":4952,"Ġ1996":4953,"Ġseparate":4954,"OD":4955,"peror":4956,"Ġtransfer":4957,"ĠSpain":4958,"Ġdogs":4959,"Ġjournal":4960,"ĠVictor":4961,"Ġresponsible":4962,"ĠApp":4963,"ros":4964,"Ġcere":4965,"ĠMother":4966,"urb":4967,"ĠFrancis":4968,"itan":4969,"Ġdecide":4970,"Ġign":4971,"ĠMaster":4972,"anced":4973,"ĠWood":4974,"ĠCanadian":4975,"Ġdare":4976,"ĠTwo":4977,"Ġkilling":4978,"bur":4979,"Ġreplaced":4980,"Ġtight":4981,"eds":4982,"Ġnorthern":4983,"Ġstatistics":4984,"ĠSecret":4985,"book":4986,"rid":4987,"Ġnetwork":4988,"Ġadult":4989,"Ġactive":4990,"Ġtotally":4991,"Ġvot":4992,"Ġacting":4993,"Ġremind":4994,"oned":4995,"ga":4996,"ĠCat":4997,"rate":4998,"rees":4999,"Ġmechan":5000,"Perhaps":5001,"Ġgay":5002,"Ġforever":5003,"ado":5004,"ĠAssociation":5005,"Ġlegal":5006,"Ġprevious":5007,"Ġconnect":5008,"uan":5009,"ĠLos":5010,"Ġcommer":5011,"Ġdirectly":5012,"rib":5013,"ĠRussia":5014,"ĠTor":5015,"aging":5016,"Ġox":5017,"ooth":5018,"ĠRome":5019,"Ġeggs":5020,"Ġdocument":5021,"Ġunit":5022,"Ġpromised":5023,"Ġphysical":5024,"Ġlies":5025,"aret":5026,"rated":5027,"Ġcouncil":5028,"umn":5029,"Ġamb":5030,"Ġcritic":5031,"Mrs":5032,"Ġwaste":5033,"Ġterrit":5034,"Ġgentlemen":5035,"Ġwine":5036,"Ġwilling":5037,"Ġprove":5038,"ishop":5039,"Ġturning":5040,"ĠCatholic":5041,"may":5042,"Ġcuri":5043,"Ġarchitect":5044,"Ġclearly":5045,"boy":5046,"ault":5047,"said":5048,"heart":5049,"Ġnoise":5050,"Ġfailed":5051,"Ġmeat":5052,"Ġcopy":5053,"ĠIre":5054,"Ġorganization":5055,"Ġsilly":5056,"Ġwake":5057,"Ġsaf":5058,"isher":5059,"lder":5060,"Ġju":5061,"Ġdelight":5062,"ĠJud":5063,"EE":5064,"ĠGet":5065,"hia":5066,"Ġlawyer":5067,"Ġcamera":5068,"Ġflight":5069,"imp":5070,"ĠConf":5071,"Ġonto":5072,"Ġresour":5073,"Ġinstit":5074,"Ġzero":5075,"Ġseconds":5076,"Ġcontribut":5077,"Ġreligious":5078,"Ġtaste":5079,"Ġimage":5080,"Ġtransport":5081,"Ġcontent":5082,"80":5083,"Ġscream":5084,"aughed":5085,"Ġears":5086,"Ġappointed":5087,"uman":5088,"Ind":5089,"Ġcontr":5090,"ĠFar":5091,"Ġmotor":5092,"Ġsuc":5093,"Ġflying":5094,"CT":5095,"pre":5096,"ĠBig":5097,"Ġinfluence":5098,"iger":5099,"ali":5100,"ctions":5101,"ĠRev":5102,"ĠIsrael":5103,"Ġninet":5104,"Ġappreci":5105,"Ġsurprised":5106,"Ġbother":5107,"Ġproduce":5108,"elcome":5109,"ĠHam":5110,"Ġtechnology":5111,"Ġintroduced":5112,"Isn":5113,"Ġcandid":5114,"Ġkick":5115,"Ġlock":5116,"Ġroof":5117,"Ġpulled":5118,"\"?":5119,"some":5120,"osen":5121,"lig":5122,"RI":5123,"Ġdivision":5124,"ĠMaj":5125,"Ġconcerned":5126,"iance":5127,"ĠKar":5128,"comm":5129,"Ġpattern":5130,"elly":5131,"Bet":5132,"Ġkeeping":5133,"Ġbuildings":5134,"Ġlibr":5135,"Ġindependent":5136,"Ġsouthern":5137,"Help":5138,"Ġwet":5139,"ĠNat":5140,"Ġsucceed":5141,"Ġeasier":5142,"Nice":5143,"aded":5144,"arently":5145,"Ġepisode":5146,"km":5147,"arry":5148,"ĠDen":5149,"ura":5150,"Ġdestroyed":5151,"ĠWI":5152,"Ġlanguages":5153,"Ġprepared":5154,"27":5155,"Cos":5156,"resp":5157,"Ġ1995":5158,"ĠLady":5159,"inois":5160,"Ġloud":5161,"agon":5162,"Ġopinion":5163,"Ġasleep":5164,"Most":5165,"ĠMill":5166,"ĠCenter":5167,"nces":5168,"Ag":5169,"your":5170,"ĠMel":5171,"place":5172,"Ġadop":5173,"Ġ1994":5174,"ĠCompany":5175,"Ġdrunk":5176,"Ġcrying":5177,"Ġpit":5178,"Ġmeas":5179,"Remember":5180,"rig":5181,"Ġlistening":5182,"Ġbomb":5183,"ani":5184,"idents":5185,"part":5186,"col":5187,"Fine":5188,"Ġrecently":5189,"Ġsports":5190,"Ġremem":5191,"him":5192,"Ġdemon":5193,"Ġexperien":5194,"Ġquality":5195,"ĠGovernment":5196,"ushing":5197,"Ġpalace":5198,"Ġanal":5199,"ĠAngeles":5200,"ĠDa":5201,"Ġscar":5202,"Ġpil":5203,"Ġinsp":5204,"Ġplat":5205,"Over":5206,"owed":5207,"ĠFlorida":5208,"sed":5209,"Ġteaching":5210,"uals":5211,"ĠDis":5212,"Ġlaughing":5213,"Ġcart":5214,"About":5215,"Ġlaughed":5216,"Ġactual":5217,"During":5218,"Ear":5219,"Ġleague":5220,"Ġveh":5221,"ĠChief":5222,"Ġodd":5223,"ella":5224,"Ġcloud":5225,"onds":5226,"ender":5227,"Ha":5228,"Mic":5229,"ĠLake":5230,"ĠBecause":5231,"Ġmetal":5232,"Ġjourney":5233,"Ġgrant":5234,"Ġswear":5235,"Ġ60":5236,"ĠTheir":5237,"utenant":5238,"abeth":5239,"orter":5240,"ĠMer":5241,"aud":5242,"Ok":5243,"Ġdying":5244,"kend":5245,"ennis":5246,"Ph":5247,"rick":5248,"wing":5249,"Ġworst":5250,"Ġthrew":5251,"ĠBest":5252,"Ġmagic":5253,"Ġfavour":5254,"add":5255,"Ġmanaged":5256,"Ġmainly":5257,"azz":5258,"Ġrecords":5259,"Ġmaid":5260,"tering":5261,"Nobody":5262,"Ġknock":5263,"Ġtrial":5264,"ardon":5265,"ĠRay":5266,"Ġfixed":5267,"Ġsleeping":5268,"Ġappears":5269,"quar":5270,"Ġpossibly":5271,"atre":5272,"ĠUK":5273,"ropical":5274,"ĠServ":5275,"Ġdreams":5276,"De":5277,"Ġpound":5278,"Ġsteps":5279,"Ġsequ":5280,"achel":5281,"ym":5282,"alright":5283,"Ġplanning":5284,"uries":5285,"Ġpure":5286,"Ġresist":5287,"Ġadvant":5288,"Ġwatched":5289,"ĠSaint":5290,"ĠGovernor":5291,"two":5292,"ooper":5293,"ĠWomen":5294,"oured":5295,"ĠDutch":5296,"Ġstream":5297,"eare":5298,"ĠDick":5299,"Ġusual":5300,"icide":5301,"aving":5302,"oles":5303,"jo":5304,"ANT":5305,"ĠDepartment":5306,"Ġawful":5307,"App":5308,"Ġscore":5309,"Ġshowing":5310,"cellent":5311,"Ġdrew":5312,"ĠBu":5313,"Ġprovided":5314,"Ġplain":5315,"vis":5316,"Ġ1992":5317,"Ne":5318,"onse":5319,"Ġhadn":5320,"Ġlaws":5321,"Ġdamage":5322,"ĠSl":5323,"hell":5324,"Ġfashion":5325,"ĠBritain":5326,"ua":5327,"Today":5328,"Ġbuck":5329,"bel":5330,"Ġpartner":5331,"American":5332,"ctors":5333,"ĠHaw":5334,"Ġ1997":5335,"ĠCast":5336,"Ġburied":5337,"urance":5338,"Ġgir":5339,"Ġends":5340,"ĠOther":5341,"ĠFOR":5342,"Ġcoat":5343,"Ġknowing":5344,"Ġcircum":5345,"enced":5346,"itzer":5347,"ĠSil":5348,"alent":5349,"iously":5350,"mother":5351,"ĠEmpire":5352,"Ġmanner":5353,"Ġgro":5354,"Â¶":5355,"ĠWal":5356,"Ġgrave":5357,"Ġstayed":5358,"cles":5359,"Ġfeels":5360,"Ġyounger":5361,"Ġnuc":5362,"Ġspoken":5363,"ĠYoung":5364,"rier":5365,"Ġeverywhere":5366,"Ġexpression":5367,"Ġofficers":5368,"ĠRE":5369,"Ġfeelings":5370,"Ġappearance":5371,"Ġinha":5372,"Ġconstruction":5373,"aura":5374,"owing":5375,"Ġowned":5376,"Ġfingers":5377,"yo":5378,"Ġremains":5379,"Ġconversation":5380,"Ġwalls":5381,"Ġast":5382,"Ġdom":5383,"Ġstudies":5384,"Ġgift":5385,"Ġmagazine":5386,"ocol":5387,"Ġassum":5388,"rance":5389,"Ġnoticed":5390,"Ġdrag":5391,"Ġpocket":5392,"ja":5393,"Ġrequired":5394,"Ġmel":5395,"orough":5396,"ĠRad":5397,"oving":5398,"Ġexpress":5399,"imum":5400,"ĠClub":5401,"Ġanx":5402,"ĠDev":5403,"heast":5404,"hey":5405,"Ġeconomic":5406,"ĠGeorg":5407,"26":5408,"Make":5409,"Ġprem":5410,"Ġsmoke":5411,"ogether":5412,"Ġrat":5413,"Ġtong":5414,"Ġlocation":5415,"OH":5416,"Ġstock":5417,"ĠStan":5418,"Ġdirty":5419,"Ġbutter":5420,"Ġ1993":5421,"Ġsect":5422,"Ġalt":5423,"Ġreact":5424,"Ġduck":5425,"Ġupset":5426,"Ġtroops":5427,"Ġchamp":5428,"lyn":5429,"ĠAh":5430,"ĠSummer":5431,"ĠAng":5432,"ios":5433,"lying":5434,"Ġce":5435,"Ġcous":5436,"utions":5437,"ĠIllinois":5438,"OP":5439,"ĠMur":5440,"Ġguns":5441,"Ġpapers":5442,"Ġloves":5443,"leg":5444,"Ġoccasion":5445,"ties":5446,"Ġwinning":5447,"AVE":5448,"Sometimes":5449,"ko":5450,"Ġscrew":5451,"Ġrequire":5452,"orial":5453,"Ġlosing":5454,"ĠPak":5455,"Ġprefer":5456,"ournament":5457,"OS":5458,"Ġrequest":5459,"pa":5460,"Ġstret":5461,"Ġdrama":5462,"Ġcollection":5463,"Ġreality":5464,"Ġopposite":5465,"ĠStud":5466,"NOW":5467,"Another":5468,"ĠWE":5469,"ĠThan":5470,"ĠParliament":5471,"Ġsem":5472,"Ġoperation":5473,"Ġreligion":5474,"Leave":5475,"ĠRog":5476,"Ġwheel":5477,"Ġrestaur":5478,"ĠIreland":5479,"sembly":5480,"ĠAunt":5481,"Shut":5482,"IE":5483,"Ġthee":5484,"ĠAmericans":5485,"ingu":5486,"ĠTim":5487,"Ġminor":5488,"More":5489,"ĠHa":5490,"Ġbye":5491,"Ġautom":5492,"aring":5493,"cel":5494,"Ġimprove":5495,"Think":5496,"foot":5497,"Ġunits":5498,"ĠKent":5499,"ĠGames":5500,"ĠHon":5501,"Ġbottle":5502,"Ġprogress":5503,"Ġcake":5504,"Ġencour":5505,"Ġfile":5506,"lict":5507,"Ġdepart":5508,"Ġcompleted":5509,"ands":5510,"Ġscr":5511,"Ġfinding":5512,"Ġcells":5513,"Ġinnoc":5514,"ĠVer":5515,"iest":5516,"Ġtrick":5517,"Ġmusical":5518,"Ġintellig":5519,"enny":5520,"ĠMajor":5521,"Ġdriver":5522,"Actually":5523,"ĠBa":5524,"ulty":5525,"Ġrelative":5526,"Ġsli":5527,"ĠPan":5528,"ĠGre":5529,"Ġgall":5530,"Stay":5531,"Ġexcuse":5532,"ĠMass":5533,"ĠCamp":5534,"Ġtreatment":5535,"Ġprec":5536,"Ġfavorite":5537,"Ġtraditional":5538,"ĠLook":5539,"Ġability":5540,"Ġraise":5541,"Ġhelping":5542,"ĠPrime":5543,"keep":5544,"Ġeffort":5545,"ĠSqu":5546,"oking":5547,"ĠJane":5548,"Ġfought":5549,"Ġhumans":5550,"Ġjoke":5551,"ĠBas":5552,"Everyone":5553,"Anyway":5554,"ching":5555,"ĠRail":5556,"Ġexerc":5557,"Ġmo":5558,"ĠDivision":5559,"arian":5560,"...?":5561,"Ġmicro":5562,"ois":5563,"uit":5564,"Ġjack":5565,"Ġgiant":5566,"owa":5567,"Ġdrugs":5568,"Ġ1991":5569,"ĠGar":5570,"asty":5571,"Äģ":5572,"enc":5573,"Ġmatches":5574,"ĠScotland":5575,"Ġthousands":5576,"Ġweekend":5577,"emic":5578,"onder":5579,"Ġfan":5580,"Ġbasis":5581,"Ġthoughts":5582,"Ġadvice":5583,"Ġphilosop":5584,"Ġtiny":5585,"stitution":5586,"ĠCle":5587,"Ġflag":5588,"ĠAnn":5589,"ĠEvery":5590,"Next":5591,"Ġgate":5592,"Ġstruck":5593,"Ġfro":5594,"ira":5595,"Ġbast":5596,"aning":5597,"Ġwebs":5598,"apa":5599,"Ġguitar":5600,"bet":5601,"Ġlights":5602,"ila":5603,"ĠRight":5604,"28":5605,"rain":5606,"Ġstatement":5607,"Ġaffect":5608,"Ġflower":5609,"Cause":5610,"ĠSus":5611,"Ġchemical":5612,"igg":5613,"Ġuseful":5614,"Ġtim":5615,"acle":5616,"Didn":5617,"Ġwestern":5618,"about":5619,"Ġjobs":5620,"UST":5621,"aval":5622,"ĠPrincess":5623,"obile":5624,"fall":5625,"stead":5626,"Ġships":5627,"70":5628,"iven":5629,"Ġaltern":5630,"ĠGroup":5631,"Ġ185":5632,"Ġforgotten":5633,"Ġmatters":5634,"ji":5635,"Ġsin":5636,"uted":5637,"ĠOff":5638,"water":5639,"Ġnerv":5640,"Ġsafety":5641,"ufact":5642,"Ġtun":5643,"ĠGe":5644,"ĠCons":5645,"eral":5646,"stra":5647,"ache":5648,"Ġetc":5649,"While":5650,"Ġthy":5651,"El":5652,"Ġye":5653,"ĠCam":5654,"thur":5655,"Ġcloser":5656,"Ġattend":5657,"egr":5658,"Ġflo":5659,"Ġsword":5660,"ĠMusic":5661,"ano":5662,"ĠBell":5663,"aimed":5664,"Ġfreedom":5665,"abb":5666,"29":5667,"ĠCarl":5668,"GE":5669,"mond":5670,"lfriend":5671,"igan":5672,"ĠOlympics":5673,"while":5674,"Ġbodies":5675,"ĠSaturday":5676,"RA":5677,"Ġeffects":5678,"Ġawarded":5679,"ĠDire":5680,"Ġninety":5681,"Ġfal":5682,"ĠDoctor":5683,"Damn":5684,"Sm":5685,"ĠHel":5686,"Ġreceive":5687,"ias":5688,"ĠHot":5689,"Ġpresence":5690,"Ġmotion":5691,"iliar":5692,"Call":5693,"Ġfocus":5694,"Ġsplit":5695,"RY":5696,"Ġrise":5697,"ĠRose":5698,"Ġdeclared":5699,"ador":5700,"ĠLatin":5701,"ĠMike":5702,"Ġgentleman":5703,"However":5704,"Ġaccepted":5705,"Many":5706,"Ġgolden":5707,"Ġexchan":5708,"ĠMax":5709,"Ġnative":5710,"stances":5711,"olved":5712,"load":5713,"Ġminister":5714,"Ġearn":5715,"Ġbringing":5716,"ĠDemocratic":5717,"Ġselected":5718,"Ġlect":5719,"Ġthin":5720,"MAN":5721,"ĠWind":5722,"gor":5723,"erman":5724,"Ġbare":5725,"Ġtemperature":5726,"abbit":5727,"Ġdressed":5728,"45":5729,"ads":5730,"ĠInstitute":5731,"Ġtears":5732,"Ġfinancial":5733,"Ġgri":5734,"ilty":5735,"oops":5736,"ailed":5737,"Ġhearing":5738,"Ġcredit":5739,"ĠFoot":5740,"Ġborder":5741,"Ġsignal":5742,"Ġresponse":5743,"ĠKim":5744,"Ġgraph":5745,"ĠJoseph":5746,"Ġcash":5747,"Ġdarling":5748,"Ġcream":5749,"ĠMajesty":5750,"Ġweapons":5751,"Everybody":5752,"Ġentirely":5753,"Ġrecomm":5754,"Ġafford":5755,"ĠCommittee":5756,"Ġbroadcast":5757,"Ġsail":5758,"Ġmate":5759,"Ġrecent":5760,"Out":5761,"Ġmort":5762,"aming":5763,"Ġworkers":5764,"Ġcontains":5765,"Ġnewspaper":5766,"ĠWhile":5767,"zer":5768,"ective":5769,"Ġdivor":5770,"Ġlips":5771,"rd":5772,"icient":5773,"wan":5774,"urse":5775,".)":5776,"bury":5777,"Ġ1989":5778,"Ġexcited":5779,"Ġchicken":5780,"Ġfired":5781,"hamber":5782,"arring":5783,"Ġfifteen":5784,"uous":5785,"iminal":5786,"Ġauthority":5787,"Ġsilence":5788,"ĠLove":5789,"Ġ1950":5790,"Someone":5791,"Ġperfectly":5792,"Ġhyd":5793,"car":5794,"Ġboo":5795,"Ġfalling":5796,"Ġexperiment":5797,"vin":5798,"Ġcastle":5799,"pret":5800,"ervation":5801,"Ġbillion":5802,"Ġlic":5803,"Whatever":5804,"Christ":5805,"Ġsignificant":5806,"ysis":5807,"isa":5808,"Ġfaster":5809,"ĠIm":5810,"Ġmanagement":5811,"elling":5812,"Ġaim":5813,"Ġdesire":5814,"Ġactivity":5815,"ĠIran":5816,"rible":5817,"sell":5818,"35":5819,"thank":5820,"Ġrow":5821,"Ġstreets":5822,"Tw":5823,"ĠHol":5824,"ĠFer":5825,"och":5826,"Ġsugar":5827,"vention":5828,"Ġmajority":5829,"Ġdrawing":5830,"ulated":5831,"Ġapproach":5832,"ĠSince":5833,"Ġcomment":5834,"Ġboot":5835,"Ġlabor":5836,"chant":5837,"Ġcarefully":5838,"Ġdrinking":5839,"inet":5840,"aria":5841,"Ġvari":5842,".]":5843,"Ġfruit":5844,"Ġconnected":5845,"ĠSociety":5846,"Ġsolution":5847,"Ġnineteen":5848,"BE":5849,"ĠEdward":5850,"Ġpool":5851,"cont":5852,"Ġsixty":5853,"Ġbeach":5854,"rant":5855,"pet":5856,"venue":5857,"Ġpainting":5858,"Ġsuck":5859,"ĠSecretary":5860,"Ġconcent":5861,"stant":5862,"Ġpin":5863,"Ġqueen":5864,"ĠOs":5865,"Ġmedicine":5866,"PE":5867,"Ġrent":5868,"ĠTw":5869,"ipped":5870,"Ġdiam":5871,"Ġarrange":5872,"ĠProfessor":5873,"ĠDou":5874,"odd":5875,"Ġelement":5876,"Ġkeeps":5877,"Ġsettled":5878,"Ġremoved":5879,"Ġunderstood":5880,"Ġah":5881,"Ġfant":5882,"eer":5883,"ĠFre":5884,"._":5885,"La":5886,"Ġupper":5887,"ĠSee":5888,"Ġkidding":5889,"ummy":5890,"Ġplanned":5891,"Ġtough":5892,"Ġfully":5893,"Ġpotential":5894,"Ġlake":5895,"Ġsharp":5896,"erves":5897,"ulate":5898,"acter":5899,"Ġbranch":5900,"izabeth":5901,"OL":5902,"zy":5903,"ĠYear":5904,"Ġcomedy":5905,"ĠPlay":5906,"Ġincreased":5907,"Ġbasic":5908,"Ġbeside":5909,"Ġadvent":5910,"ĠTrans":5911,"Jack":5912,"Ġlord":5913,"ONE":5914,"Ġhabit":5915,"Should":5916,"ĠBilly":5917,"Ġprimary":5918,"Ġscored":5919,"Ġnumer":5920,"spect":5921,"Cap":5922,"eman":5923,"Ġotherwise":5924,"Ġterror":5925,"Ġmixed":5926,"Ġdefend":5927,"Ġhighly":5928,"Ġprograms":5929,"Ġmap":5930,"Ġdim":5931,"198":5932,"Ġaudience":5933,"Ġfederal":5934,"Ġroy":5935,"Ġapartment":5936,"Ġchat":5937,"Ġsexual":5938,"wers":5939,"Ġjail":5940,"ĠRos":5941,"Welcome":5942,"pal":5943,"Ġfigures":5944,"ĠWAS":5945,"ĠJackson":5946,"Ġgoals":5947,"Whoa":5948,"illed":5949,"ĠHello":5950,"lar":5951,"vest":5952,"Hmm":5953,"Ġmountains":5954,"Ġpregn":5955,"Ġprior":5956,"Ġroles":5957,"Ġdu":5958,"Ġvictory":5959,"Ġpleased":5960,"obal":5961,"Ġconsum":5962,"Ġstatus":5963,"Ġforgive":5964,"ports":5965,"inger":5966,"AH":5967,"nam":5968,"ĠMuseum":5969,"Ġkingdom":5970,"ĠStar":5971,"Ġpassing":5972,"Ġcomfortable":5973,"Ġtor":5974,"hetic":5975,"Ġfailure":5976,"ĠPac":5977,"uckles":5978,"Ġpaying":5979,"Ġfifth":5980,"worth":5981,"elled":5982,"Ġgrab":5983,"appy":5984,"Ġsuggested":5985,"orse":5986,"osaur":5987,"Ġarrested":5988,"Ġchanging":5989,"Ġdefeated":5990,"porary":5991,"37":5992,"ivity":5993,"Ġeighty":5994,"Ġrapid":5995,"KE":5996,"Ġ(;":5997,"Ġrailway":5998,"adium":5999,"oston":6000,"Ġproceed":6001,"unny":6002,"...\"":6003,"Ġagent":6004,"Ġinvited":6005,"Love":6006,"Ġfaces":6007,"Ġmuseum":6008,"ropri":6009,"Ġtap":6010,"ĠNorthern":6011,"want":6012,"wa":6013,"Ġchosen":6014,"Ġelements":6015,"Ġnervous":6016,"Ġhiding":6017,"has":6018,"itzerland":6019,"Ġknife":6020,"ĠGirl":6021,"Ġstrike":6022,"ĠSweden":6023,"gment":6024,"amily":6025,"Ġproducer":6026,"ĠJewish":6027,"Ġ1988":6028,"Ġapolog":6029,"Ġrepresented":6030,"Ġchannel":6031,"Ġcircle":6032,"ĠLy":6033,"inda":6034,"Ġavoid":6035,"Ġextremely":6036,"Ġpossess":6037,"Ġgrowth":6038,"Ġdancing":6039,"Ġcontroll":6040,"Ġprofessor":6041,"stein":6042,"Ġgirlfriend":6043,"Ġpra":6044,"Ġ80":6045,"Ġdomin":6046,"essel":6047,"ishment":6048,"Ġeh":6049,"Ġmanufact":6050,"duc":6051,"Ste":6052,"Ġwid":6053,"Ġchest":6054,"Ġactivities":6055,"Ġschol":6056,"Ġlibrary":6057,"Ġwindows":6058,"Try":6059,"ĠFriday":6060,"Ġwash":6061,"Ġplenty":6062,"Ġwealth":6063,"\").":6064,"gency":6065,"Ġsomehow":6066,"Ġdisplay":6067,"ked":6068,"ĠHarry":6069,"ici":6070,"Ġnotes":6071,"Ġroute":6072,"ĠPakistan":6073,"Back":6074,"Ġselling":6075,"Dan":6076,"ocal":6077,"were":6078,"Ġflew":6079,"riff":6080,"Ġult":6081,"des":6082,"Ġmax":6083,"izes":6084,"ĠAsia":6085,"Ġupstairs":6086,"zo":6087,"Ġsees":6088,"Ġpurcha":6089,"awa":6090,"say":6091,"Ġshooting":6092,"Ġadvantage":6093,"ĠZeal":6094,"Ġtongue":6095,",'":6096,"isation":6097,"Ġcolour":6098,"Ġcompos":6099,"ubb":6100,"Ġbelief":6101,"Ġfields":6102,"Ġunderstanding":6103,"Ġmultiple":6104,"Ġbunch":6105,"ĠJean":6106,"Ġproducts":6107,"Ġsons":6108,"Ġunf":6109,"ĠColumb":6110,"Ġcarrying":6111,"Ġsoldier":6112,"Ġinstance":6113,"Ġsales":6114,"Ġaircraft":6115,"Ġguilty":6116,"Ġachieve":6117,"wide":6118,"Ġslightly":6119,"does":6120,"Ġcalcul":6121,"vior":6122,"Ġocean":6123,"ĠSouthern":6124,"Ġshr":6125,"onday":6126,"bably":6127,"ĠĠĠĠĠĠĠĠĠĠĠĠĠĠĠĠĠĠĠĠĠĠĠĠ":6128,"Ġshell":6129,"Ġowner":6130,"Ġpowers":6131,"ums":6132,"Ġconsist":6133,"Ġkil":6134,"Ġfilms":6135,"PS":6136,"Ġwha":6137,"happ":6138,"Ġtraffic":6139,"Ġded":6140,"Ġghost":6141,"Ġliber":6142,"Ġconscious":6143,"Ġresc":6144,"phant":6145,"Ġdoors":6146,"ĠMuslim":6147,"Ser":6148,"ĠDar":6149,"Ġhanging":6150,"Ġproof":6151,"Ġseriously":6152,"Ġpoison":6153,"NO":6154,"ĠMore":6155,"ĠCorn":6156,"ĠWay":6157,"Ġscale":6158,"iform":6159,"ĠPre":6160,"Ġsched":6161,"Ġdust":6162,"ĠBang":6163,"Ġ1987":6164,"Ġmathem":6165,"Ġnarrow":6166,"Ġentertain":6167,"Ġlatter":6168,"aughs":6169,"Ġconnection":6170,"Ġrevolution":6171,"Ġescap":6172,"ĠIowa":6173,"Ġtone":6174,"Ġcounter":6175,"Ġquant":6176,"Ġresources":6177,"ĠOk":6178,"ĠSwitzerland":6179,"Ġbrave":6180,"lection":6181,"ĠJac":6182,"ulture":6183,"):":6184,"ĠLong":6185,"Ġpink":6186,"ati":6187,"Ġfamiliar":6188,"ĠZealand":6189,"Ġcauses":6190,"Ġham":6191,"Ġexpensive":6192,"Hurry":6193,"ĠTer":6194,"Ġsupported":6195,"Ġrealized":6196,"Ġtask":6197,"Ġgang":6198,"ĠCharlie":6199,"Ġscientific":6200,"ĠUncle":6201,"Ġspect":6202,"Ġemp":6203,"Ġcitizens":6204,"Ġheav":6205,"ĠIrish":6206,"hin":6207,"ĠTy":6208,"Ġcant":6209,"icy":6210,"Ġplate":6211,"ĠMos":6212,"Ġ90":6213,"ĠLike":6214,"hole":6215,"ĠMY":6216,"Ġsupply":6217,"Ġrecording":6218,"Ġimpl":6219,"Ġbat":6220,"Ġchain":6221,"Ġeth":6222,"Ġunion":6223,"esh":6224,"Ġweapon":6225,"Move":6226,"Ġapprox":6227,"Ġemot":6228,"ĠCarolina":6229,"ĠThanks":6230,"Ġstring":6231,"Ġuniverse":6232,"Ġdetails":6233,"verse":6234,"weet":6235,"gery":6236,"ĠHan":6237,"ĠAmy":6238,"Ġcheer":6239,"ĠColonel":6240,"Ġremembered":6241,"sk":6242,"Ġdiss":6243,"amin":6244,"Ġblame":6245,"Ġcosts":6246,"Ġgather":6247,"ĠSH":6248,"ĠStep":6249,"Ġprepar":6250,"Ġlevels":6251,"',":6252,"UGH":6253,"Ġwave":6254,"Ġguest":6255,"eaking":6256,"Ġ1984":6257,"ĠChair":6258,"overy":6259,"ĠJohnson":6260,"acher":6261,"Ġincred":6262,"Ġwings":6263,"ĠAwards":6264,"amps":6265,"ĠLand":6266,"Still":6267,"Ġfairly":6268,"Shit":6269,"Ġtradition":6270,"ĠKe":6271,"ĠLight":6272,"Ġwondering":6273,"Ġshore":6274,"Ġsilent":6275,"ĠNE":6276,"36":6277,"Ġreck":6278,"urd":6279,"ordin":6280,"Ġ35":6281,"spec":6282,"Ġsport":6283,"Ġtransform":6284,"Ġrac":6285,"Ġlabel":6286,"Ġhidden":6287,"ĠIslam":6288,"after":6289,"Ġclasses":6290,"ĠWall":6291,"Ġoldest":6292,"47":6293,"39":6294,"roke":6295,"Ġshirt":6296,"onia":6297,"Ġseasons":6298,"Ġhyp":6299,"ĠJun":6300,"Ed":6301,"Watch":6302,"Î¿":6303,"ĠEll":6304,"Ġmental":6305,"Ġstaying":6306,"Ġate":6307,"Ġcommercial":6308,"Col":6309,"Ġspin":6310,"eping":6311,"owned":6312,"ĠUnder":6313,"Ġafterwards":6314,"Ġmole":6315,"ĠCommission":6316,"ĠOl":6317,"Ġ1979":6318,"Ġplatform":6319,"oto":6320,"Ġsheep":6321,"Ġvessel":6322,"Ġthroat":6323,"ĠAT":6324,"Ġresponsibility":6325,"Ġroyal":6326,"Ġdisappoint":6327,"Ġhook":6328,"acks":6329,"ĠValley":6330,"eau":6331,"Ġvirt":6332,"According":6333,"Ġpha":6334,"Ġadvert":6335,"ĠArch":6336,"Ġcapac":6337,"Ã±":6338,"APTER":6339,"CA":6340,"Ġcards":6341,"Ġbudget":6342,"Ġhello":6343,"ĠTri":6344,"Ġeastern":6345,"Ġsolid":6346,"Ġprincess":6347,"long":6348,"gie":6349,"ĠHy":6350,"IL":6351,"Ġ/":6352,"Ġlimited":6353,"Ġcousin":6354,"ava":6355,"icted":6356,"Ġ1981":6357,"Ġcolon":6358,"Ġfeature":6359,"Ġpresented":6360,"ras":6361,"Ġpill":6362,"Ġfinds":6363,"ĠLab":6364,"Ġaband":6365,"Ġbreaking":6366,"Ġtravell":6367,"Ġunivers":6368,"bey":6369,"them":6370,"Care":6371,"Ġwise":6372,"eding":6373,"Ġbrand":6374,"Aye":6375,"Ġ1972":6376,"Ġshoulder":6377,"Ġshame":6378,"Ġeconomy":6379,"38":6380,"Sit":6381,"standing":6382,"Ġtournament":6383,"ĠOut":6384,"Ġ1986":6385,"Ġattacked":6386,"Ġath":6387,"Ġchose":6388,"Ġrocks":6389,"Up":6390,"Ġdread":6391,"fortunately":6392,"ĠSel":6393,"Ġfolks":6394,"ĠMiddle":6395,"Ġ70":6396,"Ġ<":6397,"Ġtroub":6398,"rence":6399,"Ġartists":6400,"Ġparties":6401,"Ġ--&":6402,"Ġrefused":6403,"Ġwaited":6404,"ĠKorea":6405,"ĠKat":6406,"Ġcontain":6407,"unched":6408,"Ġpassion":6409,"Ġtowns":6410,"ĠProvince":6411,"Ġlat":6412,"Ġexpand":6413,"Has":6414,"Ġpoll":6415,"ĠTHIS":6416,"ĠSk":6417,"ĠRepublican":6418,"ĠRam":6419,"ript":6420,"thew":6421,"Ġmedal":6422,"Open":6423,"Ġhom":6424,"Ġrelax":6425,"Ġjustice":6426,"Ġintegr":6427,"Ġflu":6428,"Ġanti":6429,"ĠBre":6430,"Ġliqu":6431,"Ġstated":6432,"Ġcheese":6433,"197":6434,"ĠJeff":6435,"aren":6436,"ĠSol":6437,"Ġwire":6438,"Ġsuffered":6439,"Ġstations":6440,"urally":6441,"Ġoccurred":6442,"ova":6443,"Cha":6444,"Ġdetermined":6445,"Ġbatter":6446,"icket":6447,"quarters":6448,"ĠCO":6449,"Ġbegins":6450,"Ġchallenge":6451,"ĠWales":6452,"uns":6453,"ĠSur":6454,"Ġ1983":6455,"Ġeditor":6456,"Ġpolitics":6457,"49":6458,"ĠRod":6459,"ĠUN":6460,"enger":6461,"Ġdisappeared":6462,"iac":6463,"only":6464,"Ġblank":6465,"ĠFootball":6466,"isse":6467,"ĠCy":6468,"inson":6469,"Ġgeneration":6470,"esides":6471,"nic":6472,"entially":6473,"give":6474,"Ġtelephone":6475,"Ġvariety":6476,"Ġadmit":6477,"Ġgodd":6478,"Ġdrawn":6479,"stone":6480,"egal":6481,"Ġnormally":6482,"bow":6483,"Ġfalse":6484,"lem":6485,"ĠCommun":6486,"ares":6487,"ĠFort":6488,"Ġattended":6489,"Although":6490,"Ġhappiness":6491,"Ġridic":6492,"Sam":6493,"enes":6494,"Ġ1985":6495,"ĠYOUR":6496,"Ġtemple":6497,"Ġhelps":6498,"ario":6499,"Ġinnocent":6500,"erk":6501,"Under":6502,"met":6503,"angers":6504,"Ġcontinues":6505,"Ġprotection":6506,"lend":6507,"Ġeleven":6508,"Ġconflict":6509,"Ġ1982":6510,"iece":6511,"Ġunus":6512,"Ġfurn":6513,"ĠVal":6514,"Ġproposed":6515,"RB":6516,"Ġlocked":6517,"Ġlone":6518,"iments":6519,"dis":6520,"asts":6521,"agement":6522,"Ġhomes":6523,"Ġlegisl":6524,"Ġdaily":6525,"Ġvent":6526,"angle":6527,"Ġidiot":6528,"Ġexistence":6529,"ologist":6530,"Ġarticle":6531,"Ġbite":6532,"ĠInter":6533,"era":6534,"ĠEven":6535,"ups":6536,"sit":6537,"ĠBook":6538,"Ġcarbon":6539,"ĠSecond":6540,"Ġcateg":6541,"ronic":6542,"Ġdegrees":6543,"ague":6544,"Ġswitch":6545,"Ġtouched":6546,"ez":6547,"ĠUk":6548,"Ġax":6549,"Ġbrill":6550,"Ġbackground":6551,"Ġreferred":6552,"Sec":6553,"Ġnurs":6554,"alf":6555,"Ġonline":6556,"Ġclimate":6557,"ĠSand":6558,"Ġveget":6559,"Ġfold":6560,"Ġstands":6561,"ESS":6562,"Ġsubs":6563,"Ġsentence":6564,"ĠNick":6565,"Ġequip":6566,"Ġoperations":6567,"Ġhonour":6568,"48":6569,"ĠTony":6570,"cript":6571,"Ġinhabit":6572,"Ġrespond":6573,"Ġcoal":6574,"Mad":6575,"ĠLib":6576,"Bar":6577,"Ġtower":6578,"Ġimpact":6579,"ĠSenate":6580,"ront":6581,"ourse":6582,"Ġkiller":6583,"Ġconc":6584,"Ġflood":6585,"Looks":6586,"Club":6587,"Ġpa":6588,"Early":6589,"ĠNaz":6590,"Ġtreated":6591,"Ġincreasing":6592,"Ġpleasant":6593,"ĠTre":6594,"Ġsuicide":6595,"Ġbutton":6596,"Ġvision":6597,"Ġwrit":6598,"Jesus":6599,"rical":6600,"ela":6601,"ĠFour":6602,"Ġunknown":6603,"Ġjoint":6604,"Ġcriminal":6605,"Ġcommittee":6606,"bec":6607,"ĠDi":6608,"Ġdyn":6609,"Ġheight":6610,"Ġpiano":6611,"Ġcig":6612,"ading":6613,"Ġsetting":6614,"500":6615,"Gl":6616,"Ġorange":6617,"dad":6618,"Ġestablish":6619,"Peter":6620,"Ġloose":6621,"Mother":6622,"istor":6623,"ĠâĢĶ":6624,"ĠIII":6625,"Ġassociated":6626,"cest":6627,"raham":6628,"eps":6629,"Ġobjects":6630,"coh":6631,"Ġtied":6632,"ception":6633,"ĠShi":6634,"Des":6635,"ito":6636,"Ġaspect":6637,"Ġvalues":6638,"Ġcas":6639,"geant":6640,"bridge":6641,"gle":6642,"Ġfancy":6643,"Ġsymbol":6644,"Ġterritory":6645,"ĠThree":6646,"Ġfallen":6647,"ĠBoston":6648,"Paul":6649,"orpor":6650,"ĠTra":6651,"uls":6652,"Ġhundreds":6653,"ĠForce":6654,"Turn":6655,"Ġquit":6656,"Ġengaged":6657,"Ġrecognized":6658,"ece":6659,"Ġframe":6660,"Ġ1976":6661,"\"),":6662,"Jo":6663,"Ġhorn":6664,"**":6665,"Ġpreviously":6666,"Ġcute":6667,"idae":6668,"Ġincome":6669,"33":6670,"Ġseek":6671,"Ġfollows":6672,"OULD":6673,"hio":6674,"Ġinstrument":6675,"iat":6676,"Ġ500":6677,"ĠKansas":6678,"ĠKNOW":6679,"Ġsevere":6680,"eneath":6681,"inent":6682,"Ġjuice":6683,"gly":6684,"Ġhunting":6685,"Ġ1978":6686,"Ġviolence":6687,"Ġneighbour":6688,"Ġconsequ":6689,"ĠAS":6690,"Ġboyfriend":6691,"Again":6692,"Ġclock":6693,"ĠLater":6694,"Fl":6695,"Ġtruly":6696,"IA":6697,"ĠSa":6698,"sex":6699,"Ġhoping":6700,"Ġsacrif":6701,"Ġappreciate":6702,"bar":6703,"Ġbra":6704,"Ġdiscover":6705,"Ġcott":6706,"Ġrooms":6707,"should":6708,"nat":6709,"Ġserving":6710,"Ge":6711,"Father":6712,"Ġtie":6713,"Ġsisters":6714,"Ġbenefit":6715,"ntil":6716,"uce":6717,"ĠKong":6718,"ĠPortug":6719,"omer":6720,"Ġdrove":6721,"Ġclient":6722,"Ġhandsome":6723,"chester":6724,"Ġfeatured":6725,"Ġmyst":6726,"Ġcommission":6727,"ĠAss":6728,"Ġpriest":6729,"shall":6730,"rich":6731,"ompl":6732,"ĠHave":6733,"ĠLife":6734,"Ġtur":6735,"ĠJones":6736,"Ġsuffering":6737,"Ġargument":6738,"five":6739,"itty":6740,"ricane":6741,"ĠNorm":6742,"ĠJohnny":6743,"Ġshadow":6744,"Ġsenior":6745,"unte":6746,"ĠNOT":6747,"Ġbeer":6748,"ounding":6749,"Ġho":6750,"ĠAccording":6751,"ĠMu":6752,"ĠVen":6753,"okes":6754,"Ġmaintain":6755,"ĠMen":6756,"ĠTay":6757,"osphere":6758,"90":6759,"Ġconduct":6760,"Ġapple":6761,"Ġaunt":6762,"bu":6763,"vy":6764,"ĠGal":6765,"ĠJimmy":6766,"ACK":6767,"ĠUp":6768,"Ġordinary":6769,"ĠDor":6770,"Little":6771,"Ġcompared":6772,"Ġclever":6773,"ĠEmperor":6774,"Fran":6775,"Ġestim":6776,"Ġlit":6777,"Ġshock":6778,"aka":6779,"pered":6780,"point":6781,"Ġwo":6782,"force":6783,"Ġappeal":6784,"Ġrecognize":6785,"rad":6786,"lla":6787,"sect":6788,"Ġdistinct":6789,"Last":6790,"Ġborrow":6791,"iro":6792,"ĠMem":6793,"ustration":6794,"emies":6795,"Ġsurvive":6796,"Ġfate":6797,"Ġmail":6798,"real":6799,"andom":6800,"ĠEastern":6801,"ĠSocial":6802,"Ġrepeated":6803,"Ġgain":6804,"Ġproperly":6805,"Ġ1974":6806,"Bill":6807,"Ġdescend":6808,"Ġbehavior":6809,"lev":6810,"ements":6811,"Ġ1973":6812,"Ġadministr":6813,"Ġinqu":6814,"olk":6815,"Ġcourage":6816,"Ġlin":6817,"ĠChris":6818,"ĠRecords":6819,"iser":6820,"ĠLiber":6821,"Ġlimit":6822,"Ġpale":6823,"Ġhast":6824,"Ġdeliver":6825,"Ġrestaurant":6826,"IV":6827,"--\"":6828,"Four":6829,"Ġok":6830,"also":6831,"Ġcheap":6832,"writer":6833,"ĠShow":6834,"TV":6835,"ealous":6836,"sure":6837,"Ġoverall":6838,"IST":6839,"Ġearned":6840,"196":6841,"Ġcreature":6842,"ieutenant":6843,"arrass":6844,"ĠJersey":6845,"46":6846,"ĠAlan":6847,"sters":6848,"Ġrum":6849,"Ġcontest":6850,"venge":6851,"Ġwebsite":6852,"usted":6853,"aire":6854,"Ġunique":6855,"ĠHind":6856,"ĠSon":6857,"Ġexcellent":6858,"Ġapparently":6859,"ocolate":6860,"100":6861,"Su":6862,"Ġnoted":6863,"isy":6864,"ĠCa":6865,"hmm":6866,"Ġagreement":6867,"Ġbatt":6868,"Ġburning":6869,"Ġindividuals":6870,"Ġequipment":6871,"iration":6872,"ĠTime":6873,"alm":6874,"ĠFestival":6875,"ĠPhilipp":6876,"Ma":6877,"ĠHAVE":6878,"gend":6879,"Ġsigns":6880,"Ġreports":6881,"wich":6882,"Ġpushed":6883,"ĠConn":6884,"box":6885,"Ġconsult":6886,"Ġconvin":6887,"cr":6888,"anks":6889,"achus":6890,"Ġchampion":6891,"Ġcircumstances":6892,"Ġholds":6893,"AB":6894,"ropol":6895,"imal":6896,"Ġsomewhat":6897,"Big":6898,"ĠChild":6899,"ĠRon":6900,"aki":6901,"Ġpartners":6902,"Ġexact":6903,"ĠTele":6904,"Ġcommitted":6905,"Åį":6906,"otic":6907,"heim":6908,"ERS":6909,"Ġofficially":6910,"Ġgoodness":6911,"Ġconstant":6912,"case":6913,"ĠHu":6914,"Ġbrings":6915,"Ġpatients":6916,"ĠHome":6917,"ĠFair":6918,"Ġobvious":6919,"Ġgovernor":6920,"ĠMonday":6921,"ĠBank":6922,"izations":6923,"Ġbuddy":6924,"Ġbastard":6925,"conscious":6926,"Ġdism":6927,"Ġlisted":6928,"arant":6929,"etch":6930,"eaks":6931,"Ġrot":6932,"Ġsoftware":6933,"atherine":6934,"ĠVan":6935,"Ġ45":6936,"Ġnuclear":6937,"ducation":6938,"unting":6939,"ĠJr":6940,"Ġow":6941,"Ġmulti":6942,"ĠBelg":6943,"mo":6944,"Sim":6945,"UL":6946,"Ġreject":6947,"Ġintended":6948,"Their":6949,"olt":6950,"Ġimportance":6951,"Ġconference":6952,"Ġ1969":6953,"works":6954,"Ġexplained":6955,"ĠAlthough":6956,"Ġpretend":6957,"Ġcris":6958,"ĠSteve":6959,"Ġmeal":6960,"ĠAsian":6961,"Ġadditional":6962,"Ġbabies":6963,"ĠOx":6964,"Ġmoves":6965,"Ġtrail":6966,"ĠHoly":6967,"ĠMaria":6968,"ometimes":6969,"ooh":6970,"Ġadvance":6971,"Ġ1968":6972,"Ã´":6973,"oof":6974,"ĠBus":6975,"Ġ1975":6976,"Ġexchange":6977,"iral":6978,"ĠMod":6979,"Ġlaunched":6980,"Ġ01":6981,"Ġdesk":6982,"Ġslept":6983,"Ġwoods":6984,"ieve":6985,"Ġeaten":6986,"looking":6987,"ĠBlue":6988,"Ġdepends":6989,"Ġwithd":6990,"Ġnominated":6991,"life":6992,"Ġconcert":6993,"opp":6994,"Ġassistant":6995,"ĠService":6996,"ĠFe":6997,"Ġperman":6998,"based":6999,"Ġweb":7000,"Ġ1971":7001,"ĠDet":7002,"Ġroot":7003,"Ġstom":7004,"ĠElizabeth":7005,"Ġwrest":7006,"Ġkeys":7007,"Pres":7008,"Ġstole":7009,"Ġsolve":7010,"bell":7011,"Ġnut":7012,"etts":7013,"aze":7014,"lers":7015,"Ġsubt":7016,"incol":7017,"Ġscript":7018,"Ġ1977":7019,"inking":7020,"Ġcommit":7021,"Ġbang":7022,"Ġdarkness":7023,"Ġhorrible":7024,"ĠBern":7025,"ĠTem":7026,"ĠNavy":7027,"Ġshel":7028,"ĠGeorgia":7029,"otal":7030,"Ġclaimed":7031,"Ġteachers":7032,"Ġhistorical":7033,"ĠBrother":7034,"Ġgoods":7035,"mpat":7036,"mom":7037,"ĠHea":7038,"David":7039,"ĠRom":7040,"ĠAtlantic":7041,"Both":7042,"Ġarrang":7043,"ĠMarg":7044,"ĠMich":7045,"ĠAndrew":7046,"Ġ1930":7047,"Ġcommonly":7048,"HL":7049,"Ġswimming":7050,"Ġneighborhood":7051,"bly":7052,"01":7053,"evin":7054,"sur":7055,"Ġreaction":7056,"ĠCivil":7057,"Ã©e":7058,"Ġdescribe":7059,"ĠTurk":7060,"asm":7061,"Ġowe":7062,"Ġatm":7063,"Ġactions":7064,"Ġclosely":7065,"ĠPacific":7066,"ĠBon":7067,"aws":7068,"Ġwinner":7069,"Ġbedroom":7070,"ĠDef":7071,"ART":7072,"Ġtracks":7073,"Ġaccomp":7074,"Ġsav":7075,"ĠIntern":7076,"Ġsym":7077,"BS":7078,"Ġelephant":7079,"Ġcompeted":7080,"Pre":7081,"inity":7082,"asp":7083,"Ġprime":7084,"itable":7085,"Ġfriendly":7086,"estic":7087,"know":7088,"Ġphotograph":7089,"ĠPL":7090,"olen":7091,"Ġmyth":7092,"Ġsitu":7093,"Ġ1940":7094,"ĠBerlin":7095,"UM":7096,"ĠHung":7097,"inging":7098,"Ġallows":7099,"Ġwished":7100,"ami":7101,"ĠBull":7102,"Ġdefin":7103,"Ã§":7104,"unts":7105,"Ġancest":7106,"ĠTa":7107,"Ġrang":7108,"Ġexplos":7109,"omy":7110,"earch":7111,"Ġcorresp":7112,"ĠPrize":7113,"Pol":7114,"atics":7115,"Ġproved":7116,"hess":7117,"ĠFrancisco":7118,"OUT":7119,"Ġembarrass":7120,"Ġbasketball":7121,"Ġspite":7122,"Ġindustrial":7123,"achusetts":7124,"Fin":7125,"Ġholiday":7126,"Ġsettlement":7127,"Saint":7128,"ingly":7129,"Ġretire":7130,"Ġalcoh":7131,"Ġflow":7132,"Ġ1964":7133,"fish":7134,"obe":7135,"Ġcock":7136,"cos":7137,"Ġremaining":7138,"ĠLuc":7139,"Ġcorpor":7140,"Ġromantic":7141,"Ġdies":7142,"ĠGil":7143,"ĠHarr":7144,"Ġgotten":7145,"apping":7146,"Ġcurious":7147,"Ġâ":7148,"Ġsplend":7149,"erer":7150,"Ġdram":7151,"chestra":7152,"Ġfishing":7153,"Ġaside":7154,"Ġaccompl":7155,"Ġmarked":7156,"Ġbon":7157,"ĠArthur":7158,"Ġinsurance":7159,"Ġinvestigation":7160,"iley":7161,"Ġanalysis":7162,"ĠEv":7163,"Ġcomposed":7164,"Ġwing":7165,"Ġlift":7166,"Ġconqu":7167,"Ġspr":7168,"Ġridiculous":7169,"GR":7170,"Ġfrightened":7171,"comp":7172,"Ġpuzz":7173,"Ġbathroom":7174,"Ġmerely":7175,"sen":7176,"Ġvalley":7177,"Ġtender":7178,"34":7179,"ĠOpen":7180,"hamed":7181,"CHAPTER":7182,"ĠWITH":7183,"fle":7184,"Ġsteel":7185,"every":7186,"ĠNether":7187,"oti":7188,"Ġfalls":7189,"Geor":7190,"arn":7191,"child":7192,"Ġemergency":7193,"Ġdevil":7194,"burgh":7195,"Whe":7196,"Ġsoci":7197,"Ġdesper":7198,"Ġnearby":7199,"Ġgods":7200,"32":7201,"ĠPen":7202,"ropriate":7203,"ĠDun":7204,"Life":7205,"omi":7206,"Ġsending":7207,"Ã³n":7208,"Ġlonely":7209,"yard":7210,"Ġnurse":7211,"Ġbones":7212,"ĠOnly":7213,"Ġgal":7214,"ierce":7215,"than":7216,"Ġtools":7217,"ĠWater":7218,"Ġtort":7219,"31":7220,"ĠRaj":7221,"Ġexamples":7222,"Ġstronger":7223,"Ġmaterials":7224,"gues":7225,"ĠInt":7226,"ĠSant":7227,"Ġsets":7228,"Ġcritical":7229,"Ġprote":7230,"Ġapplication":7231,"ĠBoard":7232,"ĠDE":7233,"asked":7234,"ĠTok":7235,"Ġregret":7236,"Comm":7237,"take":7238,"Ġmonster":7239,"Ġwore":7240,"Ġbeneath":7241,"Ġreward":7242,"irmed":7243,"ĠBav":7244,"Ġdecor":7245,"Ġefforts":7246,"ĠBoth":7247,"ĠUh":7248,"Anything":7249,"aska":7250,"Five":7251,"otted":7252,"Ġcaptured":7253,"ĠAbout":7254,"ĠBea":7255,"Ġjun":7256,"onsense":7257,"NG":7258,"ouri":7259,"Ġhired":7260,"ĠCub":7261,"iques":7262,"Ġpregnant":7263,"ĠFilm":7264,"Ġacid":7265,"Ġestate":7266,"ĠCAN":7267,"ĠGall":7268,"ĠNob":7269,"ruce":7270,"outs":7271,",--":7272,"ĠBattle":7273,"Ġmethods":7274,"ogue":7275,"lot":7276,"Ġours":7277,"Ġshared":7278,"ordon":7279,"Ġpride":7280,"Ġsweetie":7281,"Ġprotest":7282,"Ġenemies":7283,"going":7284,"Ġairport":7285,"Shall":7286,"Ġexercise":7287,"Ġmile":7288,"Ġsurely":7289,"ĠKorean":7290,"Ġmood":7291,"Too":7292,"aya":7293,"Ġ1967":7294,"unning":7295,"ĠLeon":7296,"pass":7297,"ĠOver":7298,"Ġlands":7299,"Ġconcern":7300,"Ġstomach":7301,"reck":7302,"Ġuniform":7303,"Ġsalt":7304,"Ġdefeat":7305,"Ġ(,":7306,"Ġattacks":7307,"Ġcopies":7308,"Ġenjoyed":7309,"Ġtalent":7310,"Ġtoys":7311,"Ġshook":7312,"Ġapply":7313,"Ġliterature":7314,"ĠDirector":7315,"arah":7316,"ĠTimes":7317,"door":7318,"Ġadopted":7319,"encies":7320,"ti":7321,"ĠBible":7322,"osis":7323,"Ġugly":7324,"Ġnumerous":7325,"Ġbrilliant":7326,"Ġcolors":7327,"ĠNO":7328,"Captain":7329,"55":7330,"Ġsoil":7331,"chief":7332,"Ġbutt":7333,"Ġdealing":7334,"Ġinhabitants":7335,"wait":7336,"Ġsurgery":7337,"Ġphr":7338,"Ġsimpl":7339,"Ġapplied":7340,"ĠOffice":7341,"onent":7342,"Ġrug":7343,"Ġoblig":7344,"Ġauthorities":7345,"ĠAv":7346,"ateful":7347,"UCK":7348,"Ġskills":7349,"ĠBarb":7350,"ĠJon":7351,"Ġproced":7352,"ĠDav":7353,"pton":7354,"Ġsorts":7355,"ifying":7356,"Ġagric":7357,"Ġbug":7358,"'?":7359,"Ġrings":7360,"Ġdevice":7361,"Ġorganized":7362,"Ġgained":7363,"Ġseats":7364,"Ġdistributed":7365,"Ġtheme":7366,"inter":7367,"Ġreform":7368,"ori":7369,"Ġsale":7370,"Ġspo":7371,"Ġmayor":7372,"gging":7373,"Ġfactory":7374,"Ġburst":7375,"Boy":7376,"ĠSimon":7377,"omed":7378,"Ġdelay":7379,"Ġthrown":7380,"ĠRepresent":7381,"Ġsam":7382,"ĠScottish":7383,"ĠMichigan":7384,"ĠDON":7385,"ĠNight":7386,"ĠDaniel":7387,"cow":7388,"oster":7389,"ĠLO":7390,"BI":7391,"Ġyard":7392,"cription":7393,"Ġpropos":7394,"ĠTommy":7395,"turn":7396,"Ġvehicle":7397,"Ġconcl":7398,"Exactly":7399,"Te":7400,"Ġdisci":7401,"ĠAssembly":7402,"apped":7403,"Ġfortune":7404,"Ġfolk":7405,"ĠAlice":7406,"ika":7407,"Eng":7408,"Ġdetail":7409,"Im":7410,"rogen":7411,"bird":7412,"Ġmyster":7413,"ĠArts":7414,"Ġticket":7415,"Ġunusual":7416,"44":7417,"BO":7418,"NE":7419,"ultural":7420,"ĠTha":7421,"Time":7422,"Ġtrains":7423,"Ġcomplicated":7424,"ĠAri":7425,"stance":7426,"Ġtear":7427,"ĠAny":7428,"Ġannual":7429,"ĠLI":7430,"ĠDNA":7431,"Ġeffective":7432,"icing":7433,"Ġblocks":7434,"maybe":7435,"asters":7436,"ructed":7437,"Ġinstant":7438,"Ġhousehold":7439,"Ġprize":7440,"ĠAdam":7441,"ĠMassachusetts":7442,"Ġconce":7443,"Ġgrav":7444,"Ġ1945":7445,"Ġscientists":7446,"little":7447,"Ġdemocr":7448,"Ġaid":7449,"ĠNetherlands":7450,"ithm":7451,"Ġincident":7452,"SC":7453,"ĠArgent":7454,"Ġdraft":7455,"ĠShar":7456,"ĠSup":7457,"Ġburned":7458,"Ġinitial":7459,"ĠViet":7460,"Ġbullet":7461,"Ġpity":7462,"athered":7463,"cho":7464,"aints":7465,"Ġopera":7466,"Ġdisappear":7467,"ĠOlympic":7468,"Ġdoctors":7469,"ivered":7470,"ĠBefore":7471,"mony":7472,"Ġharder":7473,"Ġstranger":7474,"Ġelev":7475,"à¸":7476,"una":7477,"ĠRo":7478,"Ġplot":7479,"Ġteen":7480,"Ġdesert":7481,"po":7482,"Bring":7483,"rets":7484,"ĠGer":7485,"ĠRa":7486,"Ġcrown":7487,"UD":7488,"organ":7489,"Ġobserved":7490,"Ġta":7491,"ĠDuke":7492,"Ġparish":7493,"Ġsixth":7494,"Ġelections":7495,"Ġpermission":7496,"Bel":7497,"Ġbride":7498,"Ġconsists":7499,"Ġunable":7500,"Ġattitude":7501,"Ġsuffer":7502,"ĠWHAT":7503,"ĠNet":7504,"Ġhearts":7505,"Ġfuel":7506,"Ġwarning":7507,"Ġcultural":7508,"Ġlegend":7509,"Ġbadly":7510,"ĠSarah":7511,"Ġpeak":7512,"ĠBad":7513,"ĠLes":7514,"umes":7515,"Ġpow":7516,"ĠLew":7517,"three":7518,"itors":7519,"Ġrandom":7520,"Ġcruel":7521,"Ġcandidate":7522,"General":7523,"Äĩ":7524,"Ġsuppl":7525,"Somebody":7526,"Ġroads":7527,"Ġchampionship":7528,"Yep":7529,"Ġhills":7530,"ĠNic":7531,"Ġadvanced":7532,"ĠEve":7533,"ollowing":7534,"Ġsubsequ":7535,"ÂĴ":7536,"Ġpupp":7537,"ĠBab":7538,"ĠOhio":7539,"Ġcreating":7540,"ĠBroad":7541,"EST":7542,"engers":7543,"Mart":7544,"Ġspare":7545,"Ġstruggle":7546,"iar":7547,"wick":7548,"four":7549,"uties":7550,"adelp":7551,"Ġwhenever":7552,"Ġnights":7553,"Ġislands":7554,"Ġstress":7555,"Ġowners":7556,"Ġassume":7557,"ĠProt":7558,"ĠMir":7559,"Ġdun":7560,"ĠBra":7561,"WHAT":7562,"Ġconfess":7563,"Ġphoto":7564,"omething":7565,"called":7566,"geon":7567,"Ġbalance":7568,"pol":7569,"tell":7570,"||||":7571,"Ġriding":7572,"Ġpointed":7573,"Ġbelongs":7574,"Ġbits":7575,"Ġangle":7576,"ĠTam":7577,"ĠBall":7578,"Ġacts":7579,"Ġexplan":7580,"Ġlesson":7581,"incoln":7582,"Ġjealous":7583,"Ġidentity":7584,"uma":7585,"ĠEs":7586,"Ġleads":7587,"Ġseventy":7588,"ranch":7589,"ipping":7590,"ĠWilliams":7591,"ĠChampionships":7592,"Ġpages":7593,"earest":7594,"Cong":7595,"Ġdish":7596,"Ġjew":7597,"orney":7598,"orders":7599,"Ġvolume":7600,"Ġgre":7601,"erg":7602,"Ġvia":7603,"adelphia":7604,"Ġvisited":7605,"ĠMid":7606,"Ġbuying":7607,"ĠRoss":7608,"class":7609,"ĠDanny":7610,"ĠSC":7611,"Ġballs":7612,"ĠHead":7613,"Ġarmed":7614,"ni":7615,"aling":7616,"aks":7617,"ĠAustria":7618,"ardo":7619,"Ġcapable":7620,"Jim":7621,"press":7622,"Ġstairs":7623,"Ġven":7624,"erent":7625,"Ġcharges":7626,"Ġeager":7627,"Ġwaves":7628,"Frank":7629,"Ġoperating":7630,"Ġimpress":7631,"Ġyards":7632,"perial":7633,"Ġsmooth":7634,"Ġruled":7635,"onic":7636,"ĠLeg":7637,"ĠEnter":7638,"Ġdebt":7639,"Mon":7640,"ĠSub":7641,"could":7642,"mouth":7643,"Ġdump":7644,"Ġspending":7645,"aughters":7646,"non":7647,"Ġcrash":7648,"ĠClass":7649,"ented":7650,"Ġsquared":7651,"Michael":7652,"Ġmud":7653,"ĠHong":7654,"ĠGi":7655,"Ġ300":7656,"Ġapproximately":7657,"Ġpants":7658,"ĠNations":7659,"Ġchart":7660,"Ġtropical":7661,"ĠForest":7662,"Ġconver":7663,"kel":7664,"ilton":7665,"Ġvolunte":7666,"Ġrevealed":7667,"Ġwounded":7668,"ĠAlso":7669,"Ġaffected":7670,"ĠOcean":7671,"42":7672,"ILL":7673,"ĠVol":7674,"Ġmeters":7675,"Ġrecommend":7676,"Ġtrained":7677,"III":7678,"ĠChairman":7679,"ĠGen":7680,"Ġ36":7681,"ĠAli":7682,"OUN":7683,"Ġquietly":7684,"Ġwaters":7685,"Ġmoral":7686,"ygen":7687,"aughing":7688,"Ġcapacity":7689,"Com":7690,"ervative":7691,"bra":7692,"Ġpainted":7693,"eness":7694,"never":7695,"western":7696,"Ġelder":7697,"ureau":7698,"esome":7699,"Ġregions":7700,"ĠPas":7701,"Ġconclud":7702,"ĠVictoria":7703,"Ġintroduce":7704,"hew":7705,"ĠAB":7706,"Ġsche":7707,"ursday":7708,"Ġwhist":7709,"Ġdespite":7710,"oked":7711,"utation":7712,"Ġlaunch":7713,"Ġcooking":7714,"mes":7715,"their":7716,"Ġcreation":7717,"Ġtalks":7718,"Ġexpert":7719,"Ġphilosophy":7720,"ington":7721,"Ġstudying":7722,"Ġmurdered":7723,"wow":7724,"Ġbone":7725,"nal":7726,"Ġvoices":7727,"hang":7728,"ĠEach":7729,"Ġinterrupt":7730,"Ġgrey":7731,"ĠLine":7732,"ĠFound":7733,"Ġshake":7734,"cip":7735,"Ġreference":7736,"Ġpump":7737,"Ġdozen":7738,"Ġglobal":7739,"Ġmouse":7740,"Ġlecture":7741,"Ġhockey":7742,"Ġchocolate":7743,"Ġinterests":7744,"Ġprogramme":7745,"Ġaccur":7746,"Ġdistribution":7747,"Ġwand":7748,"ĠMeg":7749,"Ġera":7750,"Ġsympat":7751,"ĠRevolution":7752,"Ġguests":7753,"Ġacad":7754,"Ġfuneral":7755,"Ġhealthy":7756,"Ġlistened":7757,"Ġexciting":7758,"Eh":7759,"Ã¦":7760,"Ġbaseball":7761,"iture":7762,"cks":7763,"ĠNews":7764,"chers":7765,"ii":7766,"ouch":7767,"Ġdeserve":7768,"Ġreflect":7769,"Ġmunicipal":7770,"Ben":7771,"Ġbom":7772,"Ġalgor":7773,"Ġrelief":7774,"Red":7775,"ĠTake":7776,"Ġgraduated":7777,"75":7778,"Ġped":7779,"Ġstolen":7780,"icky":7781,"Ġgray":7782,"Ġanswers":7783,"Ġsources":7784,"Ġguarant":7785,"othy":7786,"rovers":7787,"ensity":7788,"happy":7789,"Ġ1966":7790,"Ġcert":7791,"Ġcrossed":7792,"Ġarts":7793,"Ġtrem":7794,"ĠGolden":7795,"Ġfond":7796,"Music":7797,"Ġsmiled":7798,"Ġfart":7799,"Ġalbums":7800,"state":7801,"ARD":7802,"ĠALL":7803,"Ġcenturies":7804,"Ġgenus":7805,"ĠSanta":7806,"ondisse":7807,"Ġmillions":7808,"Ġmarks":7809,"ĠOper":7810,"ĠArk":7811,"ĠBudd":7812,"ĠAlexander":7813,"equ":7814,"uable":7815,"ĠCross":7816,"ĠOffic":7817,"ĠUP":7818,"Ġgrandfather":7819,"Ġfeather":7820,"rane":7821,"Ġheadquarters":7822,"Ġtoile":7823,"Ġsecure":7824,"Ġinterpret":7825,"mma":7826,"erences":7827,"ĠFord":7828,"ĠÂ£":7829,"Ã¢":7830,"Ġvast":7831,"Ġ1963":7832,"Ġfunctions":7833,"ĠPart":7834,"Ġdistricts":7835,"ĠHolly":7836,"ĠIslands":7837,"Int":7838,"Ġbetray":7839,"ĠPoland":7840,"Ġwitch":7841,"Ġrhy":7842,"Ġshopping":7843,"ĠTed":7844,"irus":7845,"Ġcollea":7846,"IND":7847,"Ġsucceeded":7848,"Ġnoble":7849,"icking":7850,"Ġcutting":7851,"Ġloan":7852,"Par":7853,"raine":7854,"Besides":7855,"isms":7856,"Ġdude":7857,"Ġatmosphere":7858,"Six":7859,"occ":7860,"Ġhi":7861,"Ġsites":7862,"Ġsquad":7863,"Ġracing":7864,"azed":7865,"rete":7866,"Ġprisoners":7867,"Ġinjury":7868,"ĠTownship":7869,"Ill":7870,"Ġsang":7871,"hus":7872,"berry":7873,"Ġjumped":7874,"Ġshoulders":7875,"eline":7876,"ĠSwedish":7877,"Ġbul":7878,"ĠWat":7879,"Ġentrance":7880,"Ġextended":7881,"ederation":7882,"Ġstir":7883,"ĠLo":7884,"ĠARE":7885,"thony":7886,"ĠHealth":7887,"Ġbanks":7888,"Ġstones":7889,"ilding":7890,"Ġ1965":7891,"99":7892,"adu":7893,"Ġpilot":7894,"ĠColumbia":7895,"pite":7896,"ĠMissouri":7897,"Ġwidely":7898,"rary":7899,"alo":7900,"bsolutely":7901,"ĠBrazilian":7902,"obby":7903,"Brother":7904,"Ġmirror":7905,"Ġsan":7906,"Ġcrap":7907,"ĠGran":7908,"ĠPlease":7909,"ĠOb":7910,"Ġaffair":7911,"iy":7912,"Ġinterf":7913,"Ġlion":7914,"Ġassign":7915,"Ġfactor":7916,"TO":7917,"made":7918,"hab":7919,"Ġfacts":7920,"cut":7921,"irk":7922,"pson":7923,"ĠAnother":7924,"Ġprovides":7925,"Ġbranches":7926,"Ġ1948":7927,"Ġcorrespond":7928,"Ġthrill":7929,"Ġpersons":7930,"Ġdemonstr":7931,"41":7932,"Ġfans":7933,"Ġbitter":7934,"Ġglasses":7935,"ĠSong":7936,"Ġgrade":7937,"Ġchecked":7938,"Ġitems":7939,"Ġanger":7940,"Ġnick":7941,"ĠWed":7942,"Ġgrace":7943,"Ġillust":7944,"iri":7945,"Ġalleg":7946,"ordan":7947,"Ġimple":7948,"hens":7949,"Ġarranged":7950,"FL":7951,"Want":7952,"ĠEp":7953,"Ġslide":7954,"got":7955,"Ġselect":7956,"Ġfigured":7957,"Ġrear":7958,"ropolitan":7959,"ELL":7960,"ĠFederal":7961,"ĠPolice":7962,"Ġurban":7963,"Ġedition":7964,"THAT":7965,"ĠMexican":7966,"ĠOxford":7967,"Har":7968,"Ġwound":7969,"ĠSure":7970,"ulpt":7971,"Ġpoly":7972,"Ġconfused":7973,"ĠDisney":7974,"Ġprojects":7975,"Ġexecutive":7976,"Ġvictims":7977,"ĠWait":7978,"Ġinspect":7979,"Â°":7980,"Ġtip":7981,"Ġfra":7982,"Em":7983,"Ġputs":7984,"Ġevolution":7985,"Ġdecisions":7986,"eable":7987,"ĠKhan":7988,"Ġsteam":7989,"Ġdiscussion":7990,"Ġsurrounded":7991,"Ġindu":7992,"aser":7993,"ĠBC":7994,"uesday":7995,"itter":7996,"Ġchildhood":7997,"uled":7998,"Ġdistingu":7999,"ecess":8000,"Cor":8001,"Ġexhib":8002,"Ġconfidence":8003,"Ġknees":8004,"Ġremove":8005,"Ġcovers":8006,"Also":8007,"ĠTaylor":8008,"Ġreviews":8009,"Ġdefense":8010,"Foot":8011,"Ġgathered":8012,"ĠWalk":8013,"those":8014,"Ġ\"\"":8015,"ierre":8016,"ĠDaddy":8017,"Jan":8018,"Ġstarring":8019,"Ġplastic":8020,"Grand":8021,"Ġpiss":8022,"ĠSO":8023,"ĠĠĠĠĠĠĠĠĠĠĠĠĠĠĠĠĠĠĠĠĠĠĠĠĠĠĠĠĠĠĠĠ":8024,"ographer":8025,"bal":8026,"Ġpractical":8027,"43":8028,"Ġinstruct":8029,"Jul":8030,"ĠNothing":8031,"ĠFC":8032,"ĠFire":8033,"Ġinjured":8034,"Ġknocked":8035,"ĠJerry":8036,"âĢĺ":8037,"Ã¡n":8038,"MA":8039,"inem":8040,"Ġescaped":8041,"ĠIra":8042,"certain":8043,"Ġprofession":8044,"Pat":8045,"Ġloyal":8046,"ĠBor":8047,"Ġrising":8048,"Ġissued":8049,"Ġconstitution":8050,"Ġintelligence":8051,"umin":8052,"Ġviews":8053,"iner":8054,"Ġnorthwest":8055,"Ġindependence":8056,"cus":8057,"fire":8058,"ĠAndy":8059,"Ġtow":8060,"rive":8061,"Ġawards":8062,"Were":8063,"Ġheaded":8064,"Ġsupper":8065,"onents":8066,"ĠAsh":8067,"Ġrush":8068,"Ġ32":8069,"Ġcommunication":8070,"Ġfairy":8071,"Ġsubjects":8072,"Ġreduced":8073,"opher":8074,"elia":8075,"Ġsmiling":8076,"Ġdepth":8077,"into":8078,"Ġaffairs":8079,"Ġterrif":8080,"inder":8081,"Ġpossibility":8082,"Ġtries":8083,"ĠPope":8084,"Old":8085,"Ġmodels":8086,";/":8087,"music":8088,"atically":8089,"alls":8090,"ĠEle":8091,"ccer":8092,"ĠSupreme":8093,"bro":8094,"aph":8095,"Ġcompar":8096,"ĠBrad":8097,"DO":8098,"Ġnuts":8099,"Without":8100,"erable":8101,"ĠFel":8102,"ĠDam":8103,"Ġsooner":8104,"James":8105,"Ġ+":8106,"Ġservant":8107,"ĠCoast":8108,"eh":8109,"Ġ1920":8110,"Ġsumm":8111,"via":8112,"Ġdifficulty":8113,"ĠSystem":8114,"Dear":8115,"Ġcommunities":8116,"Ġgranted":8117,"Ġbeating":8118,"Ġprepare":8119,"ĠJews":8120,"Aw":8121,"Down":8122,"Ġing":8123,"Ġbegun":8124,"oos":8125,"Ġ1956":8126,"Ġclaims":8127,"anes":8128,"Ġletting":8129,"56":8130,"etime":8131,"ounce":8132,"ĠFR":8133,"Ġbreast":8134,"ĠPhiladelphia":8135,"Ġ1962":8136,"Ġsed":8137,"nedy":8138,"ĠÂ¶":8139,"ĠTell":8140,"Ġdiagn":8141,"IG":8142,"itage":8143,"ĠDave":8144,"onym":8145,"Ġdawn":8146,"Probably":8147,"SO":8148,"ĠGET":8149,"Ġcharged":8150,"ĠSpec":8151,"Ġreturning":8152,"liver":8153,"uer":8154,"Ġtoy":8155,"Ġcollabor":8156,"Ġparliament":8157,"cules":8158,"Ġadministration":8159,"ĠRadio":8160,"chi":8161,"AKE":8162,"adies":8163,"hings":8164,"nesday":8165,"antry":8166,"Ġmoments":8167,"ĠPolish":8168,"abs":8169,"Ġsecretary":8170,"ĠAlf":8171,"ĠOUT":8172,"Ġ1958":8173,"Ġreplace":8174,"Ġillness":8175,"Ġnecessarily":8176,"Ġheavily":8177,"ĠInternet":8178,"ĠBavaria":8179,"Ġprovin":8180,"Ġdumb":8181,"==":8182,"rons":8183,"Ġsust":8184,"ifer":8185,"ordinary":8186,"Ġceremony":8187,"LES":8188,"ĠSE":8189,"ĠCz":8190,"Ġbesides":8191,"intend":8192,"Ġlung":8193,"acon":8194,"ĠPers":8195,"ĠMatthew":8196,"Aren":8197,"Ġfiction":8198,"ifts":8199,"mad":8200,"Ġawake":8201,"Ġtorn":8202,"Ġinput":8203,"ĠScience":8204,"Ġashamed":8205,"iped":8206,"Ġ180":8207,"umps":8208,"ĠOw":8209,"kind":8210,"pir":8211,"ĠCD":8212,"enses":8213,"ĠNever":8214,"Ġcontem":8215,"Ġchairman":8216,"Ġastron":8217,"Ġpul":8218,"Ġ1939":8219,"great":8220,"ĠGreg":8221,"ucker":8222,"Ġslave":8223,"Ġconfirmed":8224,"Ġpoetry":8225,"ĠChi":8226,"Ġexha":8227,"Ġunlike":8228,"Ġdriven":8229,"Ġcustomers":8230,"hello":8231,"ĠBBC":8232,"ennes":8233,"Ġfestival":8234,"Ġending":8235,"BA":8236,"itled":8237,"Ġformal":8238,"Ġseparated":8239,"ĠWalter":8240,"greg":8241,"Ġtheatre":8242,"Ġfox":8243,"Ġpersonally":8244,"Ġpersu":8245,"Ġcontext":8246,"ugg":8247,"ĠGuard":8248,"Ġcontinu":8249,"Ġpresidential":8250,"Rec":8251,"rix":8252,"ĠRich":8253,"ĠEducation":8254,"Ġdefined":8255,"Ġfoolish":8256,"uy":8257,"ĠWas":8258,"agger":8259,"Ġstrict":8260,"Ġmassive":8261,"Ġcats":8262,"ĠAtt":8263,"Ġshortly":8264,"Ġtreasure":8265,"Ant":8266,"tery":8267,"ĠPublic":8268,"Ġgra":8269,"Ġforb":8270,"Ġchoo":8271,"mann":8272,"Ġdeck":8273,"TS":8274,"Ã£":8275,"Ġalcohol":8276,"note":8277,"Ġnest":8278,"Ġcops":8279,"ratulations":8280,"rose":8281,"allel":8282,"Ġregist":8283,"hatt":8284,"Sw":8285,"urches":8286,"Ġrecon":8287,"Ġappropriate":8288,"Ġ1947":8289,"outheast":8290,"Ġ1961":8291,"ĠWinter":8292,"ĠSusan":8293,"Ġsplendid":8294,"away":8295,"Ġdaughters":8296,"Ġsolo":8297,"Ġmachines":8298,"Ġsympt":8299,"Forget":8300,"ĠKentucky":8301,"Ġlap":8302,"Ġ1957":8303,"Ġalternative":8304,"Ġsorrow":8305,"enly":8306,"Rep":8307,"Ġbass":8308,"SH":8309,"net":8310,"Ġfriendship":8311,"Ġexclaimed":8312,"Ġjournalist":8313,"Cont":8314,"uv":8315,"Ġchamber":8316,"ĠSav":8317,"adesh":8318,"Ġassociation":8319,"dr":8320,"Ġpor":8321,"usting":8322,"ĠJess":8323,"Ġoccas":8324,"Ġyo":8325,"emon":8326,"ĠTeam":8327,"ĠBow":8328,"akers":8329,"Ġboats":8330,"Ġextent":8331,"Alex":8332,"esc":8333,"Ġnic":8334,"Ġdeeply":8335,"Ġminds":8336,"Ġideal":8337,"inton":8338,"Ġopposed":8339,"Ġvotes":8340,"lets":8341,"ĠJos":8342,"Ġflash":8343,"Ġleaf":8344,"ĠMayor":8345,"Ġspiritual":8346,"/&":8347,"Ġlover":8348,"izz":8349,"ĠWilson":8350,"pat":8351,"Ġpoem":8352,"Ġiniti":8353,"Ġ75":8354,"Ġlifted":8355,"Ġgrateful":8356,"Ġscheme":8357,"Ġrivers":8358,"ĠConstitution":8359,"Ġfasc":8360,"Ġcolumn":8361,"pers":8362,"Ġtickets":8363,"jan":8364,"ĠPict":8365,"Ġpron":8366,"Mmm":8367,"Ġimplement":8368,"Ġmama":8369,"Ġpitch":8370,"irs":8371,"Ġwondered":8372,"Ġexisting":8373,"Ġepisodes":8374,"Ġreckon":8375,"Until":8376,"ĠGro":8377,"ĠLi":8378,"Ġdipl":8379,"elf":8380,"ĠNa":8381,"Ġimpression":8382,"Ġ1944":8383,"Ġclubs":8384,"Ġprinciple":8385,"bus":8386,"Ġwra":8387,"ubble":8388,"Ġengineer":8389,"Ġidentified":8390,"nesota":8391,"Ġinspired":8392,"Ġuser":8393,"ĠCorpor":8394,"Ġoxygen":8395,"hh":8396,"Ġsnake":8397,"Show":8398,"Ġclimb":8399,"ersonal":8400,"ippi":8401,"ĠAD":8402,"ags":8403,"Ġcombined":8404,"Ġsoup":8405,"Ġpir":8406,"Ġstim":8407,"ĠStone":8408,"97":8409,"Ġdating":8410,"Ġworn":8411,"Ġcomputers":8412,"vo":8413,"Ġneut":8414,"Ġliterally":8415,"sl":8416,"Ġinner":8417,"Ġinvented":8418,"Ġjury":8419,"ints":8420,"retty":8421,"ounced":8422,"Ġgor":8423,"umph":8424,"Ġshift":8425,"ĠKy":8426,"ĠEric":8427,"fit":8428,"ĠMot":8429,"Ġcontrovers":8430,"Ġthrowing":8431,"Ġcrisis":8432,"hu":8433,"whe":8434,"Ġvel":8435,"ĠâĻ«":8436,"Ġabsor":8437,"irteen":8438,"Ġenorm":8439,"Ġimages":8440,"Ġprisoner":8441,"last":8442,"Ġdates":8443,"ĠPot":8444,"arts":8445,"Ġpassage":8446,"ĠAirport":8447,"Ġcombination":8448,"ĠTokyo":8449,"san":8450,"Ġanxious":8451,"erick":8452,"ĠLieutenant":8453,"Ġscholars":8454,"ĠLA":8455,"Black":8456,"ĠMoscow":8457,"Talk":8458,"fly":8459,"ques":8460,"ĠStation":8461,"Ġregional":8462,"Ġstraw":8463,"Happy":8464,"rows":8465,"Ġevident":8466,"Ġengineering":8467,"ĠLincoln":8468,"Long":8469,"Son":8470,"ĠReally":8471,"ĠJustice":8472,"Ġconvinced":8473,"EF":8474,"Ġhurts":8475,"Mark":8476,"Rel":8477,"ĠHans":8478,"ĠKa":8479,"Ġincredible":8480,"ciences":8481,"Ġshower":8482,"Ġpositions":8483,"THER":8484,"Ġstops":8485,"ĠHay":8486,"Ġalpha":8487,"Ġnarr":8488,"Ġreply":8489,"Ġattached":8490,"Ġorganizations":8491,"Ġtests":8492,"coming":8493,"Ġvideos":8494,"Ġnaturally":8495,"Ġinsect":8496,"Ġhm":8497,"Check":8498,"Ġcooper":8499,"Ġprincipal":8500,"lly":8501,"atoes":8502,"ĠCard":8503,"Ġrescue":8504,"Aha":8505,"Ġviolent":8506,"ĠNi":8507,"ĠBrook":8508,"prise":8509,"Ġhorror":8510,"Ġsculpt":8511,"Ġpersonality":8512,"Ġtransferred":8513,"Ġadministrative":8514,"Ġnaked":8515,"ĠSher":8516,"Ġangel":8517,"Ġtransm":8518,"Ġmusician":8519,"Ġoccupied":8520,"Ġkilomet":8521,"TA":8522,"ĠCastle":8523,"CO":8524,"Ġrice":8525,"INK":8526,"Ġnort":8527,"ĠUt":8528,"ĠBridge":8529,"Ġstable":8530,"ĠSteven":8531,"Ġprecise":8532,"Ġmystery":8533,"William":8534,"Ġ1952":8535,"ĠMcC":8536,"].":8537,"usive":8538,"unes":8539,"Ġ1949":8540,"Ġacquired":8541,"Ġsatisfied":8542,"Ġfrequently":8543,"oore":8544,"ĠAM":8545,"ĠBrian":8546,"atures":8547,"acc":8548,"ĠTechn":8549,"Ġprecious":8550,"Ġpie":8551,"Ġhunt":8552,"onto":8553,"Ġ1942":8554,"Ġgreatly":8555,"Ġpicking":8556,"ĠRoger":8557,"Its":8558,"lock":8559,"master":8560,"Ġbeings":8561,"iders":8562,"ĠPop":8563,"Ġpurple":8564,"ĠAk":8565,"Ġrope":8566,"Ġsurre":8567,"Ġprosec":8568,"Ġpunishment":8569,"Ġbold":8570,"hoot":8571,"ĠIraq":8572,"oz":8573,"Ġoperated":8574,"Ġillegal":8575,"Ġhoped":8576,"Ġstab":8577,"iev":8578,"agers":8579,"Ġpour":8580,"Ġinher":8581,"ĠInc":8582,"Ġkinda":8583,"ĠMinnesota":8584,"ĠTop":8585,"pent":8586,"ĠFa":8587,"Ġmonkey":8588,"Ġmal":8589,"osity":8590,"orted":8591,"ĠStr":8592,"Ġinitially":8593,"Ġbark":8594,"Ġvisual":8595,"irit":8596,"Ġproperties":8597,"Poor":8598,"icial":8599,"ategy":8600,"Ġtechnical":8601,"eel":8602,"Ġtank":8603,"ĠRus":8604,"Ġtypical":8605,"âĢİ":8606,"King":8607,"Robert":8608,"lah":8609,"tical":8610,"Ġbike":8611,"lete":8612,"Ġarrive":8613,"Ġbowl":8614,"ĠMargaret":8615,"ifferent":8616,"ĠSeries":8617,"icit":8618,"andal":8619,"ĠBetty":8620,"erted":8621,"Ġarticles":8622,"Ġregarded":8623,"Run":8624,"ĠHospital":8625,"ĠCentre":8626,"emet":8627,"oration":8628,"ĠWild":8629,"Ġdownstairs":8630,"Ġerror":8631,"Ġdecre":8632,"Ġpasses":8633,"amental":8634,"Ġtesting":8635,"Ġadventure":8636,"even":8637,"acles":8638,"ĠAustrian":8639,"Ġcontrolled":8640,"Ġlately":8641,"through":8642,"Ġvice":8643,"pected":8644,"alem":8645,"Ġstrategy":8646,"Each":8647,"aga":8648,"Ġswall":8649,"Ġadmitted":8650,"ĠLouisiana":8651,"stal":8652,"Ġfever":8653,"INE":8654,"Ġrestrict":8655,"lon":8656,"ndar":8657,"Ġtool":8658,"Ġcausing":8659,"Ten":8660,"iah":8661,"Ġrode":8662,"Ġsyn":8663,"iÄĩ":8664,"Ġbond":8665,"Ġguide":8666,"velopment":8667,"ĠGreece":8668,"Ġexplanation":8669,"Ġwicked":8670,"Ġment":8671,"earer":8672,"neath":8673,"Ġofficials":8674,"Ġ1954":8675,"END":8676,"_.":8677,"nold":8678,"Ġrevenge":8679,"Ġnowhere":8680,"alais":8681,"ungle":8682,"rait":8683,"Ġ38":8684,"Ġvaluable":8685,"Ġwishes":8686,"Ġasks":8687,"Bi":8688,"Ġwins":8689,"Ġdescription":8690,"Ġdigital":8691,"Ġbacter":8692,"Ġhug":8693,"uther":8694,"Stand":8695,"Ġ1941":8696,"THING":8697,"Ġexpecting":8698,"Ġimmig":8699,"ĠNap":8700,"Ġages":8701,"otes":8702,"Ġpromoted":8703,"Daddy":8704,"sa":8705,"Ġdiet":8706,"Ġintention":8707,"Ġpup":8708,"Ġequation":8709,"Ġ1959":8710,"ĠSab":8711,"Ġclin":8712,"ĠIndians":8713,"ĠLewis":8714,"Ġdece":8715,"Ġpermanent":8716,"Ġphen":8717,"uct":8718,"hedral":8719,"Hang":8720,"ĠCop":8721,"LO":8722,"dney":8723,"ĠRem":8724,"Ġspark":8725,"Ġdiscovery":8726,"ddie":8727,"Ġcore":8728,"Ġreign":8729,"ĠSpring":8730,"Ġannoy":8731,"ĠBart":8732,"ĠThursday":8733,"Ġpulling":8734,"58":8735,"Ap":8736,"Ġmemories":8737,"Ġnations":8738,"itched":8739,"Ġfulf":8740,"Ġcreatures":8741,"Ġconstitu":8742,"wanna":8743,"resents":8744,"International":8745,"Ġthrone":8746,"Ġvillages":8747,"gers":8748,"mic":8749,"soft":8750,"bie":8751,"name":8752,"onze":8753,"Ġacted":8754,"ds":8755,"Ġrapidly":8756,"these":8757,"Ġportion":8758,"Ġdefinition":8759,"Ġnap":8760,"Ġ1946":8761,"Ġcampus":8762,"Ġgarage":8763,"Ġraces":8764,"ĠColor":8765,"Honey":8766,"Ġpi":8767,"59":8768,"ĠDown":8769,"ghan":8770,"Ġneat":8771,"Ġcycl":8772,"Ġlt":8773,"nels":8774,"ĠKh":8775,"Ġdeveloping":8776,"Ġabandoned":8777,"woman":8778,"icians":8779,"Ġeld":8780,"ĠForm":8781,"Ġaccused":8782,"Ġprayer":8783,"die":8784,"phas":8785,"Ġhousing":8786,"Ġholes":8787,"Ġessentially":8788,"Ġresistance":8789,"ĠFoundation":8790,"Ġsurvey":8791,"zes":8792,"ĠJUST":8793,"ensions":8794,"Ġphotos":8795,"Ġintellect":8796,"gines":8797,"Ġfed":8798,"ĠBal":8799,"ĠHit":8800,"ĠMississ":8801,"ester":8802,"athan":8803,"Ġthorough":8804,"Ġsheet":8805,"Ġcommander":8806,"Ġinternal":8807,"ĠCur":8808,"Ġarchitecture":8809,"ĠBat":8810,"Ġassault":8811,"Kill":8812,"PP":8813,"Å¡":8814,"Ġanaly":8815,"AV":8816,"haw":8817,"ĠLabour":8818,"ĠCzech":8819,"Ow":8820,"Ġbelt":8821,"Ġbreathing":8822,"rison":8823,"Ġfaint":8824,"ĠHERE":8825,"rying":8826,"George":8827,"66":8828,"Total":8829,"Ġadapt":8830,"shit":8831,"ĠJacob":8832,"ĠStephen":8833,"Ġliquid":8834,"Hen":8835,"ggy":8836,"ser":8837,"Ġouter":8838,"uki":8839,"Lou":8840,"orf":8841,"Ġreputation":8842,"glas":8843,"Sub":8844,"aned":8845,"ĠSid":8846,"Ġsaving":8847,"Ġskill":8848,"Ġeighteen":8849,"Ġdomestic":8850,"ĠPa":8851,"Ġalongside":8852,"Ġcomposer":8853,"Ġtoilet":8854,"ĠTest":8855,"Ġdisg":8856,"Ġooh":8857,"aro":8858,"ĠSn":8859,"Ġrefers":8860,"ĠOrder":8861,"Ġphrase":8862,".[":8863,"Ġstroke":8864,"olas":8865,"Ġlessons":8866,"Ġtiss":8867,"kesp":8868,"dog":8869,"Ġdragon":8870,"Ġmaximum":8871,"Ġabroad":8872,"Ġcycle":8873,"rior":8874,"Goodbye":8875,"Ġprotected":8876,"Ġstepped":8877,"Ġkissed":8878,"Ġversions":8879,"Ã£o":8880,"bage":8881,"utt":8882,"ĠGame":8883,"ĠEnd":8884,"ui":8885,"ĠVill":8886,"Ġbags":8887,"Better":8888,"care":8889,"Ġflows":8890,"ragon":8891,"ĠOt":8892,"ĠMarie":8893,"Ġexped":8894,"ĠIndiana":8895,"ardens":8896,"Ġwhoa":8897,"agle":8898,"Ġpipe":8899,"ĠCON":8900,"OUGH":8901,"minist":8902,"ĠTurkey":8903,"Ġcraw":8904,"ĠRoy":8905,"Ġbrush":8906,"abad":8907,"ĠHoll":8908,"Ġdedicated":8909,"Ġfence":8910,"Ġincl":8911,"Ġnonsense":8912,"Ġpassengers":8913,".âĢĻ":8914,"Ġmessages":8915,"Ġabsolute":8916,"57":8917,"Ġmobile":8918,"teenth":8919,"Ġestimated":8920,"people":8921,"Ġscarce":8922,"AF":8923,"found":8924,"Ġelimin":8925,"ĠConference":8926,"Ġbenefits":8927,"Ġproport":8928,"ibilities":8929,"Ġobst":8930,"Ġstores":8931,"Ġreduce":8932,"Ġleadership":8933,"keeper":8934,"VD":8935,"ĠHonor":8936,"ĠEst":8937,"Ġgenius":8938,"Ġboots":8939,"fin":8940,"wall":8941,"ĠBir":8942,"ĠWhe":8943,"ĠRIGHT":8944,"Ġopposition":8945,"LS":8946,"Ġnotable":8947,"ĠPost":8948,"aved":8949,"iki":8950,"Ġdinosaur":8951,"Ġsweetheart":8952,".--":8953,"YE":8954,"ĠÎ":8955,"Ġisol":8956,"ĠBalt":8957,"rett":8958,"Ġdelivered":8959,"Ġrepeat":8960,"Ġfiles":8961,"Ġbreathe":8962,"Ġgrandmother":8963,"ĠChannel":8964,"Ġdat":8965,"theless":8966,"Ġfacilities":8967,"Ġoption":8968,"ĠTuesday":8969,"ĠOur":8970,"Res":8971,"Ġcave":8972,"Ġwooden":8973,"Such":8974,"aa":8975,"hai":8976,"Ġappearances":8977,"Ġzone":8978,"Cr":8979,"first":8980,"ĠVery":8981,"Ġwhispered":8982,"Ġexperienced":8983,"Comp":8984,"ĠTurn":8985,"Ġlasted":8986,"Ġconfident":8987,"ĠLau":8988,"Ġ400":8989,"Ġrural":8990,"Ġappointment":8991,"Ġathlet":8992,"Ġrelation":8993,"Ġsought":8994,"Ġcritics":8995,"Must":8996,"Ġ||":8997,"ĠSP":8998,"Ġhoriz":8999,"Ġnegoti":9000,"ĠHeaven":9001,"kespeare":9002,"Ġske":9003,"ĠHal":9004,"Phil":9005,"Ġsemi":9006,"Ġupd":9007,"Ġentry":9008,"Ġmerchant":9009,"pool":9010,"Ġfounder":9011,"Ġyoungest":9012,"Ġdocuments":9013,"Ġhits":9014,"Ġdelicious":9015,"Ġlargely":9016,"Ġidentify":9017,"Ġelectricity":9018,"Find":9019,"ĠLIKE":9020,"ĠHell":9021,"ĠBul":9022,"Ġsixteen":9023,"ienna":9024,"utiful":9025,"ĠHard":9026,"Ġcarriage":9027,"Ġfleet":9028,"emetery":9029,"akh":9030,"Step":9031,"Ġsurvived":9032,"Ġsequence":9033,"Absolutely":9034,"ĠIce":9035,"Ġwanting":9036,"ĠHas":9037,"Ġwheels":9038,"hibit":9039,"Ġrepresents":9040,"Ġbehavi":9041,"Ġgalax":9042,"thy":9043,"Ġoffers":9044,"Ġpurposes":9045,"Ġrelatively":9046,"ĠPlan":9047,"None":9048,"Norm":9049,"pur":9050,"Ġrein":9051,"Ġexists":9052,"Ġsingles":9053,"Ġfo":9054,"Ġutter":9055,"Da":9056,"nda":9057,"Ġshoe":9058,"endment":9059,"ĠKennedy":9060,"ĠVice":9061,"Ġheading":9062,"Ġfellows":9063,"ĠTai":9064,"ĠJay":9065,"Ġusers":9066,"weight":9067,"Ġindic":9068,"ggie":9069,"rome":9070,"Ġengines":9071,"Ġtrap":9072,"Ġinsult":9073,"oni":9074,"Ġdepos":9075,"Ġenvironmental":9076,"race":9077,"ĠRel":9078,"burn":9079,"esse":9080,"Ġ1955":9081,"Ġdetect":9082,"Ġvolcan":9083,"Ġfab":9084,"ĠTour":9085,"Ġobtained":9086,"Ġsession":9087,"Ġmig":9088,"Ġlanded":9089,"ĠClark":9090,"Ġlatest":9091,"oogle":9092,"Ġpossession":9093,"Doesn":9094,"Ġsouthwest":9095,"Ġmargin":9096,"Ġthreatened":9097,"ĠGrant":9098,"Laughter":9099,"bach":9100,"Ġcattle":9101,"Ġamongst":9102,"uter":9103,"Ġworship":9104,"Ġspons":9105,"Ġworldwide":9106,"Ann":9107,"scape":9108,"Ġinvolve":9109,"mont":9110,"ĠAle":9111,"ogy":9112,"Ġpurs":9113,"Quick":9114,"world":9115,"Ġsna":9116,"oard":9117,"pher":9118,"irts":9119,"ĠCab":9120,"ĠWy":9121,"Ġtypically":9122,"Ġslipped":9123,"Ġdivorce":9124,"again":9125,"Ġcrimes":9126,"Ġexpressed":9127,"ĠRegion":9128,"Ġexperiences":9129,"ternal":9130,"utor":9131,"Doctor":9132,"ĠRailway":9133,"Ġholy":9134,"ĠSara":9135,"Ġfourteen":9136,"ORE":9137,"such":9138,"Ġrabbit":9139,"oty":9140,"Ġdollar":9141,"Ġclouds":9142,"Ġacademic":9143,"itals":9144,"Ġreprodu":9145,"Ä±":9146,"been":9147,"tainment":9148,"din":9149,"orious":9150,"amma":9151,"ĠHor":9152,"rec":9153,"ĠPrem":9154,"Ġagency":9155,"Ġ150":9156,"Ġfoss":9157,"Ġfaced":9158,"icity":9159,"Ġinches":9160,"Ġruined":9161,"Ġfake":9162,"Ġdial":9163,"Ġexplore":9164,"\";":9165,"Ġcoc":9166,"alling":9167,"Ġruin":9168,"ĠWednesday":9169,"ĠGive":9170,"Ġtale":9171,"ashi":9172,"osa":9173,"umbling":9174,"Ġspirits":9175,"Ġreaching":9176,"onde":9177,"Ġslip":9178,"Ġ1943":9179,"ĠJam":9180,"Death":9181,"Ġequals":9182,"Ġcapture":9183,"Ġselection":9184,"ĠGermans":9185,"hum":9186,"ĠMatt":9187,"Ġfocused":9188,"Ġconducted":9189,"uster":9190,"ĠPo":9191,"everal":9192,"Ġmeetings":9193,"pan":9194,"Ġdistant":9195,"Ġawesome":9196,"ĠMiller":9197,"Ġtent":9198,"ĠMah":9199,"osl":9200,"ieur":9201,"Ġ37":9202,"lahoma":9203,"char":9204,"Ġfrag":9205,"Ġfactors":9206,"Ġrival":9207,"ĠStop":9208,"Ġdifferences":9209,"Ġhated":9210,"Ġ48":9211,"Ġserves":9212,"BER":9213,"Ġalarm":9214,"Ġuseless":9215,"zing":9216,"Ġloving":9217,"Ġerr":9218,"Ġmerged":9219,"Ġtoast":9220,"ĠMississippi":9221,"fa":9222,"sub":9223,"Ġconven":9224,"Dec":9225,"Ġmighty":9226,"Ġdebate":9227,"Ġfantastic":9228,"Ob":9229,"Ġdow":9230,"ĠRyan":9231,"Ġcanton":9232,"Career":9233,"95":9234,"RS":9235,"romise":9236,"ĠBeach":9237,"LAUGH":9238,"Ġdiscipl":9239,");":9240,"Ġtennis":9241,"Ġunconscious":9242,"Ġ1953":9243,"Ġannounce":9244,"Ġinstitution":9245,"otta":9246,"Ġemphas":9247,"Ġbands":9248,"Ġphase":9249,"endy":9250,"ĠAlbert":9251,"Ask":9252,"aus":9253,"Ġbot":9254,"Ġpardon":9255,"Ġtub":9256,"Ġbent":9257,"ĠHockey":9258,"ĠFree":9259,"suit":9260,"Ġprimarily":9261,"Tomorrow":9262,"Geography":9263,"lotte":9264,"ĠRepresentatives":9265,"Ġpushing":9266,"ĠBand":9267,"Ġsoap":9268,"ĠKr":9269,"Ġpartly":9270,"Lord":9271,"Ġslaves":9272,"Ġwoke":9273,"Ġbend":9274,"ĠGot":9275,"ĠRh":9276,"Ġproviding":9277,"Had":9278,"ĠSix":9279,"ĠNord":9280,"Ġwherever":9281,"annah":9282,"ules":9283,"Ġrefuse":9284,"Super":9285,"really":9286,"oust":9287,"ĠCE":9288,"ĠVo":9289,"AG":9290,"itement":9291,"Ġbid":9292,"Ġinch":9293,"ĠGa":9294,"before":9295,"Ġsubm":9296,"ĠJason":9297,"Ġpresents":9298,"Ġmath":9299,"ĠIV":9300,"Ġflesh":9301,"iveness":9302,"lan":9303,"Ġstadium":9304,"ĠWeb":9305,"ogan":9306,"Ġaccounts":9307,"Ġrolled":9308,"Mary":9309,"sky":9310,"leton":9311,"idering":9312,"Ġprofit":9313,"Ġnewspapers":9314,"oody":9315,"Ġunderneath":9316,"herry":9317,"ĠPy":9318,"izza":9319,"Ġincorpor":9320,"Ġchapter":9321,"Ġdrinks":9322,"Ġcookie":9323,"Ġsacred":9324,"mommy":9325,"ĠKevin":9326,"Ġinteract":9327,"ĠAnton":9328,"à¤":9329,"MS":9330,"run":9331,"alu":9332,"ĠBishop":9333,"ĠBud":9334,"ĠWel":9335,"umble":9336,"Ġblew":9337,"##":9338,"Ġunhappy":9339,"shine":9340,"Ġdamaged":9341,"ridge":9342,"Ġbeast":9343,"iolet":9344,"Ġreasonable":9345,"ĠChap":9346,"Yet":9347,"ĠTen":9348,"Ġpenal":9349,"ĠAR":9350,"Ġadjust":9351,"Ġchop":9352,"Ġreceiving":9353,"Hy":9354,"Ġtherap":9355,"Ġresidents":9356,"ĠVietnam":9357,"ĠBi":9358,"olve":9359,"olves":9360,"Ġcabin":9361,"Ġsurrounding":9362,"Ġfrank":9363,"ĠBaby":9364,"ĠVin":9365,"ĠDer":9366,"Ġmovements":9367,"FFFF":9368,"orage":9369,"Ġash":9370,"ĠPoint":9371,"Ġfuckin":9372,"Sl":9373,"tw":9374,"hall":9375,"term":9376,"ĠDie":9377,"Ġassess":9378,"ĠHollywood":9379,"LING":9380,"Ġwreck":9381,"ĠElect":9382,"Ġtempt":9383,"Ġparticipated":9384,"Ġpaintings":9385,"Ġmysterious":9386,"West":9387,"Ġduties":9388,"Ġinstruments":9389,"Illustration":9390,"Ġcricket":9391,"alendar":9392,"inction":9393,"ĠCommon":9394,"ĠSydney":9395,"Ġstrateg":9396,"Ġ1938":9397,"Congratulations":9398,"walk":9399,"ansion":9400,"Men":9401,"ĠHistory":9402,"ĠAfghan":9403,"Ġconclusion":9404,"Ġenormous":9405,"ĠBarry":9406,"Ġtunnel":9407,"ĠTurkish":9408,"Ġretirement":9409,"Ġsymptoms":9410,"rell":9411,"onne":9412,"ĠKnight":9413,"Ġdisaster":9414,"Ġdecent":9415,"ribute":9416,"Ġroots":9417,"Ġformat":9418,"di":9419,"rum":9420,"ĠInf":9421,"Ġstandards":9422,"Ġprobability":9423,"Ġrequires":9424,"lessly":9425,"lause":9426,"ĠFle":9427,"Ġunex":9428,"Ġcares":9429,"Ġboxes":9430,"Ġstaring":9431,"Ġadults":9432,"wind":9433,"ĠCir":9434,"ĠBO":9435,"Ġvon":9436,"plane":9437,"Ġscare":9438,"Ġphenomen":9439,"Ġknee":9440,"encer":9441,"ĠMun":9442,"ĠJordan":9443,"apore":9444,"Ġwarn":9445,"ĠPeace":9446,"Ġclassic":9447,"ĠPhilip":9448,"Ġaer":9449,"Ġgreet":9450,"formation":9451,"Ġkidna":9452,"Ġimmediate":9453,"Ġextraordinary":9454,"Ġdreadful":9455,"Ġintent":9456,"onsieur":9457,"ĠWANT":9458,"rin":9459,"Ġscenes":9460,"Star":9461,"ĠSOME":9462,"abel":9463,"Ġjudgment":9464,"Ġemotional":9465,"Ġsacrifice":9466,"Ġinstinct":9467,"ashes":9468,"ĠOnce":9469,"Ġdisag":9470,"Ġassigned":9471,"ĠCarter":9472,"acement":9473,"Ġcontained":9474,"Ġrolling":9475,"Calais":9476,"Later":9477,"ĠSometimes":9478,"Ġseed":9479,"ocated":9480,"Ġpec":9481,"Ġtaxes":9482,"Ġlicense":9483,"ĠOklahoma":9484,"Ġalgorithm":9485,"Ġtooth":9486,"employ":9487,"cknow":9488,"ĠAngel":9489,"iversary":9490,"six":9491,"Ġwis":9492,"stream":9493,"ĠAL":9494,"Ġdign":9495,"Ġgosh":9496,"Ġremote":9497,"hesis":9498,"Ġadding":9499,"GO":9500,"ĠWOR":9501,"CC":9502,"Ġsample":9503,"omic":9504,"ĠPic":9505,"Start":9506,"Ġapologize":9507,"ĠTemple":9508,"Bre":9509,"Hon":9510,"TING":9511,"gon":9512,"orous":9513,"scar":9514,"Ġkitt":9515,"ĠDog":9516,"Ġcoordin":9517,"Ġopens":9518,"ologists":9519,"Ġvisitors":9520,"Ġwriters":9521,"gun":9522,"Ġeter":9523,"ĠAff":9524,"ighed":9525,"Ġcomic":9526,"Ġstrongly":9527,"Ġtitles":9528,"Dis":9529,"watch":9530,"igen":9531,"Ġlanding":9532,"Ġdetermine":9533,"Ġ1934":9534,"Aah":9535,"ovie":9536,"onsin":9537,"ĠChuck":9538,"Ġjoining":9539,"ĠDavis":9540,"ĠBeth":9541,"Ġoffering":9542,"Ġstructures":9543,"bourne":9544,"esar":9545,"ĠMoon":9546,"Ġsmoking":9547,"Ġmedium":9548,"ĠAvenue":9549,"Ġparallel":9550,"Ġconstantly":9551,"Ġcod":9552,"idel":9553,"sea":9554,"ĠCreek":9555,"Ġresear":9556,"Trans":9557,"Ġaston":9558,"Ġlied":9559,"udes":9560,"Ġservants":9561,"Ġbeaten":9562,"ĠSpecial":9563,"udge":9564,"Ġagents":9565,"Ġprices":9566,"Ġinvestment":9567,"ĠPhilippines":9568,"Ġintense":9569,"Ġbay":9570,"Ġraid":9571,"Ġassass":9572,"egas":9573,"Ġreturns":9574,"Ġtheore":9575,"rected":9576,"Ġwolf":9577,"Ġtwin":9578,"Art":9579,"Ġhistoric":9580,"Ġscreaming":9581,"ondissement":9582,"ĠBase":9583,"ĠArm":9584,"eanwhile":9585,"Ġcelebrate":9586,"Ġmamm":9587,"orp":9588,"Ġ1951":9589,"Sch":9590,"Ġsector":9591,"eenth":9592,"Ġdepending":9593,"uddenly":9594,"Ġinstructions":9595,"mill":9596,"istol":9597,"ĠMorgan":9598,"Ġachieved":9599,"Ġcontrast":9600,"76":9601,"Ġnewly":9602,"ĠColorado":9603,"ĠHuman":9604,"ĠRoll":9605,"ĠMaybe":9606,"Ġanimated":9607,"isconsin":9608,"ĠBurn":9609,"Ġargue":9610,"Ġstarred":9611,"Ġmidnight":9612,"Ġpredict":9613,"Ġfrequency":9614,"cill":9615,"{\\":9616,"aman":9617,"Ġwinds":9618,"Ġarrival":9619,"pective":9620,"98":9621,"Ġgoin":9622,"ĠTheatre":9623,"Ġchurches":9624,"Footnote":9625,"bi":9626,"ĠHug":9627,"ĠField":9628,"Ġtrunk":9629,"ĠGOT":9630,"gger":9631,"uese":9632,"new":9633,"ĠUs":9634,"Ġrecover":9635,"\"...":9636,"Ġpy":9637,"ĠOtt":9638,"Ġdivide":9639,"Ġ1936":9640,"Master":9641,"gas":9642,"ĠMm":9643,"Ġswing":9644,"Ġequival":9645,"vor":9646,"allas":9647,"ĠLind":9648,"Ġcurtain":9649,"Always":9650,"Ġwrites":9651,"Ġclassical":9652,"odge":9653,"Ġseventh":9654,"Co":9655,"dam":9656,"Ġmob":9657,"Ġlaughter":9658,"Ġdistur":9659,"Ġfootballer":9660,"ĠWars":9661,"ĠStory":9662,"Ġbarely":9663,"Ġitem":9664,"ĠTan":9665,"ĠGordon":9666,"Ġrailroad":9667,"Twenty":9668,"Ġdirt":9669,"stan":9670,"ĠCape":9671,"ĠHun":9672,"ĠPR":9673,"Ġfacing":9674,"Ġwashing":9675,"ĠLat":9676,"Ġcounties":9677,"Ġ1933":9678,"Ġshouted":9679,"ĠHIM":9680,"ĠLE":9681,"Ġcourts":9682,"Ġenthus":9683,"Ġproducing":9684,"Ġprominent":9685,"ĠCL":9686,"Ġclothing":9687,"ĠSenator":9688,"ubbles":9689,"ntario":9690,"Ġstrings":9691,"anguage":9692,"Ġexception":9693,"Ġearliest":9694,"Ġaltogether":9695,"rim":9696,"Ġpref":9697,"Rob":9698,"Ġcam":9699,"Ġcollected":9700,"ĠCorps":9701,"ALLY":9702,"ĠMaine":9703,"oyd":9704,"Ġtribe":9705,"Ġimproved":9706,"ĠSay":9707,"ĠWolf":9708,"Ġapproved":9709,"ĠAnthony":9710,"Ġdrift":9711,"ĠPalace":9712,"Ġdismiss":9713,"Ġalien":9714,"agne":9715,"ICE":9716,"Ġemployed":9717,"Ġroughly":9718,"Ġjacket":9719,"Min":9720,"eaf":9721,"Uncle":9722,"Ġsoftly":9723,"ĠSU":9724,"ĠAnna":9725,"ĠIndepend":9726,"ertainly":9727,"],":9728,"oa":9729,"Ġallowing":9730,"Ġattempted":9731,"Second":9732,"inks":9733,"ĠReddy":9734,"Ġregarding":9735,"eks":9736,"elson":9737,"Ġgrows":9738,"Unless":9739,"Ġemployees":9740,"ĠDeath":9741,"Mc":9742,"zed":9743,"white":9744,"ĠCorporation":9745,"Ġairl":9746,"uration":9747,"Play":9748,"Ġcrossing":9749,"ĠGrace":9750,"keys":9751,"ĠEngine":9752,"ATH":9753,"ĠAllen":9754,"Ġinsane":9755,"chae":9756,"Ġthirteen":9757,"ĠAy":9758,"oli":9759,"Ġcompete":9760,"Ġimagination":9761,"Ġspecifically":9762,"Ġvoc":9763,"ruits":9764,"Ġessential":9765,"Ġshining":9766,"Ġdesperate":9767,"%.":9768,"06":9769,"ĠJoy":9770,"ĠVar":9771,"Ġeducational":9772,"Ġclosing":9773,"ATE":9774,"top":9775,"ĠCho":9776,"Ġfoundation":9777,"Ġapplications":9778,"Ġearthqu":9779,"Ġringing":9780,"BUT":9781,"Ġtheater":9782,"Ġvain":9783,"Ġresident":9784,"Ġcurve":9785,"Ġoccurs":9786,"ipper":9787,"Ġpanel":9788,"uj":9789,"ĠMinistry":9790,"Ġcovering":9791,"Cut":9792,"Ġwars":9793,"Ġshops":9794,"Ġsupporting":9795,"Ġperce":9796,"Ġvul":9797,"Ġaffection":9798,"Ġcleaning":9799,"51":9800,"Ġseized":9801,"bery":9802,"Ġscary":9803,"ATION":9804,"ĠManchester":9805,"ennessee":9806,"Ġretreat":9807,"Ġperforming":9808,"WELL":9809,"ĠCro":9810,"Ġcomed":9811,"ĠConnect":9812,"ĠKelly":9813,"Ġcloth":9814,"peed":9815,"Ġcleared":9816,"Ġcraft":9817,"ĠAz":9818,"fecture":9819,"Ġrust":9820,"Ġinvite":9821,"ĠNorway":9822,"break":9823,"EL":9824,"mind":9825,"ĠHold":9826,"Ġshy":9827,"Ġphysics":9828,"ĠHawai":9829,"please":9830,"Spec":9831,"morrow":9832,"Ġbump":9833,"ĠChile":9834,"Ġmetres":9835,"ĠCommander":9836,"Ready":9837,"ĠResearch":9838,"anny":9839,"ĠMain":9840,"Ġoffices":9841,"Ġtack":9842,"Ġacknow":9843,"orters":9844,"Ġadj":9845,"Ġdiplom":9846,"Mum":9847,"isha":9848,"star":9849,"ailing":9850,"Ġinvasion":9851,"Ġextensive":9852,"Ġmotiv":9853,"Ġvacation":9854,"Ã¼r":9855,"ĠMountain":9856,"Def":9857,"ĠMunicip":9858,"Ġequally":9859,"Ġgradually":9860,"Ġcombat":9861,"riv":9862,"ĠAdd":9863,"ĠToday":9864,"Ġflour":9865,"onight":9866,"ĠHart":9867,"ĠUSA":9868,"USE":9869,"Ġfemales":9870,"----------------":9871,"ecca":9872,"assador":9873,"Ġlongest":9874,"Ġobtain":9875,"Att":9876,"urious":9877,"Ġrenamed":9878,"miral":9879,"Ġthief":9880,"ĠSorry":9881,"ĠThus":9882,"ĠShakespeare":9883,"ĠHistor":9884,"comfort":9885,"Ġexisted":9886,"\"'":9887,"Ãª":9888,"Ġwow":9889,"Ġnerve":9890,"ĠBan":9891,"Ġmarch":9892,"Ġentitled":9893,"Ġinfluenced":9894,"ĠToronto":9895,"Ġconsciousness":9896,"ĠMP":9897,"ĠBruce":9898,"ĠWisconsin":9899,"Ġsecondary":9900,"Ġexcitement":9901,"Ġdivorced":9902,"Ġbattery":9903,"ĠOfficer":9904,"rehens":9905,"Ġassumed":9906,"Ġaccompan":9907,"lad":9908,"Ġmales":9909,"ĠDu":9910,"ĠDak":9911,"Ġclick":9912,"Ġstopping":9913,"Ġeducated":9914,"Ġfarther":9915,"estion":9916,"Ġmaiden":9917,"53":9918,"ĠHER":9919,"Ġabuse":9920,"Ġgoodbye":9921,"avig":9922,"Ġformation":9923,"Ġbelieves":9924,"ĠPete":9925,"pop":9926,"Ġcub":9927,"ARS":9928,"Ġ1935":9929,"Ġdelighted":9930,"Fire":9931,"icop":9932,"ĠPower":9933,"Ġdrill":9934,"ICK":9935,"ĠQueens":9936,"IP":9937,"ĠLead":9938,"Ġbrid":9939,"Ġprompt":9940,"Ġvisible":9941,"Ġtroubles":9942,"Ġric":9943,"Ġprogramming":9944,"Ġpip":9945,"Ġkicked":9946,"ante":9947,"Ġtrace":9948,"ĠStand":9949,"ussy":9950,"Ġexposed":9951,"ĠSecurity":9952,"Ty":9953,"Ġstiff":9954,"Ġdestruction":9955,"Ãº":9956,"Ġfee":9957,"ONG":9958,"ĠHoward":9959,"Ġsounded":9960,"ĠWork":9961,"ĠDomin":9962,"Ġabsence":9963,"Ġprinted":9964,"Ġdull":9965,"Ġoutput":9966,"ĠONE":9967,"Ġtermin":9968,"specially":9969,"Ġ33":9970,"ĠĠĠĠĠĠĠĠĠ":9971,"Ġmercy":9972,"Ġinstitutions":9973,"Ġschedule":9974,"Bad":9975,"ĠFamily":9976,"Ġglory":9977,"War":9978,"Ġguards":9979,"Ġconstructed":9980,"FC":9981,"Ġrib":9982,"Ġmeasures":9983,"Ġvehicles":9984,"Ġmanufacture":9985,"ĠHur":9986,"ĠRen":9987,"quis":9988,"Ġnep":9989,"Ġminimum":9990,"Ġglance":9991,"Ġinfl":9992,"Ġconsiderable":9993,"07":9994,"96":9995,"Richard":9996,"gian":9997,"Ġobey":9998,"ĠYe":9999,"ĠDonald":10000,"ĠRO":10001,"Ġrelationships":10002,"Ġcoinc":10003,"08":10004,"Ġswift":10005,"Ġbreaks":10006,"ÅĤ":10007,"Ġcourses":10008,"Ġhurricane":10009,"ammy":10010,"ĠTR":10011,"Ġabst":10012,"ĠVienna":10013,"ARE":10014,"Ġdiscussed":10015,"Ġprinciples":10016,"Baby":10017,"Work":10018,"ĠID":10019,"ĠPitt":10020,"actor":10021,"upon":10022,"Ġlayer":10023,"Ġcompanion":10024,"Finally":10025,"ĠABOUT":10026,"Enough":10027,"iden":10028,"ĠAmb":10029,"ppers":10030,"Ġgrounds":10031,"Ġhighway":10032,"umbled":10033,"ĠContin":10034,",âĢĻ":10035,"54":10036,"ĠTar":10037,"Ġresigned":10038,"Ġbriefly":10039,"ĠSquare":10040,"Ġboring":10041,"Ġlamp":10042,"ĠCamer":10043,"ilst":10044,"chell":10045,"Sil":10046,"icut":10047,"ifted":10048,"abled":10049,"ĠOntario":10050,"cluding":10051,"Ġinformed":10052,"Ġbehalf":10053,"ĠLucy":10054,"oons":10055,"Ġtube":10056,"ĠHo":10057,"ĠPad":10058,"ĠWhit":10059,"ĠSingapore":10060,"!!":10061,"ĠRabbit":10062,"reeze":10063,"ĠBrand":10064,"ĠKn":10065,"Ġdisappointed":10066,"div":10067,"Ġtoss":10068,"attered":10069,"unction":10070,"ĠHim":10071,"Ġsatell":10072,"Ġsufficient":10073,"Ġthread":10074,"Ġbears":10075,"ĠMess":10076,"pert":10077,"Ġchances":10078,"Ġ1937":10079,"Ġforests":10080,"mates":10081,"Ġtox":10082,"ĠHills":10083,"Ġfarmer":10084,"Anne":10085,"Wr":10086,"rine":10087,"riot":10088,"inations":10089,"Ġbunny":10090,"Ġfierce":10091,"Ġhid":10092,"ntown":10093,"ĠMaryland":10094,"Ġfacility":10095,"daddy":10096,"town":10097,"Ġcharming":10098,"Ġmerry":10099,"ĠDouglas":10100,"cular":10101,"struction":10102,"Ġanch":10103,"Ġimpressed":10104,"Ġgrandma":10105,"bors":10106,"Ġpant":10107,"ĠCall":10108,"ĠCare":10109,"Ġplates":10110,"illery":10111,"Ġinternet":10112,"Ġfurniture":10113,"ĠUkraine":10114,"Ġactors":10115,"ARR":10116,"Ġdevices":10117,"rants":10118,"zona":10119,"Ġchuck":10120,"Ġtechnique":10121,"power":10122,"Ġdwell":10123,"imb":10124,"Pardon":10125,"ĠHou":10126,"istinct":10127,"Ġunderground":10128,"Ġoperate":10129,"def":10130,"Ġbeet":10131,"ĠKer":10132,"Ġrecall":10133,"chair":10134,"Sur":10135,"Ġreserve":10136,"Ġpolicies":10137,"ĠLibrary":10138,"List":10139,"Ġhip":10140,"ĠLin":10141,"ĠFive":10142,"Ġrecognition":10143,"song":10144,"Ġvoted":10145,"Ġspaces":10146,"Ġhanded":10147,"Ġhopes":10148,"Ġeveryday":10149,"Ġethnic":10150,"Ġcategory":10151,"Ġtremend":10152,"Ġnephew":10153,"bian":10154,"anch":10155,"Ġshield":10156,"Ġsolar":10157,"Ġgolf":10158,"Ġsole":10159,"mi":10160,"ancing":10161,"ĠGR":10162,"ĠOliver":10163,"Ġfled":10164,"Ġcopper":10165,"ĠHelen":10166,"Ġbore":10167,"ĠRober":10168,"ĠRachel":10169,"Ġcord":10170,"ĠTennessee":10171,"pering":10172,"obb":10173,"Ġbronze":10174,"Ġmistakes":10175,"rm":10176,"Ġec":10177,"ĠBol":10178,"Ġvirus":10179,"Ġintend":10180,"Ġsecrets":10181,"ĠSom":10182,"Ġresign":10183,"Ġrepresenting":10184,"Ġbars":10185,"Ġtomb":10186,"ados":10187,"ĠCart":10188,"ctic":10189,"Ġdeleg":10190,"Ġhurried":10191,"Ġtemporary":10192,"ĠStanley":10193,"78":10194,"ĠHad":10195,"Ġbeloved":10196,"Ġdistract":10197,"ANK":10198,"Ġsensitive":10199,"warf":10200,"Ġtables":10201,"Ġrates":10202,"hammad":10203,"MY":10204,"ĠMars":10205,"Ġchase":10206,"Ġinsist":10207,"arc":10208,"lement":10209,"ĠAud":10210,"Young":10211,"Ġcharity":10212,"geous":10213,"ĠBeat":10214,"Ġsuperior":10215,"ĠBobby":10216,"count":10217,"Ġwashed":10218,"acious":10219,"ainted":10220,"Ġjazz":10221,"Ġwhoever":10222,"Ġpassenger":10223,"AST":10224,"Ġsearching":10225,"DS":10226,"Ġthunder":10227,"Ġmusicians":10228,"ĠSilver":10229,"ĠEntertainment":10230,"Ġcalendar":10231,"Ġnearer":10232,"ivia":10233,"ultan":10234,"Yo":10235,"oral":10236,"ĠAut":10237,"Ġvisiting":10238,"asia":10239,"Ġbelonged":10240,"Ġmos":10241,"Ġfare":10242,"oria":10243,"ĠMO":10244,"abama":10245,"Ġski":10246,"uart":10247,"ĠÅ":10248,"Ġrepresentative":10249,"ĠConfeder":10250,"ĠMAN":10251,"Ġseal":10252,"ĠPatrick":10253,"Ġopportunities":10254,"ĠPortuguese":10255,"Ġna":10256,"Ġgently":10257,"ĠBos":10258,"Ġwhale":10259,"MP":10260,"ĠChamp":10261,"urther":10262,"Ġrude":10263,"osure":10264,"Ġscientist":10265,"IFA":10266,"Ġhypot":10267,"ĠGary":10268,"pless":10269,"ĠCommand":10270,"Ġattempts":10271,"Ġscratch":10272,"asses":10273,"Ġ65":10274,"ĠBureau":10275,"Ġcitizen":10276,"hol":10277,"laughs":10278,"rels":10279,"Ġpros":10280,"HEN":10281,"Ġsilk":10282,"Ġentertainment":10283,"levant":10284,"?'":10285,"Brit":10286,"Lu":10287,"too":10288,"Ġoccasionally":10289,"Ġdramatic":10290,"Sounds":10291,"eters":10292,"Ġdishes":10293,"ivery":10294,"word":10295,"ĠWould":10296,"uliar":10297,"ĠGab":10298,"Ġspoon":10299,"Ġflav":10300,"Ġcomments":10301,"Ġdeaths":10302,"President":10303,"half":10304,"ĠBuck":10305,"Ġmuscle":10306,"Ġextend":10307,"Ġhesit":10308,"ĠSports":10309,"aza":10310,"Ġdefence":10311,"Ġlifetime":10312,"Ġdemanded":10313,"rating":10314,"abilities":10315,"ĠKal":10316,"ugs":10317,"Ġvector":10318,"ichi":10319,"Ġcounting":10320,"ĠSwiss":10321,"ographic":10322,"ophie":10323,"Ġprocedure":10324,"ĠArkansas":10325,"Ġgig":10326,"Ã©n":10327,"ĠBush":10328,"Ġkeen":10329,"Ġtopic":10330,"Ġelectrical":10331,"ĠChildren":10332,"Ġproposal":10333,"ĠTaiwan":10334,"Ġsty":10335,"Ġcure":10336,"ĠDID":10337,"ĠStock":10338,"ĠTHERE":10339,"Ġliterary":10340,"Ġremarkable":10341,"round":10342,"Ġaye":10343,"celer":10344,"artial":10345,"Ġmonarch":10346,"ĠFame":10347,"Ġprotein":10348,"ME":10349,"illing":10350,"Ġ34":10351,"Ġtune":10352,"ĠAqu":10353,"ouses":10354,"Ġcustomer":10355,"lemn":10356,"Ġshots":10357,"Ġmurm":10358,"Ġmiserable":10359,"ĠFederation":10360,"Ġinnit":10361,"PEAK":10362,"Girl":10363,"Ġcable":10364,"Pretty":10365,"ĠIan":10366,"agu":10367,"ĠPhill":10368,"cried":10369,"Ġdepression":10370,"Ġhosted":10371,"Ev":10372,"ĠLl":10373,"iami":10374,"Ġtremb":10375,"Ġmac":10376,"Ġyield":10377,"Chan":10378,"je":10379,"ĠSum":10380,"ĠPress":10381,"Ġseeds":10382,"Ġsynt":10383,"Ġlimits":10384,"ĠAthe":10385,"Ġconcerns":10386,"CL":10387,"ĠWee":10388,"avia":10389,"Ġ1931":10390,"Ġhonestly":10391,"UE":10392,"ifest":10393,"oper":10394,"Ġjam":10395,"Ġyourselves":10396,"Ġspeaks":10397,"rer":10398,"ĠReb":10399,"Ġaboard":10400,"hane":10401,"Ġprospect":10402,"Ġsharing":10403,"Ġfunds":10404,"Ġseeking":10405,"Ġworker":10406,"girl":10407,"ĠCra":10408,"Jean":10409,"yep":10410,"Ġrejo":10411,"ĠHitler":10412,"Bea":10413,"Ã¥":10414,"atical":10415,"ĠNort":10416,"Ġdisorder":10417,"Ġstatue":10418,"Ġpenalty":10419,"pack":10420,"asks":10421,"Ġkings":10422,"Ġsup":10423,"Ġwarned":10424,"Ġderiv":10425,"BLE":10426,"roit":10427,"Us":10428,"Ġlets":10429,"SP":10430,"might":10431,"Ġpreced":10432,"Ġdrum":10433,"Ġemotion":10434,"eeds":10435,"Ġrebu":10436,"300":10437,"52":10438,"aters":10439,"Ġnearest":10440,"Ġhers":10441,"Soon":10442,"Ġque":10443,"Ġanniversary":10444,"Ġbucks":10445,"ĠBangl":10446,"ĠNetwork":10447,"REAM":10448,"ipt":10449,"Ġboom":10450,"ĠSyl":10451,"86":10452,"rings":10453,"utter":10454,"Ġbrains":10455,"Ġdynam":10456,"Things":10457,"produ":10458,"opy":10459,"Ġchecking":10460,"ĠLawrence":10461,"something":10462,"section":10463,"Ġcliff":10464,"Ġrecovered":10465,"Ġaired":10466,"ĠUr":10467,"Ġrefuge":10468,"ĠEgyptian":10469,"dale":10470,"ulating":10471,"Ġspy":10472,"Ġelsewhere":10473,"Ġvalid":10474,"ĠOrgan":10475,"Ġfarmers":10476,"oting":10477,"ĠNative":10478,"Ġfavourite":10479,"Ġempire":10480,"Ġward":10481,"ĠGib":10482,"Ġ1929":10483,"Ġshelter":10484,"Ġorchestra":10485,"stop":10486,"Sy":10487,"Ġpeas":10488,"Ġresulted":10489,"Ġmask":10490,"Ġbleeding":10491,"Ġultimately":10492,"Ġcircuit":10493,"atus":10494,"iry":10495,"ĠPur":10496,"emed":10497,"change":10498,"orkshire":10499,"Ġ(_":10500,"ĠKings":10501,"Ġqueer":10502,"elect":10503,"Ġrushed":10504,"ĠNiger":10505,"Ġentering":10506,"Ã©s":10507,"Ġdeliber":10508,"Ġelectron":10509,"Ġassistance":10510,"Ġlinked":10511,"Ġloop":10512,"icip":10513,"ĠCensus":10514,"ĠPra":10515,"Ġsauce":10516,"ruption":10517,"Ġequivalent":10518,"Nat":10519,"Ġstages":10520,"ĠFinn":10521,"Ġintroduction":10522,"Ġvariable":10523,"ĠConnecticut":10524,"Sal":10525,"ĠBert":10526,"Ġbusinessman":10527,"Ġobserv":10528,"Ġpatterns":10529,"Ġuna":10530,"ĠIndones":10531,"Ġrhyth":10532,"77":10533,"iate":10534,"opes":10535,"ĠNHL":10536,"aste":10537,"Ġcontaining":10538,"arson":10539,"Ġdunno":10540,"Ac":10541,"Ġbuff":10542,"Ġstretched":10543,"ushes":10544,"former":10545,"Ġprivile":10546,"rot":10547,"isp":10548,"ĠZe":10549,"Ġsuggests":10550,"Ġblowing":10551,"Mat":10552,"achi":10553,"ĠTal":10554,"hoe":10555,"Ġgoddamn":10556,"ĠCass":10557,"issa":10558,"Ġdecades":10559,"Ġconfirm":10560,"ĠJunior":10561,"Ġsupplies":10562,"Personal":10563,"Ġtoes":10564,"ĠMoore":10565,"ĠDVD":10566,"Ġpencil":10567,"Ġfrogs":10568,"ateur":10569,"Ġhelpful":10570,"ĠChristians":10571,"Ġformerly":10572,"Ġ1928":10573,"adays":10574,"illes":10575,"Ġmonitor":10576,"cat":10577,"Ġbusinesses":10578,"Ġsafely":10579,"Ġdebuted":10580,"gi":10581,"Ġcongress":10582,"Though":10583,"Ġclimbed":10584,"Med":10585,"ĠEX":10586,"ught":10587,"Ġborders":10588,"Ġhollow":10589,"ĠThom":10590,"Ġquarters":10591,"Except":10592,"Ġmiracle":10593,"Ġbehaviour":10594,"Ġtact":10595,"Ġsits":10596,"orig":10597,"ĠFBI":10598,"Ġignor":10599,"Ġfrozen":10600,"Ġmeets":10601,"ĠPut":10602,"Stud":10603,"century":10604,"Ġthirst":10605,"ĠParker":10606,"VID":10607,"iens":10608,"ĠSky":10609,"ĠFranklin":10610,"Billboard":10611,"jamin":10612,"Instead":10613,"Ġperf":10614,"Ġelectronic":10615,"asket":10616,"ĠSergeant":10617,"ĠLaure":10618,"Ġturt":10619,"âĻªâĻª":10620,"ĠFrances":10621,"asha":10622,"ommod":10623,"Ġrobot":10624,"ĠAlexand":10625,"Guys":10626,"Ġgrief":10627,"Hel":10628,"Ġlyr":10629,"think":10630,"Ġattorney":10631,"03":10632,"ĠSin":10633,"ĠNich":10634,"tes":10635,"Ġcaut":10636,"Ġtoler":10637,"Ġstamp":10638,"Ġsurf":10639,"August":10640,"held":10641,"ĠDean":10642,"Ġadap":10643,"Ġemployment":10644,"ĠLuke":10645,"Far":10646,"ĠIF":10647,"Ass":10648,"Cle":10649,"Ġtons":10650,"ĠMead":10651,"ĠGoogle":10652,"Ġconsidering":10653,"APP":10654,"Ġattracted":10655,"IVE":10656,"dle":10657,"tra":10658,"Ġsack":10659,"idency":10660,"imore":10661,"ĠPass":10662,"ĠDiana":10663,"Ġuns":10664,"Ġconcrete":10665,"05":10666,"SR":10667,"ÅŁ":10668,"Ġdensity":10669,"Ġhitting":10670,"Ġattractive":10671,"ĠPLAY":10672,"hattan":10673,"Ġles":10674,"rik":10675,"riet":10676,"Ġknight":10677,"Ġjur":10678,"ĠDennis":10679,"ĠProdu":10680,"ĠDevelopment":10681,"ocation":10682,"azy":10683,"spector":10684,"Ġbored":10685,"Ġpile":10686,"ĠSuch":10687,"ften":10688,"Ġasshole":10689,"insula":10690,"Ġrepair":10691,"Ġfract":10692,"ITT":10693,"ĠEarl":10694,"Whoo":10695,"ĠHarris":10696,"Ġcarpet":10697,"Ġbench":10698,"Ġhem":10699,"Ġflies":10700,"Ġguarantee":10701,"Ġsink":10702,"Ġease":10703,"ĠNag":10704,"oca":10705,"Ġpackage":10706,"Ġgraduate":10707,"ĠNorman":10708,"mail":10709,"thought":10710,"Ġoutta":10711,"Ġtissue":10712,"Same":10713,"ture":10714,"Ġbeard":10715,"Ġgrat":10716,"ĠMadame":10717,"Ġconvince":10718,"04":10719,"Mind":10720,"vet":10721,"unn":10722,"ĠLaura":10723,"Ġtouching":10724,"Ġweakness":10725,"88":10726,"bles":10727,"ded":10728,"estly":10729,"ĠNar":10730,"Ġsteady":10731,"Ġdeeper":10732,"Ġuniversities":10733,"ĠLion":10734,"Ġ64":10735,"ĠRobinson":10736,"heastern":10737,"ĠWendy":10738,"Ġsynd":10739,"reaming":10740,"rophy":10741,"Ġ1932":10742,"ĠBelgium":10743,"Fred":10744,"Ġhal":10745,"Ġdifficulties":10746,"make":10747,"ĠOri":10748,"Ġfunding":10749,"ĠDakota":10750,"xual":10751,"Ġvib":10752,"Ġrifle":10753,"Ġtested":10754,"Ġradiation":10755,"ĠIslamic":10756,"jud":10757,"phan":10758,"Ġpension":10759,"ovak":10760,"ĠYorkshire":10761,"ĠMicro":10762,"Sweet":10763,"Ġgest":10764,"ĠBack":10765,"ĠLyn":10766,"Ġapproaching":10767,"Ġfundamental":10768,"Ġdespair":10769,"Charlie":10770,"Bob":10771,"hop":10772,"Ġorg":10773,"Ġpresently":10774,"Ġcolleagues":10775,"kward":10776,"sighs":10777,"isk":10778,"Ġshed":10779,"09":10780,"Ġgym":10781,"Ġspots":10782,"Ġwhereas":10783,"Ġbarn":10784,"ref":10785,"Ġbubble":10786,"Ġgifts":10787,"alle":10788,"Ġ42":10789,"Ġcreative":10790,"Ġgear":10791,"Ġgap":10792,"Ġthumb":10793,"Ġclar":10794,"Ġimprison":10795,"ĠXX":10796,"uela":10797,"Ġneighbors":10798,"Ġfeeding":10799,"ĠHIS":10800,"ĠAlabama":10801,"Ġspeaker":10802,"achelor":10803,"Ġexpanded":10804,"Ladies":10805,"Ġhosp":10806,"verty":10807,"Ġseated":10808,"ĠPun":10809,"ulance":10810,"ĠCOM":10811,"quet":10812,"ĠMarian":10813,"Ġunexpected":10814,"ĠCooper":10815,"Ġresolution":10816,"Ġwalks":10817,"Ġworthy":10818,"Ġexecution":10819,"mate":10820,"rob":10821,"ĠBeng":10822,"eller":10823,"Ġperformances":10824,"Ġbearing":10825,"uru":10826,"ĠGir":10827,"Ġpainter":10828,"Henry":10829,"ingo":10830,"ĠCost":10831,"ĠCole":10832,"ĠKate":10833,"Ġwithdraw":10834,"ĠBrig":10835,"ideo":10836,"Guess":10837,"Ġsubsequently":10838,"Ġdirections":10839,"ĠWindows":10840,"ader":10841,"ĠDeb":10842,"abe":10843,"Ġvocal":10844,"ĠStadium":10845,"Ġacceler":10846,"Ġpremie":10847,"Ġpond":10848,"ĠLane":10849,"Ġpoverty":10850,"remember":10851,"ĠMove":10852,"plete":10853,"Ġexperiments":10854,"ĠImperial":10855,"Ġbills":10856,"ĠCas":10857,"ĠYet":10858,"ĠJoan":10859,"Ġfaithful":10860,"Ġranked":10861,"uine":10862,"ĠMit":10863,"ĠNep":10864,"ĠIndust":10865,"Ġgenetic":10866,"ĠOak":10867,"Ġwisdom":10868,"ando":10869,"Ġsolemn":10870,"ĠFrog":10871,"Ġfinishing":10872,"Ġsubstant":10873,"ĠUnivers":10874,"Ġkindly":10875,"ĠTHINK":10876,"Ġjumping":10877,"Ġsatisfaction":10878,"Ġoptions":10879,"LRB":10880,"South":10881,"vals":10882,"odox":10883,"Ġfreak":10884,"Ġraising":10885,"oples":10886,"Ġcounsel":10887,"ĠCambridge":10888,"hill":10889,"mph":10890,"ĠMs":10891,"Ġmode":10892,"Ġpromote":10893,"Ġparam":10894,"cover":10895,"Ġbacteria":10896,"ĠLaurie":10897,"lings":10898,"Ġdick":10899,"ĠBha":10900,"ĠLev":10901,"Ġemperor":10902,"Ġexpansion":10903,"Martin":10904,"eight":10905,"hour":10906,"orus":10907,"ĠLeb":10908,"Otherwise":10909,"vard":10910,"Ġdict":10911,"ĠTower":10912,"ĠLim":10913,"Ġdescribes":10914,"ĠArizona":10915,"ĠHighness":10916,"ogen":10917,"Ġsquee":10918,"Ġpowder":10919,"ĠCroat":10920,"agram":10921,"Ġfict":10922,"Ġhopefully":10923,"Ġrejected":10924,"Biography":10925,"Kn":10926,"Ġconfront":10927,"Ġsuccessfully":10928,"Ġrarely":10929,"Ġvessels":10930,"Ġmild":10931,"Ġlos":10932,"ĠâĢĻ":10933,"Ġstays":10934,"Ġmicrophone":10935,"Ġol":10936,"Ġ1927":10937,"Ġpurchased":10938,"Dude":10939,"Mal":10940,"rock":10941,"ĠNev":10942,"ods":10943,"present":10944,"Ġpole":10945,"Ġstrip":10946,"Ġparking":10947,"Ġdocumentary":10948,"Ġtwist":10949,"ountain":10950,"Ġaccommod":10951,"Ġsunshine":10952,"odded":10953,"Ġmathematics":10954,"riel":10955,"ĠFIFA":10956,"ĠTrust":10957,"Ġtechniques":10958,"Ġsituations":10959,"ĠDoc":10960,"ĠNature":10961,"Ġconvent":10962,"ĠEconom":10963,"Ġ1918":10964,"Ġsometime":10965,"Ġpolite":10966,"Ġskull":10967,"ATOR":10968,"Ġselfish":10969,"Ġnovels":10970,"Ġfer":10971,"ĠRy":10972,"ĠEddie":10973,"Ġpointing":10974,"ĠProject":10975,"RRB":10976,"gro":10977,"Ġfert":10978,"Ġlux":10979,"ĠMi":10980,"Ġ1922":10981,"Ġclients":10982,"Ġbuzz":10983,"iper":10984,"lNG":10985,"idays":10986,"Eight":10987,"ĠCre":10988,"being":10989,"Ġ39":10990,"ĠRobin":10991,"San":10992,"Ġhammer":10993,"Ġaspects":10994,"cod":10995,"ĠCru":10996,"Ġexceed":10997,"Ġfeast":10998,"Ġportray":10999,"DP":11000,"grat":11001,"ĠBaron":11002,"Ġphilosopher":11003,"pot":11004,"Ġfires":11005,"Ġclown":11006,"Ġdescent":11007,"Ġrelatives":11008,"regon":11009,"ĠHotel":11010,"Ġdiamond":11011,"Mike":11012,"ĠMas":11013,"Ġ46":11014,"ĠSpace":11015,"Ġcuts":11016,"Ġdiseases":11017,"Ken":11018,"Ġbegged":11019,"ĠWoman":11020,"ĠChristopher":11021,"Ġmunicipalities":11022,"Ray":11023,"ete":11024,"ĠBry":11025,"ĠAgain":11026,"Ġpeculiar":11027,"Ġsoutheast":11028,"Ġdrank":11029,"ĠMum":11030,"ĠGU":11031,"ĠGra":11032,"ĠThose":11033,"Ġga":11034,"Ġcondem":11035,"Ġ1926":11036,"Ġrenew":11037,"Ġmurderer":11038,"!'":11039,"yay":11040,"Ġrele":11041,"ĠLam":11042,"olley":11043,"borough":11044,"Ġpuzzle":11045,"dist":11046,"Ġcomr":11047,"Ġencourage":11048,"Ġjunior":11049,"ĠJake":11050,"Ġblast":11051,"iop":11052,"Ġdeer":11053,"Ġchrist":11054,"Ġregularly":11055,"Ġcelebrated":11056,"Ġbattles":11057,"ĠArgentina":11058,"ĠSi":11059,"ĠAst":11060,"Ġprey":11061,"Ġundert":11062,"Through":11063,"shot":11064,"Ġfascin":11065,"Ġexpedition":11066,"ĠPremier":11067,"ĠÐ":11068,"Ġic":11069,"Ġconstruct":11070,"Ġstealing":11071,"Sighs":11072,"ĠSpirit":11073,"Ġmistress":11074,"Ġcasual":11075,"Child":11076,"Ġnit":11077,"Ġstorage":11078,"Ġunfortunately":11079,"wealth":11080,"Ġscre":11081,"Del":11082,"Especially":11083,"rous":11084,"Ġgross":11085,"ĠDallas":11086,"ĠNik":11087,"boat":11088,"Ġtitled":11089,"imm":11090,"ĠJenn":11091,"Ġexcess":11092,"Ġchim":11093,"Ġintelligent":11094,"Ġadvertising":11095,"TE":11096,"giving":11097,"Ġbelly":11098,"Off":11099,"Ġpee":11100,"ĠVegas":11101,"Ġshaking":11102,"ĠJohan":11103,"Ġperspective":11104,"veland":11105,"ĠGulf":11106,"Ġabstract":11107,"ndered":11108,"another":11109,"Ġactivist":11110,"ĠMedia":11111,"Ġcandy":11112,"Quite":11113,"Ġtricks":11114,"Ġparad":11115,"Ġqualified":11116,"Ġloaded":11117,"Ġceased":11118,"Ġgoddess":11119,"Ġhelicop":11120,"Ġadvis":11121,"Ġ1924":11122,"Ġnortheast":11123,"Ġpunch":11124,"aye":11125,"Ġ1917":11126,"Ġkills":11127,"White":11128,"ruck":11129,"Ġinstantly":11130,"Ġwidow":11131,"Ġgravity":11132,"comfortable":11133,"pres":11134,"Ġhire":11135,"ĠDyn":11136,"Ġ1919":11137,"agan":11138,"iane":11139,"Ġapples":11140,"Ġtribes":11141,"Ġpromotion":11142,"Ġprocesses":11143,"Ġexecuted":11144,"Ġinjuries":11145,"ĠIda":11146,"ĠJu":11147,"Ġterribly":11148,"arette":11149,"Ġadopt":11150,"ĠGilbert":11151,"Ġconcluded":11152,"Half":11153,"ĠRick":11154,"Ġsteep":11155,"ĠMountains":11156,"Ġmeasured":11157,"ĠPictures":11158,"Ġpizza":11159,"unted":11160,"Ġensure":11161,"Ġavo":11162,"wear":11163,"Ġcinem":11164,"Ġdefine":11165,"ĠAdams":11166,"ĠANY":11167,"ĠPalest":11168,"Ġtel":11169,"Ġfetch":11170,"ĠRat":11171,"ĠFine":11172,"Ġvary":11173,"ifications":11174,"cribed":11175,"Ġ1925":11176,"Part":11177,"Â²":11178,"ialect":11179,"Ġsurve":11180,"Ġpainful":11181,"Ġinnov":11182,"Ġcabinet":11183,"Ġconsequences":11184,"gels":11185,"apse":11186,"irect":11187,"Ġconsideration":11188,"MO":11189,"oj":11190,"usalem":11191,"Ġleather":11192,"mingham":11193,"rolled":11194,"ĠPeters":11195,"ĠApple":11196,"Ġemotions":11197,"Ġdatab":11198,"Ġfranch":11199,"Ġbeef":11200,"Ġunemploy":11201,"grim":11202,"Ġargued":11203,"ĠMuslims":11204,"fight":11205,"ificent":11206,"Ġsurprising":11207,"ĠMedical":11208,"Ġdenied":11209,"ĠJudge":11210,"Ġbin":11211,"iga":11212,"ĠEN":11213,"Ġvig":11214,"uda":11215,"Ġpayment":11216,"ISH":11217,"Ġtranslated":11218,"Sat":11219,"Supp":11220,"ĠPin":11221,"ĠShut":11222,"Ġdeny":11223,"Easy":11224,"rac":11225,"ANS":11226,"Ġinstall":11227,"gedy":11228,"Ġresulting":11229,"ĠAth":11230,"Ġbrick":11231,"Ġmothers":11232,"Coll":11233,"Ġdrives":11234,"Ġdelivery":11235,"ĠDeputy":11236,"Ġdemands":11237,"Charles":11238,"isible":11239,"Ġwarrant":11240,"egro":11241,"making":11242,"ĠAirl":11243,"pled":11244,"nothing":11245,"ĠCountry":11246,"entlemen":11247,"Ġlogic":11248,"ĠFarmer":11249,"DER":11250,"Hope":11251,"Que":11252,"ĠBear":11253,"Ġforehead":11254,"ĠCharlotte":11255,"rooms":11256,"oshi":11257,"aboo":11258,"Ġsailed":11259,"YEAH":11260,"89":11261,"ĠMerc":11262,"ĠRoc":11263,"wegian":11264,"Ġshouting":11265,"shi":11266,"Ġbind":11267,"Ġshares":11268,"ĠNobel":11269,"Ġregistered":11270,"Ġoccasions":11271,"Ġgender":11272,"Ġrage":11273,"Ġdevoted":11274,"Ġtrapped":11275,"Ġtriangle":11276,"Ġbeds":11277,"Clear":11278,"cH":11279,"rations":11280,"asures":11281,"ĠSnow":11282,"ĠTs":11283,"ĠDark":11284,"Ġgovernments":11285,"OMAN":11286,"Ġlads":11287,"ĠHamilton":11288,"Pe":11289,"Ġtum":11290,"Ġtiger":11291,"ĠRio":11292,"aku":11293,"Ġsections":11294,"rection":11295,"edge":11296,"icular":11297,"ĠBR":11298,"ĠWrest":11299,"ĠFriend":11300,"Ġgarbage":11301,"Ġfeathers":11302,"Ġcared":11303,"earl":11304,"Ġstretch":11305,"Ġpub":11306,"ĠBye":11307,"Ġarrow":11308,"ĠStorm":11309,"ixon":11310,"ĠColin":11311,"ACE":11312,"IME":11313,"Ġstared":11314,"Ġresidence":11315,"Ġdisturb":11316,"ega":11317,"Ġtraveling":11318,"cu":11319,"ĠJuan":11320,"reams":11321,"Ġairplane":11322,"Ġresemb":11323,"ĠSupp":11324,"Know":11325,"Ġbust":11326,"Ġinject":11327,"ĠOp":11328,"ĠKaz":11329,"aund":11330,"Ġchairs":11331,"ĠBird":11332,"ĠLow":11333,"Ġextract":11334,"Going":11335,"Ġawkward":11336,"Ġcookies":11337,"Ġenjoying":11338,"Ġbehave":11339,"Ġfloating":11340,"02":11341,"Ġlip":11342,"Ġaccent":11343,"ĠAlaska":11344,"Nor":11345,"Won":11346,"Ġwives":11347,"ĠStill":11348,"Ġ49":11349,"Ġsweat":11350,"ĠCuba":11351,"FOR":11352,"Ġom":11353,"ĠDC":11354,"emen":11355,"ĠRights":11356,"Being":11357,"ĠForeign":11358,"cers":11359,"Ġfiring":11360,"ĠMiami":11361,"open":11362,"Ġcheeks":11363,"Ġlandscape":11364,"ĠNazi":11365,"nity":11366,"Ġcust":11367,"Ġsoccer":11368,"ĠEth":11369,"ĠAnderson":11370,"Ġpublisher":11371,"big":11372,"bia":11373,"dec":11374,"ww":11375,"itical":11376,"idi":11377,"Ġbackwards":11378,"OUR":11379,"ologies":11380,"chard":11381,"dÃ©":11382,"zi":11383,"arse":11384,"Ġlamb":11385,"olo":11386,"Ġgenerations":11387,"ĠClare":11388,"arrator":11389,"Ġsneak":11390,"Ġlabour":11391,"Ġpossessed":11392,"ĠHouston":11393,"eat":11394,"Ġwounds":11395,"ĠAbd":11396,"Ġkittie":11397,"Ġtremendous":11398,"ĠSEE":11399,"ĠWard":11400,"Ġjungle":11401,"Ġsuggestion":11402,"Ġburden":11403,"lines":11404,"Ġchess":11405,"Ġdeaf":11406,"rov":11407,"Ġtransition":11408,"Ġsouls":11409,"kers":11410,"Ġfisher":11411,"Ġnodded":11412,"Ġhack":11413,"ĠList":11414,"Ġinfection":11415,"Ġcotton":11416,"Cons":11417,"Ġfir":11418,"Ġlun":11419,"ificial":11420,"Ġpenny":11421,"Ġparticipate":11422,"Ġprovinces":11423,"Kim":11424,"Ġtag":11425,"Ġauth":11426,"umed":11427,"Ġdragged":11428,"Ġamounts":11429,"ĠSA":11430,"Ġsear":11431,"ĠDur":11432,"Ġregister":11433,"iko":11434,"ĠLeo":11435,"Ġcottage":11436,"Ġaccurate":11437,"Ġearthquake":11438,"oped":11439,"Ġpoems":11440,"ranean":11441,"Ġcreep":11442,"PH":11443,"iti":11444,"org":11445,"ĠCook":11446,"icken":11447,"Ġdesigns":11448,"Ġapproached":11449,"cond":11450,"Ġlaura":11451,"igs":11452,"Ġuncertain":11453,"Ġcompound":11454,"ocity":11455,"Ġprev":11456,"Ġlyrics":11457,"Rock":11458,"ĠAuthor":11459,"Ġmadam":11460,"Ġcameras":11461,"intendo":11462,"ĠRussell":11463,"High":11464,"alph":11465,"Ġreception":11466,"headed":11467,"lia":11468,"ilia":11469,"Ġdivine":11470,"Ġpigs":11471,"ĠLabor":11472,"Ġtin":11473,"Ġscan":11474,"Ġchlor":11475,"Shh":11476,"ĠFlore":11477,"Ġinsects":11478,"Morning":11479,"fare":11480,"gage":11481,"Ġwipe":11482,"oute":11483,"ĠLot":11484,"Ġvital":11485,"ĠKam":11486,"Ġdischar":11487,"mat":11488,"Ġnotion":11489,"ortion":11490,"ĠCrown":11491,"Ġsurrender":11492,"ju":11493,"Ġnasty":11494,"ĠJulia":11495,"Ġhydrogen":11496,"ĠAffairs":11497,"Ġaccompanied":11498,"Ġgenuine":11499,"ÃŃa":11500,"Ġpeaceful":11501,"ĠWayne":11502,"English":11503,"Ġsympathy":11504,"Reg":11505,"Sa":11506,"gate":11507,"hot":11508,"ĠIvan":11509,"Ġrehe":11510,"ĠJose":11511,"ounter":11512,"Ġpractically":11513,"ĠMetropolitan":11514,"Ġcandidates":11515,"Ever":11516,"Fif":11517,"ĠReal":11518,"oga":11519,"Ġserial":11520,"ussian":11521,"Thomas":11522,"Ġdropping":11523,"Ġmounted":11524,"Ġsticks":11525,"Ġlinear":11526,"repre":11527,"Ġmuscles":11528,"gressive":11529,"Ġsuitable":11530,"Rog":11531,"Å«":11532,"Ġrit":11533,"Ġbrig":11534,"believ":11535,"=\"":11536,"nest":11537,"Ġjoking":11538,"Ġpresentation":11539,"Ġladder":11540,"Ġpurchase":11541,"ĠAfghanistan":11542,"ĠRub":11543,"Ġconfusion":11544,"Ġfeaturing":11545,"ĠWILL":11546,"Ġvegetables":11547,"Ġexplosion":11548,"Äį":11549,"Ġhen":11550,"Ġreun":11551,"Ġsalary":11552,"ĠCOVID":11553,"ĠScient":11554,"iang":11555,"Ġsuspicious":11556,"Mo":11557,"Sn":11558,"Tim":11559,"whel":11560,"rea":11561,"Ġcough":11562,"ĠTel":11563,"ophy":11564,"Ġshove":11565,"Ġcongrat":11566,"Ġassure":11567,"Ġparticles":11568,"Ġhistorian":11569,"reprene":11570,"green":11571,"Ġbishop":11572,"Ġhumanity":11573,"ĠWelsh":11574,"Ġwagon":11575,"orship":11576,"Ġdifferently":11577,"?!":11578,"Certainly":11579,"Pop":11580,"ellig":11581,"Trust":11582,"ĠJulie":11583,"GRUN":11584,"Cal":11585,"orable":11586,"Ġstake":11587,"Ġconvention":11588,"Ġcompass":11589,"Ġsubstance":11590,"Ġdelicate":11591,"ĠTHEY":11592,"Ġchemistry":11593,"Ġalphabet":11594,"ĠBour":11595,"agine":11596,"Ġcolours":11597,"Ġdrops":11598,"success":11599,"ĠChristianity":11600,"Ġblessed":11601,"Add":11602,"person":11603,"ĠWalt":11604,"Ġmatrix":11605,"Ġextension":11606,"Use":11607,"piece":11608,"Ġcows":11609,"Ġnavig":11610,"ecutive":11611,"ĠOregon":11612,"Ġconscience":11613,"Ġexplo":11614,"Ġcontrary":11615,"helle":11616,"Hell":11617,"level":11618,"Ġcoin":11619,"Ġversus":11620,"68":11621,"Mag":11622,"xide":11623,"Ġsore":11624,"Ġpeasant":11625,"Ġconcerning":11626,"Ġ1923":11627,"ĠPortugal":11628,"free":11629,"ĠSax":11630,"ĠPant":11631,"Ġedges":11632,"ĠHighway":11633,"ĠMalays":11634,"Hard":11635,"Ġsigh":11636,"Ġnaught":11637,"Ġje":11638,"ĠDetroit":11639,"Ġcontemporary":11640,"Ġconsec":11641,"Ġquote":11642,"ĠVik":11643,"harm":11644,"Ġinsisted":11645,"ĠCos":11646,"ĠDong":11647,"ĠNelson":11648,"Ġsmallest":11649,"ructure":11650,"Ã«":11651,"Ġchannels":11652,"Ġarrangement":11653,"ĠHindu":11654,"\":":11655,"Ġtu":11656,"Ġdispl":11657,"Ġmaintained":11658,"Ġeffectively":11659,"Ġagriculture":11660,"ieved":11661,"ĠEmma":11662,"Ġcharm":11663,"Ġinterior":11664,"Unfortunately":11665,"Ġtravelling":11666,"necess":11667,"pse":11668,"ĠAge":11669,"AME":11670,"Seriously":11671,"fr":11672,"mare":11673,"Ġnerves":11674,"ĠNam":11675,"Ġcray":11676,"Ġromance":11677,"Number":11678,"PR":11679,"Ãĺ":11680,"Ġassembly":11681,"Forgive":11682,"VERY":11683,"Ġlend":11684,"Ġ1921":11685,"Ġclay":11686,"Ġdownload":11687,"ĠCommunist":11688,"Ġgle":11689,"Ġliver":11690,"ĠLas":11691,"ĠThrough":11692,"Ġhunter":11693,"Ġdowntown":11694,"Ġdough":11695,"Ġdoggie":11696,"Ġcharts":11697,"Ġcloset":11698,"children":11699,")}":11700,"acent":11701,"ulu":11702,"active":11703,"Ġbarg":11704,"wald":11705,"Ġfits":11706,"aron":11707,"ahn":11708,"Ġplanets":11709,"Ġcommunicate":11710,"ĠMorris":11711,"Î±":11712,"Ġtheories":11713,"Fucking":11714,"Ġblanket":11715,"Holy":11716,"named":11717,"Ġreci":11718,"Ġseas":11719,"ĠFace":11720,"Anyone":11721,"ĠPerhaps":11722,"usions":11723,"ĠAlb":11724,"Ġcaps":11725,"Ġrestored":11726,"Ġzoo":11727,"related":11728,"shaped":11729,"Ġbullshit":11730,"rÃ©":11731,"Ã¸":11732,"oug":11733,"ĠHorn":11734,"ĠRap":11735,"abet":11736,"Ġexternal":11737,"ĠEmily":11738,"Ġscheduled":11739,"Air":11740,"nut":11741,"ĠTun":11742,"iciency":11743,"Bas":11744,"Best":11745,"bits":11746,"love":11747,"âĶ":11748,"Ġtrash":11749,"Ġcolony":11750,"ĠTrump":11751,"ĠAdminist":11752,"offs":11753,"Ġmistaken":11754,"ĠMadrid":11755,"Ġobliged":11756,"ĠMarshall":11757,"Ġderived":11758,"natural":11759,"ĠUtah":11760,"ĠMand":11761,"Ġbush":11762,"Ġpoliceman":11763,"Plus":11764,"Ġlinks":11765,"Ġsuspected":11766,"Ġweigh":11767,"Ġorbit":11768,"ĠSoon":11769,"Ġlieutenant":11770,"Ġroutes":11771,"Max":11772,"Ġeighth":11773,"ĠDenmark":11774,"isn":11775,"olph":11776,"Ġrespectively":11777,"whoops":11778,"ĠStat":11779,"Ġconsent":11780,"Ġchoices":11781,"Ġtrusted":11782,"Ġpacked":11783,"Ġestablishment":11784,"Mer":11785,"Sus":11786,"Ġdialect":11787,"ector":11788,"ANG":11789,"Ġlocations":11790,"Ġsatellite":11791,"uits":11792,"Ä«":11793,"usk":11794,"ells":11795,"Ġsprang":11796,"Ġchin":11797,"Ġfounding":11798,"ĠClinton":11799,"Ġpublication":11800,"Ġpillow":11801,"ĠCec":11802,"iland":11803,"ĠLast":11804,"ilation":11805,"throp":11806,"Ġmustn":11807,"Ġrounds":11808,"Ġori":11809,"ĠLisa":11810,"otto":11811,"Ġscarcely":11812,"Ġbund":11813,"Ġdesignated":11814,"alymp":11815,"-+":11816,"CR":11817,"Calm":11818,"Ġdoin":11819,"ĠLower":11820,"ieval":11821,"Ġ47":11822,"Ġcheek":11823,"Ġinvolves":11824,"ĠBaltimore":11825,"zard":11826,"Ġpressed":11827,"Ġexit":11828,"Ġefficient":11829,"Ġpurse":11830,"Ġcoward":11831,"Ġambulance":11832,"Ġconcentration":11833,"ethe":11834,"Ġstead":11835,"ĠPRO":11836,"ĠJa":11837,"Ġspider":11838,"grand":11839,"ĠRomania":11840,"Mur":11841,"vation":11842,"Ġey":11843,"REE":11844,"Ġimmense":11845,"Ġsandwich":11846,"ĠTamil":11847,"ĠAlfred":11848,"Gold":11849,"National":11850,"ĠBY":11851,"Ġvoy":11852,"OWN":11853,"Ġincreases":11854,"ĠArea":11855,"Ġdynasty":11856,"Ġconverted":11857,"Ġexhibition":11858,"Ġsustain":11859,"Ġfet":11860,"Ġpairs":11861,"ĠHop":11862,"Ġbarrel":11863,"Ġveter":11864,"Ġdreaming":11865,"Joe":11866,"Ġ1914":11867,"Ġdecade":11868,"Ġrig":11869,"Ġengagement":11870,"ĠNorwegian":11871,"Ġpanic":11872,"Ġshadows":11873,"Ġpraise":11874,"Ġscholar":11875,"Ġconstituency":11876,"Ġbeans":11877,"outing":11878,"ĠLinda":11879,"Ġdestiny":11880,"Ġsuspic":11881,"ĠMemorial":11882,"ĠWalker":11883,"Ġwrapped":11884,"baby":11885,"acha":11886,"thodox":11887,"Ġadvoc":11888,"Ġoccupation":11889,"Indeed":11890,"North":11891,"parent":11892,"ĠMember":11893,"Ġcontrols":11894,"Ġburnt":11895,"Ġchips":11896,"Ġretain":11897,"ĠOrigin":11898,"ĠUpper":11899,"owser":11900,"Ġcommanded":11901,"ĠCaesar":11902,"Ġimpressive":11903,"Bu":11904,"imens":11905,"ĠJosh":11906,"Ġ1900":11907,"Ġdetective":11908,"March":11909,"ĠCrow":11910,"Ġbottles":11911,"Ġassignment":11912,"phy":11913,"armed":11914,"Ġkm":11915,"Ġcompare":11916,"Ġjudges":11917,"ĠGreater":11918,"ĠAirlines":11919,"inea":11920,"ĠRain":11921,"Hit":11922,"iable":11923,"Ġcents":11924,"Ġgates":11925,"Ġstro":11926,"Ġswept":11927,"ĠParalymp":11928,"onies":11929,"ĠTerry":11930,"Ġpeoples":11931,"Ġgrain":11932,"Ġindex":11933,"Ġindicate":11934,"ĠLive":11935,"igious":11936,"Ġinvitation":11937,"Ġdreamed":11938,"ĠWright":11939,"inkle":11940,"ĠOR":11941,"Ġdrown":11942,"feld":11943,"92":11944,"ĠGon":11945,"Ġshorter":11946,"abl":11947,"Ġmisunder":11948,"ĠMedal":11949,"Ġclimbing":11950,"ĠJerusalem":11951,"ĠAtlanta":11952,"Ġtraveled":11953,"Ġtranslation":11954,"tit":11955,"yers":11956,"Ġpace":11957,"ifies":11958,"oren":11959,"inburgh":11960,"urrent":11961,"Ġplug":11962,"Ġaddressed":11963,"Ġdanced":11964,"apsed":11965,"Ġmechanical":11966,"Ġnucle":11967,"school":11968,"Ġmanifest":11969,"Ġvoting":11970,"ycl":11971,"ayan":11972,"ĠPhys":11973,"ollo":11974,"Ġwhistle":11975,"Coming":11976,"vas":11977,"Ġtid":11978,"uto":11979,"Ġslope":11980,"ĠDoes":11981,"Ġboundary":11982,"Ġdemocracy":11983,"PA":11984,"Ġaccord":11985,"Ġfortun":11986,"Ġwrestling":11987,"Ġintellectual":11988,"Ġdated":11989,"aco":11990,"Ġuncomfortable":11991,"Ġblown":11992,"issance":11993,"ocking":11994,"ĠTelevision":11995,"Ġagricultural":11996,"ĠBirmingham":11997,"Fre":11998,"hant":11999,"Ġcage":12000,"ĠRu":12001,"Ġcompanions":12002,"Ġroutine":12003,"Ġanxiety":12004,"pherd":12005,"cillor":12006,"Ð°":12007,"ĠSri":12008,"Ġalike":12009,"ĠNintendo":12010,"Ġcarries":12011,"Ġgenerous":12012,"...!":12013,"beat":12014,"Ġrocket":12015,"Ġrevol":12016,"fortunate":12017,"ania":12018,"Ġeats":12019,"Ġovercome":12020,"Ġtrib":12021,"Ġfucked":12022,"Ġdesigner":12023,"ettle":12024,"ĠMilan":12025,"ĠObama":12026,"Mont":12027,"itated":12028,"Ġbury":12029,"omo":12030,"ĠSciences":12031,"Ġclue":12032,"Ġroses":12033,"Ġgloom":12034,"anka":12035,"Ġmoder":12036,"Ġcultiv":12037,"Ġmummy":12038,"Ġpreparing":12039,"Laughs":12040,"squ":12041,"bean":12042,"Ġsignals":12043,"Ġobser":12044,"Ġfantasy":12045,"icycle":12046,"WAY":12047,"lest":12048,"ĠTak":12049,"Ġorganisation":12050,"Ġcouch":12051,"ĠAbb":12052,"Ġshark":12053,"Ġevidently":12054,"believable":12055,"Met":12056,"Mel":12057,"imony":12058,"ĠHand":12059,"Ġ120":12060,"Ġorphan":12061,"Ġruler":12062,"Ġhydro":12063,"EFA":12064,"Having":12065,"cia":12066,"Ġsheets":12067,"ĠYouth":12068,"Ġproduces":12069,"Ġorganic":12070,"ĠProgram":12071,"ĠFinland":12072,"Neither":12073,"Ġdomain":12074,"Ġdared":12075,"ĠColomb":12076,"igenous":12077,"oning":12078,"hara":12079,"ĠLang":12080,"izer":12081,"Ġsleepy":12082,"Ġeldest":12083,"Af":12084,"Ġdot":12085,"leans":12086,"Ġrack":12087,"guing":12088,"ths":12089,"ĠLarry":12090,"Ġcriticism":12091,"ĠBangladesh":12092,"ĠCow":12093,"ĠTit":12094,"ĠRey":12095,"essions":12096,"Ġsends":12097,"OUND":12098,"Ġpatch":12099,"Ġpunk":12100,"show":12101,"ĠAgent":12102,"ĠCleveland":12103,"Ġadapted":12104,"gus":12105,"Ġoverwhel":12106,"obs":12107,"Ġpatience":12108,"ĠAdmiral":12109,"Ġperiods":12110,"June":12111,"both":12112,"ĠDespite":12113,"GA":12114,"Pull":12115,"nik":12116,"Ġwhilst":12117,"acey":12118,"ĠArmen":12119,"Ġmerc":12120,"Ġseventeen":12121,"Follow":12122,"Tonight":12123,"acts":12124,"issions":12125,"uffy":12126,"Ġoven":12127,"Ġfame":12128,"Ġdoct":12129,"Ġraw":12130,"ĠInn":12131,"Ġdining":12132,"Ter":12133,"omot":12134,"Ġcrimin":12135,"Ġdeputy":12136,"ĠSamuel":12137,"strong":12138,"ĠMelbourne":12139,"ĠDorothy":12140,"Ġ1000":12141,"oda":12142,"orne":12143,"tenance":12144,"ASE":12145,"67":12146,"sn":12147,"Ġcomposition":12148,"Ġ44":12149,"Ġcharacteristics":12150,"rise":12151,"Ġflex":12152,"ĠNan":12153,"Ġshocked":12154,"ĠMunicipality":12155,"DE":12156,"Ġdesired":12157,"Ġconsisted":12158,"Ġtrading":12159,"ĠPrix":12160,"Ġmagazines":12161,"Ġmechanism":12162,"alie":12163,"Ġalert":12164,"eges":12165,"ĠManhattan":12166,"Ġfictional":12167,"ĠGas":12168,"ĠGarden":12169,"ĠFern":12170,"Ġ(),":12171,"Anybody":12172,"ographical":12173,"Ġsung":12174,"ĠFat":12175,"rah":12176,"Ġcamps":12177,"ĠChand":12178,"laughter":12179,"urname":12180,"Ġscattered":12181,"Donald":12182,"Ġmilit":12183,"Ġexplains":12184,"river":12185,"87":12186,"Ġ{":12187,"Ġprovision":12188,"ĠVerm":12189,"Ġowns":12190,"Ġneutral":12191,"ĠHolland":12192,"jab":12193,"oro":12194,"ĠSHE":12195,"Ġunited":12196,"Ġrecorder":12197,"Ġlegit":12198,"Ġcooked":12199,"Ġverse":12200,"DR":12201,"alion":12202,"Ġstern":12203,"ĠGrey":12204,"ĠWarren":12205,"Ġrepresentation":12206,"SS":12207,"Water":12208,"Ġfeared":12209,"roid":12210,"azine":12211,"Ġviolin":12212,"??":12213,"icia":12214,"amous":12215,"ĠCatherine":12216,"Ġsod":12217,"Ġlists":12218,"Ugh":12219,"Ġmast":12220,"Ġdwarf":12221,"ĠSally":12222,"actory":12223,"Ġindicated":12224,"enez":12225,"âĢİ.":12226,"bish":12227,"cap":12228,"ĠHat":12229,"izard":12230,"arks":12231,"Ġhappily":12232,"Ġsla":12233,"Ġ85":12234,"ĠPed":12235,"Ġneuro":12236,"Ġintr":12237,"Ġcompens":12238,"Ġscandal":12239,"apper":12240,"Ġcolored":12241,"ĠRoberts":12242,"mble":12243,"vol":12244,"Ġreli":12245,"rak":12246,"Ġhelpless":12247,"ĠMario":12248,"Ġhighlight":12249,"Atl":12250,"Id":12251,"URE":12252,"ĠRud":12253,"Ġappet":12254,"Ġplanes":12255,"Ã¨re":12256,"Ġencouraged":12257,"Ġgathering":12258,"Ġcigarette":12259,"arms":12260,"iterranean":12261,"Ġpropose":12262,"ĠSammy":12263,"Ġprayers":12264,"Home":12265,"Ġtreaty":12266,"ĠSeven":12267,"Ġmidst":12268,"Ġrequirements":12269,"ĠLiberal":12270,"pin":12271,"Ġbubbles":12272,"Ġpic":12273,"alia":12274,"oded":12275,"Ġclo":12276,"Ġhumili":12277,"Ġmarketing":12278,"ĠBulgar":12279,"ĠKeep":12280,"ĠStew":12281,"ĠStuart":12282,"ogs":12283,"Ġthrust":12284,"Ġadmire":12285,"Ġpractices":12286,"USIC":12287,"Ġtherapy":12288,"Gee":12289,"Ġgene":12290,"ĠRi":12291,"Ġdestro":12292,"Ġapproval":12293,"Ġwitnesses":12294,"Ġcuriosity":12295,"hearted":12296,"Ġlegislation":12297,"Ġsocks":12298,"ĠInstead":12299,"Ġ55":12300,"whoa":12301,"âĶĢ":12302,"ÃĻ":12303,"ĠGrammy":12304,"speaking":12305,"interest":12306,"ĠSpencer":12307,"Ġheroes":12308,"ĠImp":12309,"hism":12310,"Ġshapes":12311,"Ġbreed":12312,"Ġmeantime":12313,"ĠTerrit":12314,"Ġthoroughly":12315,"ido":12316,"ĠStaff":12317,"Ġquid":12318,"Ġ88":12319,"Ġwaist":12320,"ĠCommunity":12321,"oir":12322,"Ġmand":12323,"Ġcancell":12324,"Ġvic":12325,"Ġdistinguished":12326,"Woman":12327,"Ġpills":12328,"Ġgoat":12329,"ĠWes":12330,"claimed":12331,"Ġsentenced":12332,"Ġlawn":12333,"ĠQuebec":12334,"ĠCarlos":12335,"Ġphotographs":12336,"ĠHunter":12337,"IAN":12338,"later":12339,"sil":12340,"itches":12341,"Ġfest":12342,"uno":12343,"ĠGraham":12344,"Ġstriking":12345,"Ġanticip":12346,"Ġcatching":12347,"Ġmultiply":12348,"Ġuniversal":12349,"Tube":12350,"Äĥ":12351,"ĠBACK":12352,"ĠWhich":12353,"Ġblows":12354,"Ġdivisions":12355,"ĠAmong":12356,"Ġsituated":12357,"itate":12358,"encing":12359,"arter":12360,"ĠRand":12361,"Ġneedle":12362,"Ġdisgr":12363,"Ġmini":12364,"Ġlowest":12365,"ĠWHO":12366,"ĠServices":12367,"á¹":12368,"ĠAhm":12369,"Ġumb":12370,"umns":12371,"ĠThird":12372,"Ġignore":12373,"Ġliberty":12374,"Ġballoon":12375,"Chief":12376,"ĠCentury":12377,"Ġfilling":12378,"Ġrubber":12379,"Seven":12380,"ĠFROM":12381,"uction":12382,"ifully":12383,"hoen":12384,"Ġstatements":12385,"Ġdressing":12386,"Ġreveal":12387,"Ġmagnetic":12388,"Ġcriter":12389,"Ġimagined":12390,"Ġscrewed":12391,"Ġtravelled":12392,"uscript":12393,"Ġrelevant":12394,"Ġrape":12395,"ĠRun":12396,"ĠKan":12397,"Ġconservative":12398,"Ġaffili":12399,"Carl":12400,"Ġfranchise":12401,"Kar":12402,"PER":12403,"Ġtide":12404,"early":12405,"ĠEdinburgh":12406,"Ġvanished":12407,"omeday":12408,"Ġdignity":12409,"ĠHawaii":12410,"ilight":12411,"Ġrealise":12412,"Ġpersonnel":12413,"Ġirrit":12414,"Ġgalaxy":12415,"Ġpretending":12416,"arrondissement":12417,"ĠShort":12418,"ĠJustin":12419,"ĠFrederick":12420,"aton":12421,"Ġreaches":12422,"ĠBenn":12423,"Ġdecides":12424,"cycle":12425,"Ġtroubled":12426,"nia":12427,"wife":12428,"Ġpier":12429,"agraph":12430,"Ġscoring":12431,"Ġceiling":12432,"lic":12433,"Ġwelf":12434,"ĠBL":12435,"ĠHeb":12436,"ĠSingh":12437,"Ġcomedian":12438,"Ġwelfare":12439,"acco":12440,"Ġjerk":12441,"ĠNext":12442,"Ġwheat":12443,"high":12444,"ĠUEFA":12445,"retched":12446,"ĠOrleans":12447,"Ġprotecting":12448,"Walk":12449,"Ġexhibit":12450,"Ġattribut":12451,"ĠAncient":12452,"Ba":12453,"Ġdent":12454,"arus":12455,"iller":12456,"Ġsentiment":12457,"Ġmultipl":12458,"Ġsubur":12459,"ĠHarvard":12460,"France":12461,"ĠMust":12462,"Ġartistic":12463,"Ġpercentage":12464,"65":12465,"oline":12466,"ulum":12467,"Ġsuits":12468,"Ġregiment":12469,"Ġclassified":12470,"Ġestimate":12471,"ĠHeritage":12472,"Ġpopularity":12473,"ocese":12474,"ventually":12475,"East":12476,"eting":12477,"ĠChat":12478,"ĠWr":12479,"ĠGy":12480,"ĠLen":12481,"plain":12482,"Ġevalu":12483,"Ġdiameter":12484,"Bo":12485,"UH":12486,"itis":12487,"Ġgardens":12488,"ĠWonder":12489,"ista":12490,"Ġoverse":12491,"ĠVis":12492,"Ġcargo":12493,"Ġkindness":12494,"ĠJanet":12495,"Ġmarkets":12496,"ĠMontreal":12497,"ĠAntonio":12498,"bai":12499,"Ġdiver":12500,"ĠCad":12501,"Ġtrump":12502,"Ġchasing":12503,"Ġcultures":12504,"ĠBetween":12505,"Ġoptim":12506,"Ġinspiration":12507,"Ġwasted":12508,"Ġstub":12509,"ĠMarilla":12510,"ĠGray":12511,"Ġdancer":12512,"ĠBusiness":12513,"Send":12514,"Ġpad":12515,"Ġlou":12516,"Ġhint":12517,"Ġfiled":12518,"Almost":12519,"Ġobservation":12520,"Ġnomination":12521,"ĠBelgian":12522,"Cool":12523,"ĠShir":12524,"Ġmolecules":12525,"haus":12526,"anim":12527,"adi":12528,"ulse":12529,"ĠYan":12530,"Ġassured":12531,"Ġremarked":12532,"Police":12533,"Ġprecisely":12534,"course":12535,"Ġchip":12536,"ĠBri":12537,"ĠConstant":12538,"Born":12539,"onom":12540,"Ġstew":12541,"ĠChamber":12542,"ulus":12543,"Ġmush":12544,"engu":12545,"Ġathlete":12546,"ĠBrooklyn":12547,"Ġdisgusting":12548,"ĠPitts":12549,"94":12550,"Ġrect":12551,"ĠRea":12552,"ĠAnnie":12553,"iverpool":12554,"Ġcontribution":12555,"ĠMicrosoft":12556,"Count":12557,"IX":12558,"estyle":12559,"Ġ1910":12560,"Ġpunished":12561,"Ġdiagnosed":12562,"olleyball":12563,"Det":12564,"ĠDead":12565,"earing":12566,"Ġnoon":12567,"ĠKil":12568,"ikes":12569,"ammar":12570,"Ġslavery":12571,"isne":12572,"ĠSound":12573,"ĠBed":12574,"Ġ95":12575,"Ġfatal":12576,"track":12577,"Ġfears":12578,"Ġphones":12579,"ĠFront":12580,"Ġidentical":12581,"Ġwealthy":12582,"ĠDiego":12583,"ĠVI":12584,"Ġapparent":12585,"INGS":12586,"Ġengage":12587,"ĠGuy":12588,"Ġobjective":12589,"Ġblessing":12590,"Ġfluid":12591,"inch":12592,"Ġawait":12593,"uerto":12594,"Land":12595,"Ġoath":12596,"Ġdoo":12597,"olished":12598,"Ġsmells":12599,"Ġrebell":12600,"ĠCampbell":12601,"avalry":12602,"64":12603,"Haven":12604,"vernment":12605,"Ġcollar":12606,"eyed":12607,"Ġdrivers":12608,"ĠCommonwealth":12609,"Rose":12610,"Ġfruits":12611,"Ġreverse":12612,"ĠGor":12613,"ĠJournal":12614,"Ġlandl":12615,"Ġbullets":12616,"Ġjewel":12617,"Ġproportion":12618,"SA":12619,"ĠKit":12620,"Ġfighter":12621,"Ġlaying":12622,"Ġradical":12623,"Ġ250":12624,"Ġdeparture":12625,"Whether":12626,"lace":12627,"Ġpian":12628,"steps":12629,"ĠRet":12630,"Ġfewer":12631,"Ġsignature":12632,"Ġfraud":12633,",...":12634,"Ġ1912":12635,"angled":12636,"Ġforming":12637,"Ġsuccessor":12638,"ĠPlace":12639,"Ġverte":12640,"hr":12641,"lay":12642,"athy":12643,"ĠHeart":12644,"neum":12645,"Ġharsh":12646,"Ġwinners":12647,"Professor":12648,"ampshire":12649,"birds":12650,"Ãī":12651,"Ġlane":12652,"Ġbuttons":12653,"ĠBarbara":12654,"Ġsank":12655,"isen":12656,"Ġinaug":12657,"ĠMolly":12658,"umi":12659,"Ġmanip":12660,"Ġresolved":12661,"Ġfoods":12662,"ĠNeil":12663,"ĠLeonard":12664,"Ġvelocity":12665,"French":12666,"Ġrod":12667,"grade":12668,"Ġdefensive":12669,"PL":12670,"Ġhay":12671,"ĠBec":12672,"Ġentreprene":12673,"ĠTechnology":12674,"Ġstack":12675,"ĠAcc":12676,"unks":12677,"Ġkilometers":12678,"zel":12679,"aments":12680,"ĠBuzz":12681,"acht":12682,"avan":12683,"Ġconvicted":12684,"Ġliberal":12685,"Ġcul":12686,"unity":12687,"ĠYug":12688,"enson":12689,"Ġleap":12690,"Ġabsurd":12691,"85":12692,"GB":12693,"Might":12694,"Ġtenth":12695,"Ġjokes":12696,"Ġspray":12697,"eremy":12698,"Ġflame":12699,"ebast":12700,"Ġeconomics":12701,"Ġhunger":12702,"ĠGrandfather":12703,"bishop":12704,"Ġwax":12705,"Ġrevenue":12706,"Ġabund":12707,"Ġevolved":12708,"supp":12709,"Ġconductor":12710,"Between":12711,"Ġbeliefs":12712,"400":12713,"mel":12714,"ĠPil":12715,"ĠDragon":12716,"Ġpeep":12717,"ensed":12718,"Ġcontinuous":12719,"ĠBenjamin":12720,"Ġgamb":12721,"ĠFollowing":12722,"ĠEli":12723,"iva":12724,"Ġhomework":12725,"ussia":12726,"Ġautumn":12727,"ĠSue":12728,"Ġsailing":12729,"OUS":12730,"Pass":12731,"ĠSem":12732,"Ġrecovery":12733,"ibi":12734,"Ġdeadly":12735,"Ġobserve":12736,"Ġcivilization":12737,"Ġacquaint":12738,"Ġtrucks":12739,"Ġresource":12740,"Ġpartnership":12741,"num":12742,"wed":12743,"aba":12744,"Ġross":12745,"iza":12746,"ĠYE":12747,"aver":12748,"umper":12749,"lier":12750,"Ġgenes":12751,"Ġsurvival":12752,"Ġdiscipline":12753,"ĠCEO":12754,"fs":12755,"Ġmant":12756,"Ġpause":12757,"Ġpapa":12758,"Ġchrom":12759,"Ġharvest":12760,"Ġ52":12761,"Ġartificial":12762,"Ġtaxi":12763,"Ġbabe":12764,"TR":12765,"del":12766,"arge":12767,"ravo":12768,"tail":12769,"isd":12770,"ĠCR":12771,"eae":12772,"Ġjunk":12773,"Ġgloves":12774,"ĠExcuse":12775,"Ġmemorial":12776,"handed":12777,"Val":12778,"Ġpion":12779,"chuckles":12780,"ĠNice":12781,"Ġcomponents":12782,"Ġscrap":12783,"Ġscores":12784,"Ġfollowers":12785,"Ġancestors":12786,"Ġprosper":12787,"Ãł":12788,"ĠHampshire":12789,"ĠNed":12790,"ĠJen":12791,"udson":12792,"Ġarchae":12793,"Ġbrut":12794,"atively":12795,"Ġaccomplished":12796,"Ġtorture":12797,"Ġvague":12798,"udible":12799,"ĠStri":12800,"British":12801,"End":12802,"Wake":12803,"mund":12804,"Ġfog":12805,"Ġamateur":12806,"achine":12807,"Ġextinct":12808,"Ġdetailed":12809,"Ġsolitary":12810,"Ġprocessing":12811,"Ġloads":12812,"ĠHugh":12813,"ĠGlen":12814,"Ġholidays":12815,"anne":12816,"ĠBaker":12817,"olar":12818,"ested":12819,"ĠLanc":12820,"Ġcolumns":12821,"urope":12822,"Ġpotatoes":12823,"Ġplanted":12824,"len":12825,"Ġburg":12826,"iler":12827,"ĠPapa":12828,"Ġspan":12829,"Ġpaused":12830,"Ġvulner":12831,"Bro":12832,"Dem":12833,"Ġrating":12834,"Ġsob":12835,"arded":12836,"Ġdisgu":12837,"Ġmembership":12838,"Ġphysician":12839,"ĠMediterranean":12840,"Ġemployee":12841,"Ġfrequent":12842,"ĠBoys":12843,"Ġguitarist":12844,"Ġmotherf":12845,"ĠSeattle":12846,"Ġarguments":12847,"ige":12848,"ĠIl":12849,"ĠNOW":12850,"Ġunfortunate":12851,"Ġstrangers":12852,"ARK":12853,"Close":12854,"Ġaudio":12855,"Ġbombs":12856,",.":12857,"Wal":12858,"Ġdug":12859,"hyl":12860,"Therefore":12861,"ĠGirls":12862,"Ġpreparation":12863,"Harry":12864,"Ret":12865,"Ġcra":12866,"rium":12867,"ĠRuth":12868,"Ġmining":12869,"Ġevac":12870,"Ġnicely":12871,"Ġvisits":12872,"Ġdealt":12873,"Ġrubbish":12874,"Ġmagnificent":12875,"ĠIsraeli":12876,"ĠHarrison":12877,"Ġalleged":12878,"onymous":12879,"\"\"":12880,"talk":12881,"Ġnom":12882,"eches":12883,"ĠDAY":12884,"ĠOd":12885,"ĠOz":12886,"ptions":12887,"Ġpoliticians":12888,"ĠFaith":12889,"Ġrehears":12890,"93":12891,"Ġhence":12892,"acre":12893,"Ġarray":12894,"Ġreporter":12895,"Ġcurse":12896,"Ġcreates":12897,"Perfect":12898,"Ġpsychiat":12899,"boys":12900,"colm":12901,"zerbai":12902,"BR":12903,"var":12904,"stable":12905,"Ġpalm":12906,"Ġpockets":12907,"Ġcontributed":12908,"April":12909,"Roger":12910,"Eat":12911,"Les":12912,"Ġsurname":12913,"Ġmartial":12914,"Ġmans":12915,"ĠAlber":12916,"Ġassets":12917,"Ġcircles":12918,"Ġportrait":12919,"Ġpermit":12920,"Ġgrocer":12921,"Ġmice":12922,"istical":12923,"ĠJe":12924,"osexual":12925,"Ġinstalled":12926,"ieth":12927,"Ġ72":12928,"Ġtrend":12929,"Ġfemin":12930,"Ġsequel":12931,"Ġpreferred":12932,"ĠTransport":12933,"Ġtragedy":12934,"Ġsurviv":12935,"Ġpsychology":12936,"ĠBroadway":12937,"October":12938,"pron":12939,"ĠDanish":12940,"Ġruling":12941,"list":12942,"Ġpine":12943,"Ġpresum":12944,"Ġmonument":12945,"ĠOrchestra":12946,"Ġarrangements":12947,"Ġinterrupted":12948,"Either":12949,"inery":12950,"Ġlazy":12951,"ĠTob":12952,"ĠVic":12953,"Ġcrept":12954,"Ġlungs":12955,"Ġexhausted":12956,"crow":12957,"Ġmaj":12958,"ĠCurt":12959,"ĠBass":12960,"anton":12961,"ĠKu":12962,"Ġswitched":12963,"Ġlocality":12964,"Ġmixture":12965,"Ġratio":12966,"ML":12967,"gic":12968,"tle":12969,"Ġfib":12970,"Ġalter":12971,"hana":12972,"Ġimper":12973,"psy":12974,"aneous":12975,"Ġrobbery":12976,"Ġchallenges":12977,"ĠMoz":12978,"Ġcrops":12979,"Ġnursing":12980,"Ġfossil":12981,"WA":12982,"wering":12983,"ĠMort":12984,"Ġdock":12985,"ĠDal":12986,"Ġoffensive":12987,"aux":12988,"ials":12989,"Ġpreserved":12990,"Ġballet":12991,"election":12992,"Ġnetworks":12993,"Ġconnections":12994,"ĠPersian":12995,"Shoot":12996,"Women":12997,"mod":12998,"ĠWag":12999,"assy":13000,"eaker":13001,"Chuckles":13002,"Ġslee":13003,"Ġcorporate":13004,"bound":13005,"ski":13006,"went":13007,"ĠSultan":13008,"Ġcrashed":13009,"sels":13010,"untary":13011,"Ġposted":13012,"Ġhorns":13013,"Mac":13014,"ĠKaren":13015,"Ġenforce":13016,"Ġpraised":13017,"Aunt":13018,"front":13019,"Ġpanc":13020,"Ġhood":13021,"Ġhed":13022,"ĠAisne":13023,"ĠMR":13024,"Ġjolly":13025,"ĠJenny":13026,"Ġdeals":13027,"Apparently":13028,"Obviously":13029,"Ol":13030,"cs":13031,"Ġsegment":13032,"Ġinstruction":13033,"Ġtriumph":13034,"Ġartillery":13035,"Ġcandle":13036,"IGHS":13037,"Ġprofile":13038,"Ġbetrayed":13039,"__":13040,"mers":13041,"ĠPap":13042,"ĠGill":13043,"ieves":13044,"Ġsubmar":13045,"Ġvisitor":13046,"Ġappearing":13047,"ĠAbraham":13048,"Ġcontinuing":13049,"post":13050,"Ġstored":13051,"Ġ1915":13052,"Ġune":13053,"Ġhumor":13054,"ĠProtest":13055,"September":13056,"Ġgrin":13057,"EP":13058,"Ġmister":13059,"Ġweary":13060,"seud":13061,"anth":13062,"Ġbloss":13063,"Ġcoins":13064,"Ġ66":13065,"Ġinfect":13066,"Light":13067,"Ġarose":13068,"ĠTreat":13069,"Ġrag":13070,"igo":13071,"Believe":13072,"Ġmammals":13073,"Ġbonds":13074,"ĠIron":13075,"ĠNAS":13076,"erek":13077,"Ġ43":13078,"Ġhates":13079,"ĠExpress":13080,"Green":13081,"Lee":13082,"once":13083,"Ġcodes":13084,"ĠYouTube":13085,"rainian":13086,"Ġhelicopter":13087,"ĠDuck":13088,"Ġ1916":13089,"Ġcomponent":13090,"neys":13091,"Ġsenses":13092,"Ġpunish":13093,"years":13094,"Ġtales":13095,"ĠGun":13096,"aware":13097,"Ġ51":13098,"mmet":13099,"Ġtraditions":13100,"ĠGOING":13101,"Ġnowadays":13102,"Ġattacking":13103,"Ġdatabase":13104,"uis":13105,"ĠRow":13106,"Ġmanuscript":13107,"ilda":13108,"Ġmarine":13109,"IDE":13110,"Ġgeomet":13111,"ĠGeoff":13112,"ĠCraig":13113,"Ġrhythm":13114,"Following":13115,"Ġmedals":13116,"Ms":13117,"Ġwider":13118,"riors":13119,"rost":13120,"Ġwhore":13121,"essa":13122,"Ġscen":13123,"Ġcounted":13124,"Ġphotographer":13125,"Ġcircus":13126,"Ġfaculty":13127,"July":13128,"overs":13129,"Ġstem":13130,"Ġdistinction":13131,"ĠPrim":13132,"Ġweekly":13133,"iciently":13134,"Bur":13135,"Ġcries":13136,"stick":13137,"ĠTIME":13138,"ĠWant":13139,"Ġjer":13140,"ieu":13141,"Ġvow":13142,"azon":13143,"Ġinvisible":13144,"ĠForces":13145,"Ġranks":13146,"ĠBuilding":13147,"Ġbugs":13148,"Ġcontroversial":13149,"ĠSlo":13150,"elli":13151,"igers":13152,"Ġfarming":13153,"Ġtransmit":13154,"Ġcoron":13155,"Ġclosest":13156,"Ġdelightful":13157,"wright":13158,"isons":13159,"still":13160,"opl":13161,"plex":13162,"Ġelabor":13163,"ttes":13164,"WO":13165,"cal":13166,"names":13167,"Ðµ":13168,"Ð¾":13169,"Ġdried":13170,"irable":13171,"ibbean":13172,"Ġinfinite":13173,"itarian":13174,"Ġpuppy":13175,"Relax":13176,"Mor":13177,"pos":13178,"Ġber":13179,"kee":13180,"Ġassemb":13181,"eling":13182,"ĠCalv":13183,"Ġvolt":13184,"Ġthreatening":13185,"ĠLAUGH":13186,"ripp":13187,"anded":13188,"Ġwilliam":13189,"Ġmaintenance":13190,"Ġsouthwestern":13191,"Tony":13192,"tin":13193,"Ġshone":13194,"ubs":13195,"ĠYam":13196,"gins":13197,"braska":13198,"Quiet":13199,"Ġcheerful":13200,"Ġbothered":13201,"72":13202,"Meanwhile":13203,"ĠWOULD":13204,"Ġrational":13205,"Ġeleg":13206,"Ġ78":13207,"Ġ99":13208,"Ġtempor":13209,"Ġelectrons":13210,"ĠExecutive":13211,"ylan":13212,"Cheers":13213,"ĠMetro":13214,"Ġcommitment":13215,"ĠLegisl":13216,"Dev":13217,"ĠBatt":13218,"orting":13219,"ĠKl":13220,"ressing":13221,"Ġfinest":13222,"ATTER":13223,"ĠClay":13224,"CHUCK":13225,"Ġstruggling":13226,"ĠConservative":13227,"ĠRomans":13228,"Mil":13229,"rella":13230,"Ġinev":13231,"Ġstalk":13232,"Ġunc":13233,"close":13234,"brid":13235,"Ġopinions":13236,"Ġchir":13237,"Ġobsc":13238,"Ġbasement":13239,"ĠConvention":13240,"Ġheels":13241,"ĠMack":13242,"ĠLuther":13243,"rawn":13244,"Ġopponent":13245,"Ġderivative":13246,"cott":13247,"Ġwears":13248,"ĠRic":13249,"ĠNancy":13250,"Ġshine":13251,"Ġgran":13252,"asey":13253,"Ġperpet":13254,"Ġsecured":13255,"Ġcounts":13256,"Ġsummon":13257,"CHE":13258,"Sister":13259,"iu":13260,"jack":13261,"reeks":13262,"anga":13263,"Ġcheaper":13264,"Ġreader":13265,"Ġutil":13266,"ĠGOOD":13267,"Ġcriminals":13268,"Aust":13269,"gal":13270,"Ġflung":13271,"Ġinvolving":13272,"Ġcomplain":13273,"ĠMartha":13274,"Cent":13275,"dro":13276,"ĠDaw":13277,"ĠKnow":13278,"Ġcollapse":13279,"astery":13280,"Ġdigging":13281,"IO":13282,"oku":13283,"Ġexpense":13284,"Ġ83":13285,"Ġpatron":13286,"afa":13287,"Ġorgans":13288,"vironment":13289,"Ġwoo":13290,"Ġfitted":13291,"asper":13292,"ĠSaud":13293,"without":13294,"ĠPalmer":13295,"Ġbiological":13296,"Ġquantity":13297,"January":13298,"ĠSean":13299,"Ġstove":13300,"ĠNav":13301,"REAT":13302,"Ġcleaned":13303,"ĠMurray":13304,"ĠWrestling":13305,"ĠFlorence":13306,"seen":13307,"ĠMarine":13308,"sson":13309,"Ġbells":13310,"AA":13311,"isure":13312,"Ġunl":13313,"venth":13314,"ĠThough":13315,"Ġpriests":13316,"Ġaccompany":13317,"ĠFormula":13318,"Boss":13319,"Japan":13320,"Ġlovers":13321,"kh":13322,"Ġmoth":13323,"Ġmaps":13324,"Ġsober":13325,"Ġ56":13326,"Ġhurting":13327,"ĠCathedral":13328,"Ġvirgin":13329,"Ġmanners":13330,"ĠVenez":13331,"ublin":13332,"eneration":13333,"Ġcolonel":13334,"Ġboundaries":13335,"ĠBund":13336,"Ġrats":13337,"Looking":13338,"ĠThompson":13339,"Jac":13340,"Ġangels":13341,"ĠHappy":13342,"ĠListen":13343,"Ġupside":13344,"ĠĠĠĠĠĠĠĠĠĠĠ":13345,"Ġpsychological":13346,"Ġcrowded":13347,"Ġrequested":13348,"ldom":13349,"ĠSop":13350,"ĠHannah":13351,"ingle":13352,"Ġhind":13353,"Ġtwins":13354,"Ġgrim":13355,"Ġfreely":13356,"True":13357,"Ġgorgeous":13358,"Ġnaval":13359,"ĠWol":13360,"ĠYang":13361,"Ġresting":13362,"arrison":13363,"ĠOFF":13364,"Ġsubsequent":13365,"Ġisolated":13366,"Ang":13367,"Jane":13368,"Money":13369,"Real":13370,"VI":13371,"ĠMaur":13372,"ĠWatch":13373,"essed":13374,"Ġmines":13375,"Ġlawyers":13376,"market":13377,"Ġbucket":13378,"ĠHungary":13379,"Ġpursue":13380,"ĠAthlet":13381,"maid":13382,"shire":13383,"asa":13384,"omon":13385,"ĠChel":13386,"ĠRena":13387,"ĠFitz":13388,"haniel":13389,"resa":13390,"ĠKid":13391,"Ġadam":13392,"aneously":13393,"Ġprophe":13394,"Ġterritories":13395,"Ep":13396,"Imp":13397,"ĠSuz":13398,"Ġsigning":13399,"movie":13400,"Ġwages":13401,"atra":13402,"Ġenhan":13403,"ĠClaire":13404,"Ġsolutions":13405,"Ġventure":13406,"fashion":13407,"Î½":13408,"Ġliar":13409,"ĠFall":13410,"Ġmarble":13411,"Ġ77":13412,"Ġclassification":13413,"ĠAgency":13414,"THEY":13415,"Ġprofound":13416,"won":13417,"ÂĿ":13418,"achment":13419,"Ġapplause":13420,"Rad":13421,"SHE":13422,"Sarah":13423,"log":13424,"onn":13425,"ĠFuck":13426,"Chris":13427,"Ġsuspended":13428,"ĠKarl":13429,"German":13430,"Hm":13431,"oqu":13432,"Ġties":13433,"itness":13434,"ĠThor":13435,"Ġvacc":13436,"Ġsurgeon":13437,"Ġspeakers":13438,"Ġsolved":13439,"aduate":13440,"Ġeternal":13441,"Queen":13442,"QU":13443,"Ġstair":13444,"ĠLiverpool":13445,"Ġ41":13446,"Ġdepressed":13447,"ĠClar":13448,"shop":13449,"ĠParish":13450,"ĠHarvey":13451,"Ġcostume":13452,"Ġsuggesting":13453,"Ġreferring":13454,"ĠBrothers":13455,"Ġnickname":13456,"NARR":13457,"must":13458,"rup":13459,"Ġninth":13460,"Blue":13461,"Ġincorporated":13462,"onge":13463,"Ġbeam":13464,"ĠSAY":13465,"ĠProp":13466,"Ġneur":13467,"ĠRan":13468,"Ġrip":13469,"trans":13470,"ĠâĶ":13471,"Ġtal":13472,"Ġhut":13473,"ĠHob":13474,"ĠFif":13475,"ĠExt":13476,"Ġlighter":13477,"Ġfirmly":13478,"Ġautomatic":13479,"83":13480,"ĠSeveral":13481,"iao":13482,"Ġstrain":13483,"Ġparagraph":13484,"rast":13485,"throw":13486,"ĠEllen":13487,"Ġpenet":13488,"Ġcomplications":13489,"Ġsamples":13490,"Ġted":13491,"Ġconspir":13492,"flies":13493,"Ġgraduating":13494,"ĠCatal":13495,"Danny":13496,"ĠNepal":13497,"ih":13498,"atched":13499,"Ġwasting":13500,"adv":13501,"ĠCoun":13502,"oping":13503,"Ġjet":13504,"ĠJin":13505,"Ġlightning":13506,"Alpes":13507,"uka":13508,"Ġcategories":13509,"othe":13510,"ĠBuff":13511,"Ġalliance":13512,"Ġworm":13513,"Ġbutterfly":13514,"oppy":13515,"Ġpupils":13516,"Ġcustody":13517,"Save":13518,"Ġheap":13519,"Ġoutcome":13520,"nergy":13521,"Ġconsistent":13522,"dem":13523,"Ġtire":13524,"Ġmead":13525,"ĠMind":13526,"ifting":13527,"ĠOrange":13528,"borne":13529,"Ġreplacement":13530,"ĠPunjab":13531,"Ra":13532,"Ġtanks":13533,"Ġcemetery":13534,"ĠAP":13535,"ĠRoute":13536,"2010":13537,"ĠIsa":13538,"Ġlearnt":13539,"Ġrestaurants":13540,"ĠJefferson":13541,"Ġbatteries":13542,"Jimmy":13543,"NARRATOR":13544,"Feel":13545,"itudes":13546,"Ġbail":13547,"rily":13548,"ĠBox":13549,"Ġrepublic":13550,"ONNA":13551,"Ġhopeless":13552,"Ġmurders":13553,"ĠPittsburgh":13554,"bad":13555,"mus":13556,"ĠId":13557,"Ġcancel":13558,"Ġinterpretation":13559,"Ġtowel":13560,";:":13561,"DC":13562,"Ġregulations":13563,"Ġreflected":13564,"ĠTrade":13565,"Ġsticking":13566,"Ġbanana":13567,"Ġinvestigate":13568,"ĠDelhi":13569,"Ġqualities":13570,"Daniel":13571,"Ġcolonial":13572,"Ġcertific":13573,"Read":13574,"sw":13575,"Ġtravels":13576,"celona":13577,"73":13578,"ctoral":13579,"Ġorganisms":13580,"Ġsnap":13581,"Ã¶n":13582,"Ġcelebration":13583,"Ġhospitals":13584,".!":13585,"CON":13586,"CAR":13587,"sometimes":13588,"ĠMans":13589,"closed":13590,"United":13591,"Ġultimate":13592,"Jeff":13593,"amples":13594,"seven":13595,"ĠLt":13596,"Ã©t":13597,"Ġmedic":13598,"Ġtastes":13599,"Luc":13600,"Ġturb":13601,"ĠPuerto":13602,"ĠRangers":13603,"ĠRalph":13604,"rake":13605,"Ġvamp":13606,"December":13607,"Ain":13608,"chio":13609,"ĠNFL":13610,"Ġdiary":13611,"Ġsexy":13612,"ALK":13613,"Ġassociate":13614,"Adam":13615,"Applause":13616,"Ġresponded":13617,"ĠFairy":13618,"á»":13619,"ĠEight":13620,"hambers":13621,"Ġ86":13622,"Ġmedieval":13623,"ĠAllah":13624,"coat":13625,"Ġsupports":13626,"Ġpublishing":13627,"Ġcoverage":13628,"MI":13629,"NY":13630,"Ġanswering":13631,"Ġarrives":13632,"Ġadventures":13633,"Suddenly":13634,"hou":13635,"Â¡":13636,"inth":13637,"Ġsoph":13638,"Ġmeals":13639,"ĠHorse":13640,"type":13641,"Ġsweep":13642,"bone":13643,"ĠAin":13644,"ĠEP":13645,"Ġshade":13646,"Ġtemperatures":13647,"Ġturkey":13648,"Ġtab":13649,"Ġtroll":13650,"imation":13651,"ĠMama":13652,"gered":13653,"ĠFal":13654,"ĠArnold":13655,"Ġunto":13656,"Ġ600":13657,"Ã©es":13658,"Ġexperts":13659,"Ġrecept":13660,"olid":13661,"ikh":13662,"forward":13663,"Ġcharacteristic":13664,"Colonel":13665,"84":13666,"ben":13667,"Ġatoms":13668,"Ġshaped":13669,"sterdam":13670,"writing":13671,"Ġtransportation":13672,"Ham":13673,"ĠCOULD":13674,"ĠLords":13675,"Ã¶r":13676,"ĠMagazine":13677,"Ġodds":13678,"Ġautomatically":13679,"Ġimprovement":13680,"Ġauthors":13681,"Lady":13682,"graph":13683,"cliff":13684,"Ġsymbols":13685,"Ġfolded":13686,"Ġnaughty":13687,"Hot":13688,"Wonder":13689,"mag":13690,"ĠAzerbai":13691,"ĠMouse":13692,"ĠPel":13693,"berries":13694,"ugar":13695,"Ġhonored":13696,"Ġpermitted":13697,"Ġembarrassing":13698,"Ġembarrassed":13699,"ĠBah":13700,"Ġcomplaint":13701,"ĠBaseball":13702,"BY":13703,"Major":13704,"Pal":13705,"ĠWWE":13706,"Ġ1913":13707,"Ġagencies":13708,"Ġrelieved":13709,"Ġ82":13710,"Imagine":13711,"ĠPC":13712,"istant":13713,"emale":13714,"Ġregime":13715,"Ġdrain":13716,"Ġbanned":13717,"Ġrecommended":13718,"Ġcomparison":13719,"ĠMitchell":13720,"ĠEthiop":13721,"Port":13722,"anche":13723,"Ġgoss":13724,"ĠPA":13725,"Ġconj":13726,"arer":13727,"Ġpays":13728,"Ġsquir":13729,"ÃŃn":13730,"Ġlectures":13731,"Ġpissed":13732,"Ġpeasants":13733,"Joseph":13734,"tree":13735,"ĠBurg":13736,"Note":13737,"Ġdefending":13738,"Ġdestination":13739,"Ġphysically":13740,"Ġtoe":13741,"Ġnail":13742,"uting":13743,"ĠPierre":13744,"ĠPhoen":13745,"ĠWik":13746,"oval":13747,"Ġtribut":13748,"Ans":13749,"Ġrecognised":13750,"opard":13751,"ĠJill":13752,"quer":13753,"Ġbiology":13754,"November":13755,"illo":13756,"ĠFu":13757,"ĠInspector":13758,"Ġurgent":13759,"ĠArabic":13760,"ĠHungarian":13761,"nor":13762,"Ġq":13763,"Ġlakes":13764,"Ġcenters":13765,"Ġsincere":13766,"Ġfights":13767,"ĠGallery":13768,"Ġingred":13769,"ĠPicard":13770,"ĠâĶĤ":13771,"Fore":13772,"YS":13773,"Ġporn":13774,"ĠTro":13775,"ĠTodd":13776,"Ġratt":13777,"ĠOscar":13778,"Ġserver":13779,"ĠHarold":13780,"Ġcompeting":13781,"Ġannouncement":13782,"Ġdisagre":13783,"Ġacknowled":13784,"iors":13785,"erts":13786,"Ġheir":13787,"Ġbew":13788,"imo":13789,"iege":13790,"Ġpean":13791,"ORY":13792,"THIS":13793,"ĠDevon":13794,"Ġtransmission":13795,"Ġdisturbed":13796,"HOW":13797,"Ġdub":13798,"Ġtob":13799,"Ġpneum":13800,"stad":13801,"Ġguid":13802,"Ġscales":13803,"Ġdecline":13804,"phones":13805,"Thus":13806,"ĠCaribbean":13807,"Ġkissing":13808,"Ġdependent":13809,"Ġshells":13810,"Ġconsisting":13811,"Ġinherit":13812,"ĠAthens":13813,"gom":13814,"arted":13815,"Ġsecretly":13816,"Ġcontributions":13817,"Despite":13818,"ĠYugosl":13819,"ĠDin":13820,"inaudible":13821,"Ġpromises":13822,"Ġparas":13823,"Ġconcerts":13824,"ĠMichel":13825,"Ġsharply":13826,"ĠRogers":13827,"91":13828,"Bon":13829,"Ġrows":13830,"ĠKang":13831,"Wouldn":13832,"ascal":13833,"Europe":13834,"Fort":13835,"bul":13836,"ĠÄ":13837,"Ġwag":13838,"Ġbee":13839,"storm":13840,"ĠChen":13841,"ĠTol":13842,"ĠUniverse":13843,"Ġreaders":13844,"blue":13845,"try":13846,"hend":13847,"hent":13848,"ishi":13849,"ĠGriff":13850,"Ġcompounds":13851,"tingham":13852,"Ġconfession":13853,"Phone":13854,"Ke":13855,"gil":13856,"Ġ1911":13857,"Ġbloke":13858,"Inter":13859,"Ġregards":13860,"black":13861,"Ġwhisper":13862,"Ġmoist":13863,"Ġcrop":13864,"Ġunre":13865,"Station":13866,"Ġsensible":13867,"Ġproceeded":13868,"Mod":13869,"Sen":13870,"zburg":13871,"Ġdense":13872,"ĠRaymond":13873,"Ġincredibly":13874,"Ġtheat":13875,"Ġank":13876,"ĠPoly":13877,"oodle":13878,"Ġmankind":13879,"arettes":13880,"Ġbrass":13881,"Ġpolar":13882,"Ġpreserve":13883,"minute":13884,"Ġpurely":13885,"Ġunfair":13886,"ĠModern":13887,"ĠLloyd":13888,"ĠHebrew":13889,"TY":13890,"Ġroast":13891,"Ġresort":13892,"Ġendea":13893,"INGING":13894,"Ġguessed":13895,"Ġbelonging":13896,"ĠMalaysia":13897,"norm":13898,"Ġpod":13899,"Ġheal":13900,"ĠBey":13901,"auc":13902,"ĠWarner":13903,"Ġrepresentatives":13904,"Ġcorners":13905,"ĠStudies":13906,"GAS":13907,"daughter":13908,"ĠHank":13909,"Ġhandling":13910,"Ġglorious":13911,"Ġbushes":13912,"Ġdrums":13913,"Ġlaughs":13914,"aptist":13915,"Ġcoastal":13916,"partement":13917,"Ġchemicals":13918,"Ġstrategic":13919,"Ġtherm":13920,"Ġsurviving":13921,"ĠJonathan":13922,"Ġturtle":13923,"Nick":13924,"Ġwrap":13925,"Ġbicycle":13926,"Ġgrandson":13927,"Ġwallet":13928,"Ġspinning":13929,"ĠCalvados":13930,"Win":13931,"Ġsins":13932,"enos":13933,"Ġgoose":13934,"Ġecho":13935,"Ġdeploy":13936,"ĠKir":13937,"Ġdaylight":13938,"Ġsummit":13939,"Ġrises":13940,"riers":13941,"Ġbelieving":13942,"Ġpatrol":13943,"Ġpitcher":13944,"ĠSelena":13945,"ĠSylvia":13946,"ĠIndonesia":13947,"Gentlemen":13948,"Ġtatt":13949,"Ġchi":13950,"ĠSandy":13951,"Ġashes":13952,"estone":13953,"Ġvag":13954,"Ġens":13955,"ĠBlake":13956,"ĠIranian":13957,"ĠNapole":13958,"ĠVillage":13959,"Ġhorizont":13960,"Ġtens":13961,"ĠCour":13962,"ĠMong":13963,"ĠMorning":13964,"Ġfrust":13965,"Ġ87":13966,"Ġseparation":13967,"Ġconcentrate":13968,"Steve":13969,"IES":13970,"Ġmr":13971,"eda":13972,"Ġlemon":13973,"ĠNebraska":13974,"between":13975,"Ġconsequence":13976,"Pas":13977,"uddy":13978,"Ġtrials":13979,"Ġelectro":13980,"Ġindustries":13981,"Ġdresses":13982,"Ġ1908":13983,"Ġterrorist":13984,"Ġrugby":13985,"ĠLeader":13986,"Ġstyles":13987,"dig":13988,"olis":13989,"ĠDream":13990,"Ġtrous":13991,"pleasant":13992,"Ġemerged":13993,"Ġmanufacturing":13994,"Ġquantum":13995,"Ġphenomenon":13996,"mir":13997,"Â§":13998,"Ġtension":13999,"iche":14000,"ivan":14001,"ierra":14002,"ĠSyria":14003,"Ġcriticized":14004,"Friend":14005,"Nope":14006,"ouver":14007,"Ġborough":14008,"Ġhumble":14009,"Ġtrigger":14010,"Ġsunset":14011,"ĠShaw":14012,"Ġvariables":14013,"ĠWeek":14014,"Ġdio":14015,"ĠMA":14016,"Ġformally":14017,"Ġ76":14018,"airies":14019,"ĠMuhammad":14020,"Jon":14021,"Slow":14022,"Ġsighed":14023,"ingham":14024,"ĠSud":14025,"ĠCold":14026,"Ġbacks":14027,"Ġquad":14028,"ĠYu":14029,"Ġcontents":14030,"Ġdrowned":14031,"Ġbankrupt":14032,"uing":14033,"ĠGard":14034,"ĠLud":14035,"cio":14036,"Ġglanced":14037,"Ġ96":14038,"Ġcompetitive":14039,"Cast":14040,"Ġbisc":14041,"arin":14042,"rived":14043,"ĠEmer":14044,"udding":14045,"avin":14046,"Ġnightmare":14047,"Ġequations":14048,"ĠCameron":14049,"Ġsyndrome":14050,"ĠStewart":14051,"east":14052,"ĠMall":14053,"ĠLily":14054,"ĠRoom":14055,"ipur":14056,"Ġflats":14057,"yeh":14058,"Thought":14059,"Ġoperates":14060,"Ġdiagram":14061,"Ġcyl":14062,"Ġruins":14063,"kerchief":14064,"ayer":14065,"Ġorn":14066,"Ġ54":14067,"oko":14068,"ĠShin":14069,"Ġknocking":14070,"Ġlaboratory":14071,"Ġeliminated":14072,"COME":14073,"DON":14074,"Law":14075,"ao":14076,"cor":14077,"tor":14078,"Ġpoured":14079,"riger":14080,"Ġcrystal":14081,"Ġpotato":14082,"ĠMonte":14083,"Ġprimitive":14084,"ĠMilitary":14085,"Ġessay":14086,"nell":14087,"pit":14088,"Ġsaint":14089,"things":14090,"agen":14091,"Ġambit":14092,"velope":14093,"ĠMarc":14094,"Ġ84":14095,"Ġsnakes":14096,"Ġmagnet":14097,"Ġthirsty":14098,"necessary":14099,"eties":14100,"story":14101,"ĠPerry":14102,"ĠLeeds":14103,"Ġexamination":14104,"Ġloyalty":14105,"Ay":14106,"Ohh":14107,"Ġlighting":14108,"Ġcorrectly":14109,"IFE":14110,"ĠUkrainian":14111,"ĠGranny":14112,"Ġpap":14113,"Ġniece":14114,"ĠCould":14115,"ĠMoses":14116,"ĠBou":14117,"third":14118,"ĠNash":14119,"Ġsheriff":14120,"ĠAlbum":14121,"Ġcompetitions":14122,"ODY":14123,"Ġwritings":14124,"Ġairline":14125,"ĠAuthority":14126,"hist":14127,"houses":14128,"Ġbats":14129,"Ġfran":14130,"Ġlob":14131,"season":14132,"Ġconvert":14133,"inky":14134,"Ġtwisted":14135,"Ġgrandpa":14136,"Ġtapes":14137,"inian":14138,"Ġchains":14139,"ĠMontana":14140,"Ġheavens":14141,"Ġchapel":14142,"ĠEverything":14143,"Ġfrost":14144,"ĠCommissioner":14145,"ĠNazis":14146,"Ġincreasingly":14147,"Ġsearched":14148,"Drop":14149,"WOMAN":14150,"ÃŁ":14151,"Ġaloud":14152,"ĠShad":14153,"Ġkidnapped":14154,"Ġvoyage":14155,"ebastian":14156,"came":14157,"heard":14158,"Ġrevers":14159,"Ġmanaging":14160,"ĠKirk":14161,"Ġclerk":14162,"Ġfinance":14163,"clude":14164,"Ġwarrior":14165,"------":14166,"Ġfreed":14167,"Ġcatal":14168,"Ġpriority":14169,"Ġsubstantial":14170,"dÃ©partement":14171,"gio":14172,"table":14173,"Ġdess":14174,"Ġtore":14175,"amo":14176,"ĠTherefore":14177,"ASS":14178,"Ġmasses":14179,"Ġceremon":14180,"Ġcoincidence":14181,"eries":14182,"erness":14183,"enton":14184,"ĠSophie":14185,"Ġintu":14186,"Ġ53":14187,"Ġ57":14188,"Ġemail":14189,"Ġ92":14190,"Ġdirectors":14191,"Ġdeparted":14192,"ĠVenus":14193,"Ġownership":14194,"ĠReagan":14195,"Eric":14196,"Jess":14197,"Ġpadd":14198,"oused":14199,"Ġeru":14200,"Ġfarms":14201,"Ġprett":14202,"Ġvertical":14203,"Ġsalad":14204,"smith":14205,"Ġdismissed":14206,"ĠVermont":14207,"MENT":14208,"Ref":14209,"inf":14210,"ĠABC":14211,"ĠGONNA":14212,"ĠFarm":14213,"sole":14214,"ĠStra":14215,"Ġwandering":14216,"81":14217,"Ġbob":14218,"eded":14219,"ĠMes":14220,"ĠHaut":14221,"Ġcartoon":14222,"Ġtoxic":14223,"ĠParalympics":14224,"Ver":14225,"nine":14226,"step":14227,"Ġjaw":14228,"Ġ-&":14229,"Ġpossibilities":14230,"Ġrecordings":14231,"fessional":14232,"Ġlogical":14233,"Ġsignificance":14234,"Ġelderly":14235,"Ġbargain":14236,"Gro":14237,"human":14238,"pow":14239,"ĠBoo":14240,"hart":14241,"Ġ67":14242,"eva":14243,"Ġlosses":14244,"Ġreminded":14245,"Ġvirtue":14246,"Ġfrankly":14247,"Ġbeetle":14248,"Ir":14249,"Ġwage":14250,"ĠAld":14251,"ĠMake":14252,"ĠMaha":14253,"plant":14254,"herent":14255,"Ġaltitude":14256,"Ġforbidden":14257,"ĠJoyce":14258,"Ġtelesc":14259,"Ġstubborn":14260,"800":14261,"February":14262,"Much":14263,"Tra":14264,"Ġtasks":14265,"Ġmall":14266,"ĠBU":14267,"ĠNumber":14268,"ĠEnt":14269,"uffs":14270,"oeing":14271,"Ġmessenger":14272,"ĠOrthodox":14273,"Ġtourist":14274,"hor":14275,"ĠHudson":14276,"Alice":14277,"Ġlayers":14278,"Johnny":14279,"Ġdeclare":14280,"Ġreminds":14281,"Ho":14282,"fold":14283,"mun":14284,"Ġloo":14285,"ĠPay":14286,"Ġcanal":14287,"guard":14288,"ĠDefense":14289,"ĠChampion":14290,"Kat":14291,"Ġware":14292,"ĠHem":14293,"upiter":14294,"Ġattending":14295,"Ġexposure":14296,"Ġcommunications":14297,"Ġspreading":14298,"Ġcollecting":14299,"Ġborrowed":14300,"otype":14301,"ĠIdaho":14302,"IRE":14303,"sis":14304,"hee":14305,"hero":14306,"Ġseldom":14307,"Ġjar":14308,"ĠFinal":14309,"Ġaggressive":14310,"Ġdefinite":14311,"atsu":14312,"ĠAmsterdam":14313,"Ġfarewell":14314,"Ġrely":14315,"Ġrevel":14316,"ims":14317,"ĠWoo":14318,"ĠBarcelona":14319,"ĠBasil":14320,"ĠDetective":14321,"ĠEvans":14322,"Ġfabric":14323,"Ġadjacent":14324,"coll":14325,"Ġgum":14326,"ĠManagement":14327,"Ġtraded":14328,"ĠLOOK":14329,"Ġabsorbed":14330,"ĠMunich":14331,"VEN":14332,"Wil":14333,"including":14334,"Ġsock":14335,"Ġsovere":14336,"Ġarguing":14337,"Ġflights":14338,"itionally":14339,"formed":14340,"ĠConfederate":14341,"Ġtrembling":14342,"icism":14343,"Ġlily":14344,"Ġrestore":14345,"Ġflee":14346,"Ġtexts":14347,"Ġdepartments":14348,"Mem":14349,"Nah":14350,"World":14351,"antine":14352,"acking":14353,"ĠKey":14354,"Ġpartial":14355,"Ġsubstitute":14356,"cycl":14357,"Ġstrongest":14358,"Ġdispute":14359,"ITTLE":14360,"ĠMovement":14361,"Ron":14362,"ĠCOME":14363,"ĠToy":14364,"ĠAustin":14365,"Ġworrying":14366,"Ġgown":14367,"ĠSaf":14368,"ĠBomb":14369,"ĠGw":14370,"ĠLaughing":14371,"Ġamendment":14372,"rency":14373,"Ġmeter":14374,"Ġtopics":14375,"Ġpathetic":14376,"Ġego":14377,"ĠPam":14378,"ĠFalls":14379,"izzy":14380,"Ġguilt":14381,"ĠChase":14382,"Ġforgetting":14383,"Ġinfluential":14384,"Ġpollution":14385,"Den":14386,"ogram":14387,"nox":14388,"Ġparks":14389,"million":14390,"82":14391,"Hand":14392,"oks":14393,"rors":14394,"Ġcann":14395,"ovich":14396,"Ġstrikes":14397,"Ġcivilian":14398,"Ġrobbed":14399,"ancouver":14400,"ekaboo":14401,"Ġinherited":14402,"Pick":14403,"family":14404,"hur":14405,"ipher":14406,"Ġfootage":14407,"Ġcorrid":14408,"ĠStudios":14409,"Ġgesture":14410,"erie":14411,"Ġbegging":14412,"Ġraining":14413,"ĠFried":14414,"Ġclan":14415,"Ġlocomot":14416,"Simon":14417,"ĠTurner":14418,"Night":14419,"effic":14420,"geons":14421,"ĠEvan":14422,"Ġhardware":14423,"ĠSprings":14424,"Ġcolleges":14425,"Ġdoorway":14426,"Ġinfer":14427,"unications":14428,"Ġexamined":14429,"ĠBernard":14430,"Ġdrafted":14431,"ĠDig":14432,"Ġleaning":14433,"Ġreduction":14434,"Ġirre":14435,"ĠOpera":14436,"Ġtires":14437,"ulk":14438,"Ġblocked":14439,"velt":14440,"Ġbuses":14441,"Ġcontinent":14442,"Ġpublicly":14443,"Ġpropag":14444,"ĠPeru":14445,"Ġsurround":14446,"Ġink":14447,"Ġheritage":14448,"Ġpopulations":14449,"Ġawfully":14450,"ISS":14451,"ĠJackie":14452,"WHO":14453,"Ġporch":14454,"Ġathletes":14455,"Ġpyram":14456,"Ġjurisd":14457,"Ġcancelled":14458,"gomery":14459,"folk":14460,"Ġcoup":14461,"Ġpony":14462,"ĠDear":14463,"iguel":14464,"Ġhelmet":14465,"Ġlightly":14466,"Drink":14467,"Ġdol":14468,"Ġrecre":14469,"Ġopenly":14470,"Ġtestimony":14471,"Ġsatisfy":14472,"Ġrevolutionary":14473,"ĠBowl":14474,"Ġperceived":14475,"ĠCosta":14476,"Ġoct":14477,"Ġbehold":14478,"ĠSS":14479,"ĠSac":14480,"ĠAges":14481,"Ġunsuccess":14482,"Ġrecycl":14483,"Ġmarvel":14484,"Ġquestioned":14485,"ĠNevada":14486,"Bull":14487,"Mine":14488,"Ġtha":14489,"Ġcups":14490,"esy":14491,"ixed":14492,"Ġretail":14493,"ĠJulian":14494,"original":14495,"Ġconsecutive":14496,"Gas":14497,"Hea":14498,"Ġlaund":14499,"ĠMerry":14500,"ĠHamm":14501,"ĠBright":14502,"Ġvine":14503,"anges":14504,"ĠEarly":14505,"Ġmeasuring":14506,"large":14507,
[...]
